#version: 0.2
Ġ t
Ġ .
h e
Ġ ?
o u
h a
y ou
r e
Ġ a
Ġ i
Ġ w
ha t
Ġ s
Ġt he
Ġ you
i n
Ġ d
o n
Ġ b
' s
a n
Ġ g
Ġ c
Ġ m
l l
o o
in g
Ġ p
Ġ l
a y
n o
Ġi t
e r
Ġt o
i t
i s
Ġ f
Ġd o
e t
Ġt hat
Ġ o
Ġt h
e s
he re
e a
Ġ on
Ġ h
o m
w hat
s e
k e
n d
Ġ ha
i g
v e
o r
' t
Ġg o
l e
Ġi s
i d
Ġi n
e e
o h
u t
h t
Ġ he
o w
Ġ r
Ġw e
c k
n a
k ay
ig ht
Ġa nd
a r
Ġ no
Ġw hat
oo k
s t
Ġyou r
t he
Ġth is
Ġ k
Ġ u
a t
a d
Ġw an
om e
o kay
l d
Ġo f
t hat
an d
y ea
Ġ !
Ġl i
yea h
Ġha ve
i r
ou t
' re
Ġm e
no w
Ġ n
Ġb a
Ġd on
i c
Ġthe re
Ġ e
Ġon e
a s
Ġb e
w e
v er
i e
Ġa re
Ġs ee
h o
Ġli ke
Ġs t
Ġc an
Ġ here
Ġwan t
Ġ re
in k
e n
Ġ j
i m
c h
oo d
it h
Ġf or
Ġg et
a l
Ġd id
a ll
it t
Ġp ut
Ġg on
Ġw ith
Ġk now
ou ld
d o
Ġr ight
Ġu p
u r
a ke
Ġgon na
t h
e d
a m
Ġth ink
' ll
Ġp l
w here
p p
Ġa t
Ġw as
u n
itt le
Ġno t
u st
u m
i ll
Ġs ome
the r
Ġl ittle
Ġthe y
Ġl ook
h m
Ġa n
u h
Ġa ll
t here
Ġ out
m y
r a
y es
Ġg ood
on e
l et
Ġb o
Ġs he
t er
h ow
o re
e ll
d y
Ġs ay
r y
Ġs o
r ight
a re
Ġa b
Ġdo es
in d
w n
' m
c an
r o
Ġthe m
Ġ ea
Ġgo ing
ha n
Ġm y
ver y
b y
c e
Ġpl ay
Ġgo t
Ġdo wn
u s
w ho
om my
w h
Ġt oo
l y
Ġj ust
Ġab out
we ll
ic e
Ġno w
o se
a u
Ġwan na
b e
n t
o t
l ook
m e
e p
i ck
Ġba ck
Ġo kay
Ġhe r
Ġl et
he n
i l
Ġb ig
Ġo ver
Ġc o
Ġh im
Ġt a
o p
ea r
t y
Ġdo ing
Ġh is
ou g
Ġm ommy
Ġea t
a ha
ad dy
id e
d id
u ck
Ġc ar
i ve
Ġb l
Ġi f
Ġm ake
g e
Ġ na
u re
Ġs a
Ġ y
Ġb ut
ee d
au se
ou nd
Ġba by
Ġs p
Ġb ook
all y
Ġf r
Ġm ore
Ġw h
Ġw here
Ġc l
b er
a in
m hm
Ġc ome
Ġt ake
c ause
d ay
th is
f f
Ġthe n
Ġof f
Ġo r
Ġh ow
c ome
h ing
Ġan y
Ġre ad
s he
w o
one y
q u
a h
Ġn e
Ġs h
Ġn eed
Ġd addy
Ġc h
Ġa l
om et
a p
wh y
Ġe l
the y
i es
Ġw hen
Ġw ho
a k
a st
Ġw ould
Ġt r
on g
han k
Ġ very
ou r
Ġp re
Ġb r
Ġha pp
s o
se e
Ġo ther
Ġth ing
it e
Ġw ill
n y
ur n
ou se
Ġb u
oo p
Ġs omet
Ġwe re
in e
m m
o s
an t
al k
Ġel se
u e
a b
g g
Ġha s
oug h
im e
Ġw at
Ġthe se
er s
w ay
c t
Ġth ose
Ġw or
u p
d on
Ġh uh
es s
Ġa r
oo m
Ġt ell
u l
ar t
re e
p e
r ow
Ġf l
Ġn ice
Ġba ll
al right
Ġsa id
Ġdid n
a ck
Ġw ay
Ġsomet hing
Ġm an
Ġc ould
o ck
Ġt wo
Ġm o
Ġb ir
g ood
m ber
b ut
Ġhapp en
Ġh oney
Ġt ime
h uh
Ġ yeah
Ġbo y
b le
oo r
is h
b o
e l
us h
Ġd r
Ġc om
me mber
um p
Ġa g
t o
Ġk ind
Ġb y
oo l
Ġa s
l p
t ing
ay be
Ġo h
Ġh ouse
Ġh o
Ġpre t
un ny
p ut
Ġc at
Ġp u
l or
Ġc ha
Ġgo es
Ġha d
Ġha nd
no ther
Ġa nother
i f
g et
Ġg ive
Ġs it
Ġt urn
Ġdoes n
Ġc all
Ġt ry
Ġag ain
' d
i x
t hank
Ġl o
am e
is s
Ġhe lp
s h
Ġb et
Ġco lor
he r
Ġg ir
a ur
Ġp ic
Ġs u
Ġs c
Ġre ally
Ġg re
Ġt ra
a it
Ġf ind
Ġg r
l i
Ġbo x
Ġg u
i ld
g o
Ġa way
Ġs ha
th ing
Ġ v
Ġf a
Ġna me
t ure
le ep
Ġb ear
i re
Ġgir l
Ġme an
ra w
s ide
Ġbe cause
Ġfr om
ic h
ad y
Ġc ook
or n
y s
Ġu s
ea se
e re
ur t
Ġpic ture
Ġsh ould
Ġm u
he y
Ġwat er
Ġt alk
is t
Ġc he
Ġto day
Ġbir d
Ġd i
ar k
oop s
be cause
Ġar ound
Ġs how
ir st
Ġb re
Ġpret ty
Ġwe nt
w ould
Ġbe d
Ġre member
l es
ee n
ut e
Ġu se
we et
do es
Ġp e
Ġp ie
Ġc r
ve n
p l
' ve
a ge
i p
an g
p en
ap er
Ġ qu
Ġthing s
Ġcha ir
ke d
Ġs w
Ġs leep
l f
v ing
i on
Ġsay s
Ġw on
Ġ yes
Ġwor k
en t
ch ool
Ġm in
Ġl e
a g
oug ht
Ġhappen ed
at e
ar d
Ġbet ter
Ġs ho
Ġl ot
Ġ ke
p h
Ġho ld
m o
d er
w ow
Ġd ay
j ust
Ġh ome
h i
Ġhe ad
Ġre d
Ġo pen
Ġn ight
Ġne w
Ġbl ue
o l
i le
oo t
Ġw r
Ġs e
nd er
s s
Ġis n
Ġs chool
Ġlook s
Ġr oom
Ġf irst
Ġwh y
Ġdo g
il k
ll o
Ġm ak
Ġs m
Ġpl ease
Ġha ir
bo dy
Ġ hat
Ġwe ll
Ġh or
w ant
Ġd raw
f ul
Ġmu ch
Ġs weet
Ġr o
am a
ee k
m aybe
Ġj u
Ġl ea
ea t
Ġb it
an na
Ġe very
Ġtr uck
ad e
Ġ our
Ġb at
Ġha r
a c
op le
oo h
Ġdo ll
Ġe n
Ġbre ak
Ġdon e
Ġw ait
ill y
Ġtra in
Ġs ure
Ġth ree
e et
u g
no t
Ġcall ed
Ġm ilk
Ġu nder
Ġk itt
Ġst or
Ġh m
ke y
w anna
as s
ow n
x t
u ff
Ġby e
es t
aur a
Ġpe ople
z z
out h
Ġj o
re ady
Ġf unny
he d
m a
v es
Ġm on
ou ch
c le
ell ow
Ġd uck
m ommy
w hen
Ġm at
Ġhe ar
you r
Ġread y
Ġm outh
Ġp aper
Ġta ble
Ġmin ute
t a
f ter
Ġin to
Ġman y
Ġw ear
Ġbr ing
Ġdr ink
Ġto p
u b
Ġf ix
Ġp ig
Ġju ice
Ġgre en
Ġs qu
t t
an k
Ġp ick
Ġp en
Ġt hank
n e
on s
Ġth row
Ġf all
ke n
Ġl ong
Ġlo ve
gg ie
Ġd in
Ġf in
Ġb ro
ir t
Ġm ight
s ay
Ġ z
ee l
Ġstor y
se lf
Ġm ade
Ġm aybe
Ġc le
Ġst ill
Ġhar d
im al
he llo
a ce
Ġp ro
Ġget ting
Ġh urt
Ġst ay
Ġwat ch
Ġc up
Ġd oor
Ġc are
Ġke ep
Ġm a
Ġlook ing
Ġb ea
i am
Ġno se
ou s
Ġan imal
Ġcle an
Ġthe ir
d addy
Ġd re
wh ich
Ġpie ce
y ep
m i
Ġsa w
orn ing
an ge
ar ah
Ġth ought
Ġst ick
Ġt ea
Ġe gg
Ġw alk
Ġf un
ie nd
Ġa m
Ġne xt
at ch
Ġg l
is e
Ġto ys
pp y
Ġm orning
Ġc ow
Ġf ish
d s
Ġta pe
Ġsu pp
b a
Ġbl ock
f ore
Ġs ing
Ġu h
Ġfr iend
Ġcom es
get her
Ġfl oor
Ġeat ing
Ġy ellow
the n
um my
Ġa fter
Ġo ld
un ch
Ġcook ie
Ġto gether
Ġb unny
Ġw he
c or
Ġplay ing
b l
at er
sh ould
o on
k es
t wo
s ha
Ġea r
Ġp ot
Ġm ic
u ally
Ġa pp
Ġs l
Ġp ush
li ke
Ġsweet ie
f t
Ġp art
Ġcl ose
Ġl ast
Ġpu ll
Ġst uff
Ġl aura
Ġs illy
r i
Ġb us
ph one
Ġkitt ie
Ġcom ing
os s
m ore
re d
by e
r ough
th day
Ġdi ff
Ġth ough
Ġe x
Ġmak ing
y ay
Ġf ood
Ġl ight
Ġf ing
as h
Ġbo tt
ho se
an e
Ġwant s
wh oops
Ġa d
Ġhand s
ar m
a ir
Ġfa ce
a w
Ġbe fore
Ġbir thday
Ġf eel
ur p
Ġc ut
t hose
Ġgre at
Ġf it
Ġth rough
u ll
Ġc ame
Ġu m
Ġdiff ere
Ġjo b
Ġt ree
Ġf oot
f or
st er
Ġs or
Ġbu ild
Ġa ir
Ġwh ile
k ing
Ġout side
Ġbat h
Ġba g
Ġal right
Ġst ore
Ġany thing
Ġc ou
Ġlea ve
t ell
Ġr ide
Ġe yes
im a
Ġk iss
y e
Ġf our
Ġb een
b r
Ġgon e
Ġf ell
Ġhor se
Ġt ire
re am
Ġp o
w ait
Ġj ump
t on
Ġbu y
es e
Ġgr and
Ġm ama
re w
Ġre cor
Ġy et
Ġst art
a ve
Ġs na
c l
Ġdiffere nt
Ġb oo
Ġdo ggie
Ġh ot
m an
ir ty
Ġe m
un g
ct or
Ġgot ta
Ġm ark
Ġin side
Ġs ide
Ġm ust
se d
Ġe ven
he ad
Ġr un
Ġch ild
Ġon ly
is ter
Ġco ld
Ġs k
Ġre al
Ġf ive
itt ing
Ġen ough
b it
Ġst and
f ast
s ome
Ġp et
Ġi d
who a
t s
Ġt ouch
re member
on d
Ġmo ve
os aur
Ġr oss
Ġb ad
Ġs now
Ġf ire
Ġor ange
Ġs ong
Ġlet ter
Ġmo ther
Ġe le
n ess
Ġwhe el
pp ed
ist en
b all
Ġb ar
Ġgu ess
Ġwr ite
Ġid ea
in s
e nd
Ġm oney
Ġd an
Ġm om
om an
b ab
Ġon es
Ġbut ter
v or
re n
Ġw ind
le x
c o
Ġsupp ose
Ġwill iam
Ġto m
Ġwh ite
Ġanimal s
oo f
t urn
g er
Ġsho es
im es
Ġp age
w atch
w ill
Ġl ater
Ġbreak fast
an a
ct ually
Ġgu y
s y
air s
Ġp ar
ie l
w ith
Ġfl ow
in a
mo st
ee p
Ġc ra
c he
Ġk id
g s
Ġf eet
on t
Ġa head
Ġh i
Ġc ho
Ġyour self
ff ee
Ġtry ing
ar y
g ot
Ġbe l
Ġapp le
Ġsh irt
Ġc ream
Ġl ady
Ġs and
sha ll
Ġt ick
Ġcr ay
id ing
ic ken
Ġf ound
ab oo
bab ly
Ġgood ness
c y
Ġs ound
s ure
Ġsay ing
Ġche ese
Ġna p
ie d
Ġcare ful
Ġr ock
Ġ er
Ġc ry
Ġc ir
Ġd e
Ġn um
Ġsw im
Ġf ro
w as
f r
Ġbook s
Ġt ook
ig h
Ġd a
Ġc am
Ġsuppose d
Ġblock s
Ġst r
Ġb ow
Ġhapp y
Ġse c
Ġad am
Ġe nd
Ġare n
ant s
it c
Ġtalk ing
Ġt han
i o
Ġs ame
c es
g ive
Ġco ffee
Ġto y
Ġf ly
Ġne ver
Ġb ite
Ġc han
Ġst op
p han
Ġcl o
Ġu n
ter day
Ġs itting
ha ve
re ally
Ġput ting
Ġro ll
Ġsor ry
Ġh ung
Ġwh ich
Ġr ab
ro phone
Ġal ready
Ġwho le
Ġch oo
Ġi ce
i a
Ġl unch
t ake
Ġpl ace
Ġrab bit
n er
Ġs arah
Ġm iss
Ġs et
Ġt e
Ġab e
Ġch icken
Ġno mi
Ġdin osaur
b b
l s
eek aboo
eet h
Ġm ouse
r oom
Ġg ame
Ġdr i
Ġas k
Ġp h
op e
Ġcook ies
s it
p ush
Ġevery thing
g re
l a
is hed
Ġst uck
Ġyour s
Ġe ver
d d
c ol
au g
Ġpro bably
Ġsp oon
Ġpret end
Ġna ima
Ġg ra
Ġyes terday
ck s
Ġa ctually
Ġar m
Ġmic rophone
c i
Ġg ave
Ġli ve
Ġtire d
Ġt eeth
Ġb ang
Ġcat ch
Ġp at
Ġr a
Ġbl ack
or row
ro ss
Ġr ing
Ġpu zz
Ġsm all
s c
Ġwas n
t han
at ion
Ġno ise
i pe
Ġha ving
Ġgo sh
Ġbo at
r s
Ġhung ry
Ġwas h
et han
Ġele phan
n ing
Ġwant ed
Ġfa vor
z e
Ġfin ish
Ġrecor der
ar s
p re
t ry
Ġr ain
ba by
Ġf o
Ġre st
Ġp op
Ġmak es
the se
way s
the s
pl ane
Ġfing er
Ġw eek
pp ing
ig er
Ġm ess
Ġle ft
Ġh it
Ġu nt
Ġli kes
Ġhor s
Ġp ol
Ġr ound
Ġmat ter
Ġc ake
urp le
Ġhappen s
Ġwr ong
Ġfin ished
Ġf ast
Ġpicture s
Ġcou nt
Ġbl ank
Ġal most
st airs
Ġd irty
at or
Ġclo thes
er a
un k
than iel
Ġwon der
Ġbl ow
Ġc ute
Ġnum ber
Ġt re
Ġw et
k in
Ġs ix
n g
Ġbr ush
Ġk no
Ġfavor ite
Ġta il
Ġta king
Ġdin ner
Ġph one
Ġwind ow
an o
Ġp ain
Ġsee n
g on
Ġs un
Ġneed s
l ing
o g
Ġpar ty
se nt
Ġbe ll
Ġbott le
col ate
m ing
Ġm ine
Ġp r
Ġbut ton
Ġlot s
an s
Ġd ro
Ġbr own
Ġmon key
Ġuse d
Ġdre ss
ose ph
Ġto ld
s how
Ġs n
Ġm ar
Ġba b
Ġgl ass
we l
is y
Ġpuzz le
h ind
Ġair plane
Ġsec ond
s k
Ġfr ont
Ġwor d
n ie
ea k
Ġn ina
Ġal ways
Ġg ar
Ġl isten
Ġa p
is n
Ġta st
Ġpre sent
Ġelephan t
Ġb an
Ġf arm
or t
Ġsl ide
Ġpie ces
m ama
im b
Ġunt il
nt y
y up
itc hen
b ig
s arah
ea l
a ch
e w
Ġto w
Ġp ants
Ġegg s
un t
Ġd ad
pp er
s p
Ġp ink
Ġget s
Ġgu ys
e x
Ġc a
st and
Ġbo th
Ġst re
Ġsleep ing
ock et
Ġm ay
Ġsome body
Ġ yea
Ġm us
Ġbe ing
Ġk itchen
i ous
in y
it her
Ġsc rew
Ġqu ack
c er
Ġtom orrow
Ġbab ies
th ree
pl ease
Ġh igh
Ġz oo
Ġgrand ma
ig g
Ġg row
Ġbro ken
Ġfriend s
Ġch r
Ġdi aper
d ing
Ġdo ctor
Ġen g
Ġho le
Ġsha ll
Ġe ye
um m
an y
m ake
ou n
Ġg i
Ġwear ing
d own
ho ld
Ġblank et
Ġli on
Ġbe hind
Ġbow l
om as
f l
Ġd is
Ġe ight
e very
Ġp ocket
Ġany more
ou p
p a
t ere
Ġb ump
Ġhave n
Ġkid s
Ġmean s
Ġa h
l ittle
Ġsp ill
Ġcra ck
le d
Ġcho colate
c are
Ġso on
Ġpu ppy
Ġse ven
Ġflow ers
s omet
Ġp urple
ea d
Ġchild ren
and y
Ġli ly
t e
Ġt en
Ġb i
Ġsho e
Ġl ear
Ġcam era
p eekaboo
Ġpet er
Ġcir cle
Ġ ethan
bo y
Ġcl imb
c il
p ack
Ġl oo
no pe
Ġbea ut
ci al
m as
p s
Ġr oman
Ġswim ming
Ġba sk
care ful
Ġfing ers
tere st
Ġmus ic
Ġbask et
Ġw ow
Ġha ng
Ġwe l
Ġal so
Ġto ast
id er
Ġst ar
he s
Ġd oo
Ġc orn
Ġsp e
Ġmo v
Ġtick le
Ġbea ch
Ġwel come
p t
Ġe ither
Ġsw ing
a lex
p er
Ġt on
Ġdoll y
Ġpol ice
Ġdr ive
a v
s sed
au l
id ge
Ġj en
Ġat e
op en
if ul
Ġchr ist
Ġs ad
Ġmo on
Ġte le
d le
at o
Ġbott om
i ly
Ġo wn
Ġm ag
Ġbre ad
Ġl a
Ġkind a
Ġna thaniel
Ġcray ons
Ġcar s
Ġwould n
g u
p es
Ġw all
Ġle g
Ġpen cil
Ġs eat
Ġstre et
Ġhe llo
Ġn ur
Ġa c
Ġy og
Ġj ack
Ġcry ing
f e
Ġp ark
Ġd ump
ers on
Ġsc are
Ġd ry
Ġin terest
Ġfro g
Ġne ck
Ġp ee
c ing
m on
Ġshe ep
Ġc ere
ou d
Ġp a
Ġmon ster
Ġsha ke
Ġchan ge
er t
l aura
Ġf ine
Ġcere al
Ġa lex
Ġk n
ant a
ano ther
r ies
Ġf eed
Ġche w
Ġeng ine
Ġlear n
c ked
Ġma il
Ġback pack
Ġsqu are
Ġwheel s
it y
ut es
Ġap art
Ġspe cial
g r
Ġc ool
b ble
Ġcolor s
in t
Ġear s
c ha
Ġb est
Ġr i
uck y
Ġmin utes
Ġpig g
Ġbeaut iful
Ġt iny
pre t
r ing
u gg
Ġa ha
c ould
u se
Ġsleep y
v is
Ġchrist mas
p le
Ġc on
Ġsp ell
Ġp erson
Ġp ump
or d
Ġbig ger
Ġcar ry
Ġsomet imes
Ġcould n
Ġhold ing
Ġbro ther
h is
Ġt v
Ġf ar
Ġin st
Ġsc r
o ver
Ġj oseph
Ġche ck
p et
c ar
b oo
Ġton ight
o ve
Ġp i
bl ue
s w
Ġw ood
an ut
Ġh iding
Ġwor ds
Ġex c
a ff
t en
Ġt urt
Ġo ink
we nty
Ġfor got
Ġw ee
ot or
Ġs ister
it ch
Ġsu ch
aug ht
Ġf ew
Ġmov ie
Ġm ir
h oney
ang le
Ġe ve
w oo
Ġcom b
Ġfa ther
Ġw arm
um b
pl ay
Ġmark y
Ġpain t
i et
Ġlo st
Ġp ill
Ġth omas
Ġgr ound
Ġkno ck
Ġban ana
e y
Ġo w
Ġbu g
Ġle gs
Ġdan ce
i an
ard s
Ġt all
p ull
ne w
Ġd ear
Ġp us
ak es
mm er
d oh
g ar
n ice
he e
Ġhors ie
Ġp er
id es
Ġas ked
f ly
Ġs al
s qu
Ġs ick
Ġcray on
Ġn ine
io let
er ry
Ġf ull
Ġst e
Ġbro ke
Ġpot ty
ou nt
Ġch ick
d dy
Ġw in
Ġea ch
Ġb oun
Ġcl own
l in
a pp
Ġt ummy
Ġsp ider
Ġv is
Ġd el
Ġevery body
will iam
gon na
d a
Ġyog urt
Ġso cks
Ġunder stand
bb les
t oo
ll ow
u it
Ġm ix
look s
t r
Ġyea r
i ff
Ġto es
Ġh ug
Ġhe ard
et s
Ġcar ro
ul a
Ġvis it
Ġm m
Ġa w
un e
ber ry
a ld
ad a
Ġtast e
Ġa unt
Ġh ope
Ġdre ssed
Ġsk y
che s
j am
Ġt w
Ġs oup
Ġpl ate
Ġm otor
Ġha lf
Ġpu pp
Ġwalk ing
Ġd ark
Ġflow er
Ġs at
Ġsha r
m ent
Ġl ap
Ġread ing
r or
ed dy
Ġpill ow
f our
ll a
un n
Ġna m
ou ble
th row
Ġbird s
c a
c her
Ġsp ot
Ġg e
Ġsna ke
Ġbel ong
Ġp our
and a
Ġsm ell
Ġtow er
Ġto wel
Ġgr ass
c r
na ima
Ġsand w
Ġsound s
Ġboy s
who se
Ġbr ought
Ġtele phone
Ġturt le
Ġst ra
am b
Ġsome where
Ġplay doh
ue la
Ġletter s
m s
Ġst ep
Ġqu ite
Ġwork ing
Ġw ipe
Ġs anta
Ġthink ing
Ġb oom
ve l
Ġloo ked
Ġb uck
Ġup stairs
ro ll
s ing
gre at
d e
ad am
Ġcl os
Ġh op
Ġy ummy
Ġpe anut
h un
Ġmir ror
Ġp an
or s
Ġco ver
in ce
Ġbu bbles
Ġrun ning
Ġstr ing
Ġc andy
Ġr iding
ic ious
Ġb ee
Ġh ide
Ġsupp er
Ġb out
ye h
z y
i er
it ing
Ġtr ue
est ion
Ġt ight
am p
Ġro ad
gre en
Ġsu gar
Ġinterest ing
Ġm oo
ne y
urp r
Ġw o
Ġno thing
Ġpump kin
f ish
Ġp in
ir d
Ġbe g
l isten
Ġha mmer
Ġt iger
Ġme l
ab le
iss a
Ġcou ple
Ġcl a
Ġqu iet
Ġbus y
Ġbar n
a be
Ġscare d
b ow
we re
ct ion
Ġd ra
b ook
t le
t ime
Ġc ause
Ġst raw
Ġdraw ing
Ġk ick
Ġcir c
pret ty
Ġn eat
ther ine
av y
ic y
i z
Ġs li
no mi
Ġli ves
are n
e ver
Ġs ea
ie ve
ap a
Ġtr i
Ġtre es
Ġpolice man
b re
Ġg ro
st op
Ġgrand pa
Ġha m
Ġw oof
Ġsandw ich
Ġme d
Ġqu estion
ag on
Ġcar d
Ġbr idge
Ġt eddy
th ink
Ġbuild ing
i k
Ġb oot
Ġsome one
Ġtr ip
ac he
Ġdri ver
l ie
Ġhe y
Ġhappen ing
Ġgi ving
s weet
or k
ar oo
Ġj am
Ġab le
Ġwork s
Ġm eat
Ġfall ing
Ġclose d
cl ose
ha el
Ġtoo th
ang aroo
b oom
m ark
t ons
Ġh u
Ġwatch ing
Ġball oon
Ġglass es
Ġt ub
Ġinst ead
b age
o y
Ġt wenty
ll y
Ġcha r
Ġtra ctor
Ġpro ble
Ġdan cing
re l
Ġhi pp
Ġf re
Ġma x
Ġra is
Ġb ought
id dle
Ġs urpr
il s
Ġtr ouble
Ġman uela
ex c
d r
Ġli l
as k
up er
Ġstra ight
Ġl ate
ren ch
cy cle
Ġli ving
Ġup side
Ġbi ke
b et
Ġp ea
Ġit s
Ġfor get
Ġso ft
Ġm r
Ġk ing
en ce
unn el
Ġc our
Ġbel ieve
an ce
Ġhe avy
al ie
fr iger
w ee
Ġp aul
Ġl oud
Ġf am
on k
Ġo at
Ġr u
ur ry
ber ries
p ty
Ġk new
Ġro b
friger ator
f ive
t ra
p ick
Ġy um
Ġdog s
Ġt unnel
Ġp ack
Ġl and
oh n
Ġhe e
Ġre ach
me ow
Ġgar age
Ġmed ic
Ġm ister
Ġv iolet
Ġday s
t een
is sed
Ġbut tons
b ack
Ġw ake
umm er
Ġb eep
a fter
Ġl aug
br ing
Ġge or
Ġr ub
Ġbell y
m oo
Ġb and
Ġtra ck
Ġbear s
Ġdro pped
Ġo li
Ġgirl s
Ġt ong
Ġon ce
Ġre frigerator
does n
Ġturn ed
Ġmiss ing
k itt
r oman
y ellow
Ġus ually
Ġcla us
c id
Ġu rs
Ġma ch
Ġl ine
Ġf ig
Ġknow s
the w
Ġsh ut
Ġsha re
Ġstand ing
Ġy ay
Ġy ep
Ġal one
Ġtr ick
ct ly
l ea
Ġwith out
Ġc ur
Ġr an
m ic
Ġb ra
st ick
Ġea sy
Ġany way
Ġag o
Ġl amb
Ġplay ed
Ġbird ie
Ġfly ing
Ġarm s
on es
Ġfl o
Ġbat ter
Ġd ing
as er
Ġmedic ine
Ġurs ula
in es
Ġm ad
Ġlo ves
Ġi m
ke ep
Ġqu ick
o ink
Ġh ill
Ġn ut
li ly
Ġtong ue
Ġd es
ic a
if e
Ġdre am
somet hing
Ġt er
ch oo
Ġdown stairs
Ġfo x
Ġhe art
Ġdrink ing
Ġdel icious
Ġw oo
Ġbo b
e ve
m ay
n ight
s et
w ards
Ġp oor
Ġal ong
Ġv ac
Ġsor t
Ġfig ure
on y
Ġcl ass
i ze
it al
um ble
Ġstick y
g an
Ġs ummer
Ġc ouch
ho e
Ġdri ving
a se
h y
Ġco at
Ġdoll ars
Ġgar bage
Ġwait ing
aff e
l er
Ġt ie
Ġc aught
Ġre g
Ġda isy
Ġproble m
Ġm iddle
thank s
Ġem pty
p oor
ch ild
ur key
Ġkind s
ent le
b ur
m eal
Ġw igg
gg y
Ġlea ves
Ġtea cher
e m
f in
Ġsna ck
pet er
Ġe d
Ġtell ing
c hed
Ġk angaroo
bo x
Ġcrack er
o ons
Ġs am
Ġbe ans
Ġas leep
br ush
Ġme et
Ġball s
somet imes
icy cle
i b
Ġtri angle
Ġfam ily
c om
u d
Ġboun ce
h um
Ġs uper
Ġl ad
Ġfix ed
Ġmotor cycle
m om
Ġcl ock
jam as
d uck
Ġp ast
Ġdon key
Ġsha pe
e h
Ġh os
en s
p u
ell y
wh oop
Ġcar ri
Ġw ha
Ġg oo
Ġturn ing
some body
Ġr ice
Ġfor k
Ġsing ing
Ġbutter fly
b ug
he lp
Ġd ough
Ġm ind
Ġp ool
Ġp ooh
Ġp eekaboo
ha r
Ġp ay
ke ys
ow er
Ġn ear
p at
p op
Ġf ight
Ġsp l
Ġmom ma
Ġr at
Ġr ug
Ġst airs
Ġsc ary
zz y
v id
ig n
or ange
Ġbe n
Ġtruck s
at es
il ing
ull y
Ġw a
Ġpl ane
did n
r on
Ġt y
Ġw al
no thing
Ġth irty
Ġsh ort
Ġbu gs
Ġpot ato
sweet ie
Ġgo ld
Ġbo dy
s ix
Ġs ally
Ġso ap
Ġc ap
se um
Ġso ck
Ġmu seum
Ġhors es
Ġmach ine
Ġc raw
at ing
Ġco st
Ġwr iting
Ġdinosaur s
Ġhos p
c ook
re ad
Ġgo d
pp ers
Ġany body
Ġv o
Ġchair s
cl ock
Ġhosp ital
Ġw agon
ig ator
Ġpl an
Ġstart ed
Ġca therine
ha ppy
ra id
Ġta kes
ent s
Ġow l
u nder
Ġs au
Ġp apa
fr om
Ġw ra
Ġg as
Ġr oo
ip s
ag es
Ġpa jamas
f raid
j ump
Ġm issed
Ġan g
Ġcl ap
Ġrecor d
Ġpigg y
lea ve
Ġfr uit
Ġnur se
tr uck
Ġ ve
Ġea s
Ġear ly
Ġun cle
Ġboot s
Ġse es
Ġkitt y
Ġduck s
a ctly
Ġhim self
Ġhurt s
Ġrock s
Ġsp ace
Ġfit s
Ġh ook
al a
Ġwas hing
ast ic
irst y
Ġjump ing
Ġst o
Ġgir affe
Ġsm art
Ġnap kin
p eek
Ġa fraid
Ġs le
ea th
Ġgo at
Ġhe l
Ġba se
ood le
Ġus ing
Ġthank s
f irst
Ġf ree
Ġchan g
Ġt imes
Ġs ent
Ġm ummy
Ġp oo
Ġf if
Ġpre ss
Ġpet e
c ess
r ic
y ummy
Ġsqu eak
Ġta p
Ġcorn er
app le
Ġsp in
o f
p ort
ea ther
mo ther
Ġtea ch
Ġth rew
ce pt
Ġpu dd
Ġmat ch
Ġgl ad
ee ze
Ġk alie
Ġj une
Ġj ohn
me l
Ġy er
zz a
Ġcour se
Ġh orn
at ed
ne xt
Ġstr ong
Ġdro p
ind a
Ġel mo
mo ve
Ġpen ny
Ġoat meal
Ġcarri age
d ad
f ully
Ġt iss
ak ing
Ġbu ddy
ount ain
Ġl y
Ġfl at
Ġsu it
b u
Ġg ard
Ġli e
Ġdra gon
a le
Ġd ee
Ġn ana
qu ack
Ġsqu ir
Ġt u
Ġall igator
Ġjen ny
Ġbuck et
l and
Ġto wn
Ġf ore
Ġli br
Ġy ork
Ġpic ked
c at
Ġc ont
wh ile
Ġtoo t
Ġmo ving
Ġl ay
er y
Ġh our
id ay
Ġpre s
Ġfoot ball
l ight
Ġpig s
Ġapp les
Ġmag ic
e le
t ick
Ġk at
as on
Ġcirc us
Ġs ince
Ġd irt
Ġc al
Ġwere n
Ġmo st
w hee
or ry
wel ve
Ġth irsty
ap ers
Ġnam es
ing s
Ġcup s
Ġrain ing
it ed
Ġme n
Ġt urkey
Ġp ad
Ġh um
don ald
to day
Ġcarro ts
Ġgard en
a z
Ġs im
Ġscr atch
llow een
Ġm ac
Ġrais ins
Ġang ry
m at
Ġgr am
Ġcook ing
Ġevery where
Ġmat thew
j u
j oseph
w alk
Ġm hm
Ġf ence
iss ors
Ġp ipe
Ġdad a
Ġlibr ary
nd ay
Ġdr um
Ġt ear
Ġba a
ter s
Ġcl ip
Ġshow er
Ġm ountain
Ġl ose
Ġer ic
r r
v ia
Ġback wards
Ġcar ds
Ġsho pping
Ġtrain s
Ġmat ty
Ġda vid
t ie
w oof
Ġ x
Ġp ony
Ġfa ir
Ġyea rs
Ġpi zza
l o
n ce
s u
Ġha lloween
Ġbo ard
Ġke y
Ġpupp et
al most
go ing
Ġlad der
Ġp oop
Ġth umb
Ġr oof
Ġac ross
Ġgro cer
b ar
i ke
s a
Ġw ish
Ġto e
Ġan n
Ġwor ld
c ho
n if
y an
Ġb unch
Ġc u
Ġm erry
a ctually
s orry
he art
Ġg um
Ġf ill
l ot
n ic
n eath
r ied
in et
na thaniel
r ick
om er
ang er
sha ke
Ġlight s
Ġmel issa
b bit
ink y
ri ble
Ġbath room
e ight
Ġfr aser
Ġsha pes
mi ly
Ġtom ato
Ġfo ld
Ġrob in
c up
Ġi nd
Ġch ug
Ġmic hael
Ġsl ow
Ġjump ed
Ġcarro t
m ilk
p o
Ġo il
Ġsp r
Ġnur s
Ġhipp o
exc use
Ġr yan
Ġn est
Ġj elly
Ġcat s
Ġpresent s
kitt ie
Ġvo ice
Ġs ign
ee z
s m
t om
Ġ ooh
Ġs ink
oop y
Ġsc issors
ba a
Ġrock ing
Ġpus hing
Ġclos et
c ake
w een
ll e
es day
Ġnumber s
Ġfarm er
Ġkn ife
v room
Ġs mo
do ggie
Ġcr ied
Ġmon th
Ġmic key
Ġbelong s
Ġa id
Ġm rs
Ġlike d
Ġjack et
har d
d ri
f ind
ell ent
ind ere
Ġstick er
y um
Ġr os
ur s
Ġex actly
Ġca se
Ġpigg ie
Ġtiss ue
b ang
Ġs er
Ġd ar
se ven
Ġhe n
Ġtr unk
Ġer nie
Ġkno cked
Ġshar k
p ro
he tt
Ġoff ice
Ġtr ied
ul ar
ac es
Ġgl ue
Ġer in
every body
Ġeas ier
Ġc and
Ġp ear
Ġea ster
ag hett
Ġclean ing
Ġgra b
Ġac cid
indere lla
Ġpl ant
Ġeat s
Ġy ell
Ġbar re
Ġpat sy
j o
no r
Ġh oo
Ġsee ds
Ġkn ee
gr and
k now
Ġo ce
ink le
Ġwh ist
Ġpo int
b ra
Ġst ove
Ġat t
Ġcow boy
dr ink
Ġsau ce
aghett i
g ra
Ġd um
Ġg am
ke nd
Ġmy self
Ġsa ve
Ġbr us
Ġv room
Ġke ys
Ġafter no
Ġbeg in
g ie
Ġm et
nd red
ur day
ro t
Ġch in
Ġshould n
Ġdraw er
Ġsqu ish
hun h
c ow
w ater
z er
ha m
Ġc ash
Ġme ow
Ġn on
itt er
Ġany where
Ġam anda
Ġwee kend
Ġgeor ge
is ed
is hing
Ġcom p
Ġho les
Ġnam ed
Ġw oman
Ġr uff
Ġst ation
Ġre ason
al s
row n
Ġfeel ing
pre ss
Ġchar lie
nif er
Ġafterno on
Ġg entle
Ġli ft
Ġj ill
Ġtoo ls
Ġsu itc
Ġsu nday
Ġunder neath
Ġaunt ie
Ġflo ppy
on ly
Ġh on
Ġno r
Ġgr an
Ġpain ting
Ġve get
j e
Ġp or
oor ay
Ġsc ar
Ġring s
Ġdis hes
cha ir
Ġhu ndred
Ġoce an
b s
Ġ es
Ġg or
Ġshe ll
ub b
Ġstick ers
Ġwhe at
b ird
n ine
Ġt ig
Ġw itch
Ġf rench
Ġy ucky
Ġlo is
Ġpic nic
Ġb icycle
Ġc ro
Ġm ary
Ġthrow ing
Ġra ther
Ġl u
ge l
sh h
Ġcr ib
ank lin
Ġhang ing
mark y
Ġsto pped
z en
ha ha
Ġm ap
ill a
el s
Ġcra zy
Ġroll ing
Ġpres chool
t u
t ap
Ġn ic
ur se
Ġan sw
Ġsm ile
Ġevery one
Ġum bre
Ġri ver
Ġstraw berry
Ġreg ister
f eel
Ġon to
Ġaccid ent
y a
an as
Ġr ache
st ers
Ġwh oops
Ġstor ies
Ġpr in
Ġsurpr ise
Ġrache l
d in
i pper
o ther
p ot
Ġg a
Ġc ity
Ġl au
ea ter
st ay
Ġduck ie
Ġfo llow
p ill
Ġp ages
st r
Ġwho se
Ġmess y
Ġfre sh
c akes
i os
ra ct
cle an
Ġwha le
Ġroo ster
Ġcall ing
Ġsweet heart
Ġsk in
Ġgra pes
Ġwin ter
p urple
s ally
Ġr ad
Ġk o
bl ow
Ġpretend ing
Ġsat urday
cook ie
Ġst ate
Ġtr ay
Ġtra cks
Ġsho vel
Ġgra pe
c on
p ink
t able
w on
Ġm ush
Ġp eep
Ġsee m
but ter
Ġkeep s
b ump
m iss
z o
Ġ oops
Ġt welve
itt any
Ġwh is
f a
o ld
an cy
le w
Ġr ope
Ġdon ald
Ġe xt
do g
Ġsp aghetti
Ġwor ry
aw oh
hun hunh
Ġoli via
hoe be
Ġansw er
i ble
l ess
o ff
on i
Ġb es
all ow
ild a
j i
Ġr ac
Ġy ard
if ic
Ġsw itch
Ġdoll ar
Ġele ven
Ġumbre lla
m ine
s ho
s leep
Ġw ild
Ġme gan
Ġba l
Ġst ool
Ġwho a
ast e
Ġpudd le
d raw
Ġt weet
Ġb orn
Ġc ross
ing er
Ġp ile
Ġf ur
ad ah
Ġst ars
Ġcl iff
Ġpo in
Ġed ge
b unny
c orn
g a
h in
o c
ha s
at os
as hed
Ġfall s
Ġstick s
f ro
Ġb right
Ġc ast
Ġc inderella
Ġp eek
is es
Ġtr ash
Ġsm oo
Ġpen gu
Ġbea ds
Ġweek s
ert ain
t alk
Ġd ig
Ġg un
Ġm ice
Ġr ow
Ġfeel s
Ġgoo se
Ġlau nd
p ar
Ġs ir
Ġs ize
Ġc e
Ġh urry
Ġme ant
Ġfix ing
Ġex pl
Ġjen nifer
Ġw ire
Ġb urn
no body
Ġf u
th y
il t
Ġfr iday
mm a
Ġspill ed
Ġsquir rel
e ven
re t
Ġa in
Ġc ertain
Ġr ides
th ur
Ġbo l
Ġar iel
if t
Ġhelp ing
Ġmu ff
Ġcam p
dd en
Ġri bb
c han
Ġc ord
Ġsc ream
Ġsn oopy
gu ess
i v
m r
s now
Ġli fe
Ġthink s
Ġhand le
Ġcr ash
Ġmon keys
Ġvac ation
Ġgam es
Ġc ents
Ġp urse
it ar
Ġwhat ever
Ġbo ther
Ġsh ip
gg ies
Ġwor m
Ġmu d
Ġcow s
Ġpull ing
osaur us
Ġwonder ful
Ġbi b
Ġprin cess
k ins
w he
Ġs y
Ġm ea
Ġli ck
th omas
Ġbet ween
Ġtra vis
Ġche er
ent ly
Ġopen ed
Ġsal t
Ġshar p
Ġbatter y
lot s
g l
i um
Ġd anger
Ġb one
Ġche st
Ġmar ie
Ġlisten ing
Ġgrow ing
Ġcarry ing
Ġpi ano
tick le
c ut
e k
ur ing
be fore
Ġsa fe
Ġsp ank
Ġas king
Ġqu een
Ġlady bug
Ġlaund ry
Ġd ish
Ġju dy
Ġcut ting
iff y
Ġrat tle
dri ver
Ġc ous
Ġl ucky
or y
Ġbu ll
bo ard
Ġbel t
Ġrain bow
Ġban anas
Ġsurpr ised
Ġter rible
pro bably
in ing
Ġm am
Ġf el
Ġha w
Ġcolor ing
Ġhat s
Ġpot tie
pu ppy
Ġwhist le
Ġs ell
Ġli z
um ber
Ġgood bye
Ġke nt
Ġstart s
Ġmag az
Ġrub ber
Ġdes k
Ġly ing
k iss
u um
Ġw een
Ġb ert
er g
Ġh ur
st on
Ġexc ited
Ġru by
Ġspl ash
Ġb ill
Ġm iffy
Ġr id
Ġno isy
Ġturn s
Ġgu itar
Ġqu ar
ugg a
Ġding o
Ġchang ed
c atch
Ġb ur
Ġc re
ve nt
ho t
Ġpl astic
Ġball oons
Ġsqu irt
Ġcrack ers
h ouse
Ġl id
Ġf eather
Ġba m
Ġtoo l
Ġcr omer
Ġtre vor
Ġben ch
b ear
t re
w r
Ġbl ess
ere d
Ġbed s
Ġle mon
Ġlea f
sc rew
i pped
m ar
Ġg ate
Ġl inda
ie ld
Ġv an
Ġdi apers
every thing
Ġspell s
roll er
ale nt
c ra
p ha
Ġc ough
es ame
Ġsh oot
Ġkitt en
Ġsna p
mic hael
Ġsuitc ase
r um
ic op
Ġj ess
ro ld
Ġbu bble
ul k
go d
Ġlong er
Ġsong s
Ġcho ke
bet ter
Ġlaug h
b an
k a
w ha
Ġm c
Ġno body
Ġcl ay
ab out
ab les
ock s
Ġpick ing
Ġcirc les
n ut
s illy
Ġre m
Ġsweet s
tt e
bb ie
vis ion
Ġaw ful
Ġham bur
Ġwal ked
Ġbegin ning
Ġween er
k er
Ġj e
Ġan t
ag ain
Ġz e
Ġstick ing
Ġpop s
Ġty pe
Ġko ala
c ed
d i
l k
p ig
Ġc ab
Ġp le
are nt
ro ck
Ġbr oom
Ġsw eater
Ġse nd
Ġdre w
Ġrecor ding
Ġcraw l
l ove
n eed
o d
s l
u es
ho st
Ġst om
Ġsw ish
Ġpot atos
Ġchicken s
Ġper cy
Ġgro ver
Ġnut s
g i
Ġ ee
Ġh ulk
ie nt
Ġshe lf
ite ly
Ġcr unch
ous es
Ġblow ing
Ġneck l
Ġwo ke
Ġsli pper
Ġcast le
Ġmagaz ine
icop ter
Ġple nty
b eep
i let
Ġb oop
Ġm ist
Ġco l
os h
Ġv alent
Ġkiss es
any thing
Ġdis app
Ġpocket book
Ġleg os
Ġbatter ies
Ġsmoo th
c ount
Ġb ark
Ġp ow
Ġp ract
Ġl ar
urt ain
Ġche ek
pl ace
Ġsn eak
Ġpan cakes
Ġvac uum
d irty
h urry
z ing
Ġbr an
ess ert
Ġsho p
ol a
Ġpig let
Ġwra p
Ġbase ball
ig i
ie f
ch ing
ound s
Ġlea st
Ġdoll s
Ġpull ed
co d
Ġsec ret
Ġlaug hing
Ġcliff ord
j une
m er
s na
t ain
w ah
Ġl ist
it es
Ġe h
Ġsee ms
Ġwas hed
Ġgr oup
Ġlove ly
fin itely
Ġfore st
Ġext ra
Ġribb on
b at
c ool
m p
n ies
t wenty
Ġm all
Ġp eel
Ġo ct
ar oni
Ġbe an
Ġst ir
Ġor der
Ġch im
ul ance
Ġpe pper
Ġcr ank
sc ar
Ġclimb ing
l ves
n is
w ard
Ġt al
Ġd eal
Ġp anda
Ġl ow
Ġo ven
Ġke pt
ma x
Ġsees aw
Ġnon na
d ada
t ea
ha nd
Ġc her
Ġm ill
Ġm ike
Ġp ri
Ġto ilet
Ġsp it
el mo
go es
fe ct
cr ash
Ġwo lf
Ġwigg le
c all
c co
d ow
Ġd ead
Ġm itt
Ġput s
Ġher self
Ġsp ring
Ġar t
Ġshow ing
for table
Ġtast es
Ġtele vision
Ġsal ad
k y
n ina
p aul
Ġw ave
ver s
Ġna t
Ġbring ing
Ġma isy
Ġscrew driver
Ġtooth brush
exc ellent
r il
Ġb eat
Ġdo t
Ġblue berries
Ġma ggie
bl ack
Ġad d
Ġde c
Ġinterest ed
Ġmonth s
Ġneckl ace
m u
m ister
Ġl ou
Ġr ace
Ġhas n
good bye
bo at
uff y
Ġstay ed
Ġam b
Ġcam el
Ġhel icopter
mel issa
Ġkat ie
Ġsmo ke
Ġjess ica
d oo
f ire
j ack
r ific
t illy
Ġt ill
ha ps
Ġw ide
Ġs esame
Ġd essert
Ġb ank
Ġto ad
Ġe mma
as p
Ġcha lk
Ġle go
Ġloo se
Ġlearn ed
pill ar
cod ile
b oun
f u
h ooray
le y
Ġbe nd
han g
Ġbox es
Ġold er
oof y
Ġelephan ts
tu ce
Ġdanger ous
g ir
m ies
Ġt ee
Ġa ct
Ġst roller
Ġcat er
ion s
Ġstay s
co lor
Ġwindow s
Ġveget ables
c am
Ġg er
Ġg host
Ġc ub
Ġh ilda
Ġr hy
ck y
ur ch
Ġcl ear
Ġne igh
Ġfa ct
ac hed
ass es
Ġmove d
cco li
n n
v iolet
Ġw rench
Ġr ough
Ġso ph
Ġbu zz
Ġsqu eeze
Ġear th
Ġex cept
Ġbar rel
Ġd u
Ġd eep
Ġd oodle
an ny
Ġp hoebe
at ure
ad ad
Ġy up
Ġbat ht
Ġbag s
Ġrun s
Ġrest aur
ding ton
fl ies
Ġchew ing
Ġhu ge
grand ma
i ppy
l ast
m in
w ipe
Ġa is
Ġb ones
Ġre ct
ch icken
Ġsh h
Ġpart s
Ġgi ant
Ġyou ng
on ce
Ġm er
Ġgo bble
Ġsp eak
Ġshow ed
Ġblank ie
Ġgrow n
Ġsli ppers
a a
d el
i pp
Ġ '
Ġt ough
Ġw ings
er ing
Ġst ack
wh ite
Ġsa il
Ġany one
Ġch ips
Ġsw allow
che w
Ġfro gs
e gg
t ed
w ash
Ġc urtain
oo ked
ore d
Ġdoor s
Ġbasket ball
Ġcost um
y uck
Ġthe o
Ġp al
et y
Ġr ic
Ġba h
Ġal pha
Ġhelp ed
Ġv ill
Ġsho t
Ġset h
Ġpuzz les
Ġrad io
Ġfel t
d n
k no
Ġto r
ig her
Ġu nd
Ġco lle
Ġch ip
Ġch ugga
irt een
Ġde finitely
Ġcount ry
Ġtre at
Ġmag n
Ġstep s
Ġrais in
Ġcont ain
dden ly
b ea
f oot
t adah
Ġw aff
ea red
Ġh ouses
Ġr ack
ic le
im my
Ġup set
Ġbo ston
op us
Ġy a
Ġclean er
Ġsmall er
Ġpupp ies
Ġmac aroni
Ġamb ulance
dn esday
b ir
b ot
b les
r up
an et
Ġth ird
ve red
ome nt
ch r
uck le
Ġar thur
Ġfl ap
Ġsc oop
Ġreg ular
cho colate
Ġros ie
Ġtal ked
Ġsoph ie
Ġbatht ub
Ġrestaur ant
j en
re al
Ġin v
Ġst one
Ġcl ick
Ġmon day
Ġz ip
Ġz ipper
Ġstr ange
Ġfast er
Ġjam es
Ġgeor gie
Ġr ake
Ġj ar
Ġcha se
Ġlo ad
Ġdoll ie
Ġgl o
Ġpat ty
Ġfif ty
Ġmush room
f ix
i ol
Ġd ire
Ġc one
Ġha n
ht y
Ġr ip
Ġpl aces
Ġplay er
pe ople
Ġfl a
ug hty
bl ess
Ġkiss ing
Ġstr ip
Ġscr ub
lin n
Ġpea s
tra vis
Ġze bra
Ġmist ake
s n
y m
Ġw ip
Ġd ut
Ġd ent
er ic
it ure
is a
Ġha ll
Ġel bow
ast er
urn iture
ding o
fl o
Ġexc use
Ġpus hed
Ġaw ake
Ġpeanut s
tap e
Ġvalent ine
b us
l ater
p ed
r un
he h
Ġb umble
Ġk aren
ad i
Ġnice ly
Ġcom put
iz ed
cid ed
Ġbaa ee
Ġquar ter
Ġmc donald
m ed
Ġ oo
Ġs us
Ġc row
Ġk ill
as hing
Ġpl ants
pp ie
ber t
Ġtake n
Ġfl ip
Ġsit s
ile d
Ġwhe ther
Ġtouch ing
Ġexc iting
Ġbeg ins
sa id
sho es
Ġcater pillar
b ee
b ro
b oop
g est
g entle
p apa
Ġb illy
Ġg igi
is c
Ġf urniture
Ġha rold
or ts
and ra
en se
Ġbu ilt
Ġcom fortable
Ġbear d
Ġjo e
ca therine
je ct
Ġcro codile
Ġpengu in
b rown
g uh
i ver
l as
Ġc age
Ġm oment
et ch
id s
Ġus es
ang led
Ġhar ry
Ġcra b
Ġstre t
pret end
Ġquick ly
c al
ic ul
Ġj illy
ro te
Ġpret z
Ġlo ll
aur ie
whoops ie
Ġpo le
Ġfro zen
Ġclo th
fl ower
Ġclimb ed
Ġstraw berries
Ġce iling
c cer
h ors
u ction
Ġa v
Ġw rote
Ġl in
Ġth ro
id dy
id ers
il es
ies t
Ġtell s
ip er
Ġbro ccoli
aw s
cl o
Ġfire man
Ġde cided
Ġte x
ex cept
Ġcertain ly
iol in
p y
Ġto dd
Ġdo ggies
ar a
Ġcan not
ce let
Ġbr ittany
ul u
Ġopen s
Ġkitt ies
Ġjo ke
Ġcut ie
port ant
Ġalpha bet
b or
m et
w a
Ġw re
Ġb ush
Ġc ave
Ġp arent
Ġf ishing
Ġh itting
Ġis land
Ġfor th
ur f
Ġso ld
Ġfr anklin
Ġch urch
Ġcall s
Ġopen ing
Ġpen nies
squ eak
Ġclos er
Ġpast a
Ġgrocer y
Ġgrocer ies
tom orrow
Ġrem ind
Ġcrank y
a unt
c oon
o li
p igg
Ġt ank
Ġl ess
no se
Ġto t
Ġo p
Ġwe dnesday
Ġk ite
Ġst ea
Ġsh out
Ġair port
some one
Ġchoo se
ca se
urs day
Ġbarre tte
din osaur
Ġcomput er
g es
s ounds
Ġ oop
Ġs il
oo sh
Ġl ines
Ġh igher
Ġsc oo
Ġle an
Ġjump s
Ġgi ves
Ġpa il
Ġim portant
ju ice
Ġdar ling
Ġgran ola
Ġhur ting
Ġrect angle
b i
d oor
i zz
j oy
w ear
Ġ ought
Ġt ent
Ġs ep
Ġs ides
in ation
it s
Ġba gel
do zer
ter n
Ġlet tuce
so l
Ġpu ff
Ġagain st
Ġfro st
squ ish
bre ad
Ġbes ides
Ġcous in
Ġthro at
c ir
o at
r ub
Ġp as
Ġp air
Ġo scar
Ġh umm
st ill
Ġn inet
pp os
ust r
Ġplay s
Ġneed ed
ump ty
Ġmon sters
Ġpro te
Ġtast y
Ġfeed ing
Ġpupp ets
hin o
Ġmea sure
b ell
f all
Ġi ron
Ġw ar
Ġc or
Ġp oss
Ġeat en
Ġcr umb
Ġmust ache
Ġsand box
Ġmix ed
Ġtw inkle
Ġbra celet
Ġchim ney
Ġric hard
b ad
Ġs ue
Ġli p
Ġbe es
ra bbit
Ġcar t
Ġsp oons
if orn
Ġlo b
Ġsha dow
Ġsm iling
Ġbit es
Ġkitt ens
your s
Ġsna kes
Ġpr ince
fl ow
Ġfif teen
ele phan
Ġfu zzy
Ġcheer ios
kno ck
Ġdent ist
iforn ia
g ee
he he
on ge
Ġp ond
Ġand rew
Ġu g
dy a
Ġsa le
Ġpick le
Ġz oom
Ġcare fully
Ġdan ny
che ese
Ġbell s
Ġten nis
cr ay
mark et
Ġrob ot
Ġpoin ting
Ġmuff in
ban ana
Ġcontain er
c ock
m en
p ants
Ġs uck
Ġf red
se y
st art
ic ked
en cer
Ġab c
Ġco vered
Ġsp encer
Ġsw eep
ol k
Ġwear s
gr am
stick y
Ġbrus hing
Ġbol t
Ġdec ide
Ġvill age
h or
k alie
r ay
r ound
Ġg ab
Ġm ain
un cle
op h
Ġna il
Ġwat ched
Ġar r
Ġdi am
Ġbit ing
ci ous
Ġlive d
igg le
Ġbra ve
Ġcu be
Ġcand le
c les
k o
w ise
Ġt ip
Ġg ym
Ġp unch
Ġno pe
Ġe mily
Ġfor ty
ick y
co ffee
Ġpat rick
Ġpop corn
ugg le
Ġbrother s
Ġoli ver
Ġnurs ery
Ġhen ry
Ġhambur ger
Ġoct opus
Ġya wn
v an
Ġa while
Ġs on
Ġs eal
Ġc ot
Ġl ake
Ġf an
ea s
se lves
all ey
ell o
Ġsp iders
Ġfl ies
Ġdi zzy
Ġro ar
Ġfriend ly
Ġmark et
Ġshirt s
Ġer ase
Ġpol ar
nor t
Ġstom ach
gi ving
mp oo
b ed
j a
m ust
Ġs unny
Ġd ie
it er
et er
Ġha y
le en
Ġk it
Ġst ew
Ġup on
Ġpl ug
Ġan ts
Ġco co
bo b
pl an
ip op
ne ver
Ġdiffere nce
Ġbuy ing
cl imb
got ta
Ġde cor
Ġdri ves
dd ing
ugg ing
Ġinst rum
Ġwood s
Ġgram ma
Ġglo ves
flo ppy
flow ers
e mily
f if
j ohn
l ish
y ucky
Ġt aught
Ġb onk
ing le
it am
ea sy
ow ed
na h
Ġno ises
Ġk not
Ġli ps
ch y
Ġout ta
ell a
Ġbig gest
Ġna ughty
Ġwor ried
ul p
pe anut
Ġfl ash
Ġv ide
Ġsw ord
Ġstart ing
Ġwonder ing
Ġaw fully
Ġsim ba
Ġga il
Ġcher ry
b and
b ah
d an
s anta
w ork
Ġd en
Ġp il
it ion
et h
Ġgo lf
le n
Ġr hino
Ġwe h
ic es
Ġre x
me gan
gg ed
Ġhelp s
oops ie
Ġro de
ne es
Ġclean ed
Ġtire s
Ġbump ed
play ing
Ġpaint ed
Ġsal ty
Ġtap ing
mat thew
Ġdire ction
Ġg lor
Ġso ccer
us s
Ġher s
Ġco ck
Ġy o
Ġhar der
Ġscrew s
Ġste ering
Ġnic ke
wr ite
c ap
f an
f ine
m ary
p r
in to
Ġl ock
Ġl ulu
Ġf ield
Ġr ose
at h
ho p
ot am
Ġcar pet
bo th
Ġcou n
co ver
Ġkid ding
Ġde er
Ġmiss us
Ġmov ies
Ġpus sy
Ġpack age
Ġim ag
Ġpow der
del icious
j ama
n on
r m
w ind
Ġf lew
Ġh ood
Ġhe ld
Ġk nees
Ġn i
ch ick
ra p
Ġgot ten
Ġy uck
so on
Ġfl ag
Ġdr ank
Ġlo cked
Ġsha mpoo
aboo se
Ġra il
com ing
Ġtig ers
Ġbull dozer
sol ute
h urt
n umber
p ooh
t ney
ha h
Ġa qu
Ġd am
Ġc akes
er nie
is on
is hes
Ġo ppos
ea ting
Ġh id
om p
Ġwe ird
ar ium
ad o
Ġsee d
op otam
Ġtr ans
Ġfl our
ag ag
Ġlea ving
Ġen joy
ne ct
bl ah
Ġsand y
sp oon
iz ab
fin ish
Ġcostum e
e er
l u
y ah
Ġs ense
Ġc in
Ġp ir
Ġp ass
all s
Ġpl ain
let e
are d
ge or
Ġna ils
Ġbu d
ct ric
Ġhead s
Ġpr om
Ġhigh chair
Ġdump ty
aught er
Ġspot s
Ġfight ing
Ġcal ifornia
Ġexpl ain
Ġcamp ing
cam era
etch up
solute ly
izab eth
d ump
f o
h oo
o le
s on
t weet
Ġg inger
Ġm ash
Ġl one
Ġhe al
Ġba ba
ic ed
Ġtr icycle
Ġtra il
Ġlove d
Ġmust ard
Ġpar ade
was n
Ġswing ing
Ġmail man
Ġsuper market
Ġsle pt
Ġbarre ls
Ġnor th
won der
Ġrac coon
Ġlob ster
leen ex
opotam us
m ummy
p aper
Ġw ool
Ġw eather
Ġd ist
Ġth ursday
the o
Ġbe c
ie w
Ġsp ark
Ġsp onge
qu it
Ġal ive
Ġtr ade
row s
Ġdr ill
fr anklin
Ġpencil s
Ġper fect
Ġspr ay
Ġliz ard
a ven
s es
re ss
Ġw aste
Ġg ently
Ġl isa
Ġth irteen
Ġh un
om i
Ġli ons
Ġnot ice
Ġan gel
Ġsp an
sh ut
Ġsc ot
Ġgre w
Ġse w
ug h
Ġduck ling
Ġpo pped
Ġgra ham
Ġswing s
Ġcour tney
Ġfill ed
butter fly
fa ther
vent een
Ġfla vor
Ġloll ipop
Ġparent s
d ry
g oo
p our
Ġb um
Ġh y
Ġh int
Ġr ul
st e
Ġk leenex
Ġsee ing
Ġst u
Ġst ones
Ġpl ates
Ġna ked
Ġsomet ime
Ġv iolin
Ġv itam
Ġtea pot
Ġbott les
Ġpo lly
unn ies
Ġgor illa
sleep y
Ġsy rup
Ġbran ch
Ġpri ze
Ġmitt ens
c li
d ed
i kes
m ond
s al
y ore
he ar
Ġs ore
Ġd ust
Ġd uring
Ġb urp
Ġm um
Ġo b
Ġj ay
Ġbo ing
ro ad
op her
Ġfr an
Ġor ang
Ġsh iny
Ġsh orts
Ġother s
Ġfind ing
Ġbed room
Ġbell e
sp ot
Ġbeg an
Ġter rific
Ġcraw ling
mel on
nut s
boun ce
Ġtex as
Ġsil ver
plan es
g ers
s sh
Ġt angled
Ġd ied
Ġg oofy
Ġdon na
ood les
do do
ur oy
Ġy eh
get ting
bl ing
Ġboo boo
Ġun screw
Ġpat ient
Ġdump truck
Ġtw ist
Ġbee f
Ġpin ch
Ġjam ie
kitt y
Ġcap tain
Ġtu esday
Ġpad dington
Ġcol ored
chr ist
isc uit
elephan t
p ie
p ol
t urt
Ġ q
Ġ ouch
Ġc el
Ġp ac
es sed
Ġr ay
Ġn one
Ġre sc
Ġj ul
Ġpl um
yes terday
put ting
Ġbed time
Ġmin nie
Ġbang ing
Ġchr is
Ġkick ing
Ġquestion s
Ġind ian
Ġcand les
Ġtig ger
par don
Ġdiam ond
Ġaqu arium
i ers
r an
v y
y ing
ou ds
ha mmer
Ġw ah
Ġs ear
Ġd aughter
Ġhe h
out side
Ġst amp
Ġso ggy
Ġea ter
be hind
ab oom
Ġmat ches
Ġbea ver
Ġun less
Ġboat s
Ġpocket s
Ġlear ning
Ġsquare s
Ġmix er
Ġplan et
bu ild
Ġcal f
Ġfair y
fro g
Ġpops icle
Ġpract ice
Ġais linn
Ġmagn et
c ur
g n
l ong
m ouse
t oot
v in
w uh
id a
Ġhe at
Ġk ate
th ough
Ġbr ick
oop er
Ġsu b
Ġblue berry
man y
Ġsk irt
ugg ed
Ġturt les
Ġtrick y
Ġhel met
Ġtomato es
Ġsquish y
Ġsneak ers
Ġug ly
i ans
k ind
o e
r idge
ha ir
Ġa ge
Ġa ma
Ġc hat
Ġc ass
er c
er o
Ġf ool
Ġth in
or a
Ġin c
ut h
st ar
st uck
Ġk r
Ġk etchup
Ġre p
Ġab ove
good ness
Ġgr ay
Ġsha king
Ġcr ane
Ġsleep s
Ġdoll ies
Ġstor m
Ġjo ey
Ġstay ing
Ġsna il
Ġsna cks
co ld
Ġpar rot
Ġte m
ci ally
sc r
mon key
Ġsister s
Ġste ve
bar a
sm ell
Ġatt ached
Ġlu cy
Ġcoun ter
Ġlone ly
b onk
b ubb
p ic
s ie
Ġd ep
Ġc aboose
Ġp on
Ġl uck
Ġf ellow
Ġf ancy
Ġth ump
ve d
ar ound
pp ies
Ġall owed
Ġsp end
Ġfr ustr
Ġcl oud
Ġwor ked
ble d
Ġbet ty
Ġhold s
Ġrabbit s
per haps
Ġwall s
sw im
Ġexc ellent
Ġlar ge
hors ie
Ġtodd ler
Ġhumm us
Ġcrumb s
Ġstu dy
d av
d ered
i al
i ot
k at
v il
Ġt roll
Ġd uh
Ġb in
Ġg erry
Ġp os
Ġp apers
Ġit self
Ġto ck
Ġr asp
st ep
Ġe ll
Ġre ind
ch io
Ġco ll
she ep
qu e
Ġfa ces
Ġwater ing
Ġpen s
Ġfish ies
cha r
pet e
Ġdream s
Ġslow ly
Ġspank ing
Ġtot ally
cir cle
Ġvide o
dav id
t ri
Ġa le
Ġb ay
Ġh uckle
and el
Ġn oodles
Ġbe cky
Ġj im
il a
Ġcar ol
Ġsp lin
Ġwh oop
Ġbr and
mo on
Ġbat hing
Ġex erc
te mber
ik a
cray ons
s ame
s pl
u al
Ġw ore
Ġw ease
Ġb unnies
Ġm eal
Ġp ins
Ġl amp
Ġdo ra
or m
na me
Ġn ancy
Ġba re
Ġst ood
ch u
ro ts
Ġcha in
Ġshow s
Ġnew sp
Ġbreak ing
Ġdrink s
Ġbea k
Ġwalk s
Ġpo ke
Ġpo st
Ġtick ling
Ġchan ce
cer os
every day
Ġpa jama
Ġcon nect
Ġlate ly
Ġsle eve
Ġcomp lete
clo th
Ġprote ct
Ġpil ot
Ġwease l
d u
k angaroo
v a
Ġt im
Ġb orrow
Ġg en
is andy
Ġh onk
Ġba con
ink er
Ġj ane
Ġso da
ge ls
Ġfr ies
ump y
Ġgre y
ire d
zz le
ta ch
ung le
Ġroll er
Ġroll ed
ach oo
Ġbeaut y
Ġsmell s
Ġhour s
Ġgram pa
Ġpor ridge
Ġwhis per
bot tle
hor se
Ġglor ia
bubb les
f unny
t w
t ouch
u ary
Ġt est
re ls
Ġs led
Ġg ift
Ġl ang
Ġl aurie
Ġdo lp
se n
na mon
Ġand y
Ġe y
ra che
look ing
ound er
Ġsp are
Ġfr ank
Ġdr ied
Ġpe ck
ag uh
Ġfin ally
bl ocks
air plane
Ġair planes
ye na
Ġfour teen
br ittany
cl ap
io ca
ation s
Ġfinger na
Ġpr oud
Ġtow ards
Ġchick s
ik i
Ġhipp opotamus
mic key
pat rick
chan tilly
cra ck
icul t
Ġrail road
rache l
b ing
l ady
l ift
p in
r u
r us
t ree
v al
Ġt ou
Ġt ied
Ġs ang
in ess
Ġd w
on ds
Ġb uh
Ġha ha
ut o
Ġhe aven
Ġre turn
Ġdid dle
Ġnot iced
Ġta x
op s
Ġunder wear
Ġpro per
Ġbar bara
Ġcho ice
every one
mic rophone
Ġbes ide
oc chio
Ġwaff le
Ġnicke l
y l
Ġw ife
Ġb er
Ġb le
Ġto we
et te
Ġk im
ld ow
Ġst ock
do ctor
pp le
Ġover alls
ive d
Ġcl ouds
Ġbr ian
pe cially
bo ys
Ġcr ick
Ġmat t
Ġsk unk
Ġsnow ing
Ġcount ing
Ġap ron
unt il
squ eeze
Ġgrass ho
Ġland ed
Ġfigure d
Ġpudd ing
Ġjill ian
u nd
z oom
Ġt adi
Ġg ross
Ġg iddy
Ġm ars
Ġh ose
Ġh umpty
Ġr umm
ic ally
Ġre c
Ġj es
Ġj ello
am ps
Ġne mo
Ġmo ves
to ys
li er
Ġdi p
Ġour s
ooh oo
Ġdiff icult
Ġmark ers
Ġsn eez
Ġste pped
tra in
Ġchang ing
Ġyell ing
Ġcoco a
turt le
g h
g ro
h it
l ic
l asses
Ġ kay
Ġt ar
Ġs nort
Ġd ub
Ġl os
Ġf ry
ea king
as es
Ġst ri
Ġj ungle
us hing
qu ick
pe ct
ent ion
Ġbring s
bl ank
Ġbutter flies
Ġfro ggie
Ġjen ell
Ġnur sing
Ġri pped
Ġflo at
Ġwashing ton
Ġfree zer
su ddenly
Ġee yore
Ġgab by
m rs
m aking
t iger
w in
Ġw ars
Ġc ond
Ġm ur
er v
Ġh yena
Ġme m
Ġst at
Ġre f
Ġj unk
ra in
Ġso fa
wh oo
Ġna ppie
Ġsha ring
Ġwr ist
Ġhat e
Ġbit sy
say s
ball s
Ġmom mies
co at
Ġtom my
Ġcho p
Ġeye b
Ġeight een
da isy
Ġpillow s
Ġpour ing
bre ak
Ġham ster
ask et
Ġru in
Ġwa ving
Ġgold en
Ġkat hy
Ġscream ing
Ġfeather s
Ġdisapp eared
Ġmushroom s
k im
m es
s hoe
t welve
y og
Ġt ur
in st
Ġb om
an tern
Ġm ass
Ġf il
Ġh ooray
ad le
Ġdon g
Ġco ke
Ġy all
wo ah
Ġsh r
Ġel izabeth
Ġsu gg
Ġv a
Ġqu it
Ġlot ta
Ġhor ton
Ġz ero
Ġam ount
Ġsing s
Ġpot s
la x
Ġring ing
sc ope
Ġsix teen
Ġla wn
Ġscr am
Ġtall er
Ġfre ight
Ġoli ves
ele ven
ju dy
Ġatt ention
Ġmet al
Ġveget able
iv y
Ġcrunch y
Ġstret ch
Ġscoo ter
Ġfrost ing
Ġreind eer
tri angle
Ġlang u
e yes
k ers
Ġt at
Ġt am
an n
Ġm ask
Ġdo ts
om ers
ar n
Ġk issed
ic orn
Ġst ing
en ed
Ġat tach
Ġan ne
did ldow
Ġcl ub
os car
art in
Ġcha sing
go ld
would n
Ġear lier
Ġside walk
Ġele ctric
Ġbar ney
fr uit
Ġdro ve
Ġblanket s
te le
aul t
Ġcheck ing
Ġclos ing
Ġpan cake
Ġtrip od
Ġcur ious
Ġmeet ing
duck ie
Ġwra pping
Ġtap ioca
Ġscratch y
gra pes
Ġgor don
str uction
Ġcord uroy
Ġrack et
Ġrhino ceros
Ġorang es
Ġtem per
Ġnewsp aper
a ut
b ite
g y
m it
p eep
r oo
t urkey
y ard
z a
Ġa x
Ġo y
st ra
Ġn oodle
as hes
en ces
Ġab solutely
be l
Ġal mond
Ġbu b
Ġtalk s
Ġche ep
Ġcr ashed
Ġsk i
Ġrock et
Ġmar ried
Ġwin dy
Ġbase ment
Ġmountain s
bir ds
Ġpon ies
h ip
m ight
Ġ ll
Ġt ush
Ġd ouble
Ġb un
it ches
Ġba x
Ġbe er
Ġre co
hm m
Ġan nie
ot a
Ġco zy
ff y
art en
Ġfl ounder
Ġpe ppers
Ġfood s
Ġpo pp
col in
try ing
Ġmir iam
Ġow ls
Ġproble ms
Ġbob by
ron aut
Ġspin ning
Ġcomp any
erg arten
Ġneigh bor
Ġcurtain s
s ug
s ince
t aking
w ood
Ġt in
Ġd ime
on nie
Ġb ust
Ġb lew
Ġm op
Ġl itt
Ġh ugging
what ever
ve y
Ġwe b
ad er
Ġba s
Ġba be
Ġbe et
ch ch
eed ee
pen s
oot s
Ġsqu ash
Ġmar ch
Ġap ril
Ġri bbit
Ġknock ing
cup s
Ġfu zz
Ġvan illa
Ġcab inet
bea ut
Ġmain e
Ġheal thy
Ġber ries
Ġtowe ls
inst ead
Ġlangu age
b asket
c u
d ie
g or
g le
j ou
p an
r uff
s ea
s and
w ake
y ikes
z ip
re ct
Ġa st
Ġa che
Ġs an
Ġp ed
Ġit sy
Ġf e
Ġo re
ic s
we d
Ġj on
Ġj ingle
ch i
ra is
Ġna omi
Ġsp itting
Ġsp read
don key
row ave
Ġway s
ang les
Ġpro ject
oss um
Ġpo pping
Ġsk ip
Ġbel ow
Ġbow ling
Ġscr at
Ġboun cy
Ġspider man
Ġpin occhio
Ġpea ch
Ġthanks giving
Ġser ious
Ġscar f
Ġpengu ins
Ġmill isandy
egg s
Ġcolle ct
aunt ie
gged y
Ġprom ise
Ġtrail er
Ġsplin ter
f ell
g um
s im
ha d
Ġd at
Ġd oug
Ġb iscuit
Ġp urp
ea ch
and rew
ic les
we nt
Ġst ella
th rough
ell e
Ġcar to
Ġbl ood
Ġna r
Ġfr idge
Ġwor ms
Ġdr ip
Ġbre a
Ġbre nd
Ġse venteen
ma isy
Ġhard ly
ous and
Ġbuild er
Ġfour th
Ġgrand mother
Ġfire place
Ġchan tilly
Ġgra cious
Ġsn eeze
ex actly
Ġseat s
Ġste pping
Ġbuck le
ils on
mom ma
Ġhorn s
Ġcheek s
Ġtax i
gro ver
b uck
c ent
f as
k s
m us
y le
Ġm is
Ġm ul
Ġl antern
Ġf er
Ġth ousand
Ġr in
Ġr unny
ad ill
Ġba ke
Ġthem selves
Ġback yard
Ġta pes
Ġwor se
Ġho l
Ġgr ouch
li on
li am
Ġv iew
ag u
Ġunder pants
Ġduck ies
ta il
Ġdin ing
Ġgl ove
Ġpot ter
Ġnap kins
Ġun icorn
Ġmess age
Ġpump kins
Ġmix ing
Ġge ese
tra ctor
Ġcur ly
Ġdes ign
Ġfore ver
Ġcu dd
Ġlu ke
Ġpretz els
Ġinstrum ent
Ġdam n
Ġoppos ite
Ġscram bled
Ġreco gn
sug ar
f re
Ġ ver
Ġw ilson
Ġs ung
Ġc ooked
Ġp ound
le nd
ic al
Ġsee k
Ġj an
Ġj ac
ust y
Ġbo ck
ff ord
Ġsha ped
Ġcr adle
ag a
der ick
ub by
Ġtea m
Ġhot el
Ġde bbie
Ġhors ies
Ġtail s
Ġla a
squ are
Ġcap e
Ġdum bo
Ġpor ch
Ġfur ther
Ġslipper y
jen ny
Ġimag ine
Ġcin namon
Ġpir ate
b ie
b en
c key
d ies
f ight
f us
m otor
m akes
p sh
Ġs ip
Ġc rown
Ġp ower
ay ay
what s
st al
st raw
be red
ot e
Ġsp out
Ġal ice
li a
Ġsqu eez
Ġcare y
Ġstuff ed
Ġreal ize
Ġstand s
Ġfire truck
itc her
Ġstop s
Ġpain ts
Ġspill ing
Ġstar fish
sw ing
Ġhug s
Ġcur ls
baa ee
oc ado
Ġbother ing
Ġcre ature
Ġrhy mes
Ġstea m
andel ion
Ġcomplete ly
d en
f it
h ur
k ick
m ill
r at
s am
u ed
z el
re en
Ġs urf
Ġp ouch
Ġp aw
Ġl es
is p
se ct
the ir
Ġk er
Ġn ick
as ure
Ġj eep
ill ou
ra h
Ġsc ra
Ġnew s
Ġjo anna
Ġpick s
Ġtea sing
for m
cl ick
man uela
ger ry
Ġun happy
Ġroll s
Ġdri bble
Ġdis ney
Ġmail box
Ġcon struction
Ġwood en
Ġreach ing
Ġwa x
Ġwal rus
Ġwra pped
Ġgran ny
fu sed
foot ball
Ġposs ible
geor ge
Ġama zing
pens ive
c us
n ana
o b
s un
u a
Ġs ippy
in al
in side
Ġd igg
ing o
Ġf ed
Ġf right
Ġth ick
ar ian
st ore
Ġba gels
Ġbe come
ie nce
Ġst inky
Ġre lax
Ġfor ward
do ing
Ġso y
il bur
Ġbl ah
Ġbaby s
Ġsp aces
Ġar i
to es
sh irt
Ġwater melon
Ġduck y
Ġbea st
Ġmic rowave
ri bbit
Ġeven ing
Ġidea s
che ck
Ġgra bb
Ġcomb ing
Ġper haps
Ġwigg les
Ġtu na
Ġfollow ing
Ġwire s
sl ow
Ġninet een
oph one
Ġproper ly
Ġast ronaut
g in
Ġt inker
Ġc oo
Ġm essed
id i
id ent
ar r
ad ada
Ġst ates
Ġj er
Ġj osh
me m
ear s
but ton
Ġpu ddy
Ġbreak s
Ġpro p
Ġcup board
Ġsl iding
Ġpart ic
ri ly
Ġdri pping
Ġcomb ination
Ġclown s
Ġstraight en
Ġlaug hed
Ġsau cer
Ġsquir rels
Ġser v
grand pa
Ġpiglet s
Ġrhy me
bir thday
Ġdut ch
Ġav ocado
Ġbec ca
Ġcel ery
Ġva ivy
tele phone
Ġtemper ature
Ġhol iday
b es
n ear
p ad
p ump
s er
t eddy
u k
v ator
Ġw ing
Ġp ho
Ġto ddy
ea pple
nd y
at han
im i
ur al
pp ity
us ually
Ġco py
uck oo
Ġbl ink
ab elle
Ġfl am
Ġsu ddenly
Ġv alley
Ġshould er
Ġse an
Ġro ast
Ġen vel
ma il
Ġex am
for get
Ġsk ating
fr aser
Ġrest ing
Ġtre asure
Ġcon fused
Ġtight en
Ġmoo se
Ġbuilding s
back pack
com b
bug s
Ġgoat s
Ġly nn
bird ie
Ġbal ance
Ġtee ny
Ġflash light
Ġgen er
a f
b ac
e ye
g one
k inda
n i
n ee
n ed
p hoebe
p aste
t ow
t ion
Ġd ick
an imal
Ġl ass
et ho
na p
st y
Ġk i
Ġk na
Ġe dd
let on
Ġbo k
Ġwh om
up id
Ġsha ve
Ġdi al
Ġjo in
bl ock
Ġmic ro
Ġbus iness
Ġex pensive
ton ight
cl own
Ġbad ji
Ġtick les
Ġpat ting
any way
Ġengine er
Ġcover s
Ġhipp os
Ġru le
Ġtrick s
Ġgold fish
mat ty
Ġnurs ie
tre ss
Ġart ist
Ġsail boat
Ġsep ar
Ġarr ived
Ġduckling s
Ġresc ue
beaut iful
Ġbrea the
fas a
Ġedd ie
g ah
o int
s li
s chool
t ig
x y
Ġb or
Ġb itt
Ġb unk
Ġc oug
ic ing
ic er
Ġre mem
ro p
Ġsa f
Ġwhere ver
Ġsh oo
Ġsh ining
Ġother wise
Ġcat hy
Ġbird ies
ol ine
Ġdraw ers
Ġrock y
Ġra ggedy
Ġunt ie
Ġpr ide
ment s
Ġjam mies
Ġeas ily
ric hard
Ġsim on
Ġburn ed
gl asses
Ġpretz el
oli via
Ġshout ed
Ġsep tember
Ġstat ue
Ġsung lasses
Ġdigg ing
Ġpartic ular
Ġremem bered
f y
k i
n um
n urs
Ġt umble
Ġt ippy
ha ving
oo s
Ġp ou
Ġp ies
Ġp itcher
Ġl oop
id d
ow ing
Ġwe dding
ar thur
Ġu r
out s
Ġn in
Ġe qu
Ġj anet
ch in
itt s
Ġso l
Ġco al
Ġcar ries
Ġy arn
Ġcl unk
Ġneed le
Ġar row
to ast
Ġsc oot
Ġsk ipped
Ġdro ps
Ġtow ard
car rot
jam ie
Ġtw ice
amp y
Ġpast e
jump ing
Ġskin ny
Ġladybug s
tre vor
mu ah
Ġop ossum
Ġspan ish
pic ture
Ġcrick et
Ġlos ing
Ġmem ory
Ġrecogn ize
l ine
s uper
x ic
re cor
Ġw ag
Ġw ilbur
Ġd umb
Ġb leep
Ġc ust
Ġp up
Ġit chy
Ġdo key
Ġo we
ig are
ve nty
Ġin ter
Ġin sect
Ġr ag
Ġr ipe
Ġof ten
Ġst ink
Ġre l
al ong
do ll
ill ed
Ġsome place
Ġbo bo
Ġbo red
Ġbo zo
ter rific
Ġgot cha
Ġta g
Ġwh ining
Ġsh y
Ġtr ies
Ġbr ief
Ġgr umpy
Ġsha ving
Ġv ader
Ġevery day
ub a
Ġcle ver
Ġsing le
Ġbang s
Ġdress es
sp in
Ġca lend
gu y
Ġcon cer
Ġow ie
Ġste fan
bur gh
pu ppies
Ġshell s
bump ity
Ġwhis kers
sleep ing
Ġmea s
adad ada
Ġwaff les
anet te
Ġstrip ed
Ġrul es
Ġvitam ins
cli fford
Ġbrick s
kat ie
Ġtroll ey
spl ash
yl ophone
Ġtam ar
Ġbeet le
etho scope
c ro
c andy
d one
d ance
i ves
p i
t or
t age
v ious
w are
re lla
Ġs outh
Ġc as
Ġc ell
Ġm al
Ġm unch
Ġp ant
no re
Ġf us
Ġdo ro
Ġo t
Ġth under
Ġh ic
Ġh us
Ġhe len
ar iel
ome n
ic hes
Ġst ud
am ut
am ole
Ġout door
ra g
Ġcar ried
Ġread s
Ġbu dle
ant astic
ab ee
Ġhad n
Ġv ol
Ġv ase
ph y
Ġhor rible
ac amole
Ġmilk shake
Ġcup cake
Ġkeep er
Ġbea d
Ġex pect
Ġsk ate
Ġswim s
Ġsec onds
Ġcatch ing
Ġpat h
Ġpr ay
Ġpr ice
Ġbump er
Ġyog hurt
Ġboun cing
Ġdes ert
Ġlad ies
cook ies
Ġjohn ny
Ġpoint ed
con ut
Ġsold ier
Ġlip stick
Ġpho to
itts burgh
Ġdoro thy
b al
c is
f ood
f arm
h onk
m oney
p ain
s itting
u u
v o
Ġt el
Ġw aking
Ġc ooper
Ġp ittsburgh
ch ief
th ought
Ġpl us
let s
il ocks
Ġcar l
Ġsp o
Ġbook case
Ġcom fy
Ġlo g
Ġhelp er
aur us
Ġsu dden
Ġsc ri
Ġju ly
Ġmat tress
Ġmark er
Ġsk ates
Ġeng lish
Ġwall et
Ġac orn
aff es
oy o
Ġfre derick
Ġwa ves
Ġsent ence
Ġmac donald
cup ine
sm all
tom ato
Ġhambur gers
sl ide
Ġinv ited
fif ty
Ġchat ty
Ġfingerna ils
Ġtou ched
b in
c ope
d um
s at
Ġs ire
Ġc igare
Ġm ood
le e
ho pe
Ġj erry
Ġpl iers
Ġbo ss
us hed
be c
up iter
alright ie
go at
Ġbre ath
Ġcr ooked
Ġsw am
Ġsm urf
Ġpick les
ne igh
Ġkeep ing
Ġafter wards
br idge
Ġsnow fl
Ġbar s
Ġtick et
fr iend
Ġtow ers
Ġdoctor s
tere d
per fect
car rots
Ġwin nie
Ġboun ces
Ġpea ches
Ġsam my
Ġpres ident
Ġtear s
su ch
Ġpear s
Ġyell ed
Ġsuitc ases
Ġnor man
Ġdig ger
gir l
gir affe
Ġtor to
Ġninet y
Ġcot tage
Ġfrustr ated
Ġale c
motor cycle
Ġles lie
Ġcalend ar
a il
b ub
c ars
d ear
d ah
f eed
i pping
j es
m al
m wuh
o key
t eeth
Ġt ed
Ġs el
Ġd eedee
Ġm ashed
is bee
Ġf oo
Ġwe ist
Ġba ker
Ġdon ut
Ġcan e
ch ug
al y
Ġshe et
ro l
ce real
Ġco b
ge y
Ġcl aws
ff ic
os quit
Ġcr ies
Ġbat man
Ġtrain ing
Ġtop s
Ġpro gram
Ġele vator
Ġer aser
Ġte let
Ġarm adill
Ġsn uffy
Ġeng ines
Ġla zy
fe ctly
Ġpigg ies
umb rella
squ irt
Ġsandw iches
Ġchar ge
Ġheart s
Ġwigg ily
pat ty
Ġtiss ues
Ġlay ing
Ġgram my
Ġnurs ies
yum yum
Ġexpl ore
Ġlick ing
Ġcous ins
Ġlemon ade
Ġwre ck
oli ver
fif teen
Ġni bble
Ġdolp hin
Ġgrassho pper
blank et
Ġsugg est
Ġpurp ose
Ġmul berry
Ġprop ell
pad dington
c et
d uh
g en
h u
k ie
l ers
m ade
m orning
r ide
t ired
ha y
an nie
Ġp iper
Ġf ab
Ġo val
and er
Ġn erv
Ġre s
ood ood
do gs
ill e
ro y
me an
Ġy olk
Ġsp y
Ġtr amp
Ġsha de
Ġche cked
for ty
Ġsor ts
Ġend s
wel come
Ġdump ed
Ġchick ie
too th
Ġstring s
Ġsli pped
Ġmach ines
em pty
Ġsqueak y
dad ada
Ġtu be
Ġdrum s
Ġspr ink
Ġsave d
cow boy
Ġdisapp ear
Ġsmooth ie
Ġact ing
dinosaur s
fo x
Ġfran cis
scr atch
swim ming
Ġrasp berries
break fast
Ġmeas uring
Ġnerv ous
c ry
d ar
d iff
i ar
j ul
m ush
r ice
s pe
Ġt it
ha lf
Ġw omen
in terest
Ġm aster
Ġp ip
Ġto by
it ies
Ġth r
es cope
Ġwe igh
Ġme chan
ie lle
Ġre nee
ra c
ro ar
ce mber
Ġjust in
Ġco lin
Ġco conut
op ard
Ġcl ack
she ll
Ġkind ergarten
Ġgu est
Ġmu fasa
pl ain
Ġz oe
Ġhands ome
ball oon
Ġcra cked
Ġsand als
ope ye
Ġpol ish
Ġblow s
Ġsn iff
any body
Ġpark ing
Ġdry er
Ġpus hes
Ġquiet ly
Ġsli p
Ġpay ing
Ġfif th
Ġhum an
Ġes pecially
ubb ies
Ġcross ing
Ġce ment
sna ke
Ġpal ace
Ġsus ie
Ġcrow ded
Ġabc s
Ġey ed
Ġeyeb rows
Ġnar row
Ġenvel ope
Ġpou red
Ġhic cups
g oofy
m ag
m ac
n one
s mo
w iggle
re ssed
Ġs omers
Ġd are
Ġd ate
Ġc red
Ġm ous
Ġp j
Ġp atch
Ġit ch
Ġwe ndy
st ir
at ive
ir l
ir gin
Ġn anny
as mine
ho las
Ġst upid
en ter
am anda
Ġnot e
ry stal
Ġsp eed
she s
Ġal arm
Ġel astic
Ġwhen ever
ab a
Ġfl or
Ġball er
Ġlo af
Ġhelp ful
ion ed
Ġmak er
Ġcow boys
Ġfish y
Ġbar ber
Ġtick lish
Ġwash cloth
Ġtoast er
gr ound
Ġper fectly
Ġsal mon
Ġham psh
Ġyay a
Ġteach ing
Ġsim ple
bar row
Ġind ians
str ich
Ġmuff ins
sna p
Ġlow ly
Ġmitt en
min nie
chicken s
Ġcot ton
pol ice
Ġdw ar
Ġstock ing
Ġscrat ched
Ġhus band
Ġsire n
interest ing
irgin ia
Ġhampsh ire
b t
o ard
p ing
t ook
u c
w i
w or
w eed
Ġd un
Ġd ak
Ġc d
Ġp au
Ġp ine
no g
is ing
Ġin k
Ġhe ro
Ġk amut
Ġba king
ho de
Ġst ethoscope
al though
th irty
ed e
hm allow
ose d
eed le
Ġal ad
Ġwill y
Ġbu l
Ġho ckey
ph ones
Ġse venty
Ġro y
Ġmat h
ctor y
og na
Ġgrow s
Ġbump s
Ġbump y
Ġchrist opher
Ġpi er
Ġshar on
four teen
cr unch
Ġstep mother
book s
Ġoat ios
Ġhill s
Ġty ran
Ġcost s
Ġcal m
nor man
Ġhoo ked
Ġbrus hes
Ġpor cupine
Ġquar ters
Ġcre ep
Ġbam bi
Ġje ff
Ġmagn ets
Ġstrip es
pigg y
pigg ie
Ġdirection s
christ opher
Ġwhisper ing
sen ger
rais ins
Ġdoug las
isp ies
Ġspaces hip
Ġsepar ate
Ġbor ing
Ġbrief case
Ġtel escope
Ġarmadill o
Ġflor ida
a is
d ge
f er
g osh
n el
s urpr
s oph
Ġt ug
Ġd est
Ġd andelion
Ġc ent
Ġm artin
Ġm imi
es ome
om s
ow l
Ġst age
Ġbl ind
ap an
Ġtr uth
art ment
ere nt
Ġshould ers
Ġsm ily
Ġbit s
ac le
ug uh
Ġpro vid
Ġside ways
Ġkid do
Ġsound ed
Ġbow ls
Ġph il
col n
umm ies
Ġkn ick
squ ir
Ġdra g
Ġtooth paste
dr ive
Ġlamb s
ric ia
Ġpenny s
Ġfore head
Ġcont rol
Ġspr outs
Ġes cap
Ġbal oney
rock ing
Ġcub es
pr in
Ġtrans m
Ġbabys itter
Ġcoug hing
Ġinsect s
Ġoutdoor s
Ġscri bble
Ġtorto ise
b om
b uh
b umble
c in
h igh
j elly
m ess
p eas
s ue
s moo
t own
Ġt eet
he l
he w
ou bles
ha rold
Ġw eed
Ġs ig
Ġc uckoo
oo ey
Ġl ed
Ġl ab
Ġto re
Ġf ash
Ġth read
Ġgo wn
Ġin ches
Ġr um
Ġr amp
st ack
Ġn ep
Ġe nt
Ġst eak
Ġst eal
Ġst amps
Ġcan s
Ġpl ugged
un less
Ġout fit
ore e
Ġab oard
Ġlet ting
Ġta bles
ear ly
Ġfr umble
Ġch ica
Ġal ike
Ġar my
bo ing
Ġgive n
Ġsc ulp
Ġfind s
Ġcr an
Ġhead ache
Ġroom s
mi ffy
Ġsl ice
Ġsl ides
Ġpo ison
Ġem p
Ġwheel barrow
was hing
Ġban jo
sp ider
Ġfeed er
gr ass
boo boo
Ġchick a
Ġmel t
Ġfam il
Ġsent ences
ween er
Ġaid s
Ġnic er
Ġnic holas
Ġrac ing
whe els
vers ation
Ġgrown up
Ġelbow s
bro ken
oat meal
Ġyawn ing
Ġinc red
Ġexerc ise
yog urt
Ġll ama
mus ic
fight er
Ġsel f
diff erent
Ġcred it
soph ie
c os
c ross
d or
g osaurus
h ush
j illy
l ock
l aurie
m ix
m outh
n inet
p art
t ast
u sed
Ġw ine
Ġd ou
Ġg ay
Ġc hose
oo aa
Ġf iddle
Ġdo h
Ġh om
ie n
Ġre ce
Ġj immy
im p
Ġpl uto
Ġan ten
ro bin
Ġsa us
Ġbaby sit
Ġor gan
she r
Ġbr u
gg ing
Ġdr ool
Ġag ree
sh ine
Ġsc reen
Ġtra ffic
Ġgr izz
Ġgr ampy
Ġgu ard
Ġfa ctory
Ġwon dered
Ġle ila
zz ie
ne ck
Ġpull s
aw a
Ġmark s
Ġpet s
Ġdan iel
with out
Ġer r
Ġfro ggy
Ġkno b
sp ell
Ġclimb s
Ġtw ins
Ġwo ggie
Ġpin eapple
Ġdream ing
Ġteacher s
ud ge
duck s
Ġgold ilocks
Ġkat y
Ġpony tail
Ġpoin ts
whe w
Ġbark ing
Ġscot ch
Ġtush ie
Ġballer ina
Ġanten na
b ile
c re
c umber
d ip
e ither
f eet
f old
k aboom
o ct
o thy
p ear
t les
Ġt ad
re s
Ġw akes
Ġw inky
Ġs ch
Ġs ill
Ġs ara
Ġb on
Ġc ele
Ġc enter
no s
se ls
ig an
ut ta
ad ing
Ġme mber
Ġbe nt
Ġre ached
Ġj apan
al o
Ġnot es
Ġbo iling
Ġsp icy
Ġwh ine
so cks
up stairs
Ġcat ches
Ġgir affes
Ġsc ale
Ġche ster
Ġhar vey
tt es
Ġegg nog
Ġex per
Ġpo key
Ġer ica
Ġsmall est
pre ssed
Ġca illou
car ry
Ġforgot ten
Ġdel i
jam es
hun m
Ġbarn es
child ren
Ġed na
Ġros y
Ġdar th
Ġshark s
Ġchin ese
Ġes ther
tap utta
other wise
Ġseem ed
erg y
Ġnat ural
Ġinv ite
Ġwip ing
dan iel
Ġhun ting
tw inkle
Ġmars hmallow
Ġjes us
stra ight
Ġcarto ons
Ġkna ck
tig ger
Ġprovid ence
smoo th
Ġhom es
Ġcele br
a way
c inderella
e ves
f eter
g as
g ust
h ook
l ou
l ow
m am
n eat
p ocket
s we
z es
ou st
re ach
Ġyou n
Ġd ies
Ġb erry
Ġp ter
Ġp opeye
Ġl ane
Ġo strich
le nt
Ġin s
st em
ad ee
Ġli am
Ġare a
th irteen
qu iet
Ġch ief
Ġbu ff
Ġfl op
ble ep
to y
to ad
Ġgr iz
Ġv est
Ġdi andra
pen cil
Ġsho ve
Ġwhe e
Ġad vent
Ġreal ized
Ġsand ra
Ġde an
Ġde ck
Ġask s
Ġmar vel
Ġgar lic
Ġdrive way
hee hee
ask a
Ġspl ashing
Ġsle eves
Ġmatch ing
bu y
bu zz
Ġmost ly
Ġx ylophone
su nday
Ġser ve
iv al
whe el
Ġje ans
Ġmer rily
sn uggle
Ġkill ed
Ġwre st
Ġremind s
Ġinstrum ents
Ġhyena s
Ġjon athan
Ġsurf ace
Ġconcer t
Ġsomers ault
ais linn
Ġsculp ture
feter ia
oust ache
c ul
c ream
d es
e mma
g ia
g ently
i ana
k ate
m ont
m ower
r uction
s ort
t op
w et
Ġw iz
an an
Ġg ulp
Ġm osquit
Ġp un
Ġl ee
er ica
it a
es y
Ġh unt
Ġha h
Ġha mm
ve mber
Ġgo bl
Ġhe idi
Ġr ap
Ġr onnie
Ġk icked
Ġwan d
Ġme xic
ch ugga
al ing
itt en
Ġup s
Ġan swe
Ġsa ck
Ġwh oo
Ġch uck
Ġtr oubles
so ft
Ġbu ggy
ess a
Ġfl ush
Ġho pping
Ġho pper
Ġgr ade
Ġgu acamole
go bble
Ġdi ving
ip ment
Ġle opard
Ġsho re
ile y
Ġlea sh
Ġhar v
ac ked
when ever
ta ils
Ġmic he
Ġsl inger
Ġstore s
bab a
ina ch
sc oot
Ġfo g
Ġpol ka
umm ie
Ġbi kes
Ġcon versation
sw ish
Ġtw er
Ġdra in
Ġtub a
Ġchar les
Ġdough nut
Ġsle igh
Ġfree zing
light s
Ġbal an
Ġpeek ing
Ġbol ogna
Ġsy stem
Ġfel ix
tre es
Ġswallow ed
ste fan
Ġvitam in
pie ce
Ġcoll ar
char lie
agu ar
pump kin
Ġphoto gra
Ġdak ota
Ġdou bt
Ġadvent ure
Ġanswe red
a i
b oree
c ht
h h
h ug
j eez
l ay
n es
t all
t ur
t aste
u ation
y all
Ġ ut
Ġt uck
Ġt art
Ġa my
Ġw itches
Ġs ke
Ġd ya
Ġm oustache
Ġp aws
Ġl ing
Ġf ishes
Ġdo ggy
Ġr ot
ar on
Ġst ream
en e
en g
en cy
ro be
Ġbl ouse
Ġy oyo
Ġch ir
Ġch ina
Ġal ien
ak a
so ci
oop ers
up side
Ġar k
ul ah
Ġfl uffy
Ġas soci
lp h
Ġcha sed
thing s
pen gu
ate ly
Ġju g
Ġfish ie
ri an
some where
Ġcra ig
Ġde cember
Ġda le
Ġdro pping
Ġmar ry
Ġca feteria
Ġdis co
Ġyog a
Ġwood y
play doh
Ġvisit ing
Ġhammer ing
Ġcla pping
Ġtri angles
ik ada
Ġpea ce
Ġim pressed
pat sy
Ġfight er
Ġfold ing
urs ula
gra b
gra pe
ga il
Ġgun s
cra zy
Ġcher ries
Ġger ms
Ġcostum es
Ġlin coln
Ġpas senger
Ġcor rect
Ġhy dr
christ mas
Ġsub way
Ġtim er
crack er
Ġstri kes
Ġmur phy
Ġbust er
Ġrin se
Ġfright ened
Ġgrabb ed
Ġnin th
Ġequ ipment
Ġpant ies
Ġtelet ubbies
Ġincred ible
f le
h ome
h im
n ers
r ar
s ave
t im
Ġa shes
Ġs our
Ġb ould
Ġg igg
Ġm id
Ġm iles
Ġp ort
Ġl ump
it zen
es ting
na l
ar i
Ġk aboom
Ġli a
Ġn uh
Ġn ipp
Ġe ma
ver al
Ġj our
Ġj eez
Ġj asmine
al es
al ade
do lly
Ġup py
am i
Ġea ters
il ar
Ġco d
Ġbl ues
Ġna sty
Ġfr anny
Ġfr isbee
Ġcl ues
qu es
ue l
gg le
Ġfl int
Ġsha ky
ere nce
ard ess
Ġnight time
Ġwait ed
ug a
Ġz ack
Ġsl o
Ġpo ster
Ġdan ced
Ġpar ked
Ġcra bs
Ġhi king
Ġrain s
Ġrain coat
Ġpol ite
Ġcount ed
Ġsn uggle
ach us
every where
Ġspill s
Ġbottom s
Ġcon fus
Ġwin ner
Ġdel iver
Ġsea ls
ib ly
Ġwal nuts
Ġfree ze
Ġpad dle
Ġdada ji
Ġcu z
po int
Ġscar ry
Ġsmile d
pill ow
Ġsell ing
Ġbran ches
Ġlou der
eric an
bus y
icul ous
rub ber
Ġob vious
Ġtwist ed
Ġpac ked
Ġlawn mower
Ġlitt ler
hur ray
Ġjosh ua
Ġlass ie
Ġpier re
surpr ise
Ġtransm itter
gust ing
Ġflint st
b ark
c ous
d is
d oot
e ct
f s
f ill
h ill
i us
j immy
j ingle
l oo
m unk
o ber
p oo
s us
s oup
Ġt ons
he it
Ġa im
Ġa ug
Ġi g
Ġi cing
on na
Ġc em
Ġp omp
Ġl as
Ġl aw
Ġf au
Ġf antastic
et ts
et ery
Ġh ush
se l
id ed
Ġr oot
Ġr ash
na t
at ter
Ġme g
Ġn et
ho le
th ony
um e
uh p
Ġbo iled
ell ie
be ans
Ġna than
Ġcl am
Ġfl ute
Ġball et
Ġmo bile
el ana
sh oo
Ġtra pe
Ġsw ea
Ġsw iper
Ġwork er
ent agon
Ġlot ion
hi pp
Ġour selves
Ġbat s
Ġgl ued
Ġapp eared
ri be
arm alade
ball oons
bab ies
Ġhi ke
Ġset ting
sc oop
ze bra
Ġrain y
Ġtre ating
sk y
sk unk
Ġlisten s
Ġeight y
Ġsad dle
Ġdry ing
Ġste ven
Ġrub bing
Ġbra in
set h
Ġsuper man
Ġcarri er
Ġfork s
Ġsuit s
mat t
walk ing
Ġtear ing
lo is
Ġpoop ing
Ġnon no
Ġes cal
Ġcheer io
kiss ing
Ġgym boree
peanut s
Ġflag s
lu cy
Ġsew ing
Ġkr isten
Ġell iot
Ġjes se
Ġelectric ity
Ġbrend a
Ġgrouch y
Ġjan uary
straw berry
Ġjer sey
Ġpray ers
spe cial
nos aurus
Ġdies el
Ġhydr ant
achus etts
Ġaug ust
Ġcem etery
Ġescal ator
c ie
i or
k ids
l ive
m eat
m als
o es
p ee
r iding
t ee
u ctor
v et
w k
y o
Ġ vel
Ġt ul
Ġt erry
Ġw ig
Ġw icked
Ġd oop
Ġb ou
an ne
Ġc ons
Ġp ounds
Ġto fu
Ġf ever
Ġf urry
Ġon ions
om a
ke nt
le mon
Ġis abelle
Ġin t
Ġhe he
Ġwant ing
ch ou
ch ie
al so
do lph
Ġpl op
pp osed
Ġshe ets
Ġcl uck
ff i
Ġsh ips
ap ril
Ġtr an
Ġhapp ily
Ġcom mer
Ġlo gs
iss y
Ġv ine
Ġv irginia
ile nce
Ġschool bus
ac hes
Ġhear ing
Ġfall en
Ġz ub
ba x
cor d
ri ka
Ġad v
Ġcut s
Ġcut ter
ond a
ond e
Ġross y
Ġfire men
Ġfire fighter
Ġtick led
Ġkno cks
Ġpr ick
Ġpr int
Ġmus cles
Ġmusic al
per cy
Ġspell ing
Ġinst ruction
Ġshar pen
fin ally
Ġwha les
Ġgoo gey
Ġpotato head
Ġgold ie
Ġsto le
Ġsto pping
Ġcont in
Ġind eed
Ġbol ts
whe at
Ġmam mals
Ġrid iculous
bear s
tea ch
Ġmill ion
color s
Ġclick ety
sn oopy
Ġav ril
non na
Ġwaste basket
Ġscot t
Ġrul er
und heit
Ġsneez ed
Ġtar get
Ġki wi
bub ble
Ġfrancis co
Ġemp ire
Ġmiche lle
b th
d om
d ough
e z
f ound
f red
f rench
l ife
m ak
p ir
t v
w ish
y er
Ġt ik
Ġd abee
Ġb anda
an ie
Ġm s
Ġm ummie
Ġp ause
Ġp ans
er que
Ġf uss
et tle
se ng
Ġr ich
Ġr uth
Ġr usty
Ġba ld
Ġe vil
Ġst able
Ġre nt
en ing
al ways
Ġbo p
ry l
au ce
Ġcar n
ge ous
Ġsp inach
qu erque
Ġch illy
Ġal bu
Ġbr id
so da
Ġbu p
ess ion
Ġfl akes
Ġman ag
Ġlo i
iss ipp
Ġtra ve
Ġpe bbles
Ġqu art
Ġwr itten
Ġse veral
Ġhair cut
ac a
Ġen ergy
Ġjo y
Ġsqu ished
Ġsqu ishing
Ġz o
bl er
Ġde vil
Ġte nder
bb ly
unk y
Ġsix ty
Ġsun shine
Ġdress er
Ġmar bles
could n
Ġstra p
Ġcover ing
Ġmed ium
Ġcard board
Ġoat io
Ġspl it
Ġplan es
Ġplan ets
ric ot
Ġtap ed
Ġcu cumber
Ġspr inkle
Ġsign s
Ġbrus sels
din ner
Ġgrape fruit
Ġmush y
Ġliz a
pig s
arent ly
hand s
call ed
Ġund ressed
Ġcolle ge
Ġsus an
Ġlin ed
Ġpas sed
Ġfred rick
eter in
Ġstew ardess
Ġcin dy
Ġginger bread
Ġdep artment
Ġcarol ina
Ġfil m
bes ides
Ġbitt y
nurs ie
recor der
Ġvol can
Ġpropell er
ninet een
Ġgrizz ly
Ġyoun ger
Ġwiz ard
Ġinstruction s
Ġbanda ids
seng ers
Ġalbu querque
issipp i
b elly
b oots
c ute
g ull
k h
l al
m ous
p ow
p ass
s aw
t ic
t ies
Ġt une
ou ette
ha w
Ġa y
Ġa fr
Ġw est
Ġs ar
Ġs alley
Ġg oof
Ġm uck
Ġm owing
Ġp uh
Ġit aly
it z
Ġf udge
Ġdo min
et ah
Ġo live
Ġh ip
se es
Ġr aw
Ġr hode
na te
Ġno on
Ġme nt
Ġn ugg
Ġba ked
Ġst an
Ġj upiter
ed i
be es
me g
me nd
Ġta cos
op es
ge ant
Ġsp ent
qu et
so ggy
ab u
oom papa
ul ous
row row
Ġfl u
ack s
ble h
Ġas s
Ġsit uation
Ġgr ill
li p
Ġv eterin
pl ant
Ġwork ers
Ġnight s
Ġwr ites
Ġro cked
ac ty
ma id
Ġmat er
Ġpig tails
Ġsqu id
Ġpen is
Ġz ach
mi ke
Ġstuff y
Ġbus hes
Ġad ul
br oom
Ġmother s
Ġend ed
Ġdress ing
Ġmar ty
Ġdis c
ead ow
Ġcon es
fly ing
Ġvisit ed
cr omer
Ġstep hen
Ġmel ted
Ġsea weed
oy oy
Ġflo ating
Ġwigg ling
Ġed ges
com es
Ġdough nuts
cat s
Ġscratch ing
Ġmary se
Ġmap le
talk ing
Ġribb ons
Ġcab bage
Ġvalent ines
boun cy
Ġund o
Ġcolle ction
jen nifer
Ġload er
Ġpatty cake
Ġless on
Ġpuff ed
Ġpas sengers
dan cing
Ġpir ates
Ġjul ie
Ġfool ing
Ġrasp berry
Ġrec ently
Ġtur keys
cu z
pain t
scratch y
Ġmous ie
Ġbul b
Ġsaus age
Ġphotogra ph
onna ise
Ġcommer cial
g ed
g are
g lor
h iding
j ay
l ar
m oom
p ard
r is
s ad
s andra
s nort
u ing
v ie
v ac
z oo
Ġt i
Ġt ut
Ġa u
Ġa ction
Ġs can
Ġg all
Ġm or
Ġm armalade
Ġp it
Ġp oodle
Ġl ind
no ring
Ġf olk
oh oh
Ġr ang
Ġno vember
Ġn anette
Ġst ain
Ġknow n
Ġpl ow
Ġsome day
Ġbo bbie
ell iot
be cky
Ġco ins
Ġbl ast
Ġbl itzen
Ġna i
Ġne cess
Ġal though
Ġwat ches
Ġwor n
don na
Ġman e
if ts
if ier
sh oot
Ġtra vel
Ġv ik
Ġhair y
ac ross
Ġapp re
Ġapp oint
Ġlight ning
Ġbath robe
Ġpo ppy
Ġrecor ds
Ġsna ils
Ġdan ielle
Ġcho ices
Ġtick ets
Ġgra in
Ġsn oo
Ġsn uff
Ġsn ugg
Ġmar ching
Ġdis gusting
Ġeight h
Ġton y
mon ds
Ġapart ment
Ġfar ther
roll ing
Ġtri pped
Ġtractor s
dr um
tra ins
Ġland ing
Ġcoat s
Ġwigg ly
ud ud
Ġchang es
rr rr
cho ke
eight een
dri ving
Ġros es
cow s
water melon
feel s
Ġfollow ed
Ġpoin ty
Ġbur ger
Ġbur ied
od acty
bat h
Ġpeel ing
gir ls
Ġcub s
Ġclear ly
Ġtor n
Ġlean ing
Ġoppos ites
Ġhid den
Ġbec ame
Ġfrustr ating
Ġbare ly
Ġcond uctor
Ġbub ba
sim ba
animal s
Ġfus sy
squir rel
Ġsch m
Ġjapan ese
Ġtwer p
Ġassoci ated
Ġfau cet
b rian
c ille
d ig
d ers
d ark
d anny
d rop
g igi
g iddy
h ung
h ins
j or
l unch
l van
p ea
s i
s ound
t ommy
t iny
w u
w rap
Ġw u
Ġd al
Ġm eadow
no ise
is her
Ġdo ck
Ġdo zen
es pecially
nd rika
or ter
Ġhe el
Ġr ise
Ġr aking
st ars
Ġn ie
Ġcan oe
Ġj aguar
do t
Ġpl ans
Ġwas her
my umm
let tuce
Ġshe d
ry an
us her
Ġback hoe
Ġbl ub
Ġbl onde
Ġoff icer
Ġne ct
Ġch ubby
Ġtr im
Ġpre p
ab ab
ree ze
Ġfl ick
Ġcolor ful
Ġsu lly
Ġwater fall
les t
Ġhead ed
Ġwr ink
Ġsm ith
Ġhat ch
Ġro ver
ma ggie
Ġtable cloth
Ġthrow s
Ġam erican
sha dow
br uary
Ġpo x
cl os
Ġboo ster
sy lvan
Ġtick ly
Ġclo thing
Ġun pl
Ġfavor ites
Ġmess ing
Ġtast ed
Ġpa id
vis ible
Ġwarm er
Ġaw esome
Ġsmell ing
Ġcard inal
Ġking dom
Ġgeor gia
Ġplan ning
Ġfruit s
Ġsle dding
Ġsim ilar
lot te
Ġfold ed
Ġsmo ked
jo anna
Ġga ther
clean ing
erg ency
mu ch
Ġger m
Ġmer maid
bro ke
clo thes
Ġprote in
Ġsweep ing
climb ing
cap tain
Ġmum ma
Ġsilver ware
Ġell ie
Ġdolp hins
Ġcond ition
Ġbom ber
sim ple
Ġcreature s
Ġdisney land
uu w
Ġmechan ic
Ġent ire
Ġchica go
spell s
Ġmarshmallow s
Ġske leton
Ġbould er
Ġslo th
Ġobvious ly
Ġtran sc
Ġappre ci
Ġnect ar
b um
b ill
d ee
d ora
e na
f ace
f ield
g row
h ood
h irt
h umpty
k l
k le
l isa
n an
n uh
n sylvan
p as
p oss
s le
t ool
t ory
Ġi c
Ġs oopers
Ġthe e
Ġd ive
Ġg iggle
Ġc y
Ġc ush
ll en
ll ey
Ġp he
Ġl oops
Ġf et
ea sure
Ġon ion
Ġhe ck
Ġhe dge
na st
ight s
Ġk oosh
ad u
Ġn icky
Ġe cho
Ġst eel
Ġst yle
Ġj et
im y
all igator
Ġshe r
Ġea st
Ġea gle
wh oosh
ick a
Ġta b
Ġcar pen
Ġfr ance
Ġcl op
ber s
ain e
Ġor ig
Ġne ither
Ġch u
Ġal aska
Ġel ves
ab i
Ġwor th
pe red
pe pper
ish i
el bow
ump et
Ġho ll
Ġbet h
Ġsc rap
Ġsc ales
Ġgr ate
Ġmu ddy
Ġcr ust
Ġcr ashing
pl um
Ġsw eat
ub ub
Ġgreen s
Ġthrow n
Ġdin o
ba se
Ġsl am
Ġsl inky
Ġex press
Ġgrand addy
Ġsna ps
cl ing
Ġpar lor
Ġstr om
Ġun lo
Ġhung arian
bb ing
dd le
Ġpat tern
pre sent
Ġunt ied
era ld
Ġsix th
sp it
sp aghetti
igg ly
oun ce
Ġcrack ing
Ġjack ets
Ġpi k
Ġste gosaurus
tr ick
jam in
Ġhop ing
Ġland s
lea ves
stick s
stick er
Ġdes c
Ġcraw led
under neath
Ġrecord ed
walk er
Ġnurs es
fro gs
Ġtool box
pig let
love ly
Ġghost s
Ġdecor ate
Ġdecor ations
work s
Ġimag ination
geor gie
Ġsear s
Ġcass ie
Ġrep air
Ġpos ition
ru by
Ġreturn ed
Ġax e
Ġski ing
Ġore os
Ġbrend on
Ġsqueez ing
Ġker mit
Ġflam ingo
tow el
idd ler
Ġcigare tte
jes se
smo ke
Ġalad ar
Ġjour ney
Ġig nore
Ġcarn ival
sees aw
gare t
hung ry
nsylvan ia
e ms
g os
j on
j ill
k uh
l ies
l aug
m int
m artin
p os
r al
s andy
s uit
s ley
t ly
v oom
v iolin
z ipper
Ġ est
Ġt um
Ġt rot
Ġa ut
Ġa un
Ġa choo
Ġw ink
Ġw ise
Ġs ou
Ġs ur
Ġthe rm
Ġd oot
Ġd imes
Ġb ong
an che
Ġg erald
Ġc oop
Ġl un
Ġl ent
Ġf izz
Ġf ault
Ġdo c
Ġdo ve
Ġdo pe
Ġo per
Ġh ump
ig u
ig or
le ction
Ġr umble
Ġno ah
ook y
Ġk ettle
ad ed
Ġli qu
Ġba k
as y
Ġbe gg
ho ly
Ġst air
Ġre pl
Ġj ason
Ġgon ga
ake d
am as
pp ets
un ched
Ġsp ort
Ġsh orter
Ġal monds
so ap
Ġwill ie
Ġbu dd
Ġho e
Ġpret t
Ġtra ce
