{"[BOS]":0,"[PAD]":1,"[EOS]":2,"[UNK]":3,"[MASK]":4,"!":5,"\"":6,"#":7,"$":8,"%":9,"&":10,"'":11,"(":12,")":13,"*":14,"+":15,",":16,"-":17,".":18,"/":19,"0":20,"1":21,"2":22,"3":23,"4":24,"5":25,"6":26,"7":27,"8":28,"9":29,":":30,";":31,"<":32,"=":33,">":34,"?":35,"@":36,"A":37,"B":38,"C":39,"D":40,"E":41,"F":42,"G":43,"H":44,"I":45,"J":46,"K":47,"L":48,"M":49,"N":50,"O":51,"P":52,"Q":53,"R":54,"S":55,"T":56,"U":57,"V":58,"W":59,"X":60,"Y":61,"Z":62,"[":63,"\\":64,"]":65,"^":66,"_":67,"`":68,"a":69,"b":70,"c":71,"d":72,"e":73,"f":74,"g":75,"h":76,"i":77,"j":78,"k":79,"l":80,"m":81,"n":82,"o":83,"p":84,"q":85,"r":86,"s":87,"t":88,"u":89,"v":90,"w":91,"x":92,"y":93,"z":94,"{":95,"|":96,"}":97,"~":98,"¡":99,"¢":100,"£":101,"¤":102,"¥":103,"¦":104,"§":105,"¨":106,"©":107,"ª":108,"«":109,"¬":110,"®":111,"¯":112,"°":113,"±":114,"²":115,"³":116,"´":117,"µ":118,"¶":119,"·":120,"¸":121,"¹":122,"º":123,"»":124,"¼":125,"½":126,"¾":127,"¿":128,"À":129,"Á":130,"Â":131,"Ã":132,"Ä":133,"Å":134,"Æ":135,"Ç":136,"È":137,"É":138,"Ê":139,"Ë":140,"Ì":141,"Í":142,"Î":143,"Ï":144,"Ð":145,"Ñ":146,"Ò":147,"Ó":148,"Ô":149,"Õ":150,"Ö":151,"×":152,"Ø":153,"Ù":154,"Ú":155,"Û":156,"Ü":157,"Ý":158,"Þ":159,"ß":160,"à":161,"á":162,"â":163,"ã":164,"ä":165,"å":166,"æ":167,"ç":168,"è":169,"é":170,"ê":171,"ë":172,"ì":173,"í":174,"î":175,"ï":176,"ð":177,"ñ":178,"ò":179,"ó":180,"ô":181,"õ":182,"ö":183,"÷":184,"ø":185,"ù":186,"ú":187,"û":188,"ü":189,"ý":190,"þ":191,"ÿ":192,"Ā":193,"ā":194,"Ă":195,"ă":196,"Ą":197,"ą":198,"Ć":199,"ć":200,"Ĉ":201,"ĉ":202,"Ċ":203,"ċ":204,"Č":205,"č":206,"Ď":207,"ď":208,"Đ":209,"đ":210,"Ē":211,"ē":212,"Ĕ":213,"ĕ":214,"Ė":215,"ė":216,"Ę":217,"ę":218,"Ě":219,"ě":220,"Ĝ":221,"ĝ":222,"Ğ":223,"ğ":224,"Ġ":225,"ġ":226,"Ģ":227,"ģ":228,"Ĥ":229,"ĥ":230,"Ħ":231,"ħ":232,"Ĩ":233,"ĩ":234,"Ī":235,"ī":236,"Ĭ":237,"ĭ":238,"Į":239,"į":240,"İ":241,"ı":242,"Ĳ":243,"ĳ":244,"Ĵ":245,"ĵ":246,"Ķ":247,"ķ":248,"ĸ":249,"Ĺ":250,"ĺ":251,"Ļ":252,"ļ":253,"Ľ":254,"ľ":255,"Ŀ":256,"ŀ":257,"Ł":258,"ł":259,"Ń":260,"Ġt":261,"Ġ.":262,"he":263,"Ġ?":264,"ou":265,"ha":266,"you":267,"re":268,"Ġa":269,"Ġi":270,"Ġw":271,"hat":272,"Ġs":273,"Ġthe":274,"Ġyou":275,"in":276,"Ġd":277,"on":278,"Ġb":279,"'s":280,"an":281,"Ġg":282,"Ġc":283,"Ġm":284,"ll":285,"oo":286,"ing":287,"Ġp":288,"Ġl":289,"ay":290,"no":291,"Ġit":292,"er":293,"Ġto":294,"it":295,"is":296,"Ġf":297,"Ġdo":298,"et":299,"Ġthat":300,"Ġo":301,"Ġth":302,"es":303,"here":304,"ea":305,"Ġon":306,"Ġh":307,"om":308,"what":309,"se":310,"ke":311,"nd":312,"Ġha":313,"ig":314,"ve":315,"or":316,"'t":317,"Ġgo":318,"le":319,"Ġis":320,"id":321,"Ġin":322,"ee":323,"oh":324,"ut":325,"ht":326,"Ġhe":327,"ow":328,"Ġr":329,"Ġwe":330,"ck":331,"na":332,"kay":333,"ight":334,"Ġand":335,"ar":336,"Ġno":337,"Ġwhat":338,"ook":339,"st":340,"Ġyour":341,"the":342,"Ġthis":343,"Ġk":344,"Ġu":345,"at":346,"ad":347,"Ġwan":348,"ome":349,"okay":350,"ld":351,"Ġof":352,"that":353,"and":354,"yea":355,"Ġ!":356,"Ġli":357,"yeah":358,"Ġhave":359,"ir":360,"out":361,"'re":362,"Ġme":363,"now":364,"Ġn":365,"Ġba":366,"Ġdon":367,"ic":368,"Ġthere":369,"Ġe":370,"Ġone":371,"as":372,"Ġbe":373,"we":374,"ver":375,"ie":376,"Ġare":377,"Ġsee":378,"ho":379,"Ġlike":380,"Ġst":381,"Ġcan":382,"Ġhere":383,"Ġwant":384,"Ġre":385,"ink":386,"en":387,"Ġj":388,"im":389,"ch":390,"ood":391,"ith":392,"Ġfor":393,"Ġget":394,"al":395,"Ġdid":396,"all":397,"itt":398,"Ġput":399,"Ġgon":400,"Ġwith":401,"Ġknow":402,"ould":403,"do":404,"Ġright":405,"Ġup":406,"ur":407,"ake":408,"Ġgonna":409,"th":410,"ed":411,"am":412,"Ġthink":413,"'ll":414,"Ġpl":415,"where":416,"pp":417,"Ġat":418,"Ġwas":419,"un":420,"ittle":421,"Ġnot":422,"ust":423,"um":424,"ill":425,"Ġsome":426,"ther":427,"Ġlittle":428,"Ġthey":429,"Ġlook":430,"hm":431,"Ġan":432,"uh":433,"Ġall":434,"there":435,"Ġout":436,"my":437,"ra":438,"yes":439,"Ġgood":440,"one":441,"let":442,"Ġbo":443,"Ġshe":444,"ter":445,"how":446,"ore":447,"ell":448,"dy":449,"Ġsay":450,"ry":451,"Ġso":452,"right":453,"are":454,"Ġab":455,"Ġdoes":456,"ind":457,"wn":458,"'m":459,"can":460,"ro":461,"Ġthem":462,"Ġea":463,"Ġgoing":464,"han":465,"Ġmy":466,"very":467,"by":468,"ce":469,"Ġplay":470,"Ġgot":471,"Ġdown":472,"us":473,"who":474,"ommy":475,"wh":476,"Ġtoo":477,"ly":478,"Ġjust":479,"Ġabout":480,"well":481,"ice":482,"Ġnow":483,"ose":484,"au":485,"Ġwanna":486,"be":487,"nt":488,"ot":489,"look":490,"me":491,"ep":492,"ick":493,"Ġback":494,"Ġokay":495,"Ġher":496,"Ġlet":497,"hen":498,"il":499,"Ġbig":500,"Ġover":501,"Ġco":502,"Ġhim":503,"Ġta":504,"op":505,"ear":506,"ty":507,"Ġdoing":508,"Ġhis":509,"oug":510,"Ġmommy":511,"Ġeat":512,"aha":513,"addy":514,"ide":515,"did":516,"uck":517,"Ġcar":518,"ive":519,"Ġbl":520,"Ġif":521,"Ġmake":522,"ge":523,"Ġna":524,"ure":525,"Ġsa":526,"Ġy":527,"Ġbut":528,"eed":529,"ause":530,"ound":531,"Ġbaby":532,"Ġsp":533,"Ġbook":534,"ally":535,"Ġfr":536,"Ġmore":537,"Ġwh":538,"Ġwhere":539,"Ġcl":540,"ber":541,"ain":542,"mhm":543,"Ġcome":544,"Ġtake":545,"cause":546,"day":547,"this":548,"ff":549,"Ġthen":550,"Ġoff":551,"Ġor":552,"Ġhow":553,"come":554,"hing":555,"Ġany":556,"Ġread":557,"she":558,"wo":559,"oney":560,"qu":561,"ah":562,"Ġne":563,"Ġsh":564,"Ġneed":565,"Ġdaddy":566,"Ġch":567,"Ġal":568,"omet":569,"ap":570,"why":571,"Ġel":572,"they":573,"ies":574,"Ġwhen":575,"Ġwho":576,"ak":577,"ast":578,"Ġwould":579,"Ġtr":580,"ong":581,"hank":582,"Ġvery":583,"our":584,"Ġpre":585,"Ġbr":586,"Ġhapp":587,"so":588,"see":589,"Ġother":590,"Ġthing":591,"ite":592,"Ġwill":593,"ny":594,"urn":595,"ouse":596,"Ġbu":597,"oop":598,"Ġsomet":599,"Ġwere":600,"ine":601,"mm":602,"os":603,"ant":604,"alk":605,"Ġelse":606,"ue":607,"ab":608,"gg":609,"Ġhas":610,"ough":611,"ime":612,"Ġwat":613,"Ġthese":614,"ers":615,"way":616,"ct":617,"Ġthose":618,"Ġwor":619,"up":620,"don":621,"Ġhuh":622,"ess":623,"Ġar":624,"oom":625,"Ġtell":626,"ul":627,"art":628,"ree":629,"pe":630,"row":631,"Ġfl":632,"Ġnice":633,"Ġball":634,"alright":635,"Ġsaid":636,"Ġdidn":637,"ack":638,"Ġway":639,"Ġsomething":640,"Ġman":641,"Ġcould":642,"ock":643,"Ġtwo":644,"Ġmo":645,"Ġbir":646,"good":647,"mber":648,"but":649,"Ġhappen":650,"Ġhoney":651,"Ġtime":652,"huh":653,"Ġyeah":654,"Ġboy":655,"ble":656,"oor":657,"ish":658,"bo":659,"el":660,"ush":661,"Ġdr":662,"Ġcom":663,"member":664,"ump":665,"Ġag":666,"to":667,"Ġkind":668,"Ġby":669,"ool":670,"Ġas":671,"lp":672,"ting":673,"aybe":674,"Ġoh":675,"Ġhouse":676,"Ġho":677,"Ġpret":678,"unny":679,"put":680,"Ġcat":681,"Ġpu":682,"lor":683,"Ġcha":684,"Ġgoes":685,"Ġhad":686,"Ġhand":687,"nother":688,"Ġanother":689,"if":690,"get":691,"Ġgive":692,"Ġsit":693,"Ġturn":694,"Ġdoesn":695,"Ġcall":696,"Ġtry":697,"Ġagain":698,"'d":699,"ix":700,"thank":701,"Ġlo":702,"ame":703,"iss":704,"Ġhelp":705,"sh":706,"Ġbet":707,"Ġcolor":708,"her":709,"Ġgir":710,"aur":711,"Ġpic":712,"Ġsu":713,"Ġsc":714,"Ġreally":715,"Ġgre":716,"Ġtra":717,"ait":718,"Ġfind":719,"Ġgr":720,"li":721,"Ġbox":722,"Ġgu":723,"ild":724,"go":725,"Ġaway":726,"Ġsha":727,"thing":728,"Ġv":729,"Ġfa":730,"Ġname":731,"ture":732,"leep":733,"Ġbear":734,"ire":735,"Ġgirl":736,"Ġmean":737,"raw":738,"side":739,"Ġbecause":740,"Ġfrom":741,"ich":742,"ady":743,"Ġcook":744,"orn":745,"ys":746,"Ġus":747,"ease":748,"ere":749,"urt":750,"Ġpicture":751,"Ġshould":752,"Ġmu":753,"hey":754,"Ġwater":755,"Ġtalk":756,"ist":757,"Ġche":758,"Ġtoday":759,"Ġbird":760,"Ġdi":761,"ark":762,"oops":763,"because":764,"Ġaround":765,"Ġshow":766,"irst":767,"Ġbre":768,"Ġpretty":769,"Ġwent":770,"would":771,"Ġbed":772,"Ġremember":773,"les":774,"een":775,"ute":776,"Ġuse":777,"weet":778,"does":779,"Ġpe":780,"Ġpie":781,"Ġcr":782,"ven":783,"pl":784,"'ve":785,"age":786,"ip":787,"ang":788,"pen":789,"aper":790,"Ġqu":791,"Ġthings":792,"Ġchair":793,"ked":794,"Ġsw":795,"Ġsleep":796,"lf":797,"ving":798,"ion":799,"Ġsays":800,"Ġwon":801,"Ġyes":802,"Ġwork":803,"ent":804,"chool":805,"Ġmin":806,"Ġle":807,"ag":808,"ought":809,"Ġhappened":810,"ate":811,"ard":812,"Ġbetter":813,"Ġsho":814,"Ġlot":815,"Ġke":816,"ph":817,"Ġhold":818,"mo":819,"der":820,"wow":821,"Ġday":822,"just":823,"Ġhome":824,"hi":825,"Ġhead":826,"Ġred":827,"Ġopen":828,"Ġnight":829,"Ġnew":830,"Ġblue":831,"ol":832,"ile":833,"oot":834,"Ġwr":835,"Ġse":836,"nder":837,"ss":838,"Ġisn":839,"Ġschool":840,"Ġlooks":841,"Ġroom":842,"Ġfirst":843,"Ġwhy":844,"Ġdog":845,"ilk":846,"llo":847,"Ġmak":848,"Ġsm":849,"Ġplease":850,"Ġhair":851,"body":852,"Ġhat":853,"Ġwell":854,"Ġhor":855,"want":856,"Ġdraw":857,"ful":858,"Ġmuch":859,"Ġsweet":860,"Ġro":861,"ama":862,"eek":863,"maybe":864,"Ġju":865,"Ġlea":866,"eat":867,"Ġbit":868,"anna":869,"Ġevery":870,"Ġtruck":871,"ade":872,"Ġour":873,"Ġbat":874,"Ġhar":875,"ac":876,"ople":877,"ooh":878,"Ġdoll":879,"Ġen":880,"Ġbreak":881,"Ġdone":882,"Ġwait":883,"illy":884,"Ġtrain":885,"Ġsure":886,"Ġthree":887,"eet":888,"ug":889,"not":890,"Ġcalled":891,"Ġmilk":892,"Ġunder":893,"Ġkitt":894,"Ġstor":895,"Ġhm":896,"key":897,"wanna":898,"ass":899,"own":900,"xt":901,"uff":902,"Ġbye":903,"est":904,"aura":905,"Ġpeople":906,"zz":907,"outh":908,"Ġjo":909,"ready":910,"Ġfunny":911,"hed":912,"ma":913,"ves":914,"Ġmon":915,"ouch":916,"cle":917,"ellow":918,"Ġduck":919,"mommy":920,"when":921,"Ġmat":922,"Ġhear":923,"your":924,"Ġready":925,"Ġmouth":926,"Ġpaper":927,"Ġtable":928,"Ġminute":929,"ta":930,"fter":931,"Ġinto":932,"Ġmany":933,"Ġwear":934,"Ġbring":935,"Ġdrink":936,"Ġtop":937,"ub":938,"Ġfix":939,"Ġpig":940,"Ġjuice":941,"Ġgreen":942,"Ġsqu":943,"tt":944,"ank":945,"Ġpick":946,"Ġpen":947,"Ġthank":948,"ne":949,"ons":950,"Ġthrow":951,"Ġfall":952,"ken":953,"Ġlong":954,"Ġlove":955,"ggie":956,"Ġdin":957,"Ġfin":958,"Ġbro":959,"irt":960,"Ġmight":961,"say":962,"Ġz":963,"eel":964,"Ġstory":965,"self":966,"Ġmade":967,"Ġmaybe":968,"Ġcle":969,"Ġstill":970,"Ġhard":971,"imal":972,"hello":973,"ace":974,"Ġpro":975,"Ġgetting":976,"Ġhurt":977,"Ġstay":978,"Ġwatch":979,"Ġcup":980,"Ġdoor":981,"Ġcare":982,"Ġkeep":983,"Ġma":984,"Ġlooking":985,"Ġbea":986,"iam":987,"Ġnose":988,"ous":989,"Ġanimal":990,"Ġclean":991,"Ġtheir":992,"daddy":993,"Ġdre":994,"which":995,"Ġpiece":996,"yep":997,"mi":998,"Ġsaw":999,"orning":1000,"ange":1001,"arah":1002,"Ġthought":1003,"Ġstick":1004,"Ġtea":1005,"Ġegg":1006,"Ġwalk":1007,"Ġfun":1008,"iend":1009,"Ġam":1010,"Ġnext":1011,"atch":1012,"Ġgl":1013,"ise":1014,"Ġtoys":1015,"ppy":1016,"Ġmorning":1017,"Ġcow":1018,"Ġfish":1019,"ds":1020,"Ġtape":1021,"Ġsupp":1022,"ba":1023,"Ġblock":1024,"fore":1025,"Ġsing":1026,"Ġuh":1027,"Ġfriend":1028,"Ġcomes":1029,"gether":1030,"Ġfloor":1031,"Ġeating":1032,"Ġyellow":1033,"then":1034,"ummy":1035,"Ġafter":1036,"Ġold":1037,"unch":1038,"Ġcookie":1039,"Ġtogether":1040,"Ġbunny":1041,"Ġwhe":1042,"cor":1043,"Ġplaying":1044,"bl":1045,"ater":1046,"should":1047,"oon":1048,"kes":1049,"two":1050,"sha":1051,"Ġear":1052,"Ġpot":1053,"Ġmic":1054,"ually":1055,"Ġapp":1056,"Ġsl":1057,"Ġpush":1058,"like":1059,"Ġsweetie":1060,"ft":1061,"Ġpart":1062,"Ġclose":1063,"Ġlast":1064,"Ġpull":1065,"Ġstuff":1066,"Ġlaura":1067,"Ġsilly":1068,"ri":1069,"Ġbus":1070,"phone":1071,"Ġkittie":1072,"Ġcoming":1073,"oss":1074,"more":1075,"red":1076,"bye":1077,"rough":1078,"thday":1079,"Ġdiff":1080,"Ġthough":1081,"Ġex":1082,"Ġmaking":1083,"yay":1084,"Ġfood":1085,"Ġlight":1086,"Ġfing":1087,"ash":1088,"Ġbott":1089,"hose":1090,"ane":1091,"Ġwants":1092,"whoops":1093,"Ġad":1094,"Ġhands":1095,"arm":1096,"air":1097,"Ġface":1098,"aw":1099,"Ġbefore":1100,"Ġbirthday":1101,"Ġfeel":1102,"urp":1103,"Ġcut":1104,"those":1105,"Ġgreat":1106,"Ġfit":1107,"Ġthrough":1108,"ull":1109,"Ġcame":1110,"Ġum":1111,"Ġdiffere":1112,"Ġjob":1113,"Ġtree":1114,"Ġfoot":1115,"for":1116,"ster":1117,"Ġsor":1118,"Ġbuild":1119,"Ġair":1120,"Ġwhile":1121,"king":1122,"Ġoutside":1123,"Ġbath":1124,"Ġbag":1125,"Ġalright":1126,"Ġstore":1127,"Ġanything":1128,"Ġcou":1129,"Ġleave":1130,"tell":1131,"Ġride":1132,"Ġeyes":1133,"ima":1134,"Ġkiss":1135,"ye":1136,"Ġfour":1137,"Ġbeen":1138,"br":1139,"Ġgone":1140,"Ġfell":1141,"Ġhorse":1142,"Ġtire":1143,"ream":1144,"Ġpo":1145,"wait":1146,"Ġjump":1147,"ton":1148,"Ġbuy":1149,"ese":1150,"Ġgrand":1151,"Ġmama":1152,"rew":1153,"Ġrecor":1154,"Ġyet":1155,"Ġstart":1156,"ave":1157,"Ġsna":1158,"cl":1159,"Ġdifferent":1160,"Ġboo":1161,"Ġdoggie":1162,"Ġhot":1163,"man":1164,"irty":1165,"Ġem":1166,"ung":1167,"ctor":1168,"Ġgotta":1169,"Ġmark":1170,"Ġinside":1171,"Ġside":1172,"Ġmust":1173,"sed":1174,"Ġeven":1175,"head":1176,"Ġrun":1177,"Ġchild":1178,"Ġonly":1179,"ister":1180,"Ġcold":1181,"Ġsk":1182,"Ġreal":1183,"Ġfive":1184,"itting":1185,"Ġenough":1186,"bit":1187,"Ġstand":1188,"fast":1189,"some":1190,"Ġpet":1191,"Ġid":1192,"whoa":1193,"ts":1194,"Ġtouch":1195,"remember":1196,"ond":1197,"Ġmove":1198,"osaur":1199,"Ġross":1200,"Ġbad":1201,"Ġsnow":1202,"Ġfire":1203,"Ġorange":1204,"Ġsong":1205,"Ġletter":1206,"Ġmother":1207,"Ġele":1208,"ness":1209,"Ġwheel":1210,"pped":1211,"isten":1212,"ball":1213,"Ġbar":1214,"Ġguess":1215,"Ġwrite":1216,"Ġidea":1217,"ins":1218,"end":1219,"Ġmoney":1220,"Ġdan":1221,"Ġmom":1222,"oman":1223,"bab":1224,"Ġones":1225,"Ġbutter":1226,"vor":1227,"ren":1228,"Ġwind":1229,"lex":1230,"co":1231,"Ġsuppose":1232,"Ġwilliam":1233,"Ġtom":1234,"Ġwhite":1235,"Ġanimals":1236,"oof":1237,"turn":1238,"ger":1239,"Ġshoes":1240,"imes":1241,"Ġpage":1242,"watch":1243,"will":1244,"Ġlater":1245,"Ġbreakfast":1246,"ana":1247,"ctually":1248,"Ġguy":1249,"sy":1250,"airs":1251,"Ġpar":1252,"iel":1253,"with":1254,"Ġflow":1255,"ina":1256,"most":1257,"eep":1258,"Ġcra":1259,"che":1260,"Ġkid":1261,"gs":1262,"Ġfeet":1263,"ont":1264,"Ġahead":1265,"Ġhi":1266,"Ġcho":1267,"Ġyourself":1268,"ffee":1269,"Ġtrying":1270,"ary":1271,"got":1272,"Ġbel":1273,"Ġapple":1274,"Ġshirt":1275,"Ġcream":1276,"Ġlady":1277,"Ġsand":1278,"shall":1279,"Ġtick":1280,"Ġcray":1281,"iding":1282,"icken":1283,"Ġfound":1284,"aboo":1285,"bably":1286,"Ġgoodness":1287,"cy":1288,"Ġsound":1289,"sure":1290,"Ġsaying":1291,"Ġcheese":1292,"Ġnap":1293,"ied":1294,"Ġcareful":1295,"Ġrock":1296,"Ġer":1297,"Ġcry":1298,"Ġcir":1299,"Ġde":1300,"Ġnum":1301,"Ġswim":1302,"Ġfro":1303,"was":1304,"fr":1305,"Ġbooks":1306,"Ġtook":1307,"igh":1308,"Ġda":1309,"Ġcam":1310,"Ġsupposed":1311,"Ġblocks":1312,"Ġstr":1313,"Ġbow":1314,"Ġhappy":1315,"Ġsec":1316,"Ġadam":1317,"Ġend":1318,"Ġaren":1319,"ants":1320,"itc":1321,"Ġtalking":1322,"Ġthan":1323,"io":1324,"Ġsame":1325,"ces":1326,"give":1327,"Ġcoffee":1328,"Ġtoy":1329,"Ġfly":1330,"Ġnever":1331,"Ġbite":1332,"Ġchan":1333,"Ġstop":1334,"phan":1335,"Ġclo":1336,"Ġun":1337,"terday":1338,"Ġsitting":1339,"have":1340,"really":1341,"Ġputting":1342,"Ġroll":1343,"Ġsorry":1344,"Ġhung":1345,"Ġwhich":1346,"Ġrab":1347,"rophone":1348,"Ġalready":1349,"Ġwhole":1350,"Ġchoo":1351,"Ġice":1352,"ia":1353,"Ġlunch":1354,"take":1355,"Ġplace":1356,"Ġrabbit":1357,"ner":1358,"Ġsarah":1359,"Ġmiss":1360,"Ġset":1361,"Ġte":1362,"Ġabe":1363,"Ġchicken":1364,"Ġnomi":1365,"Ġdinosaur":1366,"bb":1367,"ls":1368,"eekaboo":1369,"eeth":1370,"Ġmouse":1371,"room":1372,"Ġgame":1373,"Ġdri":1374,"Ġask":1375,"Ġph":1376,"ope":1377,"Ġcookies":1378,"sit":1379,"push":1380,"Ġeverything":1381,"gre":1382,"la":1383,"ished":1384,"Ġstuck":1385,"Ġyours":1386,"Ġever":1387,"dd":1388,"col":1389,"aug":1390,"Ġprobably":1391,"Ġspoon":1392,"Ġpretend":1393,"Ġnaima":1394,"Ġgra":1395,"Ġyesterday":1396,"cks":1397,"Ġactually":1398,"Ġarm":1399,"Ġmicrophone":1400,"ci":1401,"Ġgave":1402,"Ġlive":1403,"Ġtired":1404,"Ġteeth":1405,"Ġbang":1406,"Ġcatch":1407,"Ġpat":1408,"Ġra":1409,"Ġblack":1410,"orrow":1411,"ross":1412,"Ġring":1413,"Ġpuzz":1414,"Ġsmall":1415,"sc":1416,"Ġwasn":1417,"than":1418,"ation":1419,"Ġnoise":1420,"ipe":1421,"Ġhaving":1422,"Ġgosh":1423,"Ġboat":1424,"rs":1425,"Ġhungry":1426,"Ġwash":1427,"ethan":1428,"Ġelephan":1429,"ning":1430,"Ġwanted":1431,"Ġfavor":1432,"ze":1433,"Ġfinish":1434,"Ġrecorder":1435,"ars":1436,"pre":1437,"try":1438,"Ġrain":1439,"baby":1440,"Ġfo":1441,"Ġrest":1442,"Ġpop":1443,"Ġmakes":1444,"these":1445,"ways":1446,"thes":1447,"plane":1448,"Ġfinger":1449,"Ġweek":1450,"pping":1451,"iger":1452,"Ġmess":1453,"Ġleft":1454,"Ġhit":1455,"Ġunt":1456,"Ġlikes":1457,"Ġhors":1458,"Ġpol":1459,"Ġround":1460,"Ġmatter":1461,"Ġcake":1462,"urple":1463,"Ġhappens":1464,"Ġwrong":1465,"Ġfinished":1466,"Ġfast":1467,"Ġpictures":1468,"Ġcount":1469,"Ġblank":1470,"Ġalmost":1471,"stairs":1472,"Ġdirty":1473,"ator":1474,"Ġclothes":1475,"era":1476,"unk":1477,"thaniel":1478,"Ġwonder":1479,"Ġblow":1480,"Ġcute":1481,"Ġnumber":1482,"Ġtre":1483,"Ġwet":1484,"kin":1485,"Ġsix":1486,"ng":1487,"Ġbrush":1488,"Ġkno":1489,"Ġfavorite":1490,"Ġtail":1491,"Ġtaking":1492,"Ġdinner":1493,"Ġphone":1494,"Ġwindow":1495,"ano":1496,"Ġpain":1497,"Ġseen":1498,"gon":1499,"Ġsun":1500,"Ġneeds":1501,"ling":1502,"og":1503,"Ġparty":1504,"sent":1505,"Ġbell":1506,"Ġbottle":1507,"colate":1508,"ming":1509,"Ġmine":1510,"Ġpr":1511,"Ġbutton":1512,"Ġlots":1513,"ans":1514,"Ġdro":1515,"Ġbrown":1516,"Ġmonkey":1517,"Ġused":1518,"Ġdress":1519,"oseph":1520,"Ġtold":1521,"show":1522,"Ġsn":1523,"Ġmar":1524,"Ġbab":1525,"Ġglass":1526,"wel":1527,"isy":1528,"Ġpuzzle":1529,"hind":1530,"Ġairplane":1531,"Ġsecond":1532,"sk":1533,"Ġfront":1534,"Ġword":1535,"nie":1536,"eak":1537,"Ġnina":1538,"Ġalways":1539,"Ġgar":1540,"Ġlisten":1541,"Ġap":1542,"isn":1543,"Ġtast":1544,"Ġpresent":1545,"Ġelephant":1546,"Ġban":1547,"Ġfarm":1548,"ort":1549,"Ġslide":1550,"Ġpieces":1551,"mama":1552,"imb":1553,"Ġuntil":1554,"nty":1555,"yup":1556,"itchen":1557,"big":1558,"sarah":1559,"eal":1560,"ach":1561,"ew":1562,"Ġtow":1563,"Ġpants":1564,"Ġeggs":1565,"unt":1566,"Ġdad":1567,"pper":1568,"sp":1569,"Ġpink":1570,"Ġgets":1571,"Ġguys":1572,"ex":1573,"Ġca":1574,"stand":1575,"Ġboth":1576,"Ġstre":1577,"Ġsleeping":1578,"ocket":1579,"Ġmay":1580,"Ġsomebody":1581,"Ġyea":1582,"Ġmus":1583,"Ġbeing":1584,"Ġkitchen":1585,"ious":1586,"iny":1587,"ither":1588,"Ġscrew":1589,"Ġquack":1590,"cer":1591,"Ġtomorrow":1592,"Ġbabies":1593,"three":1594,"please":1595,"Ġhigh":1596,"Ġzoo":1597,"Ġgrandma":1598,"igg":1599,"Ġgrow":1600,"Ġbroken":1601,"Ġfriends":1602,"Ġchr":1603,"Ġdiaper":1604,"ding":1605,"Ġdoctor":1606,"Ġeng":1607,"Ġhole":1608,"Ġshall":1609,"Ġeye":1610,"umm":1611,"any":1612,"make":1613,"oun":1614,"Ġgi":1615,"Ġwearing":1616,"down":1617,"hold":1618,"Ġblanket":1619,"Ġlion":1620,"Ġbehind":1621,"Ġbowl":1622,"omas":1623,"fl":1624,"Ġdis":1625,"Ġeight":1626,"every":1627,"Ġpocket":1628,"Ġanymore":1629,"oup":1630,"pa":1631,"tere":1632,"Ġbump":1633,"Ġhaven":1634,"Ġkids":1635,"Ġmeans":1636,"Ġah":1637,"little":1638,"Ġspill":1639,"Ġcrack":1640,"led":1641,"Ġchocolate":1642,"care":1643,"Ġsoon":1644,"Ġpuppy":1645,"Ġseven":1646,"Ġflowers":1647,"somet":1648,"Ġpurple":1649,"ead":1650,"Ġchildren":1651,"andy":1652,"Ġlily":1653,"te":1654,"Ġten":1655,"Ġbi":1656,"Ġshoe":1657,"Ġlear":1658,"Ġcamera":1659,"peekaboo":1660,"Ġpeter":1661,"Ġcircle":1662,"Ġethan":1663,"boy":1664,"Ġclimb":1665,"cil":1666,"pack":1667,"Ġloo":1668,"nope":1669,"Ġbeaut":1670,"cial":1671,"mas":1672,"ps":1673,"Ġroman":1674,"Ġswimming":1675,"Ġbask":1676,"careful":1677,"Ġfingers":1678,"terest":1679,"Ġmusic":1680,"Ġbasket":1681,"Ġwow":1682,"Ġhang":1683,"Ġwel":1684,"Ġalso":1685,"Ġtoast":1686,"ider":1687,"Ġstar":1688,"hes":1689,"Ġdoo":1690,"Ġcorn":1691,"Ġspe":1692,"Ġmov":1693,"Ġtickle":1694,"Ġbeach":1695,"Ġwelcome":1696,"pt":1697,"Ġeither":1698,"Ġswing":1699,"alex":1700,"per":1701,"Ġton":1702,"Ġdolly":1703,"Ġpolice":1704,"Ġdrive":1705,"av":1706,"ssed":1707,"aul":1708,"idge":1709,"Ġjen":1710,"Ġate":1711,"open":1712,"iful":1713,"Ġchrist":1714,"Ġsad":1715,"Ġmoon":1716,"Ġtele":1717,"dle":1718,"ato":1719,"Ġbottom":1720,"ily":1721,"Ġown":1722,"Ġmag":1723,"Ġbread":1724,"Ġla":1725,"Ġkinda":1726,"Ġnathaniel":1727,"Ġcrayons":1728,"Ġcars":1729,"Ġwouldn":1730,"gu":1731,"pes":1732,"Ġwall":1733,"Ġleg":1734,"Ġpencil":1735,"Ġseat":1736,"Ġstreet":1737,"Ġhello":1738,"Ġnur":1739,"Ġac":1740,"Ġyog":1741,"Ġjack":1742,"Ġcrying":1743,"fe":1744,"Ġpark":1745,"Ġdump":1746,"erson":1747,"Ġscare":1748,"Ġdry":1749,"Ġinterest":1750,"Ġfrog":1751,"Ġneck":1752,"Ġpee":1753,"cing":1754,"mon":1755,"Ġsheep":1756,"Ġcere":1757,"oud":1758,"Ġpa":1759,"Ġmonster":1760,"Ġshake":1761,"Ġchange":1762,"ert":1763,"laura":1764,"Ġfine":1765,"Ġcereal":1766,"Ġalex":1767,"Ġkn":1768,"anta":1769,"another":1770,"ries":1771,"Ġfeed":1772,"Ġchew":1773,"Ġengine":1774,"Ġlearn":1775,"cked":1776,"Ġmail":1777,"Ġbackpack":1778,"Ġsquare":1779,"Ġwheels":1780,"ity":1781,"utes":1782,"Ġapart":1783,"Ġspecial":1784,"gr":1785,"Ġcool":1786,"bble":1787,"Ġcolors":1788,"int":1789,"Ġears":1790,"cha":1791,"Ġbest":1792,"Ġri":1793,"ucky":1794,"Ġminutes":1795,"Ġpigg":1796,"Ġbeautiful":1797,"Ġtiny":1798,"pret":1799,"ring":1800,"ugg":1801,"Ġaha":1802,"could":1803,"use":1804,"Ġsleepy":1805,"vis":1806,"Ġchristmas":1807,"ple":1808,"Ġcon":1809,"Ġspell":1810,"Ġperson":1811,"Ġpump":1812,"ord":1813,"Ġbigger":1814,"Ġcarry":1815,"Ġsometimes":1816,"Ġcouldn":1817,"Ġholding":1818,"Ġbrother":1819,"his":1820,"Ġtv":1821,"Ġfar":1822,"Ġinst":1823,"Ġscr":1824,"over":1825,"Ġjoseph":1826,"Ġcheck":1827,"pet":1828,"car":1829,"boo":1830,"Ġtonight":1831,"ove":1832,"Ġpi":1833,"blue":1834,"sw":1835,"Ġwood":1836,"anut":1837,"Ġhiding":1838,"Ġwords":1839,"Ġexc":1840,"aff":1841,"ten":1842,"Ġturt":1843,"Ġoink":1844,"wenty":1845,"Ġforgot":1846,"Ġwee":1847,"otor":1848,"Ġsister":1849,"itch":1850,"Ġsuch":1851,"aught":1852,"Ġfew":1853,"Ġmovie":1854,"Ġmir":1855,"honey":1856,"angle":1857,"Ġeve":1858,"woo":1859,"Ġcomb":1860,"Ġfather":1861,"Ġwarm":1862,"umb":1863,"play":1864,"Ġmarky":1865,"Ġpaint":1866,"iet":1867,"Ġlost":1868,"Ġpill":1869,"Ġthomas":1870,"Ġground":1871,"Ġknock":1872,"Ġbanana":1873,"ey":1874,"Ġow":1875,"Ġbug":1876,"Ġlegs":1877,"Ġdance":1878,"ian":1879,"ards":1880,"Ġtall":1881,"pull":1882,"new":1883,"Ġdear":1884,"Ġpus":1885,"akes":1886,"mmer":1887,"doh":1888,"gar":1889,"nice":1890,"hee":1891,"Ġhorsie":1892,"Ġper":1893,"ides":1894,"Ġasked":1895,"fly":1896,"Ġsal":1897,"squ":1898,"Ġsick":1899,"Ġcrayon":1900,"Ġnine":1901,"iolet":1902,"erry":1903,"Ġfull":1904,"Ġste":1905,"Ġbroke":1906,"Ġpotty":1907,"ount":1908,"Ġchick":1909,"ddy":1910,"Ġwin":1911,"Ġeach":1912,"Ġboun":1913,"Ġclown":1914,"lin":1915,"app":1916,"Ġtummy":1917,"Ġspider":1918,"Ġvis":1919,"Ġdel":1920,"Ġeverybody":1921,"william":1922,"gonna":1923,"da":1924,"Ġyogurt":1925,"Ġsocks":1926,"Ġunderstand":1927,"bbles":1928,"too":1929,"llow":1930,"uit":1931,"Ġmix":1932,"looks":1933,"tr":1934,"Ġyear":1935,"iff":1936,"Ġtoes":1937,"Ġhug":1938,"Ġheard":1939,"ets":1940,"Ġcarro":1941,"ula":1942,"Ġvisit":1943,"Ġmm":1944,"Ġaw":1945,"une":1946,"berry":1947,"ald":1948,"ada":1949,"Ġtaste":1950,"Ġaunt":1951,"Ġhope":1952,"Ġdressed":1953,"Ġsky":1954,"ches":1955,"jam":1956,"Ġtw":1957,"Ġsoup":1958,"Ġplate":1959,"Ġmotor":1960,"Ġhalf":1961,"Ġpupp":1962,"Ġwalking":1963,"Ġdark":1964,"Ġflower":1965,"Ġsat":1966,"Ġshar":1967,"ment":1968,"Ġlap":1969,"Ġreading":1970,"ror":1971,"eddy":1972,"Ġpillow":1973,"four":1974,"lla":1975,"unn":1976,"Ġnam":1977,"ouble":1978,"throw":1979,"Ġbirds":1980,"ca":1981,"cher":1982,"Ġspot":1983,"Ġge":1984,"Ġsnake":1985,"Ġbelong":1986,"Ġpour":1987,"anda":1988,"Ġsmell":1989,"Ġtower":1990,"Ġtowel":1991,"Ġgrass":1992,"cr":1993,"naima":1994,"Ġsandw":1995,"Ġsounds":1996,"Ġboys":1997,"whose":1998,"Ġbrought":1999,"Ġtelephone":2000,"Ġturtle":2001,"Ġstra":2002,"amb":2003,"Ġsomewhere":2004,"Ġplaydoh":2005,"uela":2006,"Ġletters":2007,"ms":2008,"Ġstep":2009,"Ġquite":2010,"Ġworking":2011,"Ġwipe":2012,"Ġsanta":2013,"Ġthinking":2014,"Ġboom":2015,"vel":2016,"Ġlooked":2017,"Ġbuck":2018,"Ġupstairs":2019,"roll":2020,"sing":2021,"great":2022,"de":2023,"adam":2024,"Ġclos":2025,"Ġhop":2026,"Ġyummy":2027,"Ġpeanut":2028,"hun":2029,"Ġmirror":2030,"Ġpan":2031,"ors":2032,"Ġcover":2033,"ince":2034,"Ġbubbles":2035,"Ġrunning":2036,"Ġstring":2037,"Ġcandy":2038,"Ġriding":2039,"icious":2040,"Ġbee":2041,"Ġhide":2042,"Ġsupper":2043,"Ġbout":2044,"yeh":2045,"zy":2046,"ier":2047,"iting":2048,"Ġtrue":2049,"estion":2050,"Ġtight":2051,"amp":2052,"Ġroad":2053,"green":2054,"Ġsugar":2055,"Ġinteresting":2056,"Ġmoo":2057,"ney":2058,"urpr":2059,"Ġwo":2060,"Ġnothing":2061,"Ġpumpkin":2062,"fish":2063,"Ġpin":2064,"ird":2065,"Ġbeg":2066,"listen":2067,"Ġhammer":2068,"Ġtiger":2069,"Ġmel":2070,"able":2071,"issa":2072,"Ġcouple":2073,"Ġcla":2074,"Ġquiet":2075,"Ġbusy":2076,"Ġbarn":2077,"abe":2078,"Ġscared":2079,"bow":2080,"were":2081,"ction":2082,"Ġdra":2083,"book":2084,"tle":2085,"time":2086,"Ġcause":2087,"Ġstraw":2088,"Ġdrawing":2089,"Ġkick":2090,"Ġcirc":2091,"pretty":2092,"Ġneat":2093,"therine":2094,"avy":2095,"icy":2096,"iz":2097,"Ġsli":2098,"nomi":2099,"Ġlives":2100,"aren":2101,"ever":2102,"Ġsea":2103,"ieve":2104,"apa":2105,"Ġtri":2106,"Ġtrees":2107,"Ġpoliceman":2108,"bre":2109,"Ġgro":2110,"stop":2111,"Ġgrandpa":2112,"Ġham":2113,"Ġwoof":2114,"Ġsandwich":2115,"Ġmed":2116,"Ġquestion":2117,"agon":2118,"Ġcard":2119,"Ġbridge":2120,"Ġteddy":2121,"think":2122,"Ġbuilding":2123,"ik":2124,"Ġboot":2125,"Ġsomeone":2126,"Ġtrip":2127,"ache":2128,"Ġdriver":2129,"lie":2130,"Ġhey":2131,"Ġhappening":2132,"Ġgiving":2133,"sweet":2134,"ork":2135,"aroo":2136,"Ġjam":2137,"Ġable":2138,"Ġworks":2139,"Ġmeat":2140,"Ġfalling":2141,"Ġclosed":2142,"close":2143,"hael":2144,"Ġtooth":2145,"angaroo":2146,"boom":2147,"mark":2148,"tons":2149,"Ġhu":2150,"Ġwatching":2151,"Ġballoon":2152,"Ġglasses":2153,"Ġtub":2154,"Ġinstead":2155,"bage":2156,"oy":2157,"Ġtwenty":2158,"lly":2159,"Ġchar":2160,"Ġtractor":2161,"Ġproble":2162,"Ġdancing":2163,"rel":2164,"Ġhipp":2165,"Ġfre":2166,"Ġmax":2167,"Ġrais":2168,"Ġbought":2169,"iddle":2170,"Ġsurpr":2171,"ils":2172,"Ġtrouble":2173,"Ġmanuela":2174,"exc":2175,"dr":2176,"Ġlil":2177,"ask":2178,"uper":2179,"Ġstraight":2180,"Ġlate":2181,"rench":2182,"cycle":2183,"Ġliving":2184,"Ġupside":2185,"Ġbike":2186,"bet":2187,"Ġpea":2188,"Ġits":2189,"Ġforget":2190,"Ġsoft":2191,"Ġmr":2192,"Ġking":2193,"ence":2194,"unnel":2195,"Ġcour":2196,"Ġbelieve":2197,"ance":2198,"Ġheavy":2199,"alie":2200,"friger":2201,"wee":2202,"Ġpaul":2203,"Ġloud":2204,"Ġfam":2205,"onk":2206,"Ġoat":2207,"Ġru":2208,"urry":2209,"berries":2210,"pty":2211,"Ġknew":2212,"Ġrob":2213,"frigerator":2214,"five":2215,"tra":2216,"pick":2217,"Ġyum":2218,"Ġdogs":2219,"Ġtunnel":2220,"Ġpack":2221,"Ġland":2222,"ohn":2223,"Ġhee":2224,"Ġreach":2225,"meow":2226,"Ġgarage":2227,"Ġmedic":2228,"Ġmister":2229,"Ġviolet":2230,"Ġdays":2231,"teen":2232,"issed":2233,"Ġbuttons":2234,"back":2235,"Ġwake":2236,"ummer":2237,"Ġbeep":2238,"after":2239,"Ġlaug":2240,"bring":2241,"Ġgeor":2242,"Ġrub":2243,"Ġbelly":2244,"moo":2245,"Ġband":2246,"Ġtrack":2247,"Ġbears":2248,"Ġdropped":2249,"Ġoli":2250,"Ġgirls":2251,"Ġtong":2252,"Ġonce":2253,"Ġrefrigerator":2254,"doesn":2255,"Ġturned":2256,"Ġmissing":2257,"kitt":2258,"roman":2259,"yellow":2260,"Ġusually":2261,"Ġclaus":2262,"cid":2263,"Ġurs":2264,"Ġmach":2265,"Ġline":2266,"Ġfig":2267,"Ġknows":2268,"thew":2269,"Ġshut":2270,"Ġshare":2271,"Ġstanding":2272,"Ġyay":2273,"Ġyep":2274,"Ġalone":2275,"Ġtrick":2276,"ctly":2277,"lea":2278,"Ġwithout":2279,"Ġcur":2280,"Ġran":2281,"mic":2282,"Ġbra":2283,"stick":2284,"Ġeasy":2285,"Ġanyway":2286,"Ġago":2287,"Ġlamb":2288,"Ġplayed":2289,"Ġbirdie":2290,"Ġflying":2291,"Ġarms":2292,"ones":2293,"Ġflo":2294,"Ġbatter":2295,"Ġding":2296,"aser":2297,"Ġmedicine":2298,"Ġursula":2299,"ines":2300,"Ġmad":2301,"Ġloves":2302,"Ġim":2303,"keep":2304,"Ġquick":2305,"oink":2306,"Ġhill":2307,"Ġnut":2308,"lily":2309,"Ġtongue":2310,"Ġdes":2311,"ica":2312,"ife":2313,"Ġdream":2314,"something":2315,"Ġter":2316,"choo":2317,"Ġdownstairs":2318,"Ġfox":2319,"Ġheart":2320,"Ġdrinking":2321,"Ġdelicious":2322,"Ġwoo":2323,"Ġbob":2324,"eve":2325,"may":2326,"night":2327,"set":2328,"wards":2329,"Ġpoor":2330,"Ġalong":2331,"Ġvac":2332,"Ġsort":2333,"Ġfigure":2334,"ony":2335,"Ġclass":2336,"ize":2337,"ital":2338,"umble":2339,"Ġsticky":2340,"gan":2341,"Ġsummer":2342,"Ġcouch":2343,"hoe":2344,"Ġdriving":2345,"ase":2346,"hy":2347,"Ġcoat":2348,"Ġdollars":2349,"Ġgarbage":2350,"Ġwaiting":2351,"affe":2352,"ler":2353,"Ġtie":2354,"Ġcaught":2355,"Ġreg":2356,"Ġdaisy":2357,"Ġproblem":2358,"Ġmiddle":2359,"thanks":2360,"Ġempty":2361,"poor":2362,"child":2363,"urkey":2364,"Ġkinds":2365,"entle":2366,"bur":2367,"meal":2368,"Ġwigg":2369,"ggy":2370,"Ġleaves":2371,"Ġteacher":2372,"em":2373,"fin":2374,"Ġsnack":2375,"peter":2376,"Ġed":2377,"Ġtelling":2378,"ched":2379,"Ġkangaroo":2380,"box":2381,"Ġcracker":2382,"oons":2383,"Ġsam":2384,"Ġbeans":2385,"Ġasleep":2386,"brush":2387,"Ġmeet":2388,"Ġballs":2389,"sometimes":2390,"icycle":2391,"ib":2392,"Ġtriangle":2393,"Ġfamily":2394,"com":2395,"ud":2396,"Ġbounce":2397,"hum":2398,"Ġsuper":2399,"Ġlad":2400,"Ġfixed":2401,"Ġmotorcycle":2402,"mom":2403,"Ġclock":2404,"jamas":2405,"duck":2406,"Ġpast":2407,"Ġdonkey":2408,"Ġshape":2409,"eh":2410,"Ġhos":2411,"ens":2412,"pu":2413,"elly":2414,"whoop":2415,"Ġcarri":2416,"Ġwha":2417,"Ġgoo":2418,"Ġturning":2419,"somebody":2420,"Ġrice":2421,"Ġfork":2422,"Ġsinging":2423,"Ġbutterfly":2424,"bug":2425,"help":2426,"Ġdough":2427,"Ġmind":2428,"Ġpool":2429,"Ġpooh":2430,"Ġpeekaboo":2431,"har":2432,"Ġpay":2433,"keys":2434,"ower":2435,"Ġnear":2436,"pat":2437,"pop":2438,"Ġfight":2439,"Ġspl":2440,"Ġmomma":2441,"Ġrat":2442,"Ġrug":2443,"Ġstairs":2444,"Ġscary":2445,"zzy":2446,"vid":2447,"ign":2448,"orange":2449,"Ġben":2450,"Ġtrucks":2451,"ates":2452,"iling":2453,"ully":2454,"Ġwa":2455,"Ġplane":2456,"didn":2457,"ron":2458,"Ġty":2459,"Ġwal":2460,"nothing":2461,"Ġthirty":2462,"Ġshort":2463,"Ġbugs":2464,"Ġpotato":2465,"sweetie":2466,"Ġgold":2467,"Ġbody":2468,"six":2469,"Ġsally":2470,"Ġsoap":2471,"Ġcap":2472,"seum":2473,"Ġsock":2474,"Ġmuseum":2475,"Ġhorses":2476,"Ġmachine":2477,"Ġcraw":2478,"ating":2479,"Ġcost":2480,"Ġwriting":2481,"Ġdinosaurs":2482,"Ġhosp":2483,"cook":2484,"read":2485,"Ġgod":2486,"ppers":2487,"Ġanybody":2488,"Ġvo":2489,"Ġchairs":2490,"clock":2491,"Ġhospital":2492,"Ġwagon":2493,"igator":2494,"Ġplan":2495,"Ġstarted":2496,"Ġcatherine":2497,"happy":2498,"raid":2499,"Ġtakes":2500,"ents":2501,"Ġowl":2502,"under":2503,"Ġsau":2504,"Ġpapa":2505,"from":2506,"Ġwra":2507,"Ġgas":2508,"Ġroo":2509,"ips":2510,"ages":2511,"Ġpajamas":2512,"fraid":2513,"jump":2514,"Ġmissed":2515,"Ġang":2516,"Ġclap":2517,"Ġrecord":2518,"Ġpiggy":2519,"leave":2520,"Ġfruit":2521,"Ġnurse":2522,"truck":2523,"Ġve":2524,"Ġeas":2525,"Ġearly":2526,"Ġuncle":2527,"Ġboots":2528,"Ġsees":2529,"Ġkitty":2530,"Ġducks":2531,"actly":2532,"Ġhimself":2533,"Ġhurts":2534,"Ġrocks":2535,"Ġspace":2536,"Ġfits":2537,"Ġhook":2538,"ala":2539,"Ġwashing":2540,"astic":2541,"irsty":2542,"Ġjumping":2543,"Ġsto":2544,"Ġgiraffe":2545,"Ġsmart":2546,"Ġnapkin":2547,"peek":2548,"Ġafraid":2549,"Ġsle":2550,"eath":2551,"Ġgoat":2552,"Ġhel":2553,"Ġbase":2554,"oodle":2555,"Ġusing":2556,"Ġthanks":2557,"first":2558,"Ġfree":2559,"Ġchang":2560,"Ġtimes":2561,"Ġsent":2562,"Ġmummy":2563,"Ġpoo":2564,"Ġfif":2565,"Ġpress":2566,"Ġpete":2567,"cess":2568,"ric":2569,"yummy":2570,"Ġsqueak":2571,"Ġtap":2572,"Ġcorner":2573,"apple":2574,"Ġspin":2575,"of":2576,"port":2577,"eather":2578,"mother":2579,"Ġteach":2580,"Ġthrew":2581,"cept":2582,"Ġpudd":2583,"Ġmatch":2584,"Ġglad":2585,"eeze":2586,"Ġkalie":2587,"Ġjune":2588,"Ġjohn":2589,"mel":2590,"Ġyer":2591,"zza":2592,"Ġcourse":2593,"Ġhorn":2594,"ated":2595,"next":2596,"Ġstrong":2597,"Ġdrop":2598,"inda":2599,"Ġelmo":2600,"move":2601,"Ġpenny":2602,"Ġoatmeal":2603,"Ġcarriage":2604,"dad":2605,"fully":2606,"Ġtiss":2607,"aking":2608,"Ġbuddy":2609,"ountain":2610,"Ġly":2611,"Ġflat":2612,"Ġsuit":2613,"bu":2614,"Ġgard":2615,"Ġlie":2616,"Ġdragon":2617,"ale":2618,"Ġdee":2619,"Ġnana":2620,"quack":2621,"Ġsquir":2622,"Ġtu":2623,"Ġalligator":2624,"Ġjenny":2625,"Ġbucket":2626,"land":2627,"Ġtown":2628,"Ġfore":2629,"Ġlibr":2630,"Ġyork":2631,"Ġpicked":2632,"cat":2633,"Ġcont":2634,"while":2635,"Ġtoot":2636,"Ġmoving":2637,"Ġlay":2638,"ery":2639,"Ġhour":2640,"iday":2641,"Ġpres":2642,"Ġfootball":2643,"light":2644,"Ġpigs":2645,"Ġapples":2646,"Ġmagic":2647,"ele":2648,"tick":2649,"Ġkat":2650,"ason":2651,"Ġcircus":2652,"Ġsince":2653,"Ġdirt":2654,"Ġcal":2655,"Ġweren":2656,"Ġmost":2657,"whee":2658,"orry":2659,"welve":2660,"Ġthirsty":2661,"apers":2662,"Ġnames":2663,"ings":2664,"Ġcups":2665,"Ġraining":2666,"ited":2667,"Ġmen":2668,"Ġturkey":2669,"Ġpad":2670,"Ġhum":2671,"donald":2672,"today":2673,"Ġcarrots":2674,"Ġgarden":2675,"az":2676,"Ġsim":2677,"Ġscratch":2678,"lloween":2679,"Ġmac":2680,"Ġraisins":2681,"Ġangry":2682,"mat":2683,"Ġgram":2684,"Ġcooking":2685,"Ġeverywhere":2686,"Ġmatthew":2687,"ju":2688,"joseph":2689,"walk":2690,"Ġmhm":2691,"Ġfence":2692,"issors":2693,"Ġpipe":2694,"Ġdada":2695,"Ġlibrary":2696,"nday":2697,"Ġdrum":2698,"Ġtear":2699,"Ġbaa":2700,"ters":2701,"Ġclip":2702,"Ġshower":2703,"Ġmountain":2704,"Ġlose":2705,"Ġeric":2706,"rr":2707,"via":2708,"Ġbackwards":2709,"Ġcards":2710,"Ġshopping":2711,"Ġtrains":2712,"Ġmatty":2713,"Ġdavid":2714,"tie":2715,"woof":2716,"Ġx":2717,"Ġpony":2718,"Ġfair":2719,"Ġyears":2720,"Ġpizza":2721,"lo":2722,"nce":2723,"su":2724,"Ġhalloween":2725,"Ġboard":2726,"Ġkey":2727,"Ġpuppet":2728,"almost":2729,"going":2730,"Ġladder":2731,"Ġpoop":2732,"Ġthumb":2733,"Ġroof":2734,"Ġacross":2735,"Ġgrocer":2736,"bar":2737,"ike":2738,"sa":2739,"Ġwish":2740,"Ġtoe":2741,"Ġann":2742,"Ġworld":2743,"cho":2744,"nif":2745,"yan":2746,"Ġbunch":2747,"Ġcu":2748,"Ġmerry":2749,"actually":2750,"sorry":2751,"heart":2752,"Ġgum":2753,"Ġfill":2754,"lot":2755,"nic":2756,"neath":2757,"ried":2758,"inet":2759,"nathaniel":2760,"rick":2761,"omer":2762,"anger":2763,"shake":2764,"Ġlights":2765,"Ġmelissa":2766,"bbit":2767,"inky":2768,"rible":2769,"Ġbathroom":2770,"eight":2771,"Ġfraser":2772,"Ġshapes":2773,"mily":2774,"Ġtomato":2775,"Ġfold":2776,"Ġrobin":2777,"cup":2778,"Ġind":2779,"Ġchug":2780,"Ġmichael":2781,"Ġslow":2782,"Ġjumped":2783,"Ġcarrot":2784,"milk":2785,"po":2786,"Ġoil":2787,"Ġspr":2788,"Ġnurs":2789,"Ġhippo":2790,"excuse":2791,"Ġryan":2792,"Ġnest":2793,"Ġjelly":2794,"Ġcats":2795,"Ġpresents":2796,"kittie":2797,"Ġvoice":2798,"Ġsign":2799,"eez":2800,"sm":2801,"tom":2802,"Ġooh":2803,"Ġsink":2804,"oopy":2805,"Ġscissors":2806,"baa":2807,"Ġrocking":2808,"Ġpushing":2809,"Ġcloset":2810,"cake":2811,"ween":2812,"lle":2813,"esday":2814,"Ġnumbers":2815,"Ġfarmer":2816,"Ġknife":2817,"vroom":2818,"Ġsmo":2819,"doggie":2820,"Ġcried":2821,"Ġmonth":2822,"Ġmickey":2823,"Ġbelongs":2824,"Ġaid":2825,"Ġmrs":2826,"Ġliked":2827,"Ġjacket":2828,"hard":2829,"dri":2830,"find":2831,"ellent":2832,"indere":2833,"Ġsticker":2834,"yum":2835,"Ġros":2836,"urs":2837,"Ġexactly":2838,"Ġcase":2839,"Ġpiggie":2840,"Ġtissue":2841,"bang":2842,"Ġser":2843,"Ġdar":2844,"seven":2845,"Ġhen":2846,"Ġtrunk":2847,"Ġernie":2848,"Ġknocked":2849,"Ġshark":2850,"pro":2851,"hett":2852,"Ġoffice":2853,"Ġtried":2854,"ular":2855,"aces":2856,"Ġglue":2857,"Ġerin":2858,"everybody":2859,"Ġeasier":2860,"Ġcand":2861,"Ġpear":2862,"Ġeaster":2863,"aghett":2864,"Ġcleaning":2865,"Ġgrab":2866,"Ġaccid":2867,"inderella":2868,"Ġplant":2869,"Ġeats":2870,"Ġyell":2871,"Ġbarre":2872,"Ġpatsy":2873,"jo":2874,"nor":2875,"Ġhoo":2876,"Ġseeds":2877,"Ġknee":2878,"grand":2879,"know":2880,"Ġoce":2881,"inkle":2882,"Ġwhist":2883,"Ġpoint":2884,"bra":2885,"Ġstove":2886,"Ġatt":2887,"Ġcowboy":2888,"drink":2889,"Ġsauce":2890,"aghetti":2891,"gra":2892,"Ġdum":2893,"Ġgam":2894,"kend":2895,"Ġmyself":2896,"Ġsave":2897,"Ġbrus":2898,"Ġvroom":2899,"Ġkeys":2900,"Ġafterno":2901,"Ġbegin":2902,"gie":2903,"Ġmet":2904,"ndred":2905,"urday":2906,"rot":2907,"Ġchin":2908,"Ġshouldn":2909,"Ġdrawer":2910,"Ġsquish":2911,"hunh":2912,"cow":2913,"water":2914,"zer":2915,"ham":2916,"Ġcash":2917,"Ġmeow":2918,"Ġnon":2919,"itter":2920,"Ġanywhere":2921,"Ġamanda":2922,"Ġweekend":2923,"Ġgeorge":2924,"ised":2925,"ishing":2926,"Ġcomp":2927,"Ġholes":2928,"Ġnamed":2929,"Ġwoman":2930,"Ġruff":2931,"Ġstation":2932,"Ġreason":2933,"als":2934,"rown":2935,"Ġfeeling":2936,"press":2937,"Ġcharlie":2938,"nifer":2939,"Ġafternoon":2940,"Ġgentle":2941,"Ġlift":2942,"Ġjill":2943,"Ġtools":2944,"Ġsuitc":2945,"Ġsunday":2946,"Ġunderneath":2947,"Ġauntie":2948,"Ġfloppy":2949,"only":2950,"Ġhon":2951,"Ġnor":2952,"Ġgran":2953,"Ġpainting":2954,"Ġveget":2955,"je":2956,"Ġpor":2957,"ooray":2958,"Ġscar":2959,"Ġrings":2960,"Ġdishes":2961,"chair":2962,"Ġhundred":2963,"Ġocean":2964,"bs":2965,"Ġes":2966,"Ġgor":2967,"Ġshell":2968,"ubb":2969,"Ġstickers":2970,"Ġwheat":2971,"bird":2972,"nine":2973,"Ġtig":2974,"Ġwitch":2975,"Ġfrench":2976,"Ġyucky":2977,"Ġlois":2978,"Ġpicnic":2979,"Ġbicycle":2980,"Ġcro":2981,"Ġmary":2982,"Ġthrowing":2983,"Ġrather":2984,"Ġlu":2985,"gel":2986,"shh":2987,"Ġcrib":2988,"anklin":2989,"Ġhanging":2990,"marky":2991,"Ġstopped":2992,"zen":2993,"haha":2994,"Ġmap":2995,"illa":2996,"els":2997,"Ġcrazy":2998,"Ġrolling":2999,"Ġpreschool":3000,"tu":3001,"tap":3002,"Ġnic":3003,"urse":3004,"Ġansw":3005,"Ġsmile":3006,"Ġeveryone":3007,"Ġumbre":3008,"Ġriver":3009,"Ġstrawberry":3010,"Ġregister":3011,"feel":3012,"Ġonto":3013,"Ġaccident":3014,"ya":3015,"anas":3016,"Ġrache":3017,"sters":3018,"Ġwhoops":3019,"Ġstories":3020,"Ġprin":3021,"Ġsurprise":3022,"Ġrachel":3023,"din":3024,"ipper":3025,"other":3026,"pot":3027,"Ġga":3028,"Ġcity":3029,"Ġlau":3030,"eater":3031,"stay":3032,"Ġduckie":3033,"Ġfollow":3034,"pill":3035,"Ġpages":3036,"str":3037,"Ġwhose":3038,"Ġmessy":3039,"Ġfresh":3040,"cakes":3041,"ios":3042,"ract":3043,"clean":3044,"Ġwhale":3045,"Ġrooster":3046,"Ġcalling":3047,"Ġsweetheart":3048,"Ġskin":3049,"Ġgrapes":3050,"Ġwinter":3051,"purple":3052,"sally":3053,"Ġrad":3054,"Ġko":3055,"blow":3056,"Ġpretending":3057,"Ġsaturday":3058,"cookie":3059,"Ġstate":3060,"Ġtray":3061,"Ġtracks":3062,"Ġshovel":3063,"Ġgrape":3064,"con":3065,"pink":3066,"table":3067,"won":3068,"Ġmush":3069,"Ġpeep":3070,"Ġseem":3071,"butter":3072,"Ġkeeps":3073,"bump":3074,"miss":3075,"zo":3076,"Ġoops":3077,"Ġtwelve":3078,"ittany":3079,"Ġwhis":3080,"fa":3081,"old":3082,"ancy":3083,"lew":3084,"Ġrope":3085,"Ġdonald":3086,"Ġext":3087,"dog":3088,"Ġspaghetti":3089,"Ġworry":3090,"awoh":3091,"hunhunh":3092,"Ġolivia":3093,"hoebe":3094,"Ġanswer":3095,"ible":3096,"less":3097,"off":3098,"oni":3099,"Ġbes":3100,"allow":3101,"ilda":3102,"ji":3103,"Ġrac":3104,"Ġyard":3105,"ific":3106,"Ġswitch":3107,"Ġdollar":3108,"Ġeleven":3109,"Ġumbrella":3110,"mine":3111,"sho":3112,"sleep":3113,"Ġwild":3114,"Ġmegan":3115,"Ġbal":3116,"Ġstool":3117,"Ġwhoa":3118,"aste":3119,"Ġpuddle":3120,"draw":3121,"Ġtweet":3122,"Ġborn":3123,"Ġcross":3124,"inger":3125,"Ġpile":3126,"Ġfur":3127,"adah":3128,"Ġstars":3129,"Ġcliff":3130,"Ġpoin":3131,"Ġedge":3132,"bunny":3133,"corn":3134,"ga":3135,"hin":3136,"oc":3137,"has":3138,"atos":3139,"ashed":3140,"Ġfalls":3141,"Ġsticks":3142,"fro":3143,"Ġbright":3144,"Ġcast":3145,"Ġcinderella":3146,"Ġpeek":3147,"ises":3148,"Ġtrash":3149,"Ġsmoo":3150,"Ġpengu":3151,"Ġbeads":3152,"Ġweeks":3153,"ertain":3154,"talk":3155,"Ġdig":3156,"Ġgun":3157,"Ġmice":3158,"Ġrow":3159,"Ġfeels":3160,"Ġgoose":3161,"Ġlaund":3162,"par":3163,"Ġsir":3164,"Ġsize":3165,"Ġce":3166,"Ġhurry":3167,"Ġmeant":3168,"Ġfixing":3169,"Ġexpl":3170,"Ġjennifer":3171,"Ġwire":3172,"Ġburn":3173,"nobody":3174,"Ġfu":3175,"thy":3176,"ilt":3177,"Ġfriday":3178,"mma":3179,"Ġspilled":3180,"Ġsquirrel":3181,"even":3182,"ret":3183,"Ġain":3184,"Ġcertain":3185,"Ġrides":3186,"thur":3187,"Ġbol":3188,"Ġariel":3189,"ift":3190,"Ġhelping":3191,"Ġmuff":3192,"Ġcamp":3193,"dden":3194,"Ġribb":3195,"chan":3196,"Ġcord":3197,"Ġscream":3198,"Ġsnoopy":3199,"guess":3200,"iv":3201,"mr":3202,"snow":3203,"Ġlife":3204,"Ġthinks":3205,"Ġhandle":3206,"Ġcrash":3207,"Ġmonkeys":3208,"Ġvacation":3209,"Ġgames":3210,"Ġcents":3211,"Ġpurse":3212,"itar":3213,"Ġwhatever":3214,"Ġbother":3215,"Ġship":3216,"ggies":3217,"Ġworm":3218,"Ġmud":3219,"Ġcows":3220,"Ġpulling":3221,"osaurus":3222,"Ġwonderful":3223,"Ġbib":3224,"Ġprincess":3225,"kins":3226,"whe":3227,"Ġsy":3228,"Ġmea":3229,"Ġlick":3230,"thomas":3231,"Ġbetween":3232,"Ġtravis":3233,"Ġcheer":3234,"ently":3235,"Ġopened":3236,"Ġsalt":3237,"Ġsharp":3238,"Ġbattery":3239,"lots":3240,"gl":3241,"ium":3242,"Ġdanger":3243,"Ġbone":3244,"Ġchest":3245,"Ġmarie":3246,"Ġlistening":3247,"Ġgrowing":3248,"Ġcarrying":3249,"Ġpiano":3250,"tickle":3251,"cut":3252,"ek":3253,"uring":3254,"before":3255,"Ġsafe":3256,"Ġspank":3257,"Ġasking":3258,"Ġqueen":3259,"Ġladybug":3260,"Ġlaundry":3261,"Ġdish":3262,"Ġjudy":3263,"Ġcutting":3264,"iffy":3265,"Ġrattle":3266,"driver":3267,"Ġcous":3268,"Ġlucky":3269,"ory":3270,"Ġbull":3271,"board":3272,"Ġbelt":3273,"Ġrainbow":3274,"Ġbananas":3275,"Ġsurprised":3276,"Ġterrible":3277,"probably":3278,"ining":3279,"Ġmam":3280,"Ġfel":3281,"Ġhaw":3282,"Ġcoloring":3283,"Ġhats":3284,"Ġpottie":3285,"puppy":3286,"Ġwhistle":3287,"Ġsell":3288,"Ġliz":3289,"umber":3290,"Ġgoodbye":3291,"Ġkent":3292,"Ġstarts":3293,"Ġmagaz":3294,"Ġrubber":3295,"Ġdesk":3296,"Ġlying":3297,"kiss":3298,"uum":3299,"Ġween":3300,"Ġbert":3301,"erg":3302,"Ġhur":3303,"ston":3304,"Ġexcited":3305,"Ġruby":3306,"Ġsplash":3307,"Ġbill":3308,"Ġmiffy":3309,"Ġrid":3310,"Ġnoisy":3311,"Ġturns":3312,"Ġguitar":3313,"Ġquar":3314,"ugga":3315,"Ġdingo":3316,"Ġchanged":3317,"catch":3318,"Ġbur":3319,"Ġcre":3320,"vent":3321,"hot":3322,"Ġplastic":3323,"Ġballoons":3324,"Ġsquirt":3325,"Ġcrackers":3326,"house":3327,"Ġlid":3328,"Ġfeather":3329,"Ġbam":3330,"Ġtool":3331,"Ġcromer":3332,"Ġtrevor":3333,"Ġbench":3334,"bear":3335,"tre":3336,"wr":3337,"Ġbless":3338,"ered":3339,"Ġbeds":3340,"Ġlemon":3341,"Ġleaf":3342,"screw":3343,"ipped":3344,"mar":3345,"Ġgate":3346,"Ġlinda":3347,"ield":3348,"Ġvan":3349,"Ġdiapers":3350,"everything":3351,"Ġspells":3352,"roller":3353,"alent":3354,"cra":3355,"pha":3356,"Ġcough":3357,"esame":3358,"Ġshoot":3359,"Ġkitten":3360,"Ġsnap":3361,"michael":3362,"Ġsuitcase":3363,"rum":3364,"icop":3365,"Ġjess":3366,"rold":3367,"Ġbubble":3368,"ulk":3369,"god":3370,"Ġlonger":3371,"Ġsongs":3372,"Ġchoke":3373,"better":3374,"Ġlaugh":3375,"ban":3376,"ka":3377,"wha":3378,"Ġmc":3379,"Ġnobody":3380,"Ġclay":3381,"about":3382,"ables":3383,"ocks":3384,"Ġpicking":3385,"Ġcircles":3386,"nut":3387,"silly":3388,"Ġrem":3389,"Ġsweets":3390,"tte":3391,"bbie":3392,"vision":3393,"Ġawful":3394,"Ġhambur":3395,"Ġwalked":3396,"Ġbeginning":3397,"Ġweener":3398,"ker":3399,"Ġje":3400,"Ġant":3401,"again":3402,"Ġze":3403,"Ġsticking":3404,"Ġpops":3405,"Ġtype":3406,"Ġkoala":3407,"ced":3408,"di":3409,"lk":3410,"pig":3411,"Ġcab":3412,"Ġple":3413,"arent":3414,"rock":3415,"Ġbroom":3416,"Ġsweater":3417,"Ġsend":3418,"Ġdrew":3419,"Ġrecording":3420,"Ġcrawl":3421,"love":3422,"need":3423,"od":3424,"sl":3425,"ues":3426,"host":3427,"Ġstom":3428,"Ġswish":3429,"Ġpotatos":3430,"Ġchickens":3431,"Ġpercy":3432,"Ġgrover":3433,"Ġnuts":3434,"gi":3435,"Ġee":3436,"Ġhulk":3437,"ient":3438,"Ġshelf":3439,"itely":3440,"Ġcrunch":3441,"ouses":3442,"Ġblowing":3443,"Ġneckl":3444,"Ġwoke":3445,"Ġslipper":3446,"Ġcastle":3447,"Ġmagazine":3448,"icopter":3449,"Ġplenty":3450,"beep":3451,"ilet":3452,"Ġboop":3453,"Ġmist":3454,"Ġcol":3455,"osh":3456,"Ġvalent":3457,"Ġkisses":3458,"anything":3459,"Ġdisapp":3460,"Ġpocketbook":3461,"Ġlegos":3462,"Ġbatteries":3463,"Ġsmooth":3464,"count":3465,"Ġbark":3466,"Ġpow":3467,"Ġpract":3468,"Ġlar":3469,"urtain":3470,"Ġcheek":3471,"place":3472,"Ġsneak":3473,"Ġpancakes":3474,"Ġvacuum":3475,"dirty":3476,"hurry":3477,"zing":3478,"Ġbran":3479,"essert":3480,"Ġshop":3481,"ola":3482,"Ġpiglet":3483,"Ġwrap":3484,"Ġbaseball":3485,"igi":3486,"ief":3487,"ching":3488,"ounds":3489,"Ġleast":3490,"Ġdolls":3491,"Ġpulled":3492,"cod":3493,"Ġsecret":3494,"Ġlaughing":3495,"Ġclifford":3496,"june":3497,"mer":3498,"sna":3499,"tain":3500,"wah":3501,"Ġlist":3502,"ites":3503,"Ġeh":3504,"Ġseems":3505,"Ġwashed":3506,"Ġgroup":3507,"Ġlovely":3508,"finitely":3509,"Ġforest":3510,"Ġextra":3511,"Ġribbon":3512,"bat":3513,"cool":3514,"mp":3515,"nies":3516,"twenty":3517,"Ġmall":3518,"Ġpeel":3519,"Ġoct":3520,"aroni":3521,"Ġbean":3522,"Ġstir":3523,"Ġorder":3524,"Ġchim":3525,"ulance":3526,"Ġpepper":3527,"Ġcrank":3528,"scar":3529,"Ġclimbing":3530,"lves":3531,"nis":3532,"ward":3533,"Ġtal":3534,"Ġdeal":3535,"Ġpanda":3536,"Ġlow":3537,"Ġoven":3538,"Ġkept":3539,"max":3540,"Ġseesaw":3541,"Ġnonna":3542,"dada":3543,"tea":3544,"hand":3545,"Ġcher":3546,"Ġmill":3547,"Ġmike":3548,"Ġpri":3549,"Ġtoilet":3550,"Ġspit":3551,"elmo":3552,"goes":3553,"fect":3554,"crash":3555,"Ġwolf":3556,"Ġwiggle":3557,"call":3558,"cco":3559,"dow":3560,"Ġdead":3561,"Ġmitt":3562,"Ġputs":3563,"Ġherself":3564,"Ġspring":3565,"Ġart":3566,"Ġshowing":3567,"fortable":3568,"Ġtastes":3569,"Ġtelevision":3570,"Ġsalad":3571,"ky":3572,"nina":3573,"paul":3574,"Ġwave":3575,"vers":3576,"Ġnat":3577,"Ġbringing":3578,"Ġmaisy":3579,"Ġscrewdriver":3580,"Ġtoothbrush":3581,"excellent":3582,"ril":3583,"Ġbeat":3584,"Ġdot":3585,"Ġblueberries":3586,"Ġmaggie":3587,"black":3588,"Ġadd":3589,"Ġdec":3590,"Ġinterested":3591,"Ġmonths":3592,"Ġnecklace":3593,"mu":3594,"mister":3595,"Ġlou":3596,"Ġrace":3597,"Ġhasn":3598,"goodbye":3599,"boat":3600,"uffy":3601,"Ġstayed":3602,"Ġamb":3603,"Ġcamel":3604,"Ġhelicopter":3605,"melissa":3606,"Ġkatie":3607,"Ġsmoke":3608,"Ġjessica":3609,"doo":3610,"fire":3611,"jack":3612,"rific":3613,"tilly":3614,"Ġtill":3615,"haps":3616,"Ġwide":3617,"Ġsesame":3618,"Ġdessert":3619,"Ġbank":3620,"Ġtoad":3621,"Ġemma":3622,"asp":3623,"Ġchalk":3624,"Ġlego":3625,"Ġloose":3626,"Ġlearned":3627,"pillar":3628,"codile":3629,"boun":3630,"fu":3631,"hooray":3632,"ley":3633,"Ġbend":3634,"hang":3635,"Ġboxes":3636,"Ġolder":3637,"oofy":3638,"Ġelephants":3639,"tuce":3640,"Ġdangerous":3641,"gir":3642,"mies":3643,"Ġtee":3644,"Ġact":3645,"Ġstroller":3646,"Ġcater":3647,"ions":3648,"Ġstays":3649,"color":3650,"Ġwindows":3651,"Ġvegetables":3652,"cam":3653,"Ġger":3654,"Ġghost":3655,"Ġcub":3656,"Ġhilda":3657,"Ġrhy":3658,"cky":3659,"urch":3660,"Ġclear":3661,"Ġneigh":3662,"Ġfact":3663,"ached":3664,"asses":3665,"Ġmoved":3666,"ccoli":3667,"nn":3668,"violet":3669,"Ġwrench":3670,"Ġrough":3671,"Ġsoph":3672,"Ġbuzz":3673,"Ġsqueeze":3674,"Ġearth":3675,"Ġexcept":3676,"Ġbarrel":3677,"Ġdu":3678,"Ġdeep":3679,"Ġdoodle":3680,"anny":3681,"Ġphoebe":3682,"ature":3683,"adad":3684,"Ġyup":3685,"Ġbatht":3686,"Ġbags":3687,"Ġruns":3688,"Ġrestaur":3689,"dington":3690,"flies":3691,"Ġchewing":3692,"Ġhuge":3693,"grandma":3694,"ippy":3695,"last":3696,"min":3697,"wipe":3698,"Ġais":3699,"Ġbones":3700,"Ġrect":3701,"chicken":3702,"Ġshh":3703,"Ġparts":3704,"Ġgiant":3705,"Ġyoung":3706,"once":3707,"Ġmer":3708,"Ġgobble":3709,"Ġspeak":3710,"Ġshowed":3711,"Ġblankie":3712,"Ġgrown":3713,"Ġslippers":3714,"aa":3715,"del":3716,"ipp":3717,"Ġ'":3718,"Ġtough":3719,"Ġwings":3720,"ering":3721,"Ġstack":3722,"white":3723,"Ġsail":3724,"Ġanyone":3725,"Ġchips":3726,"Ġswallow":3727,"chew":3728,"Ġfrogs":3729,"egg":3730,"ted":3731,"wash":3732,"Ġcurtain":3733,"ooked":3734,"ored":3735,"Ġdoors":3736,"Ġbasketball":3737,"Ġcostum":3738,"yuck":3739,"Ġtheo":3740,"Ġpal":3741,"ety":3742,"Ġric":3743,"Ġbah":3744,"Ġalpha":3745,"Ġhelped":3746,"Ġvill":3747,"Ġshot":3748,"Ġseth":3749,"Ġpuzzles":3750,"Ġradio":3751,"Ġfelt":3752,"dn":3753,"kno":3754,"Ġtor":3755,"igher":3756,"Ġund":3757,"Ġcolle":3758,"Ġchip":3759,"Ġchugga":3760,"irteen":3761,"Ġdefinitely":3762,"Ġcountry":3763,"Ġtreat":3764,"Ġmagn":3765,"Ġsteps":3766,"Ġraisin":3767,"Ġcontain":3768,"ddenly":3769,"bea":3770,"foot":3771,"tadah":3772,"Ġwaff":3773,"eared":3774,"Ġhouses":3775,"Ġrack":3776,"icle":3777,"immy":3778,"Ġupset":3779,"Ġboston":3780,"opus":3781,"Ġya":3782,"Ġcleaner":3783,"Ġsmaller":3784,"Ġpuppies":3785,"Ġmacaroni":3786,"Ġambulance":3787,"dnesday":3788,"bir":3789,"bot":3790,"bles":3791,"rup":3792,"anet":3793,"Ġthird":3794,"vered":3795,"oment":3796,"chr":3797,"uckle":3798,"Ġarthur":3799,"Ġflap":3800,"Ġscoop":3801,"Ġregular":3802,"chocolate":3803,"Ġrosie":3804,"Ġtalked":3805,"Ġsophie":3806,"Ġbathtub":3807,"Ġrestaurant":3808,"jen":3809,"real":3810,"Ġinv":3811,"Ġstone":3812,"Ġclick":3813,"Ġmonday":3814,"Ġzip":3815,"Ġzipper":3816,"Ġstrange":3817,"Ġfaster":3818,"Ġjames":3819,"Ġgeorgie":3820,"Ġrake":3821,"Ġjar":3822,"Ġchase":3823,"Ġload":3824,"Ġdollie":3825,"Ġglo":3826,"Ġpatty":3827,"Ġfifty":3828,"Ġmushroom":3829,"fix":3830,"iol":3831,"Ġdire":3832,"Ġcone":3833,"Ġhan":3834,"hty":3835,"Ġrip":3836,"Ġplaces":3837,"Ġplayer":3838,"people":3839,"Ġfla":3840,"ughty":3841,"bless":3842,"Ġkissing":3843,"Ġstrip":3844,"Ġscrub":3845,"linn":3846,"Ġpeas":3847,"travis":3848,"Ġzebra":3849,"Ġmistake":3850,"sn":3851,"ym":3852,"Ġwip":3853,"Ġdut":3854,"Ġdent":3855,"eric":3856,"iture":3857,"isa":3858,"Ġhall":3859,"Ġelbow":3860,"aster":3861,"urniture":3862,"dingo":3863,"flo":3864,"Ġexcuse":3865,"Ġpushed":3866,"Ġawake":3867,"Ġpeanuts":3868,"tape":3869,"Ġvalentine":3870,"bus":3871,"later":3872,"ped":3873,"run":3874,"heh":3875,"Ġbumble":3876,"Ġkaren":3877,"adi":3878,"Ġnicely":3879,"Ġcomput":3880,"ized":3881,"cided":3882,"Ġbaaee":3883,"Ġquarter":3884,"Ġmcdonald":3885,"med":3886,"Ġoo":3887,"Ġsus":3888,"Ġcrow":3889,"Ġkill":3890,"ashing":3891,"Ġplants":3892,"ppie":3893,"bert":3894,"Ġtaken":3895,"Ġflip":3896,"Ġsits":3897,"iled":3898,"Ġwhether":3899,"Ġtouching":3900,"Ġexciting":3901,"Ġbegins":3902,"said":3903,"shoes":3904,"Ġcaterpillar":3905,"bee":3906,"bro":3907,"boop":3908,"gest":3909,"gentle":3910,"papa":3911,"Ġbilly":3912,"Ġgigi":3913,"isc":3914,"Ġfurniture":3915,"Ġharold":3916,"orts":3917,"andra":3918,"ense":3919,"Ġbuilt":3920,"Ġcomfortable":3921,"Ġbeard":3922,"Ġjoe":3923,"catherine":3924,"ject":3925,"Ġcrocodile":3926,"Ġpenguin":3927,"brown":3928,"guh":3929,"iver":3930,"las":3931,"Ġcage":3932,"Ġmoment":3933,"etch":3934,"ids":3935,"Ġuses":3936,"angled":3937,"Ġharry":3938,"Ġcrab":3939,"Ġstret":3940,"pretend":3941,"Ġquickly":3942,"cal":3943,"icul":3944,"Ġjilly":3945,"rote":3946,"Ġpretz":3947,"Ġloll":3948,"aurie":3949,"whoopsie":3950,"Ġpole":3951,"Ġfrozen":3952,"Ġcloth":3953,"flower":3954,"Ġclimbed":3955,"Ġstrawberries":3956,"Ġceiling":3957,"ccer":3958,"hors":3959,"uction":3960,"Ġav":3961,"Ġwrote":3962,"Ġlin":3963,"Ġthro":3964,"iddy":3965,"iders":3966,"iles":3967,"iest":3968,"Ġtells":3969,"iper":3970,"Ġbroccoli":3971,"aws":3972,"clo":3973,"Ġfireman":3974,"Ġdecided":3975,"Ġtex":3976,"except":3977,"Ġcertainly":3978,"iolin":3979,"py":3980,"Ġtodd":3981,"Ġdoggies":3982,"ara":3983,"Ġcannot":3984,"celet":3985,"Ġbrittany":3986,"ulu":3987,"Ġopens":3988,"Ġkitties":3989,"Ġjoke":3990,"Ġcutie":3991,"portant":3992,"Ġalphabet":3993,"bor":3994,"met":3995,"wa":3996,"Ġwre":3997,"Ġbush":3998,"Ġcave":3999,"Ġparent":4000,"Ġfishing":4001,"Ġhitting":4002,"Ġisland":4003,"Ġforth":4004,"urf":4005,"Ġsold":4006,"Ġfranklin":4007,"Ġchurch":4008,"Ġcalls":4009,"Ġopening":4010,"Ġpennies":4011,"squeak":4012,"Ġcloser":4013,"Ġpasta":4014,"Ġgrocery":4015,"Ġgroceries":4016,"tomorrow":4017,"Ġremind":4018,"Ġcranky":4019,"aunt":4020,"coon":4021,"oli":4022,"pigg":4023,"Ġtank":4024,"Ġless":4025,"nose":4026,"Ġtot":4027,"Ġop":4028,"Ġwednesday":4029,"Ġkite":4030,"Ġstea":4031,"Ġshout":4032,"Ġairport":4033,"someone":4034,"Ġchoose":4035,"case":4036,"ursday":4037,"Ġbarrette":4038,"dinosaur":4039,"Ġcomputer":4040,"ges":4041,"sounds":4042,"Ġoop":4043,"Ġsil":4044,"oosh":4045,"Ġlines":4046,"Ġhigher":4047,"Ġscoo":4048,"Ġlean":4049,"Ġjumps":4050,"Ġgives":4051,"Ġpail":4052,"Ġimportant":4053,"juice":4054,"Ġdarling":4055,"Ġgranola":4056,"Ġhurting":4057,"Ġrectangle":4058,"bi":4059,"door":4060,"izz":4061,"joy":4062,"wear":4063,"Ġought":4064,"Ġtent":4065,"Ġsep":4066,"Ġsides":4067,"ination":4068,"its":4069,"Ġbagel":4070,"dozer":4071,"tern":4072,"Ġlettuce":4073,"sol":4074,"Ġpuff":4075,"Ġagainst":4076,"Ġfrost":4077,"squish":4078,"bread":4079,"Ġbesides":4080,"Ġcousin":4081,"Ġthroat":4082,"cir":4083,"oat":4084,"rub":4085,"Ġpas":4086,"Ġpair":4087,"Ġoscar":4088,"Ġhumm":4089,"still":4090,"Ġninet":4091,"ppos":4092,"ustr":4093,"Ġplays":4094,"Ġneeded":4095,"umpty":4096,"Ġmonsters":4097,"Ġprote":4098,"Ġtasty":4099,"Ġfeeding":4100,"Ġpuppets":4101,"hino":4102,"Ġmeasure":4103,"bell":4104,"fall":4105,"Ġiron":4106,"Ġwar":4107,"Ġcor":4108,"Ġposs":4109,"Ġeaten":4110,"Ġcrumb":4111,"Ġmustache":4112,"Ġsandbox":4113,"Ġmixed":4114,"Ġtwinkle":4115,"Ġbracelet":4116,"Ġchimney":4117,"Ġrichard":4118,"bad":4119,"Ġsue":4120,"Ġlip":4121,"Ġbees":4122,"rabbit":4123,"Ġcart":4124,"Ġspoons":4125,"iforn":4126,"Ġlob":4127,"Ġshadow":4128,"Ġsmiling":4129,"Ġbites":4130,"Ġkittens":4131,"yours":4132,"Ġsnakes":4133,"Ġprince":4134,"flow":4135,"Ġfifteen":4136,"elephan":4137,"Ġfuzzy":4138,"Ġcheerios":4139,"knock":4140,"Ġdentist":4141,"ifornia":4142,"gee":4143,"hehe":4144,"onge":4145,"Ġpond":4146,"Ġandrew":4147,"Ġug":4148,"dya":4149,"Ġsale":4150,"Ġpickle":4151,"Ġzoom":4152,"Ġcarefully":4153,"Ġdanny":4154,"cheese":4155,"Ġbells":4156,"Ġtennis":4157,"cray":4158,"market":4159,"Ġrobot":4160,"Ġpointing":4161,"Ġmuffin":4162,"banana":4163,"Ġcontainer":4164,"cock":4165,"men":4166,"pants":4167,"Ġsuck":4168,"Ġfred":4169,"sey":4170,"start":4171,"icked":4172,"encer":4173,"Ġabc":4174,"Ġcovered":4175,"Ġspencer":4176,"Ġsweep":4177,"olk":4178,"Ġwears":4179,"gram":4180,"sticky":4181,"Ġbrushing":4182,"Ġbolt":4183,"Ġdecide":4184,"Ġvillage":4185,"hor":4186,"kalie":4187,"ray":4188,"round":4189,"Ġgab":4190,"Ġmain":4191,"uncle":4192,"oph":4193,"Ġnail":4194,"Ġwatched":4195,"Ġarr":4196,"Ġdiam":4197,"Ġbiting":4198,"cious":4199,"Ġlived":4200,"iggle":4201,"Ġbrave":4202,"Ġcube":4203,"Ġcandle":4204,"cles":4205,"ko":4206,"wise":4207,"Ġtip":4208,"Ġgym":4209,"Ġpunch":4210,"Ġnope":4211,"Ġemily":4212,"Ġforty":4213,"icky":4214,"coffee":4215,"Ġpatrick":4216,"Ġpopcorn":4217,"uggle":4218,"Ġbrothers":4219,"Ġoliver":4220,"Ġnursery":4221,"Ġhenry":4222,"Ġhamburger":4223,"Ġoctopus":4224,"Ġyawn":4225,"van":4226,"Ġawhile":4227,"Ġson":4228,"Ġseal":4229,"Ġcot":4230,"Ġlake":4231,"Ġfan":4232,"eas":4233,"selves":4234,"alley":4235,"ello":4236,"Ġspiders":4237,"Ġflies":4238,"Ġdizzy":4239,"Ġroar":4240,"Ġfriendly":4241,"Ġmarket":4242,"Ġshirts":4243,"Ġerase":4244,"Ġpolar":4245,"nort":4246,"Ġstomach":4247,"giving":4248,"mpoo":4249,"bed":4250,"ja":4251,"must":4252,"Ġsunny":4253,"Ġdie":4254,"iter":4255,"eter":4256,"Ġhay":4257,"leen":4258,"Ġkit":4259,"Ġstew":4260,"Ġupon":4261,"Ġplug":4262,"Ġants":4263,"Ġcoco":4264,"bob":4265,"plan":4266,"ipop":4267,"never":4268,"Ġdifference":4269,"Ġbuying":4270,"climb":4271,"gotta":4272,"Ġdecor":4273,"Ġdrives":4274,"dding":4275,"ugging":4276,"Ġinstrum":4277,"Ġwoods":4278,"Ġgramma":4279,"Ġgloves":4280,"floppy":4281,"flowers":4282,"emily":4283,"fif":4284,"john":4285,"lish":4286,"yucky":4287,"Ġtaught":4288,"Ġbonk":4289,"ingle":4290,"itam":4291,"easy":4292,"owed":4293,"nah":4294,"Ġnoises":4295,"Ġknot":4296,"Ġlips":4297,"chy":4298,"Ġoutta":4299,"ella":4300,"Ġbiggest":4301,"Ġnaughty":4302,"Ġworried":4303,"ulp":4304,"peanut":4305,"Ġflash":4306,"Ġvide":4307,"Ġsword":4308,"Ġstarting":4309,"Ġwondering":4310,"Ġawfully":4311,"Ġsimba":4312,"Ġgail":4313,"Ġcherry":4314,"band":4315,"bah":4316,"dan":4317,"santa":4318,"work":4319,"Ġden":4320,"Ġpil":4321,"ition":4322,"eth":4323,"Ġgolf":4324,"len":4325,"Ġrhino":4326,"Ġweh":4327,"ices":4328,"Ġrex":4329,"megan":4330,"gged":4331,"Ġhelps":4332,"oopsie":4333,"Ġrode":4334,"nees":4335,"Ġcleaned":4336,"Ġtires":4337,"Ġbumped":4338,"playing":4339,"Ġpainted":4340,"Ġsalty":4341,"Ġtaping":4342,"matthew":4343,"Ġdirection":4344,"Ġglor":4345,"Ġsoccer":4346,"uss":4347,"Ġhers":4348,"Ġcock":4349,"Ġyo":4350,"Ġharder":4351,"Ġscrews":4352,"Ġsteering":4353,"Ġnicke":4354,"write":4355,"cap":4356,"fan":4357,"fine":4358,"mary":4359,"pr":4360,"into":4361,"Ġlock":4362,"Ġlulu":4363,"Ġfield":4364,"Ġrose":4365,"ath":4366,"hop":4367,"otam":4368,"Ġcarpet":4369,"both":4370,"Ġcoun":4371,"cover":4372,"Ġkidding":4373,"Ġdeer":4374,"Ġmissus":4375,"Ġmovies":4376,"Ġpussy":4377,"Ġpackage":4378,"Ġimag":4379,"Ġpowder":4380,"delicious":4381,"jama":4382,"non":4383,"rm":4384,"wind":4385,"Ġflew":4386,"Ġhood":4387,"Ġheld":4388,"Ġknees":4389,"Ġni":4390,"chick":4391,"rap":4392,"Ġgotten":4393,"Ġyuck":4394,"soon":4395,"Ġflag":4396,"Ġdrank":4397,"Ġlocked":4398,"Ġshampoo":4399,"aboose":4400,"Ġrail":4401,"coming":4402,"Ġtigers":4403,"Ġbulldozer":4404,"solute":4405,"hurt":4406,"number":4407,"pooh":4408,"tney":4409,"hah":4410,"Ġaqu":4411,"Ġdam":4412,"Ġcakes":4413,"ernie":4414,"ison":4415,"ishes":4416,"Ġoppos":4417,"eating":4418,"Ġhid":4419,"omp":4420,"Ġweird":4421,"arium":4422,"ado":4423,"Ġseed":4424,"opotam":4425,"Ġtrans":4426,"Ġflour":4427,"agag":4428,"Ġleaving":4429,"Ġenjoy":4430,"nect":4431,"blah":4432,"Ġsandy":4433,"spoon":4434,"izab":4435,"finish":4436,"Ġcostume":4437,"eer":4438,"lu":4439,"yah":4440,"Ġsense":4441,"Ġcin":4442,"Ġpir":4443,"Ġpass":4444,"alls":4445,"Ġplain":4446,"lete":4447,"ared":4448,"geor":4449,"Ġnails":4450,"Ġbud":4451,"ctric":4452,"Ġheads":4453,"Ġprom":4454,"Ġhighchair":4455,"Ġdumpty":4456,"aughter":4457,"Ġspots":4458,"Ġfighting":4459,"Ġcalifornia":4460,"Ġexplain":4461,"Ġcamping":4462,"camera":4463,"etchup":4464,"solutely":4465,"izabeth":4466,"dump":4467,"fo":4468,"hoo":4469,"ole":4470,"son":4471,"tweet":4472,"Ġginger":4473,"Ġmash":4474,"Ġlone":4475,"Ġheal":4476,"Ġbaba":4477,"iced":4478,"Ġtricycle":4479,"Ġtrail":4480,"Ġloved":4481,"Ġmustard":4482,"Ġparade":4483,"wasn":4484,"Ġswinging":4485,"Ġmailman":4486,"Ġsupermarket":4487,"Ġslept":4488,"Ġbarrels":4489,"Ġnorth":4490,"wonder":4491,"Ġraccoon":4492,"Ġlobster":4493,"leenex":4494,"opotamus":4495,"mummy":4496,"paper":4497,"Ġwool":4498,"Ġweather":4499,"Ġdist":4500,"Ġthursday":4501,"theo":4502,"Ġbec":4503,"iew":4504,"Ġspark":4505,"Ġsponge":4506,"quit":4507,"Ġalive":4508,"Ġtrade":4509,"rows":4510,"Ġdrill":4511,"franklin":4512,"Ġpencils":4513,"Ġperfect":4514,"Ġspray":4515,"Ġlizard":4516,"aven":4517,"ses":4518,"ress":4519,"Ġwaste":4520,"Ġgently":4521,"Ġlisa":4522,"Ġthirteen":4523,"Ġhun":4524,"omi":4525,"Ġlions":4526,"Ġnotice":4527,"Ġangel":4528,"Ġspan":4529,"shut":4530,"Ġscot":4531,"Ġgrew":4532,"Ġsew":4533,"ugh":4534,"Ġduckling":4535,"Ġpopped":4536,"Ġgraham":4537,"Ġswings":4538,"Ġcourtney":4539,"Ġfilled":4540,"butterfly":4541,"father":4542,"venteen":4543,"Ġflavor":4544,"Ġlollipop":4545,"Ġparents":4546,"dry":4547,"goo":4548,"pour":4549,"Ġbum":4550,"Ġhy":4551,"Ġhint":4552,"Ġrul":4553,"ste":4554,"Ġkleenex":4555,"Ġseeing":4556,"Ġstu":4557,"Ġstones":4558,"Ġplates":4559,"Ġnaked":4560,"Ġsometime":4561,"Ġviolin":4562,"Ġvitam":4563,"Ġteapot":4564,"Ġbottles":4565,"Ġpolly":4566,"unnies":4567,"Ġgorilla":4568,"sleepy":4569,"Ġsyrup":4570,"Ġbranch":4571,"Ġprize":4572,"Ġmittens":4573,"cli":4574,"ded":4575,"ikes":4576,"mond":4577,"sal":4578,"yore":4579,"hear":4580,"Ġsore":4581,"Ġdust":4582,"Ġduring":4583,"Ġburp":4584,"Ġmum":4585,"Ġob":4586,"Ġjay":4587,"Ġboing":4588,"road":4589,"opher":4590,"Ġfran":4591,"Ġorang":4592,"Ġshiny":4593,"Ġshorts":4594,"Ġothers":4595,"Ġfinding":4596,"Ġbedroom":4597,"Ġbelle":4598,"spot":4599,"Ġbegan":4600,"Ġterrific":4601,"Ġcrawling":4602,"melon":4603,"nuts":4604,"bounce":4605,"Ġtexas":4606,"Ġsilver":4607,"planes":4608,"gers":4609,"ssh":4610,"Ġtangled":4611,"Ġdied":4612,"Ġgoofy":4613,"Ġdonna":4614,"oodles":4615,"dodo":4616,"uroy":4617,"Ġyeh":4618,"getting":4619,"bling":4620,"Ġbooboo":4621,"Ġunscrew":4622,"Ġpatient":4623,"Ġdumptruck":4624,"Ġtwist":4625,"Ġbeef":4626,"Ġpinch":4627,"Ġjamie":4628,"kitty":4629,"Ġcaptain":4630,"Ġtuesday":4631,"Ġpaddington":4632,"Ġcolored":4633,"christ":4634,"iscuit":4635,"elephant":4636,"pie":4637,"pol":4638,"turt":4639,"Ġq":4640,"Ġouch":4641,"Ġcel":4642,"Ġpac":4643,"essed":4644,"Ġray":4645,"Ġnone":4646,"Ġresc":4647,"Ġjul":4648,"Ġplum":4649,"yesterday":4650,"putting":4651,"Ġbedtime":4652,"Ġminnie":4653,"Ġbanging":4654,"Ġchris":4655,"Ġkicking":4656,"Ġquestions":4657,"Ġindian":4658,"Ġcandles":4659,"Ġtigger":4660,"pardon":4661,"Ġdiamond":4662,"Ġaquarium":4663,"iers":4664,"ran":4665,"vy":4666,"ying":4667,"ouds":4668,"hammer":4669,"Ġwah":4670,"Ġsear":4671,"Ġdaughter":4672,"Ġheh":4673,"outside":4674,"Ġstamp":4675,"Ġsoggy":4676,"Ġeater":4677,"behind":4678,"aboom":4679,"Ġmatches":4680,"Ġbeaver":4681,"Ġunless":4682,"Ġboats":4683,"Ġpockets":4684,"Ġlearning":4685,"Ġsquares":4686,"Ġmixer":4687,"Ġplanet":4688,"build":4689,"Ġcalf":4690,"Ġfairy":4691,"frog":4692,"Ġpopsicle":4693,"Ġpractice":4694,"Ġaislinn":4695,"Ġmagnet":4696,"cur":4697,"gn":4698,"long":4699,"mouse":4700,"toot":4701,"vin":4702,"wuh":4703,"ida":4704,"Ġheat":4705,"Ġkate":4706,"though":4707,"Ġbrick":4708,"ooper":4709,"Ġsub":4710,"Ġblueberry":4711,"many":4712,"Ġskirt":4713,"ugged":4714,"Ġturtles":4715,"Ġtricky":4716,"Ġhelmet":4717,"Ġtomatoes":4718,"Ġsquishy":4719,"Ġsneakers":4720,"Ġugly":4721,"ians":4722,"kind":4723,"oe":4724,"ridge":4725,"hair":4726,"Ġage":4727,"Ġama":4728,"Ġchat":4729,"Ġcass":4730,"erc":4731,"ero":4732,"Ġfool":4733,"Ġthin":4734,"ora":4735,"Ġinc":4736,"uth":4737,"star":4738,"stuck":4739,"Ġkr":4740,"Ġketchup":4741,"Ġrep":4742,"Ġabove":4743,"goodness":4744,"Ġgray":4745,"Ġshaking":4746,"Ġcrane":4747,"Ġsleeps":4748,"Ġdollies":4749,"Ġstorm":4750,"Ġjoey":4751,"Ġstaying":4752,"Ġsnail":4753,"Ġsnacks":4754,"cold":4755,"Ġparrot":4756,"Ġtem":4757,"cially":4758,"scr":4759,"monkey":4760,"Ġsisters":4761,"Ġsteve":4762,"bara":4763,"smell":4764,"Ġattached":4765,"Ġlucy":4766,"Ġcounter":4767,"Ġlonely":4768,"bonk":4769,"bubb":4770,"pic":4771,"sie":4772,"Ġdep":4773,"Ġcaboose":4774,"Ġpon":4775,"Ġluck":4776,"Ġfellow":4777,"Ġfancy":4778,"Ġthump":4779,"ved":4780,"around":4781,"ppies":4782,"Ġallowed":4783,"Ġspend":4784,"Ġfrustr":4785,"Ġcloud":4786,"Ġworked":4787,"bled":4788,"Ġbetty":4789,"Ġholds":4790,"Ġrabbits":4791,"perhaps":4792,"Ġwalls":4793,"swim":4794,"Ġexcellent":4795,"Ġlarge":4796,"horsie":4797,"Ġtoddler":4798,"Ġhummus":4799,"Ġcrumbs":4800,"Ġstudy":4801,"dav":4802,"dered":4803,"ial":4804,"iot":4805,"kat":4806,"vil":4807,"Ġtroll":4808,"Ġduh":4809,"Ġbin":4810,"Ġgerry":4811,"Ġpos":4812,"Ġpapers":4813,"Ġitself":4814,"Ġtock":4815,"Ġrasp":4816,"step":4817,"Ġell":4818,"Ġreind":4819,"chio":4820,"Ġcoll":4821,"sheep":4822,"que":4823,"Ġfaces":4824,"Ġwatering":4825,"Ġpens":4826,"Ġfishies":4827,"char":4828,"pete":4829,"Ġdreams":4830,"Ġslowly":4831,"Ġspanking":4832,"Ġtotally":4833,"circle":4834,"Ġvideo":4835,"david":4836,"tri":4837,"Ġale":4838,"Ġbay":4839,"Ġhuckle":4840,"andel":4841,"Ġnoodles":4842,"Ġbecky":4843,"Ġjim":4844,"ila":4845,"Ġcarol":4846,"Ġsplin":4847,"Ġwhoop":4848,"Ġbrand":4849,"moon":4850,"Ġbathing":4851,"Ġexerc":4852,"tember":4853,"ika":4854,"crayons":4855,"same":4856,"spl":4857,"ual":4858,"Ġwore":4859,"Ġwease":4860,"Ġbunnies":4861,"Ġmeal":4862,"Ġpins":4863,"Ġlamp":4864,"Ġdora":4865,"orm":4866,"name":4867,"Ġnancy":4868,"Ġbare":4869,"Ġstood":4870,"chu":4871,"rots":4872,"Ġchain":4873,"Ġshows":4874,"Ġnewsp":4875,"Ġbreaking":4876,"Ġdrinks":4877,"Ġbeak":4878,"Ġwalks":4879,"Ġpoke":4880,"Ġpost":4881,"Ġtickling":4882,"Ġchance":4883,"ceros":4884,"everyday":4885,"Ġpajama":4886,"Ġconnect":4887,"Ġlately":4888,"Ġsleeve":4889,"Ġcomplete":4890,"cloth":4891,"Ġprotect":4892,"Ġpilot":4893,"Ġweasel":4894,"du":4895,"kangaroo":4896,"va":4897,"Ġtim":4898,"Ġborrow":4899,"Ġgen":4900,"isandy":4901,"Ġhonk":4902,"Ġbacon":4903,"inker":4904,"Ġjane":4905,"Ġsoda":4906,"gels":4907,"Ġfries":4908,"umpy":4909,"Ġgrey":4910,"ired":4911,"zzle":4912,"tach":4913,"ungle":4914,"Ġroller":4915,"Ġrolled":4916,"achoo":4917,"Ġbeauty":4918,"Ġsmells":4919,"Ġhours":4920,"Ġgrampa":4921,"Ġporridge":4922,"Ġwhisper":4923,"bottle":4924,"horse":4925,"Ġgloria":4926,"bubbles":4927,"funny":4928,"tw":4929,"touch":4930,"uary":4931,"Ġtest":4932,"rels":4933,"Ġsled":4934,"Ġgift":4935,"Ġlang":4936,"Ġlaurie":4937,"Ġdolp":4938,"sen":4939,"namon":4940,"Ġandy":4941,"Ġey":4942,"rache":4943,"looking":4944,"ounder":4945,"Ġspare":4946,"Ġfrank":4947,"Ġdried":4948,"Ġpeck":4949,"aguh":4950,"Ġfinally":4951,"blocks":4952,"airplane":4953,"Ġairplanes":4954,"yena":4955,"Ġfourteen":4956,"brittany":4957,"clap":4958,"ioca":4959,"ations":4960,"Ġfingerna":4961,"Ġproud":4962,"Ġtowards":4963,"Ġchicks":4964,"iki":4965,"Ġhippopotamus":4966,"mickey":4967,"patrick":4968,"chantilly":4969,"crack":4970,"icult":4971,"Ġrailroad":4972,"rachel":4973,"bing":4974,"lady":4975,"lift":4976,"pin":4977,"ru":4978,"rus":4979,"tree":4980,"val":4981,"Ġtou":4982,"Ġtied":4983,"Ġsang":4984,"iness":4985,"Ġdw":4986,"onds":4987,"Ġbuh":4988,"Ġhaha":4989,"uto":4990,"Ġheaven":4991,"Ġreturn":4992,"Ġdiddle":4993,"Ġnoticed":4994,"Ġtax":4995,"ops":4996,"Ġunderwear":4997,"Ġproper":4998,"Ġbarbara":4999,"Ġchoice":5000,"everyone":5001,"microphone":5002,"Ġbeside":5003,"occhio":5004,"Ġwaffle":5005,"Ġnickel":5006,"yl":5007,"Ġwife":5008,"Ġber":5009,"Ġble":5010,"Ġtowe":5011,"ette":5012,"Ġkim":5013,"ldow":5014,"Ġstock":5015,"doctor":5016,"pple":5017,"Ġoveralls":5018,"ived":5019,"Ġclouds":5020,"Ġbrian":5021,"pecially":5022,"boys":5023,"Ġcrick":5024,"Ġmatt":5025,"Ġskunk":5026,"Ġsnowing":5027,"Ġcounting":5028,"Ġapron":5029,"until":5030,"squeeze":5031,"Ġgrassho":5032,"Ġlanded":5033,"Ġfigured":5034,"Ġpudding":5035,"Ġjillian":5036,"und":5037,"zoom":5038,"Ġtadi":5039,"Ġgross":5040,"Ġgiddy":5041,"Ġmars":5042,"Ġhose":5043,"Ġhumpty":5044,"Ġrumm":5045,"ically":5046,"Ġrec":5047,"Ġjes":5048,"Ġjello":5049,"amps":5050,"Ġnemo":5051,"Ġmoves":5052,"toys":5053,"lier":5054,"Ġdip":5055,"Ġours":5056,"oohoo":5057,"Ġdifficult":5058,"Ġmarkers":5059,"Ġsneez":5060,"Ġstepped":5061,"train":5062,"Ġchanging":5063,"Ġyelling":5064,"Ġcocoa":5065,"turtle":5066,"gh":5067,"gro":5068,"hit":5069,"lic":5070,"lasses":5071,"Ġkay":5072,"Ġtar":5073,"Ġsnort":5074,"Ġdub":5075,"Ġlos":5076,"Ġfry":5077,"eaking":5078,"ases":5079,"Ġstri":5080,"Ġjungle":5081,"ushing":5082,"quick":5083,"pect":5084,"ention":5085,"Ġbrings":5086,"blank":5087,"Ġbutterflies":5088,"Ġfroggie":5089,"Ġjenell":5090,"Ġnursing":5091,"Ġripped":5092,"Ġfloat":5093,"Ġwashington":5094,"Ġfreezer":5095,"suddenly":5096,"Ġeeyore":5097,"Ġgabby":5098,"mrs":5099,"making":5100,"tiger":5101,"win":5102,"Ġwars":5103,"Ġcond":5104,"Ġmur":5105,"erv":5106,"Ġhyena":5107,"Ġmem":5108,"Ġstat":5109,"Ġref":5110,"Ġjunk":5111,"rain":5112,"Ġsofa":5113,"whoo":5114,"Ġnappie":5115,"Ġsharing":5116,"Ġwrist":5117,"Ġhate":5118,"Ġbitsy":5119,"says":5120,"balls":5121,"Ġmommies":5122,"coat":5123,"Ġtommy":5124,"Ġchop":5125,"Ġeyeb":5126,"Ġeighteen":5127,"daisy":5128,"Ġpillows":5129,"Ġpouring":5130,"break":5131,"Ġhamster":5132,"asket":5133,"Ġruin":5134,"Ġwaving":5135,"Ġgolden":5136,"Ġkathy":5137,"Ġscreaming":5138,"Ġfeathers":5139,"Ġdisappeared":5140,"Ġmushrooms":5141,"kim":5142,"mes":5143,"shoe":5144,"twelve":5145,"yog":5146,"Ġtur":5147,"inst":5148,"Ġbom":5149,"antern":5150,"Ġmass":5151,"Ġfil":5152,"Ġhooray":5153,"adle":5154,"Ġdong":5155,"Ġcoke":5156,"Ġyall":5157,"woah":5158,"Ġshr":5159,"Ġelizabeth":5160,"Ġsugg":5161,"Ġva":5162,"Ġquit":5163,"Ġlotta":5164,"Ġhorton":5165,"Ġzero":5166,"Ġamount":5167,"Ġsings":5168,"Ġpots":5169,"lax":5170,"Ġringing":5171,"scope":5172,"Ġsixteen":5173,"Ġlawn":5174,"Ġscram":5175,"Ġtaller":5176,"Ġfreight":5177,"Ġolives":5178,"eleven":5179,"judy":5180,"Ġattention":5181,"Ġmetal":5182,"Ġvegetable":5183,"ivy":5184,"Ġcrunchy":5185,"Ġstretch":5186,"Ġscooter":5187,"Ġfrosting":5188,"Ġreindeer":5189,"triangle":5190,"Ġlangu":5191,"eyes":5192,"kers":5193,"Ġtat":5194,"Ġtam":5195,"ann":5196,"Ġmask":5197,"Ġdots":5198,"omers":5199,"arn":5200,"Ġkissed":5201,"icorn":5202,"Ġsting":5203,"ened":5204,"Ġattach":5205,"Ġanne":5206,"didldow":5207,"Ġclub":5208,"oscar":5209,"artin":5210,"Ġchasing":5211,"gold":5212,"wouldn":5213,"Ġearlier":5214,"Ġsidewalk":5215,"Ġelectric":5216,"Ġbarney":5217,"fruit":5218,"Ġdrove":5219,"Ġblankets":5220,"tele":5221,"ault":5222,"Ġchecking":5223,"Ġclosing":5224,"Ġpancake":5225,"Ġtripod":5226,"Ġcurious":5227,"Ġmeeting":5228,"duckie":5229,"Ġwrapping":5230,"Ġtapioca":5231,"Ġscratchy":5232,"grapes":5233,"Ġgordon":5234,"struction":5235,"Ġcorduroy":5236,"Ġracket":5237,"Ġrhinoceros":5238,"Ġoranges":5239,"Ġtemper":5240,"Ġnewspaper":5241,"aut":5242,"bite":5243,"gy":5244,"mit":5245,"peep":5246,"roo":5247,"turkey":5248,"yard":5249,"za":5250,"Ġax":5251,"Ġoy":5252,"stra":5253,"Ġnoodle":5254,"ashes":5255,"ences":5256,"Ġabsolutely":5257,"bel":5258,"Ġalmond":5259,"Ġbub":5260,"Ġtalks":5261,"Ġcheep":5262,"Ġcrashed":5263,"Ġski":5264,"Ġrocket":5265,"Ġmarried":5266,"Ġwindy":5267,"Ġbasement":5268,"Ġmountains":5269,"birds":5270,"Ġponies":5271,"hip":5272,"might":5273,"Ġll":5274,"Ġtush":5275,"Ġdouble":5276,"Ġbun":5277,"itches":5278,"Ġbax":5279,"Ġbeer":5280,"Ġreco":5281,"hmm":5282,"Ġannie":5283,"ota":5284,"Ġcozy":5285,"ffy":5286,"arten":5287,"Ġflounder":5288,"Ġpeppers":5289,"Ġfoods":5290,"Ġpopp":5291,"colin":5292,"trying":5293,"Ġmiriam":5294,"Ġowls":5295,"Ġproblems":5296,"Ġbobby":5297,"ronaut":5298,"Ġspinning":5299,"Ġcompany":5300,"ergarten":5301,"Ġneighbor":5302,"Ġcurtains":5303,"sug":5304,"since":5305,"taking":5306,"wood":5307,"Ġtin":5308,"Ġdime":5309,"onnie":5310,"Ġbust":5311,"Ġblew":5312,"Ġmop":5313,"Ġlitt":5314,"Ġhugging":5315,"whatever":5316,"vey":5317,"Ġweb":5318,"ader":5319,"Ġbas":5320,"Ġbabe":5321,"Ġbeet":5322,"chch":5323,"eedee":5324,"pens":5325,"oots":5326,"Ġsquash":5327,"Ġmarch":5328,"Ġapril":5329,"Ġribbit":5330,"Ġknocking":5331,"cups":5332,"Ġfuzz":5333,"Ġvanilla":5334,"Ġcabinet":5335,"beaut":5336,"Ġmaine":5337,"Ġhealthy":5338,"Ġberries":5339,"Ġtowels":5340,"instead":5341,"Ġlanguage":5342,"basket":5343,"cu":5344,"die":5345,"gor":5346,"gle":5347,"jou":5348,"pan":5349,"ruff":5350,"sea":5351,"sand":5352,"wake":5353,"yikes":5354,"zip":5355,"rect":5356,"Ġast":5357,"Ġache":5358,"Ġsan":5359,"Ġped":5360,"Ġitsy":5361,"Ġfe":5362,"Ġore":5363,"ics":5364,"wed":5365,"Ġjon":5366,"Ġjingle":5367,"chi":5368,"rais":5369,"Ġnaomi":5370,"Ġspitting":5371,"Ġspread":5372,"donkey":5373,"rowave":5374,"Ġways":5375,"angles":5376,"Ġproject":5377,"ossum":5378,"Ġpopping":5379,"Ġskip":5380,"Ġbelow":5381,"Ġbowling":5382,"Ġscrat":5383,"Ġbouncy":5384,"Ġspiderman":5385,"Ġpinocchio":5386,"Ġpeach":5387,"Ġthanksgiving":5388,"Ġserious":5389,"Ġscarf":5390,"Ġpenguins":5391,"Ġmillisandy":5392,"eggs":5393,"Ġcollect":5394,"auntie":5395,"ggedy":5396,"Ġpromise":5397,"Ġtrailer":5398,"Ġsplinter":5399,"fell":5400,"gum":5401,"sim":5402,"had":5403,"Ġdat":5404,"Ġdoug":5405,"Ġbiscuit":5406,"Ġpurp":5407,"each":5408,"andrew":5409,"icles":5410,"went":5411,"Ġstella":5412,"through":5413,"elle":5414,"Ġcarto":5415,"Ġblood":5416,"Ġnar":5417,"Ġfridge":5418,"Ġworms":5419,"Ġdrip":5420,"Ġbrea":5421,"Ġbrend":5422,"Ġseventeen":5423,"maisy":5424,"Ġhardly":5425,"ousand":5426,"Ġbuilder":5427,"Ġfourth":5428,"Ġgrandmother":5429,"Ġfireplace":5430,"Ġchantilly":5431,"Ġgracious":5432,"Ġsneeze":5433,"exactly":5434,"Ġseats":5435,"Ġstepping":5436,"Ġbuckle":5437,"ilson":5438,"momma":5439,"Ġhorns":5440,"Ġcheeks":5441,"Ġtaxi":5442,"grover":5443,"buck":5444,"cent":5445,"fas":5446,"ks":5447,"mus":5448,"yle":5449,"Ġmis":5450,"Ġmul":5451,"Ġlantern":5452,"Ġfer":5453,"Ġthousand":5454,"Ġrin":5455,"Ġrunny":5456,"adill":5457,"Ġbake":5458,"Ġthemselves":5459,"Ġbackyard":5460,"Ġtapes":5461,"Ġworse":5462,"Ġhol":5463,"Ġgrouch":5464,"lion":5465,"liam":5466,"Ġview":5467,"agu":5468,"Ġunderpants":5469,"Ġduckies":5470,"tail":5471,"Ġdining":5472,"Ġglove":5473,"Ġpotter":5474,"Ġnapkins":5475,"Ġunicorn":5476,"Ġmessage":5477,"Ġpumpkins":5478,"Ġmixing":5479,"Ġgeese":5480,"tractor":5481,"Ġcurly":5482,"Ġdesign":5483,"Ġforever":5484,"Ġcudd":5485,"Ġluke":5486,"Ġpretzels":5487,"Ġinstrument":5488,"Ġdamn":5489,"Ġopposite":5490,"Ġscrambled":5491,"Ġrecogn":5492,"sugar":5493,"fre":5494,"Ġver":5495,"Ġwilson":5496,"Ġsung":5497,"Ġcooked":5498,"Ġpound":5499,"lend":5500,"ical":5501,"Ġseek":5502,"Ġjan":5503,"Ġjac":5504,"usty":5505,"Ġbock":5506,"fford":5507,"Ġshaped":5508,"Ġcradle":5509,"aga":5510,"derick":5511,"ubby":5512,"Ġteam":5513,"Ġhotel":5514,"Ġdebbie":5515,"Ġhorsies":5516,"Ġtails":5517,"Ġlaa":5518,"square":5519,"Ġcape":5520,"Ġdumbo":5521,"Ġporch":5522,"Ġfurther":5523,"Ġslippery":5524,"jenny":5525,"Ġimagine":5526,"Ġcinnamon":5527,"Ġpirate":5528,"bie":5529,"ben":5530,"ckey":5531,"dies":5532,"fight":5533,"fus":5534,"motor":5535,"makes":5536,"psh":5537,"Ġsip":5538,"Ġcrown":5539,"Ġpower":5540,"ayay":5541,"whats":5542,"stal":5543,"straw":5544,"bered":5545,"ote":5546,"Ġspout":5547,"Ġalice":5548,"lia":5549,"Ġsqueez":5550,"Ġcarey":5551,"Ġstuffed":5552,"Ġrealize":5553,"Ġstands":5554,"Ġfiretruck":5555,"itcher":5556,"Ġstops":5557,"Ġpaints":5558,"Ġspilling":5559,"Ġstarfish":5560,"swing":5561,"Ġhugs":5562,"Ġcurls":5563,"baaee":5564,"ocado":5565,"Ġbothering":5566,"Ġcreature":5567,"Ġrhymes":5568,"Ġsteam":5569,"andelion":5570,"Ġcompletely":5571,"den":5572,"fit":5573,"hur":5574,"kick":5575,"mill":5576,"rat":5577,"sam":5578,"ued":5579,"zel":5580,"reen":5581,"Ġsurf":5582,"Ġpouch":5583,"Ġpaw":5584,"Ġles":5585,"isp":5586,"sect":5587,"their":5588,"Ġker":5589,"Ġnick":5590,"asure":5591,"Ġjeep":5592,"illou":5593,"rah":5594,"Ġscra":5595,"Ġnews":5596,"Ġjoanna":5597,"Ġpicks":5598,"Ġteasing":5599,"form":5600,"click":5601,"manuela":5602,"gerry":5603,"Ġunhappy":5604,"Ġrolls":5605,"Ġdribble":5606,"Ġdisney":5607,"Ġmailbox":5608,"Ġconstruction":5609,"Ġwooden":5610,"Ġreaching":5611,"Ġwax":5612,"Ġwalrus":5613,"Ġwrapped":5614,"Ġgranny":5615,"fused":5616,"football":5617,"Ġpossible":5618,"george":5619,"Ġamazing":5620,"pensive":5621,"cus":5622,"nana":5623,"ob":5624,"sun":5625,"ua":5626,"Ġsippy":5627,"inal":5628,"inside":5629,"Ġdigg":5630,"ingo":5631,"Ġfed":5632,"Ġfright":5633,"Ġthick":5634,"arian":5635,"store":5636,"Ġbagels":5637,"Ġbecome":5638,"ience":5639,"Ġstinky":5640,"Ġrelax":5641,"Ġforward":5642,"doing":5643,"Ġsoy":5644,"ilbur":5645,"Ġblah":5646,"Ġbabys":5647,"Ġspaces":5648,"Ġari":5649,"toes":5650,"shirt":5651,"Ġwatermelon":5652,"Ġducky":5653,"Ġbeast":5654,"Ġmicrowave":5655,"ribbit":5656,"Ġevening":5657,"Ġideas":5658,"check":5659,"Ġgrabb":5660,"Ġcombing":5661,"Ġperhaps":5662,"Ġwiggles":5663,"Ġtuna":5664,"Ġfollowing":5665,"Ġwires":5666,"slow":5667,"Ġnineteen":5668,"ophone":5669,"Ġproperly":5670,"Ġastronaut":5671,"gin":5672,"Ġtinker":5673,"Ġcoo":5674,"Ġmessed":5675,"idi":5676,"ident":5677,"arr":5678,"adada":5679,"Ġstates":5680,"Ġjer":5681,"Ġjosh":5682,"mem":5683,"ears":5684,"button":5685,"Ġpuddy":5686,"Ġbreaks":5687,"Ġprop":5688,"Ġcupboard":5689,"Ġsliding":5690,"Ġpartic":5691,"rily":5692,"Ġdripping":5693,"Ġcombination":5694,"Ġclowns":5695,"Ġstraighten":5696,"Ġlaughed":5697,"Ġsaucer":5698,"Ġsquirrels":5699,"Ġserv":5700,"grandpa":5701,"Ġpiglets":5702,"Ġrhyme":5703,"birthday":5704,"Ġdutch":5705,"Ġavocado":5706,"Ġbecca":5707,"Ġcelery":5708,"Ġvaivy":5709,"telephone":5710,"Ġtemperature":5711,"Ġholiday":5712,"bes":5713,"near":5714,"pad":5715,"pump":5716,"ser":5717,"teddy":5718,"uk":5719,"vator":5720,"Ġwing":5721,"Ġpho":5722,"Ġtoddy":5723,"eapple":5724,"ndy":5725,"athan":5726,"imi":5727,"ural":5728,"ppity":5729,"usually":5730,"Ġcopy":5731,"uckoo":5732,"Ġblink":5733,"abelle":5734,"Ġflam":5735,"Ġsuddenly":5736,"Ġvalley":5737,"Ġshoulder":5738,"Ġsean":5739,"Ġroast":5740,"Ġenvel":5741,"mail":5742,"Ġexam":5743,"forget":5744,"Ġskating":5745,"fraser":5746,"Ġresting":5747,"Ġtreasure":5748,"Ġconfused":5749,"Ġtighten":5750,"Ġmoose":5751,"Ġbuildings":5752,"backpack":5753,"comb":5754,"bugs":5755,"Ġgoats":5756,"Ġlynn":5757,"birdie":5758,"Ġbalance":5759,"Ġteeny":5760,"Ġflashlight":5761,"Ġgener":5762,"af":5763,"bac":5764,"eye":5765,"gone":5766,"kinda":5767,"ni":5768,"nee":5769,"ned":5770,"phoebe":5771,"paste":5772,"tow":5773,"tion":5774,"Ġdick":5775,"animal":5776,"Ġlass":5777,"etho":5778,"nap":5779,"sty":5780,"Ġki":5781,"Ġkna":5782,"Ġedd":5783,"leton":5784,"Ġbok":5785,"Ġwhom":5786,"upid":5787,"Ġshave":5788,"Ġdial":5789,"Ġjoin":5790,"block":5791,"Ġmicro":5792,"Ġbusiness":5793,"Ġexpensive":5794,"tonight":5795,"clown":5796,"Ġbadji":5797,"Ġtickles":5798,"Ġpatting":5799,"anyway":5800,"Ġengineer":5801,"Ġcovers":5802,"Ġhippos":5803,"Ġrule":5804,"Ġtricks":5805,"Ġgoldfish":5806,"matty":5807,"Ġnursie":5808,"tress":5809,"Ġartist":5810,"Ġsailboat":5811,"Ġsepar":5812,"Ġarrived":5813,"Ġducklings":5814,"Ġrescue":5815,"beautiful":5816,"Ġbreathe":5817,"fasa":5818,"Ġeddie":5819,"gah":5820,"oint":5821,"sli":5822,"school":5823,"tig":5824,"xy":5825,"Ġbor":5826,"Ġbitt":5827,"Ġbunk":5828,"Ġcoug":5829,"icing":5830,"icer":5831,"Ġremem":5832,"rop":5833,"Ġsaf":5834,"Ġwherever":5835,"Ġshoo":5836,"Ġshining":5837,"Ġotherwise":5838,"Ġcathy":5839,"Ġbirdies":5840,"oline":5841,"Ġdrawers":5842,"Ġrocky":5843,"Ġraggedy":5844,"Ġuntie":5845,"Ġpride":5846,"ments":5847,"Ġjammies":5848,"Ġeasily":5849,"richard":5850,"Ġsimon":5851,"Ġburned":5852,"glasses":5853,"Ġpretzel":5854,"olivia":5855,"Ġshouted":5856,"Ġseptember":5857,"Ġstatue":5858,"Ġsunglasses":5859,"Ġdigging":5860,"Ġparticular":5861,"Ġremembered":5862,"fy":5863,"ki":5864,"num":5865,"nurs":5866,"Ġtumble":5867,"Ġtippy":5868,"having":5869,"oos":5870,"Ġpou":5871,"Ġpies":5872,"Ġpitcher":5873,"Ġloop":5874,"idd":5875,"owing":5876,"Ġwedding":5877,"arthur":5878,"Ġur":5879,"outs":5880,"Ġnin":5881,"Ġequ":5882,"Ġjanet":5883,"chin":5884,"itts":5885,"Ġsol":5886,"Ġcoal":5887,"Ġcarries":5888,"Ġyarn":5889,"Ġclunk":5890,"Ġneedle":5891,"Ġarrow":5892,"toast":5893,"Ġscoot":5894,"Ġskipped":5895,"Ġdrops":5896,"Ġtoward":5897,"carrot":5898,"jamie":5899,"Ġtwice":5900,"ampy":5901,"Ġpaste":5902,"jumping":5903,"Ġskinny":5904,"Ġladybugs":5905,"trevor":5906,"muah":5907,"Ġopossum":5908,"Ġspanish":5909,"picture":5910,"Ġcricket":5911,"Ġlosing":5912,"Ġmemory":5913,"Ġrecognize":5914,"line":5915,"super":5916,"xic":5917,"recor":5918,"Ġwag":5919,"Ġwilbur":5920,"Ġdumb":5921,"Ġbleep":5922,"Ġcust":5923,"Ġpup":5924,"Ġitchy":5925,"Ġdokey":5926,"Ġowe":5927,"igare":5928,"venty":5929,"Ġinter":5930,"Ġinsect":5931,"Ġrag":5932,"Ġripe":5933,"Ġoften":5934,"Ġstink":5935,"Ġrel":5936,"along":5937,"doll":5938,"illed":5939,"Ġsomeplace":5940,"Ġbobo":5941,"Ġbored":5942,"Ġbozo":5943,"terrific":5944,"Ġgotcha":5945,"Ġtag":5946,"Ġwhining":5947,"Ġshy":5948,"Ġtries":5949,"Ġbrief":5950,"Ġgrumpy":5951,"Ġshaving":5952,"Ġvader":5953,"Ġeveryday":5954,"uba":5955,"Ġclever":5956,"Ġsingle":5957,"Ġbangs":5958,"Ġdresses":5959,"spin":5960,"Ġcalend":5961,"guy":5962,"Ġconcer":5963,"Ġowie":5964,"Ġstefan":5965,"burgh":5966,"puppies":5967,"Ġshells":5968,"bumpity":5969,"Ġwhiskers":5970,"sleeping":5971,"Ġmeas":5972,"adadada":5973,"Ġwaffles":5974,"anette":5975,"Ġstriped":5976,"Ġrules":5977,"Ġvitamins":5978,"clifford":5979,"Ġbricks":5980,"katie":5981,"Ġtrolley":5982,"splash":5983,"ylophone":5984,"Ġtamar":5985,"Ġbeetle":5986,"ethoscope":5987,"cro":5988,"candy":5989,"done":5990,"dance":5991,"ives":5992,"pi":5993,"tor":5994,"tage":5995,"vious":5996,"ware":5997,"rella":5998,"Ġsouth":5999,"Ġcas":6000,"Ġcell":6001,"Ġmal":6002,"Ġmunch":6003,"Ġpant":6004,"nore":6005,"Ġfus":6006,"Ġdoro":6007,"Ġot":6008,"Ġthunder":6009,"Ġhic":6010,"Ġhus":6011,"Ġhelen":6012,"ariel":6013,"omen":6014,"iches":6015,"Ġstud":6016,"amut":6017,"amole":6018,"Ġoutdoor":6019,"rag":6020,"Ġcarried":6021,"Ġreads":6022,"Ġbudle":6023,"antastic":6024,"abee":6025,"Ġhadn":6026,"Ġvol":6027,"Ġvase":6028,"phy":6029,"Ġhorrible":6030,"acamole":6031,"Ġmilkshake":6032,"Ġcupcake":6033,"Ġkeeper":6034,"Ġbead":6035,"Ġexpect":6036,"Ġskate":6037,"Ġswims":6038,"Ġseconds":6039,"Ġcatching":6040,"Ġpath":6041,"Ġpray":6042,"Ġprice":6043,"Ġbumper":6044,"Ġyoghurt":6045,"Ġbouncing":6046,"Ġdesert":6047,"Ġladies":6048,"cookies":6049,"Ġjohnny":6050,"Ġpointed":6051,"conut":6052,"Ġsoldier":6053,"Ġlipstick":6054,"Ġphoto":6055,"ittsburgh":6056,"Ġdorothy":6057,"bal":6058,"cis":6059,"food":6060,"farm":6061,"honk":6062,"money":6063,"pain":6064,"sitting":6065,"uu":6066,"vo":6067,"Ġtel":6068,"Ġwaking":6069,"Ġcooper":6070,"Ġpittsburgh":6071,"chief":6072,"thought":6073,"Ġplus":6074,"lets":6075,"ilocks":6076,"Ġcarl":6077,"Ġspo":6078,"Ġbookcase":6079,"Ġcomfy":6080,"Ġlog":6081,"Ġhelper":6082,"aurus":6083,"Ġsudden":6084,"Ġscri":6085,"Ġjuly":6086,"Ġmattress":6087,"Ġmarker":6088,"Ġskates":6089,"Ġenglish":6090,"Ġwallet":6091,"Ġacorn":6092,"affes":6093,"oyo":6094,"Ġfrederick":6095,"Ġwaves":6096,"Ġsentence":6097,"Ġmacdonald":6098,"cupine":6099,"small":6100,"tomato":6101,"Ġhamburgers":6102,"slide":6103,"Ġinvited":6104,"fifty":6105,"Ġchatty":6106,"Ġfingernails":6107,"Ġtouched":6108,"bin":6109,"cope":6110,"dum":6111,"sat":6112,"Ġsire":6113,"Ġcigare":6114,"Ġmood":6115,"lee":6116,"hope":6117,"Ġjerry":6118,"Ġpliers":6119,"Ġboss":6120,"ushed":6121,"bec":6122,"upiter":6123,"alrightie":6124,"goat":6125,"Ġbreath":6126,"Ġcrooked":6127,"Ġswam":6128,"Ġsmurf":6129,"Ġpickles":6130,"neigh":6131,"Ġkeeping":6132,"Ġafterwards":6133,"bridge":6134,"Ġsnowfl":6135,"Ġbars":6136,"Ġticket":6137,"friend":6138,"Ġtowers":6139,"Ġdoctors":6140,"tered":6141,"perfect":6142,"carrots":6143,"Ġwinnie":6144,"Ġbounces":6145,"Ġpeaches":6146,"Ġsammy":6147,"Ġpresident":6148,"Ġtears":6149,"such":6150,"Ġpears":6151,"Ġyelled":6152,"Ġsuitcases":6153,"Ġnorman":6154,"Ġdigger":6155,"girl":6156,"giraffe":6157,"Ġtorto":6158,"Ġninety":6159,"Ġcottage":6160,"Ġfrustrated":6161,"Ġalec":6162,"motorcycle":6163,"Ġleslie":6164,"Ġcalendar":6165,"ail":6166,"bub":6167,"cars":6168,"dear":6169,"dah":6170,"feed":6171,"ipping":6172,"jes":6173,"mal":6174,"mwuh":6175,"okey":6176,"teeth":6177,"Ġted":6178,"Ġsel":6179,"Ġdeedee":6180,"Ġmashed":6181,"isbee":6182,"Ġfoo":6183,"Ġweist":6184,"Ġbaker":6185,"Ġdonut":6186,"Ġcane":6187,"chug":6188,"aly":6189,"Ġsheet":6190,"rol":6191,"cereal":6192,"Ġcob":6193,"gey":6194,"Ġclaws":6195,"ffic":6196,"osquit":6197,"Ġcries":6198,"Ġbatman":6199,"Ġtraining":6200,"Ġtops":6201,"Ġprogram":6202,"Ġelevator":6203,"Ġeraser":6204,"Ġtelet":6205,"Ġarmadill":6206,"Ġsnuffy":6207,"Ġengines":6208,"Ġlazy":6209,"fectly":6210,"Ġpiggies":6211,"umbrella":6212,"squirt":6213,"Ġsandwiches":6214,"Ġcharge":6215,"Ġhearts":6216,"Ġwiggily":6217,"patty":6218,"Ġtissues":6219,"Ġlaying":6220,"Ġgrammy":6221,"Ġnursies":6222,"yumyum":6223,"Ġexplore":6224,"Ġlicking":6225,"Ġcousins":6226,"Ġlemonade":6227,"Ġwreck":6228,"oliver":6229,"fifteen":6230,"Ġnibble":6231,"Ġdolphin":6232,"Ġgrasshopper":6233,"blanket":6234,"Ġsuggest":6235,"Ġpurpose":6236,"Ġmulberry":6237,"Ġpropell":6238,"paddington":6239,"cet":6240,"duh":6241,"gen":6242,"hu":6243,"kie":6244,"lers":6245,"made":6246,"morning":6247,"ride":6248,"tired":6249,"hay":6250,"annie":6251,"Ġpiper":6252,"Ġfab":6253,"Ġoval":6254,"ander":6255,"Ġnerv":6256,"Ġres":6257,"oodood":6258,"dogs":6259,"ille":6260,"roy":6261,"mean":6262,"Ġyolk":6263,"Ġspy":6264,"Ġtramp":6265,"Ġshade":6266,"Ġchecked":6267,"forty":6268,"Ġsorts":6269,"Ġends":6270,"welcome":6271,"Ġdumped":6272,"Ġchickie":6273,"tooth":6274,"Ġstrings":6275,"Ġslipped":6276,"Ġmachines":6277,"empty":6278,"Ġsqueaky":6279,"dadada":6280,"Ġtube":6281,"Ġdrums":6282,"Ġsprink":6283,"Ġsaved":6284,"cowboy":6285,"Ġdisappear":6286,"Ġsmoothie":6287,"Ġacting":6288,"dinosaurs":6289,"fox":6290,"Ġfrancis":6291,"scratch":6292,"swimming":6293,"Ġraspberries":6294,"breakfast":6295,"Ġmeasuring":6296,"Ġnervous":6297,"cry":6298,"dar":6299,"diff":6300,"iar":6301,"jul":6302,"mush":6303,"rice":6304,"spe":6305,"Ġtit":6306,"half":6307,"Ġwomen":6308,"interest":6309,"Ġmaster":6310,"Ġpip":6311,"Ġtoby":6312,"ities":6313,"Ġthr":6314,"escope":6315,"Ġweigh":6316,"Ġmechan":6317,"ielle":6318,"Ġrenee":6319,"rac":6320,"roar":6321,"cember":6322,"Ġjustin":6323,"Ġcolin":6324,"Ġcoconut":6325,"opard":6326,"Ġclack":6327,"shell":6328,"Ġkindergarten":6329,"Ġguest":6330,"Ġmufasa":6331,"plain":6332,"Ġzoe":6333,"Ġhandsome":6334,"balloon":6335,"Ġcracked":6336,"Ġsandals":6337,"opeye":6338,"Ġpolish":6339,"Ġblows":6340,"Ġsniff":6341,"anybody":6342,"Ġparking":6343,"Ġdryer":6344,"Ġpushes":6345,"Ġquietly":6346,"Ġslip":6347,"Ġpaying":6348,"Ġfifth":6349,"Ġhuman":6350,"Ġespecially":6351,"ubbies":6352,"Ġcrossing":6353,"Ġcement":6354,"snake":6355,"Ġpalace":6356,"Ġsusie":6357,"Ġcrowded":6358,"Ġabcs":6359,"Ġeyed":6360,"Ġeyebrows":6361,"Ġnarrow":6362,"Ġenvelope":6363,"Ġpoured":6364,"Ġhiccups":6365,"goofy":6366,"mag":6367,"mac":6368,"none":6369,"smo":6370,"wiggle":6371,"ressed":6372,"Ġsomers":6373,"Ġdare":6374,"Ġdate":6375,"Ġcred":6376,"Ġmous":6377,"Ġpj":6378,"Ġpatch":6379,"Ġitch":6380,"Ġwendy":6381,"stir":6382,"ative":6383,"irl":6384,"irgin":6385,"Ġnanny":6386,"asmine":6387,"holas":6388,"Ġstupid":6389,"enter":6390,"amanda":6391,"Ġnote":6392,"rystal":6393,"Ġspeed":6394,"shes":6395,"Ġalarm":6396,"Ġelastic":6397,"Ġwhenever":6398,"aba":6399,"Ġflor":6400,"Ġballer":6401,"Ġloaf":6402,"Ġhelpful":6403,"ioned":6404,"Ġmaker":6405,"Ġcowboys":6406,"Ġfishy":6407,"Ġbarber":6408,"Ġticklish":6409,"Ġwashcloth":6410,"Ġtoaster":6411,"ground":6412,"Ġperfectly":6413,"Ġsalmon":6414,"Ġhampsh":6415,"Ġyaya":6416,"Ġteaching":6417,"Ġsimple":6418,"barrow":6419,"Ġindians":6420,"strich":6421,"Ġmuffins":6422,"snap":6423,"Ġlowly":6424,"Ġmitten":6425,"minnie":6426,"chickens":6427,"Ġcotton":6428,"police":6429,"Ġdwar":6430,"Ġstocking":6431,"Ġscratched":6432,"Ġhusband":6433,"Ġsiren":6434,"interesting":6435,"irginia":6436,"Ġhampshire":6437,"bt":6438,"oard":6439,"ping":6440,"took":6441,"uc":6442,"wi":6443,"wor":6444,"weed":6445,"Ġdun":6446,"Ġdak":6447,"Ġcd":6448,"Ġpau":6449,"Ġpine":6450,"nog":6451,"ising":6452,"Ġink":6453,"Ġhero":6454,"Ġkamut":6455,"Ġbaking":6456,"hode":6457,"Ġstethoscope":6458,"although":6459,"thirty":6460,"ede":6461,"hmallow":6462,"osed":6463,"eedle":6464,"Ġalad":6465,"Ġwilly":6466,"Ġbul":6467,"Ġhockey":6468,"phones":6469,"Ġseventy":6470,"Ġroy":6471,"Ġmath":6472,"ctory":6473,"ogna":6474,"Ġgrows":6475,"Ġbumps":6476,"Ġbumpy":6477,"Ġchristopher":6478,"Ġpier":6479,"Ġsharon":6480,"fourteen":6481,"crunch":6482,"Ġstepmother":6483,"books":6484,"Ġoatios":6485,"Ġhills":6486,"Ġtyran":6487,"Ġcosts":6488,"Ġcalm":6489,"norman":6490,"Ġhooked":6491,"Ġbrushes":6492,"Ġporcupine":6493,"Ġquarters":6494,"Ġcreep":6495,"Ġbambi":6496,"Ġjeff":6497,"Ġmagnets":6498,"Ġstripes":6499,"piggy":6500,"piggie":6501,"Ġdirections":6502,"christopher":6503,"Ġwhispering":6504,"senger":6505,"raisins":6506,"Ġdouglas":6507,"ispies":6508,"Ġspaceship":6509,"Ġseparate":6510,"Ġboring":6511,"Ġbriefcase":6512,"Ġtelescope":6513,"Ġarmadillo":6514,"Ġflorida":6515,"ais":6516,"dge":6517,"fer":6518,"gosh":6519,"nel":6520,"surpr":6521,"soph":6522,"Ġtug":6523,"Ġdest":6524,"Ġdandelion":6525,"Ġcent":6526,"Ġmartin":6527,"Ġmimi":6528,"esome":6529,"oms":6530,"owl":6531,"Ġstage":6532,"Ġblind":6533,"apan":6534,"Ġtruth":6535,"artment":6536,"erent":6537,"Ġshoulders":6538,"Ġsmily":6539,"Ġbits":6540,"acle":6541,"uguh":6542,"Ġprovid":6543,"Ġsideways":6544,"Ġkiddo":6545,"Ġsounded":6546,"Ġbowls":6547,"Ġphil":6548,"coln":6549,"ummies":6550,"Ġknick":6551,"squir":6552,"Ġdrag":6553,"Ġtoothpaste":6554,"drive":6555,"Ġlambs":6556,"ricia":6557,"Ġpennys":6558,"Ġforehead":6559,"Ġcontrol":6560,"Ġsprouts":6561,"Ġescap":6562,"Ġbaloney":6563,"rocking":6564,"Ġcubes":6565,"prin":6566,"Ġtransm":6567,"Ġbabysitter":6568,"Ġcoughing":6569,"Ġinsects":6570,"Ġoutdoors":6571,"Ġscribble":6572,"Ġtortoise":6573,"bom":6574,"buh":6575,"bumble":6576,"cin":6577,"high":6578,"jelly":6579,"mess":6580,"peas":6581,"sue":6582,"smoo":6583,"town":6584,"Ġteet":6585,"hel":6586,"hew":6587,"oubles":6588,"harold":6589,"Ġweed":6590,"Ġsig":6591,"Ġcuckoo":6592,"ooey":6593,"Ġled":6594,"Ġlab":6595,"Ġtore":6596,"Ġfash":6597,"Ġthread":6598,"Ġgown":6599,"Ġinches":6600,"Ġrum":6601,"Ġramp":6602,"stack":6603,"Ġnep":6604,"Ġent":6605,"Ġsteak":6606,"Ġsteal":6607,"Ġstamps":6608,"Ġcans":6609,"Ġplugged":6610,"unless":6611,"Ġoutfit":6612,"oree":6613,"Ġaboard":6614,"Ġletting":6615,"Ġtables":6616,"early":6617,"Ġfrumble":6618,"Ġchica":6619,"Ġalike":6620,"Ġarmy":6621,"boing":6622,"Ġgiven":6623,"Ġsculp":6624,"Ġfinds":6625,"Ġcran":6626,"Ġheadache":6627,"Ġrooms":6628,"miffy":6629,"Ġslice":6630,"Ġslides":6631,"Ġpoison":6632,"Ġemp":6633,"Ġwheelbarrow":6634,"washing":6635,"Ġbanjo":6636,"spider":6637,"Ġfeeder":6638,"grass":6639,"booboo":6640,"Ġchicka":6641,"Ġmelt":6642,"Ġfamil":6643,"Ġsentences":6644,"weener":6645,"Ġaids":6646,"Ġnicer":6647,"Ġnicholas":6648,"Ġracing":6649,"wheels":6650,"versation":6651,"Ġgrownup":6652,"Ġelbows":6653,"broken":6654,"oatmeal":6655,"Ġyawning":6656,"Ġincred":6657,"Ġexercise":6658,"yogurt":6659,"Ġllama":6660,"music":6661,"fighter":6662,"Ġself":6663,"different":6664,"Ġcredit":6665,"sophie":6666,"cos":6667,"cross":6668,"dor":6669,"gosaurus":6670,"hush":6671,"jilly":6672,"lock":6673,"laurie":6674,"mix":6675,"mouth":6676,"ninet":6677,"part":6678,"tast":6679,"used":6680,"Ġwine":6681,"Ġdou":6682,"Ġgay":6683,"Ġchose":6684,"ooaa":6685,"Ġfiddle":6686,"Ġdoh":6687,"Ġhom":6688,"ien":6689,"Ġrece":6690,"Ġjimmy":6691,"imp":6692,"Ġpluto":6693,"Ġanten":6694,"robin":6695,"Ġsaus":6696,"Ġbabysit":6697,"Ġorgan":6698,"sher":6699,"Ġbru":6700,"gging":6701,"Ġdrool":6702,"Ġagree":6703,"shine":6704,"Ġscreen":6705,"Ġtraffic":6706,"Ġgrizz":6707,"Ġgrampy":6708,"Ġguard":6709,"Ġfactory":6710,"Ġwondered":6711,"Ġleila":6712,"zzie":6713,"neck":6714,"Ġpulls":6715,"awa":6716,"Ġmarks":6717,"Ġpets":6718,"Ġdaniel":6719,"without":6720,"Ġerr":6721,"Ġfroggy":6722,"Ġknob":6723,"spell":6724,"Ġclimbs":6725,"Ġtwins":6726,"Ġwoggie":6727,"Ġpineapple":6728,"Ġdreaming":6729,"Ġteachers":6730,"udge":6731,"ducks":6732,"Ġgoldilocks":6733,"Ġkaty":6734,"Ġponytail":6735,"Ġpoints":6736,"whew":6737,"Ġbarking":6738,"Ġscotch":6739,"Ġtushie":6740,"Ġballerina":6741,"Ġantenna":6742,"bile":6743,"cre":6744,"cumber":6745,"dip":6746,"either":6747,"feet":6748,"fold":6749,"kaboom":6750,"oct":6751,"othy":6752,"pear":6753,"tles":6754,"Ġtad":6755,"res":6756,"Ġwakes":6757,"Ġwinky":6758,"Ġsch":6759,"Ġsill":6760,"Ġsara":6761,"Ġbon":6762,"Ġcele":6763,"Ġcenter":6764,"nos":6765,"sels":6766,"igan":6767,"utta":6768,"ading":6769,"Ġmember":6770,"Ġbent":6771,"Ġreached":6772,"Ġjapan":6773,"alo":6774,"Ġnotes":6775,"Ġboiling":6776,"Ġspicy":6777,"Ġwhine":6778,"socks":6779,"upstairs":6780,"Ġcatches":6781,"Ġgiraffes":6782,"Ġscale":6783,"Ġchester":6784,"Ġharvey":6785,"ttes":6786,"Ġeggnog":6787,"Ġexper":6788,"Ġpokey":6789,"Ġerica":6790,"Ġsmallest":6791,"pressed":6792,"Ġcaillou":6793,"carry":6794,"Ġforgotten":6795,"Ġdeli":6796,"james":6797,"hunm":6798,"Ġbarnes":6799,"children":6800,"Ġedna":6801,"Ġrosy":6802,"Ġdarth":6803,"Ġsharks":6804,"Ġchinese":6805,"Ġesther":6806,"taputta":6807,"otherwise":6808,"Ġseemed":6809,"ergy":6810,"Ġnatural":6811,"Ġinvite":6812,"Ġwiping":6813,"daniel":6814,"Ġhunting":6815,"twinkle":6816,"Ġmarshmallow":6817,"Ġjesus":6818,"straight":6819,"Ġcartoons":6820,"Ġknack":6821,"tigger":6822,"Ġprovidence":6823,"smooth":6824,"Ġhomes":6825,"Ġcelebr":6826,"away":6827,"cinderella":6828,"eves":6829,"feter":6830,"gas":6831,"gust":6832,"hook":6833,"lou":6834,"low":6835,"mam":6836,"neat":6837,"pocket":6838,"swe":6839,"zes":6840,"oust":6841,"reach":6842,"Ġyoun":6843,"Ġdies":6844,"Ġberry":6845,"Ġpter":6846,"Ġpopeye":6847,"Ġlane":6848,"Ġostrich":6849,"lent":6850,"Ġins":6851,"stem":6852,"adee":6853,"Ġliam":6854,"Ġarea":6855,"thirteen":6856,"quiet":6857,"Ġchief":6858,"Ġbuff":6859,"Ġflop":6860,"bleep":6861,"toy":6862,"toad":6863,"Ġgriz":6864,"Ġvest":6865,"Ġdiandra":6866,"pencil":6867,"Ġshove":6868,"Ġwhee":6869,"Ġadvent":6870,"Ġrealized":6871,"Ġsandra":6872,"Ġdean":6873,"Ġdeck":6874,"Ġasks":6875,"Ġmarvel":6876,"Ġgarlic":6877,"Ġdriveway":6878,"heehee":6879,"aska":6880,"Ġsplashing":6881,"Ġsleeves":6882,"Ġmatching":6883,"buy":6884,"buzz":6885,"Ġmostly":6886,"Ġxylophone":6887,"sunday":6888,"Ġserve":6889,"ival":6890,"wheel":6891,"Ġjeans":6892,"Ġmerrily":6893,"snuggle":6894,"Ġkilled":6895,"Ġwrest":6896,"Ġreminds":6897,"Ġinstruments":6898,"Ġhyenas":6899,"Ġjonathan":6900,"Ġsurface":6901,"Ġconcert":6902,"Ġsomersault":6903,"aislinn":6904,"Ġsculpture":6905,"feteria":6906,"oustache":6907,"cul":6908,"cream":6909,"des":6910,"emma":6911,"gia":6912,"gently":6913,"iana":6914,"kate":6915,"mont":6916,"mower":6917,"ruction":6918,"sort":6919,"top":6920,"wet":6921,"Ġwiz":6922,"anan":6923,"Ġgulp":6924,"Ġmosquit":6925,"Ġpun":6926,"Ġlee":6927,"erica":6928,"ita":6929,"esy":6930,"Ġhunt":6931,"Ġhah":6932,"Ġhamm":6933,"vember":6934,"Ġgobl":6935,"Ġheidi":6936,"Ġrap":6937,"Ġronnie":6938,"Ġkicked":6939,"Ġwand":6940,"Ġmexic":6941,"chugga":6942,"aling":6943,"itten":6944,"Ġups":6945,"Ġanswe":6946,"Ġsack":6947,"Ġwhoo":6948,"Ġchuck":6949,"Ġtroubles":6950,"soft":6951,"Ġbuggy":6952,"essa":6953,"Ġflush":6954,"Ġhopping":6955,"Ġhopper":6956,"Ġgrade":6957,"Ġguacamole":6958,"gobble":6959,"Ġdiving":6960,"ipment":6961,"Ġleopard":6962,"Ġshore":6963,"iley":6964,"Ġleash":6965,"Ġharv":6966,"acked":6967,"whenever":6968,"tails":6969,"Ġmiche":6970,"Ġslinger":6971,"Ġstores":6972,"baba":6973,"inach":6974,"scoot":6975,"Ġfog":6976,"Ġpolka":6977,"ummie":6978,"Ġbikes":6979,"Ġconversation":6980,"swish":6981,"Ġtwer":6982,"Ġdrain":6983,"Ġtuba":6984,"Ġcharles":6985,"Ġdoughnut":6986,"Ġsleigh":6987,"Ġfreezing":6988,"lights":6989,"Ġbalan":6990,"Ġpeeking":6991,"Ġbologna":6992,"Ġsystem":6993,"Ġfelix":6994,"trees":6995,"Ġswallowed":6996,"stefan":6997,"Ġvitamin":6998,"piece":6999,"Ġcollar":7000,"charlie":7001,"aguar":7002,"pumpkin":7003,"Ġphotogra":7004,"Ġdakota":7005,"Ġdoubt":7006,"Ġadventure":7007,"Ġanswered":7008,"ai":7009,"boree":7010,"cht":7011,"hh":7012,"hug":7013,"jeez":7014,"lay":7015,"nes":7016,"tall":7017,"tur":7018,"taste":7019,"uation":7020,"yall":7021,"Ġut":7022,"Ġtuck":7023,"Ġtart":7024,"Ġamy":7025,"Ġwitches":7026,"Ġske":7027,"Ġdya":7028,"Ġmoustache":7029,"Ġpaws":7030,"Ġling":7031,"Ġfishes":7032,"Ġdoggy":7033,"Ġrot":7034,"aron":7035,"Ġstream":7036,"ene":7037,"eng":7038,"ency":7039,"robe":7040,"Ġblouse":7041,"Ġyoyo":7042,"Ġchir":7043,"Ġchina":7044,"Ġalien":7045,"aka":7046,"soci":7047,"oopers":7048,"upside":7049,"Ġark":7050,"ulah":7051,"Ġfluffy":7052,"Ġassoci":7053,"lph":7054,"Ġchased":7055,"things":7056,"pengu":7057,"ately":7058,"Ġjug":7059,"Ġfishie":7060,"rian":7061,"somewhere":7062,"Ġcraig":7063,"Ġdecember":7064,"Ġdale":7065,"Ġdropping":7066,"Ġmarry":7067,"Ġcafeteria":7068,"Ġdisco":7069,"Ġyoga":7070,"Ġwoody":7071,"playdoh":7072,"Ġvisiting":7073,"Ġhammering":7074,"Ġclapping":7075,"Ġtriangles":7076,"ikada":7077,"Ġpeace":7078,"Ġimpressed":7079,"patsy":7080,"Ġfighter":7081,"Ġfolding":7082,"ursula":7083,"grab":7084,"grape":7085,"gail":7086,"Ġguns":7087,"crazy":7088,"Ġcherries":7089,"Ġgerms":7090,"Ġcostumes":7091,"Ġlincoln":7092,"Ġpassenger":7093,"Ġcorrect":7094,"Ġhydr":7095,"christmas":7096,"Ġsubway":7097,"Ġtimer":7098,"cracker":7099,"Ġstrikes":7100,"Ġmurphy":7101,"Ġbuster":7102,"Ġrinse":7103,"Ġfrightened":7104,"Ġgrabbed":7105,"Ġninth":7106,"Ġequipment":7107,"Ġpanties":7108,"Ġteletubbies":7109,"Ġincredible":7110,"fle":7111,"home":7112,"him":7113,"ners":7114,"rar":7115,"save":7116,"tim":7117,"Ġashes":7118,"Ġsour":7119,"Ġbould":7120,"Ġgigg":7121,"Ġmid":7122,"Ġmiles":7123,"Ġport":7124,"Ġlump":7125,"itzen":7126,"esting":7127,"nal":7128,"ari":7129,"Ġkaboom":7130,"Ġlia":7131,"Ġnuh":7132,"Ġnipp":7133,"Ġema":7134,"veral":7135,"Ġjour":7136,"Ġjeez":7137,"Ġjasmine":7138,"ales":7139,"alade":7140,"dolly":7141,"Ġuppy":7142,"ami":7143,"Ġeaters":7144,"ilar":7145,"Ġcod":7146,"Ġblues":7147,"Ġnasty":7148,"Ġfranny":7149,"Ġfrisbee":7150,"Ġclues":7151,"ques":7152,"uel":7153,"ggle":7154,"Ġflint":7155,"Ġshaky":7156,"erence":7157,"ardess":7158,"Ġnighttime":7159,"Ġwaited":7160,"uga":7161,"Ġzack":7162,"Ġslo":7163,"Ġposter":7164,"Ġdanced":7165,"Ġparked":7166,"Ġcrabs":7167,"Ġhiking":7168,"Ġrains":7169,"Ġraincoat":7170,"Ġpolite":7171,"Ġcounted":7172,"Ġsnuggle":7173,"achus":7174,"everywhere":7175,"Ġspills":7176,"Ġbottoms":7177,"Ġconfus":7178,"Ġwinner":7179,"Ġdeliver":7180,"Ġseals":7181,"ibly":7182,"Ġwalnuts":7183,"Ġfreeze":7184,"Ġpaddle":7185,"Ġdadaji":7186,"Ġcuz":7187,"point":7188,"Ġscarry":7189,"Ġsmiled":7190,"pillow":7191,"Ġselling":7192,"Ġbranches":7193,"Ġlouder":7194,"erican":7195,"busy":7196,"iculous":7197,"rubber":7198,"Ġobvious":7199,"Ġtwisted":7200,"Ġpacked":7201,"Ġlawnmower":7202,"Ġlittler":7203,"hurray":7204,"Ġjoshua":7205,"Ġlassie":7206,"Ġpierre":7207,"surprise":7208,"Ġtransmitter":7209,"gusting":7210,"Ġflintst":7211,"bark":7212,"cous":7213,"dis":7214,"doot":7215,"ect":7216,"fs":7217,"fill":7218,"hill":7219,"ius":7220,"jimmy":7221,"jingle":7222,"loo":7223,"munk":7224,"ober":7225,"poo":7226,"sus":7227,"soup":7228,"Ġtons":7229,"heit":7230,"Ġaim":7231,"Ġaug":7232,"Ġig":7233,"Ġicing":7234,"onna":7235,"Ġcem":7236,"Ġpomp":7237,"Ġlas":7238,"Ġlaw":7239,"Ġfau":7240,"Ġfantastic":7241,"etts":7242,"etery":7243,"Ġhush":7244,"sel":7245,"ided":7246,"Ġroot":7247,"Ġrash":7248,"nat":7249,"atter":7250,"Ġmeg":7251,"Ġnet":7252,"hole":7253,"thony":7254,"ume":7255,"uhp":7256,"Ġboiled":7257,"ellie":7258,"beans":7259,"Ġnathan":7260,"Ġclam":7261,"Ġflute":7262,"Ġballet":7263,"Ġmobile":7264,"elana":7265,"shoo":7266,"Ġtrape":7267,"Ġswea":7268,"Ġswiper":7269,"Ġworker":7270,"entagon":7271,"Ġlotion":7272,"hipp":7273,"Ġourselves":7274,"Ġbats":7275,"Ġglued":7276,"Ġappeared":7277,"ribe":7278,"armalade":7279,"balloons":7280,"babies":7281,"Ġhike":7282,"Ġsetting":7283,"scoop":7284,"zebra":7285,"Ġrainy":7286,"Ġtreating":7287,"sky":7288,"skunk":7289,"Ġlistens":7290,"Ġeighty":7291,"Ġsaddle":7292,"Ġdrying":7293,"Ġsteven":7294,"Ġrubbing":7295,"Ġbrain":7296,"seth":7297,"Ġsuperman":7298,"Ġcarrier":7299,"Ġforks":7300,"Ġsuits":7301,"matt":7302,"walking":7303,"Ġtearing":7304,"lois":7305,"Ġpooping":7306,"Ġnonno":7307,"Ġescal":7308,"Ġcheerio":7309,"kissing":7310,"Ġgymboree":7311,"peanuts":7312,"Ġflags":7313,"lucy":7314,"Ġsewing":7315,"Ġkristen":7316,"Ġelliot":7317,"Ġjesse":7318,"Ġelectricity":7319,"Ġbrenda":7320,"Ġgrouchy":7321,"Ġjanuary":7322,"strawberry":7323,"Ġjersey":7324,"Ġprayers":7325,"special":7326,"nosaurus":7327,"Ġdiesel":7328,"Ġhydrant":7329,"achusetts":7330,"Ġaugust":7331,"Ġcemetery":7332,"Ġescalator":7333,"cie":7334,"ior":7335,"kids":7336,"live":7337,"meat":7338,"mals":7339,"oes":7340,"pee":7341,"riding":7342,"tee":7343,"uctor":7344,"vet":7345,"wk":7346,"yo":7347,"Ġvel":7348,"Ġtul":7349,"Ġterry":7350,"Ġwig":7351,"Ġwicked":7352,"Ġdoop":7353,"Ġbou":7354,"anne":7355,"Ġcons":7356,"Ġpounds":7357,"Ġtofu":7358,"Ġfever":7359,"Ġfurry":7360,"Ġonions":7361,"oma":7362,"kent":7363,"lemon":7364,"Ġisabelle":7365,"Ġint":7366,"Ġhehe":7367,"Ġwanting":7368,"chou":7369,"chie":7370,"also":7371,"dolph":7372,"Ġplop":7373,"pposed":7374,"Ġsheets":7375,"Ġcluck":7376,"ffi":7377,"Ġships":7378,"april":7379,"Ġtran":7380,"Ġhappily":7381,"Ġcommer":7382,"Ġlogs":7383,"issy":7384,"Ġvine":7385,"Ġvirginia":7386,"ilence":7387,"Ġschoolbus":7388,"aches":7389,"Ġhearing":7390,"Ġfallen":7391,"Ġzub":7392,"bax":7393,"cord":7394,"rika":7395,"Ġadv":7396,"Ġcuts":7397,"Ġcutter":7398,"onda":7399,"onde":7400,"Ġrossy":7401,"Ġfiremen":7402,"Ġfirefighter":7403,"Ġtickled":7404,"Ġknocks":7405,"Ġprick":7406,"Ġprint":7407,"Ġmuscles":7408,"Ġmusical":7409,"percy":7410,"Ġspelling":7411,"Ġinstruction":7412,"Ġsharpen":7413,"finally":7414,"Ġwhales":7415,"Ġgoogey":7416,"Ġpotatohead":7417,"Ġgoldie":7418,"Ġstole":7419,"Ġstopping":7420,"Ġcontin":7421,"Ġindeed":7422,"Ġbolts":7423,"wheat":7424,"Ġmammals":7425,"Ġridiculous":7426,"bears":7427,"teach":7428,"Ġmillion":7429,"colors":7430,"Ġclickety":7431,"snoopy":7432,"Ġavril":7433,"nonna":7434,"Ġwastebasket":7435,"Ġscott":7436,"Ġruler":7437,"undheit":7438,"Ġsneezed":7439,"Ġtarget":7440,"Ġkiwi":7441,"bubble":7442,"Ġfrancisco":7443,"Ġempire":7444,"Ġmichelle":7445,"bth":7446,"dom":7447,"dough":7448,"ez":7449,"found":7450,"fred":7451,"french":7452,"life":7453,"mak":7454,"pir":7455,"tv":7456,"wish":7457,"yer":7458,"Ġtik":7459,"Ġdabee":7460,"Ġbanda":7461,"anie":7462,"Ġms":7463,"Ġmummie":7464,"Ġpause":7465,"Ġpans":7466,"erque":7467,"Ġfuss":7468,"ettle":7469,"seng":7470,"Ġrich":7471,"Ġruth":7472,"Ġrusty":7473,"Ġbald":7474,"Ġevil":7475,"Ġstable":7476,"Ġrent":7477,"ening":7478,"always":7479,"Ġbop":7480,"ryl":7481,"auce":7482,"Ġcarn":7483,"geous":7484,"Ġspinach":7485,"querque":7486,"Ġchilly":7487,"Ġalbu":7488,"Ġbrid":7489,"soda":7490,"Ġbup":7491,"ession":7492,"Ġflakes":7493,"Ġmanag":7494,"Ġloi":7495,"issipp":7496,"Ġtrave":7497,"Ġpebbles":7498,"Ġquart":7499,"Ġwritten":7500,"Ġseveral":7501,"Ġhaircut":7502,"aca":7503,"Ġenergy":7504,"Ġjoy":7505,"Ġsquished":7506,"Ġsquishing":7507,"Ġzo":7508,"bler":7509,"Ġdevil":7510,"Ġtender":7511,"bbly":7512,"unky":7513,"Ġsixty":7514,"Ġsunshine":7515,"Ġdresser":7516,"Ġmarbles":7517,"couldn":7518,"Ġstrap":7519,"Ġcovering":7520,"Ġmedium":7521,"Ġcardboard":7522,"Ġoatio":7523,"Ġsplit":7524,"Ġplanes":7525,"Ġplanets":7526,"ricot":7527,"Ġtaped":7528,"Ġcucumber":7529,"Ġsprinkle":7530,"Ġsigns":7531,"Ġbrussels":7532,"dinner":7533,"Ġgrapefruit":7534,"Ġmushy":7535,"Ġliza":7536,"pigs":7537,"arently":7538,"hands":7539,"called":7540,"Ġundressed":7541,"Ġcollege":7542,"Ġsusan":7543,"Ġlined":7544,"Ġpassed":7545,"Ġfredrick":7546,"eterin":7547,"Ġstewardess":7548,"Ġcindy":7549,"Ġgingerbread":7550,"Ġdepartment":7551,"Ġcarolina":7552,"Ġfilm":7553,"besides":7554,"Ġbitty":7555,"nursie":7556,"recorder":7557,"Ġvolcan":7558,"Ġpropeller":7559,"nineteen":7560,"Ġgrizzly":7561,"Ġyounger":7562,"Ġwizard":7563,"Ġinstructions":7564,"Ġbandaids":7565,"sengers":7566,"Ġalbuquerque":7567,"issippi":7568,"belly":7569,"boots":7570,"cute":7571,"gull":7572,"kh":7573,"lal":7574,"mous":7575,"pow":7576,"pass":7577,"saw":7578,"tic":7579,"ties":7580,"Ġtune":7581,"ouette":7582,"haw":7583,"Ġay":7584,"Ġafr":7585,"Ġwest":7586,"Ġsar":7587,"Ġsalley":7588,"Ġgoof":7589,"Ġmuck":7590,"Ġmowing":7591,"Ġpuh":7592,"Ġitaly":7593,"itz":7594,"Ġfudge":7595,"Ġdomin":7596,"etah":7597,"Ġolive":7598,"Ġhip":7599,"sees":7600,"Ġraw":7601,"Ġrhode":7602,"nate":7603,"Ġnoon":7604,"Ġment":7605,"Ġnugg":7606,"Ġbaked":7607,"Ġstan":7608,"Ġjupiter":7609,"edi":7610,"bees":7611,"meg":7612,"mend":7613,"Ġtacos":7614,"opes":7615,"geant":7616,"Ġspent":7617,"quet":7618,"soggy":7619,"abu":7620,"oompapa":7621,"ulous":7622,"rowrow":7623,"Ġflu":7624,"acks":7625,"bleh":7626,"Ġass":7627,"Ġsituation":7628,"Ġgrill":7629,"lip":7630,"Ġveterin":7631,"plant":7632,"Ġworkers":7633,"Ġnights":7634,"Ġwrites":7635,"Ġrocked":7636,"acty":7637,"maid":7638,"Ġmater":7639,"Ġpigtails":7640,"Ġsquid":7641,"Ġpenis":7642,"Ġzach":7643,"mike":7644,"Ġstuffy":7645,"Ġbushes":7646,"Ġadul":7647,"broom":7648,"Ġmothers":7649,"Ġended":7650,"Ġdressing":7651,"Ġmarty":7652,"Ġdisc":7653,"eadow":7654,"Ġcones":7655,"flying":7656,"Ġvisited":7657,"cromer":7658,"Ġstephen":7659,"Ġmelted":7660,"Ġseaweed":7661,"oyoy":7662,"Ġfloating":7663,"Ġwiggling":7664,"Ġedges":7665,"comes":7666,"Ġdoughnuts":7667,"cats":7668,"Ġscratching":7669,"Ġmaryse":7670,"Ġmaple":7671,"talking":7672,"Ġribbons":7673,"Ġcabbage":7674,"Ġvalentines":7675,"bouncy":7676,"Ġundo":7677,"Ġcollection":7678,"jennifer":7679,"Ġloader":7680,"Ġpattycake":7681,"Ġlesson":7682,"Ġpuffed":7683,"Ġpassengers":7684,"dancing":7685,"Ġpirates":7686,"Ġjulie":7687,"Ġfooling":7688,"Ġraspberry":7689,"Ġrecently":7690,"Ġturkeys":7691,"cuz":7692,"paint":7693,"scratchy":7694,"Ġmousie":7695,"Ġbulb":7696,"Ġsausage":7697,"Ġphotograph":7698,"onnaise":7699,"Ġcommercial":7700,"ged":7701,"gare":7702,"glor":7703,"hiding":7704,"jay":7705,"lar":7706,"moom":7707,"pard":7708,"ris":7709,"sad":7710,"sandra":7711,"snort":7712,"uing":7713,"vie":7714,"vac":7715,"zoo":7716,"Ġti":7717,"Ġtut":7718,"Ġau":7719,"Ġaction":7720,"Ġscan":7721,"Ġgall":7722,"Ġmor":7723,"Ġmarmalade":7724,"Ġpit":7725,"Ġpoodle":7726,"Ġlind":7727,"noring":7728,"Ġfolk":7729,"ohoh":7730,"Ġrang":7731,"Ġnovember":7732,"Ġnanette":7733,"Ġstain":7734,"Ġknown":7735,"Ġplow":7736,"Ġsomeday":7737,"Ġbobbie":7738,"elliot":7739,"becky":7740,"Ġcoins":7741,"Ġblast":7742,"Ġblitzen":7743,"Ġnai":7744,"Ġnecess":7745,"Ġalthough":7746,"Ġwatches":7747,"Ġworn":7748,"donna":7749,"Ġmane":7750,"ifts":7751,"ifier":7752,"shoot":7753,"Ġtravel":7754,"Ġvik":7755,"Ġhairy":7756,"across":7757,"Ġappre":7758,"Ġappoint":7759,"Ġlightning":7760,"Ġbathrobe":7761,"Ġpoppy":7762,"Ġrecords":7763,"Ġsnails":7764,"Ġdanielle":7765,"Ġchoices":7766,"Ġtickets":7767,"Ġgrain":7768,"Ġsnoo":7769,"Ġsnuff":7770,"Ġsnugg":7771,"Ġmarching":7772,"Ġdisgusting":7773,"Ġeighth":7774,"Ġtony":7775,"monds":7776,"Ġapartment":7777,"Ġfarther":7778,"rolling":7779,"Ġtripped":7780,"Ġtractors":7781,"drum":7782,"trains":7783,"Ġlanding":7784,"Ġcoats":7785,"Ġwiggly":7786,"udud":7787,"Ġchanges":7788,"rrrr":7789,"choke":7790,"eighteen":7791,"driving":7792,"Ġroses":7793,"cows":7794,"watermelon":7795,"feels":7796,"Ġfollowed":7797,"Ġpointy":7798,"Ġburger":7799,"Ġburied":7800,"odacty":7801,"bath":7802,"Ġpeeling":7803,"girls":7804,"Ġcubs":7805,"Ġclearly":7806,"Ġtorn":7807,"Ġleaning":7808,"Ġopposites":7809,"Ġhidden":7810,"Ġbecame":7811,"Ġfrustrating":7812,"Ġbarely":7813,"Ġconductor":7814,"Ġbubba":7815,"simba":7816,"animals":7817,"Ġfussy":7818,"squirrel":7819,"Ġschm":7820,"Ġjapanese":7821,"Ġtwerp":7822,"Ġassociated":7823,"Ġfaucet":7824,"brian":7825,"cille":7826,"dig":7827,"ders":7828,"dark":7829,"danny":7830,"drop":7831,"gigi":7832,"giddy":7833,"hung":7834,"hins":7835,"jor":7836,"lunch":7837,"lvan":7838,"pea":7839,"si":7840,"sound":7841,"tommy":7842,"tiny":7843,"wu":7844,"wrap":7845,"Ġwu":7846,"Ġdal":7847,"Ġmeadow":7848,"noise":7849,"isher":7850,"Ġdock":7851,"Ġdozen":7852,"especially":7853,"ndrika":7854,"orter":7855,"Ġheel":7856,"Ġrise":7857,"Ġraking":7858,"stars":7859,"Ġnie":7860,"Ġcanoe":7861,"Ġjaguar":7862,"dot":7863,"Ġplans":7864,"Ġwasher":7865,"myumm":7866,"lettuce":7867,"Ġshed":7868,"ryan":7869,"usher":7870,"Ġbackhoe":7871,"Ġblub":7872,"Ġblonde":7873,"Ġofficer":7874,"Ġnect":7875,"Ġchubby":7876,"Ġtrim":7877,"Ġprep":7878,"abab":7879,"reeze":7880,"Ġflick":7881,"Ġcolorful":7882,"Ġsully":7883,"Ġwaterfall":7884,"lest":7885,"Ġheaded":7886,"Ġwrink":7887,"Ġsmith":7888,"Ġhatch":7889,"Ġrover":7890,"maggie":7891,"Ġtablecloth":7892,"Ġthrows":7893,"Ġamerican":7894,"shadow":7895,"bruary":7896,"Ġpox":7897,"clos":7898,"Ġbooster":7899,"sylvan":7900,"Ġtickly":7901,"Ġclothing":7902,"Ġunpl":7903,"Ġfavorites":7904,"Ġmessing":7905,"Ġtasted":7906,"Ġpaid":7907,"visible":7908,"Ġwarmer":7909,"Ġawesome":7910,"Ġsmelling":7911,"Ġcardinal":7912,"Ġkingdom":7913,"Ġgeorgia":7914,"Ġplanning":7915,"Ġfruits":7916,"Ġsledding":7917,"Ġsimilar":7918,"lotte":7919,"Ġfolded":7920,"Ġsmoked":7921,"joanna":7922,"Ġgather":7923,"cleaning":7924,"ergency":7925,"much":7926,"Ġgerm":7927,"Ġmermaid":7928,"broke":7929,"clothes":7930,"Ġprotein":7931,"Ġsweeping":7932,"climbing":7933,"captain":7934,"Ġmumma":7935,"Ġsilverware":7936,"Ġellie":7937,"Ġdolphins":7938,"Ġcondition":7939,"Ġbomber":7940,"simple":7941,"Ġcreatures":7942,"Ġdisneyland":7943,"uuw":7944,"Ġmechanic":7945,"Ġentire":7946,"Ġchicago":7947,"spells":7948,"Ġmarshmallows":7949,"Ġskeleton":7950,"Ġboulder":7951,"Ġsloth":7952,"Ġobviously":7953,"Ġtransc":7954,"Ġappreci":7955,"Ġnectar":7956,"bum":7957,"bill":7958,"dee":7959,"dora":7960,"ena":7961,"face":7962,"field":7963,"grow":7964,"hood":7965,"hirt":7966,"humpty":7967,"kl":7968,"kle":7969,"lisa":7970,"nan":7971,"nuh":7972,"nsylvan":7973,"pas":7974,"poss":7975,"sle":7976,"tool":7977,"tory":7978,"Ġic":7979,"Ġsoopers":7980,"Ġthee":7981,"Ġdive":7982,"Ġgiggle":7983,"Ġcy":7984,"Ġcush":7985,"llen":7986,"lley":7987,"Ġphe":7988,"Ġloops":7989,"Ġfet":7990,"easure":7991,"Ġonion":7992,"Ġheck":7993,"Ġhedge":7994,"nast":7995,"ights":7996,"Ġkoosh":7997,"adu":7998,"Ġnicky":7999,"Ġecho":8000,"Ġsteel":8001,"Ġstyle":8002,"Ġjet":8003,"imy":8004,"alligator":8005,"Ġsher":8006,"Ġeast":8007,"Ġeagle":8008,"whoosh":8009,"icka":8010,"Ġtab":8011,"Ġcarpen":8012,"Ġfrance":8013,"Ġclop":8014,"bers":8015,"aine":8016,"Ġorig":8017,"Ġneither":8018,"Ġchu":8019,"Ġalaska":8020,"Ġelves":8021,"abi":8022,"Ġworth":8023,"pered":8024,"pepper":8025,"ishi":8026,"elbow":8027,"umpet":8028,"Ġholl":8029,"Ġbeth":8030,"Ġscrap":8031,"Ġscales":8032,"Ġgrate":8033,"Ġmuddy":8034,"Ġcrust":8035,"Ġcrashing":8036,"plum":8037,"Ġsweat":8038,"ubub":8039,"Ġgreens":8040,"Ġthrown":8041,"Ġdino":8042,"base":8043,"Ġslam":8044,"Ġslinky":8045,"Ġexpress":8046,"Ġgrandaddy":8047,"Ġsnaps":8048,"cling":8049,"Ġparlor":8050,"Ġstrom":8051,"Ġunlo":8052,"Ġhungarian":8053,"bbing":8054,"ddle":8055,"Ġpattern":8056,"present":8057,"Ġuntied":8058,"erald":8059,"Ġsixth":8060,"spit":8061,"spaghetti":8062,"iggly":8063,"ounce":8064,"Ġcracking":8065,"Ġjackets":8066,"Ġpik":8067,"Ġstegosaurus":8068,"trick":8069,"jamin":8070,"Ġhoping":8071,"Ġlands":8072,"leaves":8073,"sticks":8074,"sticker":8075,"Ġdesc":8076,"Ġcrawled":8077,"underneath":8078,"Ġrecorded":8079,"walker":8080,"Ġnurses":8081,"frogs":8082,"Ġtoolbox":8083,"piglet":8084,"lovely":8085,"Ġghosts":8086,"Ġdecorate":8087,"Ġdecorations":8088,"works":8089,"Ġimagination":8090,"georgie":8091,"Ġsears":8092,"Ġcassie":8093,"Ġrepair":8094,"Ġposition":8095,"ruby":8096,"Ġreturned":8097,"Ġaxe":8098,"Ġskiing":8099,"Ġoreos":8100,"Ġbrendon":8101,"Ġsqueezing":8102,"Ġkermit":8103,"Ġflamingo":8104,"towel":8105,"iddler":8106,"Ġcigarette":8107,"jesse":8108,"smoke":8109,"Ġaladar":8110,"Ġjourney":8111,"Ġignore":8112,"Ġcarnival":8113,"seesaw":8114,"garet":8115,"hungry":8116,"nsylvania":8117,"ems":8118,"gos":8119,"jon":8120,"jill":8121,"kuh":8122,"lies":8123,"laug":8124,"mint":8125,"martin":8126,"pos":8127,"ral":8128,"sandy":8129,"suit":8130,"sley":8131,"tly":8132,"voom":8133,"violin":8134,"zipper":8135,"Ġest":8136,"Ġtum":8137,"Ġtrot":8138,"Ġaut":8139,"Ġaun":8140,"Ġachoo":8141,"Ġwink":8142,"Ġwise":8143,"Ġsou":8144,"Ġsur":8145,"Ġtherm":8146,"Ġdoot":8147,"Ġdimes":8148,"Ġbong":8149,"anche":8150,"Ġgerald":8151,"Ġcoop":8152,"Ġlun":8153,"Ġlent":8154,"Ġfizz":8155,"Ġfault":8156,"Ġdoc":8157,"Ġdove":8158,"Ġdope":8159,"Ġoper":8160,"Ġhump":8161,"igu":8162,"igor":8163,"lection":8164,"Ġrumble":8165,"Ġnoah":8166,"ooky":8167,"Ġkettle":8168,"aded":8169,"Ġliqu":8170,"Ġbak":8171,"asy":8172,"Ġbegg":8173,"holy":8174,"Ġstair":8175,"Ġrepl":8176,"Ġjason":8177,"Ġgonga":8178,"aked":8179,"amas":8180,"ppets":8181,"unched":8182,"Ġsport":8183,"Ġshorter":8184,"Ġalmonds":8185,"soap":8186,"Ġwillie":8187,"Ġbudd":8188,"Ġhoe":8189,"Ġprett":8190,"Ġtrace":8191}