#version: 0.2
Ġ t
h e
Ġ a
o u
Ġ w
i n
Ġ s
r e
Ġt he
h a
Ġ .
Ġ y
Ġ o
Ġy ou
i t
Ġ b
Ġ d
Ġ m
n d
Ġ c
e r
i s
ha t
Ġ I
l l
Ġ f
Ġt o
Ġ g
in g
a n
o n
Ġ l
Ġ ?
Ġ p
' s
Ġ n
e d
o r
e s
Ġa nd
Ġ it
e n
o m
Ġ he
a y
o w
e a
Ġ h
Ġt hat
Ġt h
e t
Ġ ha
Ġ in
o t
Ġo f
v e
i d
a s
a r
Ġo n
Ġ -
o o
a t
Ġd o
Ġ T
u s
Ġw e
Ġ "
Ġ is
l e
' t
Ġ A
g h
k e
i c
u t
Ġw hat
Ġb e
Ġ B
Ġ u
l d
Ġ k
Ġ S
gh t
r i
s e
i m
Ġ M
Ġw as
v er
Ġ re
Ġ e
Ġm e
ou t
Ġ W
i r
l y
om e
Ġl i
a l
a d
Ġf or
Ġs t
Ġg o
x x
a c
Ġ ,
Ġth is
Ġ H
Ġc an
Ġs a
it h
. .
Ġa re
Ġha ve
Ġ Y
Ġw ith
Ġk n
e e
a ll
Ġa n
Ġyou r
a m
Ġw h
oo k
s t
Ġn ot
r o
en t
Ġa s
Ġkn ow
Ġd on
c h
Ġ C
e ll
Ġw an
ea h
he r
Ġthe y
Ġthe re
ĠT he
Ġ j
ou ld
Ġli ke
i ll
us t
Ġn o
Ġ L
i on
Ġa t
Ġsa id
Ġs o
Ġs he
u r
n a
Ġp l
Ġw he
Ġon e
i f
' re
k ay
Ġ D
oo d
t er
Ġ !
Ġhe re
in k
u n
Ġm y
Ġs ee
Ġd id
Ġg et
Ġu p
r a
ri ght
Ġo h
Ġs h
Ġ N
Ġa ll
Ġo kay
Ġl ook
Ġwan t
p p
o re
a ke
Ġs ay
ĠY ou
r y
Ġn e
Ġ O
Ġb ut
Ġ xx
Ġxx x
i l
Ġhe r
i e
Ġ out
ac k
ea r
Ġth ink
c e
o p
Ġa b
! "
ĠH e
' m
Ġj ust
Ġy eah
it t
ver y
c k
h ing
Ġh is
Ġ G
a b
Ġ r
? "
Ġ P
ou r
a nd
Ġ right
i ght
c t
Ġs ome
i g
ĠI t
Ġthe m
in d
Ġa l
u m
' ll
Ġab out
Ġo r
ha n
Ġg ot
Ġh im
Ġ R
us e
all y
g e
a in
Ġg ood
Ġwh o
ic e
Ġha d
Ġf r
Ġ J
Ġn ow
on e
u l
ar t
i ve
o l
Ġ F
Ġ if
itt le
Ġp ut
, "
Ġ E
Ġw or
Ġan y
Ġl ittle
ow n
es s
Ġu h
Ġas k
.. .
Ġpl ay
u h
Ġs u
ou nd
Ġw ould
c a
Ġto o
Ġl et
e l
. "
Ġwhe re
Ġwe re
Ġs p
Ġfr om
o s
q u
Ġc ome
Ġh ow
Ġb ack
ea t
er s
re d
e p
on g
Ġw ill
on na
ic k
Ġwhe n
i ly
Ġb o
Ġg onna
Ġgo ing
Ġ us
Ġc om
Ġm ore
Ġwe ll
w ay
es t
Ġdo es
n t
Ġ very
am e
Ġthe n
is t
â Ģ
as t
Ġt im
e nd
a k
e m
Ġd own
ĠA nd
Ġb y
Ġt w
o se
Ġth ing
Ġm an
ar d
d y
at ion
ou gh
Ġc l
' ve
ĠW hat
ca use
v en
at e
id e
in e
re s
or t
b er
Ġtim e
Ġ v
om et
ĠS he
Ġe x
Ġc ould
Ġa g
Ġwan na
Ġ. ..
t her
a p
Ġ er
ot her
Ġ 1
Ġo ver
Ġl o
Ġs e
l p
Ġof f
Ġsay s
Ġm ake
ĠL ily
ĠW e
t y
Ġp ro
Ġt ell
Ġin t
Ġs omet
al k
h i
h m
f f
Ġha s
m y
it e
an t
Ġt ake
Ġask ed
Ġt r
re e
Ġm o
Ġa r
Ġbe cause
ĠN o
Ġb l
i es
Ġt han
a re
Ġhe lp
ou s
Ġ ro
Ġtw o
Ġc o
a g
u ck
t h
Ġo ther
Ġre ally
Ġb ig
f t
ĠB en
Ġc on
Ġbe en
ĠThe y
Ġu m
Ġne ed
Ġha pp
ĠY eah
e re
Ġ K
Ġme an
ic h
Ġ qu
Ġp e
u e
Ġsomet hing
Ġ our
Ġb r
Ġdo ing
Ġ Ġ
Ġc ar
Ġ 2
ĠO h
ac e
Ġ eat
Ġm m
Ġy es
Ġthe ir
Ġwh y
Ġw ay
is h
ĠB ut
ell o
op le
Ġw at
Ġb ab
C an
Ġdid n
ĠT hat
Ġm u
Ġm om
nd er
u re
t hing
Ġp re
ir st
ĠM om
y s
Ġwor k
Ġthe se
Ġg u
ou ght
ur n
ĠT om
Ġag ain
Ġa m
Ġpe ople
b e
d ay
Ġsh ould
Ġe very
e ct
Ġ (
re at
Ġre ad
Ġd ay
Ġc all
Ġb u
Ġa way
b le
Ġmu ch
H ello
Ġbab y
or n
Ġdo g
Ġb et
Ġth ose
Ġs m
ĠT h
Ġh uh
v ing
' d
i a
is s
it y
Ġwh ich
Ġk ind
b o
Ġt alk
h uh
Ġa f
he d
Ġint o
oo l
t ing
ri end
ea se
ar k
ad e
Ġs ha
Ġg ive
Ġl ea
Ġt ry
ou se
Ġ en
Ġe l
a ge
Ġ U
Ġb ook
Ġd e
ĠS o
Ġth r
Ġm ay
Ġthing s
Ġha nd
e w
Ġf irst
Ġf l
as s
Ġl ot
Ġh ome
Ġp o
Ġc h
ĠW h
ĠW ell
Ġs w
Ġf un
l f
Ġf riend
Ġel se
ir d
n y
o b
Ġg r
- -
e y
Ġs c
Ġ ke
f ul
ĠS t
ĠT im
i re
Ġw a
Ġp r
v es
Ġy ear
p l
g et
Ġon ly
Ġre m
Ġn ice
m ent
Ġp art
i x
Ġg ir
u d
Ġpre t
Ġ2 0
Ġf ind
Ġh o
ea s
Ġaf ter
Ġh m
i p
u ll
u p
v ed
Ġc ha
Ġw r
an g
Ġt urn
Ġhapp en
Ġc at
ac t
i z
m e
w w
w n
f ore
a u
Ġgir l
n g
o ck
ĠY es
Ġu nder
i an
Ġw ent
Ġl ong
Ġc are
Ġdoes n
ri ed
ĠD o
Ġne w
Ġu n
Ġbo y
Ġ âĢ
s o
ou nt
ar y
Ġl e
or d
he re
Ġo ld
Ġm ade
i le
ĠI n
one y
c o
e et
Ġne ver
ee l
Ġh ouse
ĠA n
ĠM r
Ġst ill
Ġth ree
Ġb all
bo dy
Ġth ought
Ġ1 9
Ġf o
Ġc he
is e
Ġany thing
c i
l es
Ġo p
Ġe ven
Ġh i
res s
ab le
Ġsu re
Ġsh ow
if f
em ber
a v
Ġar ound
Ġa ct
Ġan other
ĠTh is
Ġbe fore
Ġst art
ic t
Ġthan k
o d
U h
Ġbet ter
Y eah
Ġm hm
Ġn ame
Ġpl ease
Ġf eel
s ide
Ġlo ve
Ġb it
Ġb ird
Ġwa it
Ġ V
Ġn ight
Ġb ot
g g
m er
p s
o h
Ġthr ough
at her
Ġs it
Ġ im
âĢ Ļ
u b
y e
Ġk id
or y
Ġwat er
m an
e en
Ġg reat
u ally
Ġl ast
p e
ĠThe re
Ġpret ty
Ġman y
re n
Ġdon e
Ġal right
hi ld
Ġw on
Ġ ra
Ġs l
Ġm in
ak ing
or ry
Ġm ust
Ġlook s
Ġc ame
ch ool
f e
an ce
a ve
r d
Ġa d
p t
Ġm ight
Ġa pp
x t
ut e
u ff
on s
he n
B ut
Ġw ww
Ġd iff
Ġke ep
ft a
Ġha fta
Ġrem ember
or s
ĠH ow
ar a
in t
get her
Ġc r
Ġd r
ur t
um p
way s
Ġer m
Ġmay be
Y ou
ad dy
ĠMom my
Ġhe ad
ad y
m s
Ġd is
Ġa c
Ġb re
ĠC h
he s
Ġ [
os s
o st
Ġp er
Ġto gether
Ġt ea
ion s
a ir
Ġs chool
Ġc hild
p er
re am
t a
Ġr un
Ġop en
Ġsa w
Ġ use
H ey
Ġb ad
ĠĠ ĠĠ
ea l
ĠS am
Ġst r
Ġcall ed
Ġho ld
a il
Ġal ways
Ġf our
Ġc han
se lf
Ġhe ar
Ġre al
Ġa h
Ġto day
en ce
Ġbe l
Ġis n
ĠI f
Ġg ra
Ġwat ch
Ġask s
k s
Ġst op
i ed
Ġne xt
Ġs orry
Ġyear s
al s
Ġhapp y
Ġo wn
Ġf in
Ġ '
i ous
Ġcom p
Ġal so
Ġdiff ere
Ġha rd
Ġc ol
Ġbe ing
Ġsh out
Ġwant ed
Ġgo es
Ġm at
Ġc ook
Ġf ound
t ain
Ġf ive
Ġp ick
Ġh u
Ġt ra
ĠWh y
ĠD on
Ġm on
ig n
Ġsa me
Ġst ay
e ver
Ġwe e
Ġe ver
Ġget ting
Ġro om
ĠO n
ĠE r
Ġre s
in n
c l
ak es
Ġpl ace
ĠN ow
ĠI s
at ed
an s
Ġc our
ĠS ara
z z
Ġ ear
Ġg l
ea d
Ġsu pp
out h
Ġf ood
a x
Ġ id
Ġe nd
ĠL et
ĠAn na
us h
Ġread y
Ġkid s
ab ly
o y
w ard
Ġtoo k
Ġsh o
ĠâĢ ľ
Ġw alk
Ġj ob
A nd
un g
Ġdo ll
Ġhe y
Ġhappen ed
le ep
ĠC an
b ut
Ġm oney
r ow
Ġs er
â Ļ
Ġto ld
Ġf ar
ing s
Ġcom ing
âĻ ª
Ġlook ing
o g
Ġst uff
Ġlook ed
i ld
p ort
ĠM m
ĠC ome
Ġp ie
en s
Ġh urt
ĠA ll
Ġm other
o on
b b
Ġ ea
Ġus ed
0 0
Ġdiffere nt
Ġb us
Ġl ist
Ġmo st
Ġen ough
Ġc ount
pp ed
Ġwh ile
b ably
Ġb ed
ĠF r
Ġgu ess
T he
ou p
i v
Ġit s
Ġs ix
p h
Ġre d
O h
Ġli fe
Ġe le
an c
ĠB r
Ġ âĻª
is ter
Ġre c
Ġan im
Ġ hat
ul t
an k
at er
Ġth ough
Ġcon t
orn ing
a w
ra w
ac h
I t
Ġg re
k es
or m
Ġh op
Ġlea ve
y es
Ġevery thing
ĠM ar
Ġfriend s
Ġdo or
âĢ Ŀ
ĠT han
Ġuh huh
Ġcour se
Ġwor d
Ġpro bably
I N
Ġs n
Ġle ft
Ġm il
Ġs ur
Ġm orning
Ġw o
Ġd ri
Ġnot hing
au ght
Ġp ol
Ġn um
ĠO kay
in ce
ï ¿
ï¿ ½
Ġbot h
m a
ou ch
Ġs leep
Ġbo x
Ġse en
ĠU n
Ġf am
Ġb ea
Ġw ar
g er
Ġb at
Ġe yes
Ġact ually
u c
Ġcare ful
Ġre l
i ke
Ġat t
ĠB e
ĠM y
Ġb ear
Ġtry ing
Ġto ys
Ġp h
d er
o ice
ĠS p
ere st
Ġs ort
ap er
Ġp ict
Ġ20 1
E R
Ġsu ch
e red
u g
Ġs et
Ġdr ink
ĠM ia
Ġb ro
in s
Ġu nt
l and
Ġchild ren
Ġg i
B en
Ġy et
Ġhe ll
Ġtalk ing
Ġs k
at es
as e
ers on
W e
ĠA l
ĠT H
Ġst and
Ġbr ing
Ġint erest
Ġf ace
Ġm ar
Ġcom m
ea k
G ood
ĠHe y
s s
ĠC hi
Ġs ing
Ġwas n
n ess
ĠM ay
Ġsm all
Ġb est
Ġqu ite
on t
Y es
ic al
ow er
ĠN ot
Ġf all
Ġs ound
Ġmo ve
Ġk ill
Ġf ire
Ġli ght
C ome
Ġp ull
e ed
Ġy a
Ġbel ie
it ed
o c
Ġw om
Ġwho le
Ġshout ed
ent y
Ġha ir
ve l
st and
Ġplay ing
ĠJ ust
co nd
Ġhand s
m ed
Ġh ot
ĠG o
Ġf ather
D on
ĠP l
el p
p ect
ĠD addy
as h
Ġunt il
Ġs ca
Ġlist en
Ġid ea
Ġ z
Ġm aking
Ġbre ak
Ġs ide
ation s
ĠThe n
Ġwant s
am p
Ġg one
Ġp res
Ġd es
ĠG od
Ġf ew
Ġli ve
t s
Ġm ine
Ġc le
Ġbe c
Ġsw eet
ĠA s
an ge
W ell
i er
H elp
Ġwor ry
t he
ill y
or row
a h
Ġea ch
t le
Ġpo int
Ġhi gh
Ġhe ard
ver s
Ġha ving
l ing
Ġso on
o nd
Ġt ree
ou n
Ġwr ong
ĠW here
an e
Ġm iss
n ing
is hed
Ġa w
D o
Ġmom my
Ġcom es
et s
l ed
ll y
Ġse cond
Ġe ight
Ġg ave
Ġm outh
Ġc ut
Ġunder stand
Ġfun ny
g an
es e
Ġbl ue
Ġp erson
Ġfo ot
c ess
Ġm ind
Ġst ory
Ġc up
Ġwould n
Ġmin ute
ĠCh r
ent s
Ġs qu
re w
it ion
Ġwor ld
ct or
Ġcol or
ri es
ll ow
Ġtr uck
Ġha ven
Ġgot ta
ci al
a ur
ĠWh o
Ġin side
Ġf ell
ĠW hen
Ġl ater
ĠA re
m ost
st er
ĠC ha
am a
Ġw ind
un ch
ĠR ight
Ġe m
Ġex c
Ġsay ing
t on
Ġcl ose
Ġstart ed
Ġre st
h y
T hat
Ġcha ir
Ġto p
i red
Ġy ell
Ġv oice
Ġt er
Ġwo nder
Ġnum ber
Ġst ick
os ed
ar s
re ady
Ġt ouch
Ġkn ew
Ġm en
Ġha lf
it her
Ġp ay
p r
Ġin d
Ġd ad
i ble
Ġyou ng
ĠL ook
Ġanim als
Ġf ro
Ġcle an
Ġde c
Ġ ice
Ġpro ble
Ġgu y
Ġj u
if e
l ess
u res
Ġal ready
Ġmat ter
Ġl au
Ġgu ys
re t
Ġs ad
Ġbelie ve
Ġplay ed
Ġon ce
Ġthr ow
ro ss
Ġbu y
Ġh ung
Ġto y
Ġsha ll
Ġ 3
im es
Ġm akes
Ġt e
ou d
Ġa ir
Ġin v
Ġon es
Ġd uck
Ġwith out
c es
i et
Ġgre en
Ġmil k
ĠThan k
itt y
ĠG ood
Ġp ee
Ġ eas
c le
d d
Ġr ound
Ġc a
a z
Ġt ap
Ġfam ily
it s
Ġh or
er tain
ĠF or
Ġf ish
Ġp ass
ir ty
o or
Ġout side
Ġsp e
Ġ ri
ĠD id
ic an
Ġp at
ke y
Ġt able
Ġw ear
Ġal most
e b
t en
Ġbr other
Ġme et
ĠM ax
w here
IN G
O U
nd red
Ġto m
Ġwee k
en er
ĠT o
Ġco ld
Ġbu ild
Ġh our
Ġac c
Ġqu est
Ġr an
Ġl ear
Ġsca red
Ġhop e
Ġh oney
id ent
ĠChr ist
Ġday s
Ġf ix
Ġre g
Ġgra nd
Ġsome one
m ber
Ġf ine
Ġb as
ĠC l
Ġt en
Ġp ain
Ġhu ndred
v ie
Ġo b
he ad
Ġp aper
Ġfo llow
Ġj ump
as ter
ĠS h
ir t
Ġju ice
ul ar
Ġro ck
Ġs ir
um my
ra nd
Ġpie ce
Ġbl ock
A re
Ġf eet
Ġg ame
Ġt ried
ĠM ark
Ġli kes
Ġtra in
ot s
Ġl ady
Ġcha r
ct ion
Ġd raw
Ġpict ure
Ġj o
H ere
B e
Ġ Z
Ġm ess
Ġbook s
Ġd ro
Ġlo st
is ed
Ġhung ry
A N
Ġm us
ĠA mer
ĠMr s
Ġbea ut
Ġn ear
et er
el t
Ġhell o
Ġcould n
ĠM iss
ee p
am es
g ed
ro om
g s
oh n
e x
Ġmon th
i gh
Ġ ent
w een
itt ing
ir th
W hat
an y
Ġs un
b all
n ight
Ġin st
i o
Ġf act
s w
i al
s h
ant s
Ġp u
Ġf av
inn er
i b
o ve
or k
Ġre p
Ġc ow
ĠA t
Ġp en
Ġ20 2
Ġt ri
Ġsm il
Ġs ince
c hed
Ġbe h
in ess
ce pt
eat h
Ġd el
Ġre t
Ġf ly
Ġd ist
Ġp ig
ĠS ue
Ġhe art
Ġbet ween
Ġd addy
ĠJ ohn
ï¿½ ï¿½
ĠYou r
c her
if ul
n e
g ie
Ġsome body
v ent
Ġb irth
ĠD ad
g r
Ġc ry
iz e
u al
Ġf if
Ġm ag
Ġs ong
n ed
Ġbeh ind
c er
Ġare n
Ġf ast
ĠG et
Ġwh ite
Ġp op
Ġyour self
Ġrec ord
ut es
Ġde f
Ġt re
Ġd ear
Ġf ull
ĠC ar
Ġbo at
Ġcon s
Ġlet ter
Ġwr ite
Ġstr ong
Ġc ap
Ġsomet imes
ur ing
ĠA r
b y
Ġtw enty
Ġtim es
Ġtom orrow
Ġs on
Ġeat ing
Ġm et
Ġf ight
Ġbl ack
Ġk iss
Ġ i
Ġtr ue
Ġag o
air s
Ġt aking
N o
ĠĠĠĠ ĠĠĠĠ
ĠD e
Ġal one
Ġd ress
in a
Ġe ither
un e
Ġs ign
ĠPl ease
us s
Ġbat h
Ġd ep
Ġpl an
a id
ic s
at ing
Ġno se
ĠN ew
Ġmin utes
Ġc ake
Ġre f
Ġan sw
Ġal ong
Ġc ertain
Ġc ried
Ġf elt
A T
on y
Ġyour s
se l
ĠOn e
Ġchan ge
ation al
ĠTH E
Ġbo ys
Ġin f
Ġe gg
ou ble
ub l
Ġp ush
Ġagain st
m b
t e
Ġcat ch
a le
Ġmom ent
Ġsur pr
en se
ĠH is
Ġmean s
Ġim p
Ġas s
ĠE ng
Ġbeaut iful
Ġd ied
is ion
Ġa head
a pp
Ġwom an
Ġb ar
Ġwork ing
Ġpart y
Ġd ead
Ġk itty
j ect
Ġproble m
Ġh it
m p
Ġp ur
Ġse ven
g y
ĠMay be
Ġs ister
Ġb ag
Ġs illy
ĠB ob
k ed
un ny
iz z
Ġab le
Ġfl oor
Ġp ri
Ġco ll
in ed
Ġyell ow
Ġ _
Ġp ot
Ġbirth day
Ġto wn
op s
Ġim port
r u
S o
ter n
Ġsha re
Ġhor se
Ġgr ow
Ġw ow
ward s
Ġin c
Ġc ra
ĠEr m
ut h
Ġcl ot
Ġpret end
ĠF l
o ld
Ġf air
as on
Ġfr ont
Ġd inner
Ġph one
Ġad d
ĠA f
Ġs y
u nd
Ġgirl s
ĠM ic
m ore
t o
Ġevery body
Ġo w
Ġcon f
Ġc ool
Ġ 4
ort h
Ġpee k
Ġbr ought
Ġknow n
it al
Ġget s
Ġcount ry
k en
O N
hi p
im e
ĠHe re
Ġt ast
Ġso ft
Ġat e
Ġch ick
p han
Ġan g
Ġper f
a j
Ġs al
Ġsu b
Ġfav or
er y
Ġsho es
G o
Ġl ate
t ed
Ġd i
ang er
Ġche ese
il a
Ġs ent
Ġb ra
Ġh um
Ġv is
Ġl and
Ġqu ick
r at
" .
Ġp oss
c c
Ġup on
Ġcom pl
Ġuh oh
Ġex t
Ġbut ter
Ġf uck
ver n
ĠW ill
Ġche ck
Ġtap e
are nt
Ġfro g
it c
Ġst re
ĠA h
R ight
Ġd ire
Ġf ing
id er
Ġex pl
Ġmus ic
Ġspe cial
id d
Ġc oup
oun c
ĠA d
ĠC om
Ġst ore
ĠS c
Ġsp oon
Ġbus iness
Ġp ark
Ġany more
Ġele phan
ie ld
Ġbre ad
Ġte le
Ġ20 0
ot e
Ġimport ant
Ġword s
Ġr ide
ak en
Ġex p
Ġsn ow
in y
Ġd eal
Ġfin ish
Ġknow s
im b
ent ion
ud e
Ġg ener
A R
Ġw ife
Ġp ast
Ġpr om
Ġcoup le
Ġw ish
g ot
Ġcook ie
Ġpol ice
Ġsp eak
is on
ĠR oss
Ġlea st
A n
Ġ Q
ull y
g in
Ġnew s
Ġb orn
Ġro ad
Ġn ine
pp ing
ow s
ra id
Ġc ream
Ġ 5
Ġsa fe
Ġmo vie
aught er
ac es
ĠG er
m ing
in et
Ġs itting
Ġc orn
at or
Ġany way
Ġsa nd
Ġro ll
Ġs im
Ġwhat ever
ĠJ o
Ġp ound
ĠAmer ican
oo f
e f
Ġm ark
Ġf ree
Ġeas y
ow ers
Ġse c
Ġg ent
Ġthink ing
p le
n ot
Ġquest ion
Ġturn ed
G ive
Ġr ather
ĠF irst
Ġs na
el s
O R
ĠI nd
Ġt y
Ġf ore
an a
ĠH ave
c y
ha ps
it ing
un t
Ġsw im
E S
Ġaf raid
i ent
Ġa p
Ġsh ort
Ġd ark
j oy
Ġfin ished
o ke
Ġb ite
Ġm ed
Ġl ess
ĠB l
Ġb unny
Ġpo or
Ġc ase
ĠE x
l s
ur y
ĠUn ited
Ġe v
Ġsee ms
Ġa ge
it ies
Ġc ity
ĠM ama
Ġp izz
ot h
id es
ĠH er
Ġb ow
ĠJ ack
n ey
Ġc os
Ġbec ame
Ġp age
b r
Ġus ually
Ġl ar
Ġh on
ol og
Ġbl ood
Ġang ry
L L
Ġcl ass
Ġt ired
Ġdo ctor
Ġpart ic
n ce
Ġc ent
Ġf ig
ĠO r
Ġto night
Ġl unch
et e
Ġrun ning
Ġ es
Ġt ick
er t
ĠK ing
Ġs at
ĠCha r
ĠS ome
id ed
act ly
ĠL ila
Ġbo dy
ĠBe cause
Ġw in
b and
Ġc ir
Ġbot tle
id ing
Ġw all
Ġd ra
ĠE very
ard s
ag es
Ġpizz a
g n
Ġlau gh
Ġf it
ic a
ous and
Ġ1 8
ĠâĢ ĵ
u es
y ou
n o
r ing
ĠG rand
Ġ #
Ġd eath
ĠS e
Ġpres ent
Ġkn ock
ter day
Ġlot s
Ġret urn
Ġg un
Ġclot hes
E N
ĠY OU
b s
Ġy ep
ĠH ello
Ġby e
Ġre ason
Ġli ving
H e
Ġf eed
Ġno ise
c ome
Ġneed s
Ġth ousand
ĠT r
Ġtr ouble
ph one
z e
Ġl aw
at ive
Ġt aken
ĠH ar
sel ves
c hes
oo p
bb it
Ġco ff
Ġblock s
Ġfavor ite
Ġsmil ed
un k
W hy
Ġqu iet
f ully
n ame
ĠU h
Ġ ed
ĠO K
Ġr ing
ĠG e
Ġp ar
Ġor ange
Ġwar m
in es
Ġs ick
Ġst ra
Ġst ar
Ġgr ound
us band
ious ly
y ing
z y
Ġl ine
c ha
Ġha ng
Ġin s
Ġlear n
Ġdri ve
Ġcl os
ĠT w
Ġinterest ing
Ġin ter
Ġli ked
Ġser v
Ġto w
aur a
Ġa in
Ġst o
Ġyes terday
et h
i ver
Ġl ad
oo ps
Ġs um
ĠG r
iz ed
pp y
o ber
Ġd anger
Ġp ubl
Ġd uring
Ġcl ear
Ġoff ic
Ġ *
ĠD av
ĠS ee
ĠR e
d ing
Ġs eat
ic ally
Ġlo c
. âĢĿ
Ġs ea
Ġcl imb
Ġh usband
Ġfor get
Ġsupp osed
Ġcoff ee
Ġle g
Ġgl ass
Ġh ur
n er
ĠL aura
Ġansw er
Ġs end
and y
Ġar t
Ġe ye
Ġwas h
Ġp ower
Ġra in
Ġp et
Ġmo on
Ġy ummy
ie f
An na
Ġhappen s
ĠS ha
) ,
Ġare a
Ġmonth s
os p
Ġen joy
Ġho le
Ġl ay
oo se
ĠL e
Ġwind ow
t i
Ġw ood
l ish
d u
Ġn inet
at ur
Ġput ting
u red
itc hen
m en
Ġwom en
m as
ur s
ĠP h
B ye
t een
om an
ter s
Ġgl ad
i ence
k ing
ĠP r
Ġpeek ab
ĠJ en
a it
ĠW ith
Ġtea cher
Ġm ain
Ġli ves
Ġt ail
Ġst ud
ren ch
ĠSara h
it ch
Ġf il
um b
Ġd aughter
ment s
Ġcomp any
he t
ĠM e
ĠE d
Ġm ad
ĠO f
Ġbro ke
on es
Ġk itchen
Ġcar s
am ed
ĠA ny
ear s
Ġfl owers
Ġw et
Ġof ten
Ġar m
eas ed
Ġd ream
f ort
Ġkill ed
at o
ĠSt ates
Ġwork ed
f ast
us ed
Ġm ot
Ġpl ate
Ġsee med
Ġ19 9
Ġchick en
Ġt eet
ĠP eter
Ġbl ow
Ġear ly
Ġex pect
a red
b ye
Ġst ep
av y
Ã ©
Ġpeekab oo
Ġtea m
Ġany body
ate ly
Ġapp le
a ld
ust r
Ġgo vern
ĠE l
Ġpr ot
T h
ĠSp ot
Ġbe gan
Ġcook ies
Ġth irty
Ġbe g
Ġk ing
I S
ic es
Ġhour s
ĠL uc
Ġmar ried
Ġany one
Ġkind a
uck y
Ġp eas
Ġre co
ou b
st airs
ĠB ar
ha el
at s
Ġsound s
Ġst uck
o ll
Ġsee m
i k
Ġt ill
Ġr u
Ġ 6
Ġor der
R E
t hat
ĠM an
Ġg ard
ĠP ro
Ġcar ry
g es
ĠG ive
le x
ĠP er
oc ol
Ġh ors
er v
Ġfor got
Ġbro ken
Ġ 7
Ġevery one
ĠD r
Ġin cl
Ġtell ing
Ġac ross
Ġre pl
Ġd irty
Ġco st
Ġgent le
i am
Ġex actly
Ġe ff
er ing
Ġhe al
ut ion
Ġbreak fast
) .
Ġhold ing
Ġca use
ĠDav id
Ġb and
" ,
Ġli ved
Ġke pt
Ġb an
if ic
The y
m in
Ġm ill
Ġre port
i vers
Ġother s
Ġwait ing
Ġfif ty
Ġfor m
Ġsl ide
ĠM at
Ġso ld
Ġter ri
Ġc ute
Ġad v
ac hed
Ġcan not
Ġvis it
Ġbot t
c ed
Ġ ve
Ġt est
Ġt akes
Ġteet h
c ent
gg ed
Ġinterest ed
ĠThan ks
id ge
Ġp os
Ġp arent
Ġchan ce
Ġbr own
Ġ ]
re st
ĠS w
st em
Ġwhe ther
Ġtr ans
eat her
p ri
Ġmy self
re l
Ġf a
ĠGe or
s on
Ġbec ome
ĠT O
ocol ate
Ġd ie
Ġall ow
Ġgi ven
Ġsl ow
ĠMic hael
Ġstra ight
Ġpro f
Ġcont in
Ġt reat
Ġp ress
ist s
Ġtea ch
Ġgr oup
u it
Ġp ea
ĠJ an
id ay
itt en
Ġsm ell
le y
Ġco ver
Ġa ff
art ment
Ġpict ures
Ġgi ving
ip e
r ic
w e
Ġb oo
ĠChrist mas
Ġex per
Ġsupp ose
pp er
Ġen g
ĠAf ter
Ġ1 0
Ġpro v
Ġsh ip
Ġo ops
Ġtast e
ct ed
Ġwee ks
Ġc ur
re ad
Ġo pp
Ġfeel ing
il ity
or ies
le w
d e
ĠD an
Ġwork s
Ġch ocolate
zz z
inn ing
Ġb ought
, âĢĿ
ĠH en
ĠG u
Ġsy stem
Ġsa ve
Ġthank s
Ġ X
Ġbig ger
Ġwho a
Ġd in
ĠâĢ ĺ
Ġper haps
T H
Ġc or
ĠEng lish
Ġpartic ular
ĠC he
Ġsp o
Ġbu g
ian s
Ġc reat
Ġf ur
Ġhe avy
al ity
Ġhim self
a ul
Ġha ha
Ġgard en
Ġ zzz
Ġperf ect
Ġc ri
âĢ Ķ
Ġstre et
Ġsh irt
Ġanim al
ĠHe lp
Ġinst ead
idd le
Ġm ist
em ent
Ġd ance
Ġ 9
Ġd a
Ġp us
Ġhe ld
Ġsc ream
-- --
i ves
Ġcra zy
ĠL ike
Ġ 8
Ġsome where
k et
o om
Ġelephan t
ha m
Ġra bbit
ur ch
Ġoff ice
Ġn amed
Ġbuild ing
Ġg ar
Ġgo ld
ab y
ĠGer man
l er
il t
Ġfoot ball
Ġpound s
Ġsh ot
Ġm ouse
Ġsho ot
r or
it er
Ġwe l
Ġne ck
ĠJ une
Be cause
ĠAd am
ĠFirst name
Ġs il
Ġm ur
ĠR ea
Ġsu c
g hed
Ġwh oops
u ri
Ġd ry
ĠW as
Ġsha r
g ar
is m
ĠJ u
osp ital
y eah
Ġl oud
Ġdog gie
Ġgood ness
00 0
Ġb ang
ĠT ake
Ġc aught
a ff
vel op
c use
er ry
Ġst ate
ĠH i
Ġwatch ing
Ġpol it
Ġexpl ain
Ġlar ge
Ġc amp
os aur
ĠC ol
Ġsh ut
Ġwere n
A S
ĠA N
Ġneed ta
Ġpick ed
Ġatt ack
re ed
Ġsweet ie
Ġb eat
er p
Ġd anc
ĠY ork
ĠF rench
Ġsm art
Ġcertain ly
Ġm eat
ĠC ap
1 9
Ġsha ke
Ġo cc
ost a
Ġres p
n ie
Ġlau ghed
Ġs ell
a im
c ri
ĠC ount
Ġc ross
Ġf ill
Ġ19 8
Ġwonder ful
Ġab s
Ġcont ro
Ġc al
ĠP ar
ww w
gr am
Ġlong er
ĠHen ry
O kay
ĠS orry
Ġsm ile
Ġheal th
Ġwho se
Ġcr ack
Ġtre es
Ġparent s
ĠJ im
g u
l a
Ġf at
en e
Ġre ce
Ġm ach
Ġr ace
Ġrun s
l o
Ġgo d
w ell
ess ion
Ġpie ces
Ġn ap
Ġno body
Ġbel ong
o int
ĠE m
Ġdanger ous
Ġsa il
Ġmo ved
Ġdiff ic
ic y
Ġk ick
ĠThe se
ĠSt op
Ġs oup
Ġp ack
ol ute
Ġbra ve
Ġfar m
ĠW ait
ep t
Ġsurpr ised
c ream
u ro
Ġl a
Ġshe ep
Ġlo ves
Ġy um
Ġread ing
Ġbab ies
Ġshould n
p ed
ve red
ci ally
Ġ ill
Ġm ix
ĠB ig
Ġfing er
Ġprot ect
g ing
ĠS ir
t ime
Ġb urn
ore d
Ġgovern ment
l et
Ġha r
Ġbu d
Ġwel come
aj or
Ġposs ible
Ġt a
Ġc ast
Ġli on
Ġsto pped
Ġsp osta
Ġp ink
ĠA b
Ġhis t
Ġim ag
Ġpu zz
Ġinf orm
in ite
Ġco nd
Ġreco gn
ĠA m
Ġfuck ing
ĠLuc y
c om
Ġapp ro
Ġfig ure
r act
Ġ19 7
ill ar
Ġbott om
am b
k in
Ġbutter f
Ġuh uh
Ġlo ck
ĠR oman
Ġsp ace
b orn
Ġle gs
Ġpubl ic
Ġo oh
dd en
ist en
Ġ202 0
Ġl ose
th ough
Ġcon cer
Ġshout s
Ġexc use
r ict
ĠB ro
Ġwith in
Ġchan ged
Ġsing le
r ay
v ision
Ġan n
l ie
Ġs ense
ĠC on
Ġsu per
ĠFr ance
Ġz oo
Ġdec ided
Ġh ospital
Ġcat erp
ĠBr it
ounc il
ĠH a
Ġthem selves
h o
Ġb en
Ġm ic
Ġsp end
Ġcol ors
L E
Ġr ad
ot t
Ġsu dden
O M
Ġar ms
Ġstand ing
Ġegg s
p es
if t
Ġsp l
en ed
Ġc op
ĠP aul
Ġd am
Ġh ol
ang u
s y
at ure
un ic
Ġhat e
i um
ent ly
Ġwalk ing
u ary
ea red
Ġth ird
ĠM ary
Ġsupp ort
Ġear s
Ġsum mer
ĠP e
Ġbas ket
Ġdro pped
Ġgr ass
Th is
Ġst ri
Ġv ill
Ġso ck
Ġpro gram
Ġdis c
G H
u ce
Ġt all
Ġd oub
Ġpr act
Ġsho e
Ġcompl ete
Ġfl ower
ĠFr om
Ġhum an
Ġdin osaur
ĠB o
Ġbow l
ĠPh il
Ġt em
Ġt iny
Ġm iddle
ĠS und
Ġd eep
Ġor d
Ġor gan
pri l
n oon
Ġsurpr ise
ĠCom m
Ġsec ret
Ġex cept
up id
Ġty pe
Ġwor th
O W
Ġc am
is ing
ĠM or
ĠM ag
Ġc ard
Ġbo ard
Ġquest ions
H a
v iously
Ġy ay
Ġl ow
Ġha st
Ġfor ward
ĠL ea
Ġtr ust
Ġafter noon
Ġopen ed
Ġd iv
Ġme ant
Ġmo ving
Ġlea d
Ġmag ic
Ġcir c
Ġfor ty
p a
un ity
Ġqu ack
ount ain
ĠA lex
ĠN e
Ġre ach
Ġwh is
Ġbl ank
Ġsk y
ĠTw o
Ġto t
Ġpain t
Ġsand w
Ġso l
Ġto wards
Ġeven ing
ivers ity
et y
ra ph
Ġmeet ing
Ġpro per
inite ly
Ġcaterp illar
Ġh ide
Ġdog s
Ġbus y
Ġop er
ĠSund ay
U m
ut s
Ġb ur
Ġbo om
Ġsc rew
Ġd ar
Ġf ield
Ġqu ar
Ġke y
m m
er n
ĠL ord
Ġtr uth
ill s
Ġno pe
Ġbe e
E D
Ġbut ton
Ġne igh
ĠB aby
Ġse ver
pe cially
Ġhu g
N ow
Ġd est
ear ch
Ġbird s
D id
n el
Ġ19 6
Ġ. .
ĠA pril
Ġdis app
Ġwalk ed
Ġse es
Ġap art
or g
ĠM hm
ĠC o
Ġmill ion
Ġb right
ed dy
Ġdro p
Ġcar r
T here
Ġstr ange
cl ock
Ġjo in
Ġcry ing
Ġdiffic ult
e ge
i ved
Ġl em
Ġst raw
Ġpl aces
ag het
I C
Ġs us
olute ly
ĠB y
Ġli ft
Ġv al
d uc
n ow
Ġw ild
Ġwear ing
Ġincl ud
Ġn orm
Ġcon st
Ġam ong
Ġtw el
k y
Ġre ached
Ġsu ff
Ġpo ck
Ġt ax
Ġb reat
Ġpr in
Ġd em
ac ed
Ġus ing
ĠJan uary
ĠN or
Ġke ys
Ġsever al
ĠR ic
Ġ1 2
b ers
Ġth rew
Ġsh it
Ġb ri
Ġn eat
ĠT ell
ĠC al
Ġlo ved
ĠN at
Ġpr oud
Ġf lew
Ġst upid
Ġsp aghet
the y
u ation
ĠQ u
ĠW or
ie l
ĠP res
Ġre qu
Ġe qu
ĠRea lly
ĠP at
Ġcl ock
ĠMar ch
Ġt ight
Ġl angu
Ġr id
Ġask ing
Ġch oo
Ġsw ing
ĠM o
Ġse x
Ġlea ves
T ER
i or
ĠB ear
Ġpl eas
i ol
re nt
Ġgi ves
Ġm ail
Ġsu gar
Ġproble ms
ĠGeor ge
Ġp an
Ġhelp ed
Ġtalk ed
Ġmon key
Ġhur ry
a i
ast ic
Ġow l
Ġprom ise
L et
er c
ĠA nt
ĠS omet
ĠE uro
Ġp ants
Ġri ver
ĠĠĠĠĠĠĠĠ ĠĠĠĠĠĠĠĠ
Ġbutterf ly
Ġfor t
id ence
Ġs eas
ĠS ant
Ġsqu ir
bo ard
ĠNot hing
Ġspaghet ti
g o
ĠJ e
Ġwr ote
r on
Ġo ri
ir on
Ġche w
Ġsuc cess
ĠO F
ĠO ct
Ġde velop
Ġpull ed
Ġfing ers
Ġserv ice
Ġd et
Ġcom b
Ġtr ick
Ġinv ol
ĠGrand ma
n es
Ġg as
ĠW ar
ĠE ven
Ġwor ried
Ġsleep ing
is es
ï¿½ï¿½ ï¿½ï¿½
Ġj ack
ĠG re
Ġser ious
Ġli e
Ġa v
c he
ĠW ould
Ġterri ble
Ġmach ine
Ġme mber
Ġbr ush
Ġtele vision
ept ember
u ed
om i
ic ed
Ġem p
Ġice cream
. '
i en
ĠS ally
ĠS outh
ie w
qu e
Ġwr iting
Ġcomp ut
I I
Ġsp ot
ĠBob by
ĠM a
ĠW H
Ġtr ack
Ġchar ac
f er
g ue
Ġb ike
ĠP en
Ġgrand ma
mb ers
uth or
ĠM in
Ġthink s
em y
Ġpr ison
Ġr ub
ug ust
ĠI T
Ġn ames
ic ious
and er
Ġal ive
Ġlea ving
Ġf ear
Ġsc ary
c on
Ġmiss ed
Ġgener al
ĠCount y
f or
Ġb es
Ġclos er
o ot
Ġst ood
Ġwhe el
Ġfriend ly
Ġrepl ied
w ork
ha rd
ĠI N
ĠG reat
ond on
Ġquick ly
Ġtwel ve
Ġpro p
ag ed
Ġcr ay
Ġsh op
Ġair pl
Ġmic ro
at h
Ġlove ly
Ġbath room
ĠOct ober
i pp
Ġ ought
ĠA be
res h
Ġpos ition
u dy
Ġpro du
Ġc re
ĠJ ose
end ed
Ġar ri
Ġam az
ĠM art
ĠC H
ly n
ĠL isten
Ġhappen ing
M y
Ġpe an
ĠDo es
gg est
Ġres pect
Ġext ra
ac y
ac he
Ġsee ing
Ġpre p
Ġle vel
Ġold er
ĠEng land
Ġm oo
Ġb ase
ĠJo e
m it
n et
ou ra
ĠL ondon
Ġv iew
ha h
Ġst at
Ġj ud
Ġv ar
er a
Ġby eb
Ġ ï¿½
Ġha m
ĠS eptember
Ġcl osed
Ġpo st
anc y
Ġdef initely
is hing
en g
ĠJ es
Ġsu ggest
uff y
Ġeff ect
Ġhas n
Ġco at
Ġrem ain
ri age
ĠN orth
A Y
ou l
Ġm ention
ap ers
Ġtele phone
Ġrel eased
Ġpu ppy
ce mber
Ġv ide
Ġbu ll
Ġf ool
Ġfr uit
Ġ1 5
Ġneed ed
Ġfollow ed
ĠM ad
ect ion
Ġpass ed
Ġp aid
Ġball oon
Ġdoll ars
v a
Ġsna ke
u el
Ġag ree
Ġpri v
b ed
Ġmon ster
Ġneigh b
oo h
ĠR ob
E A
Ġm is
Ġm ir
Ġsp ell
Ġbu ilt
Ġdri ver
Ġcons ider
Ġeng ine
Ġinform ation
Ġme mbers
Ġbeg inning
ĠR uss
ain t
Ġallow ed
U S
g est
Ġ est
Ġb other
Ġf ut
Ġpl ant
op e
s c
Ġis s
ĠA ugust
ĠC hild
Ġcl ub
Ġloc al
Ġp in
Ġ1 7
Ġele ct
Ġdri ving
Ġatt ention
Ġpot ato
Ġcorn er
Ġpuzz le
Ġbyeb ye
Ġt eddy
Ġc ere
ul ation
Ġ19 5
Ġspe c
Ġlaugh ing
ĠCap tain
Ġdoub t
Ġexc ited
Ġind eed
Ġab ove
anc es
ĠAN D
ri an
ĠNo ve
ĠB ird
Ġshow ed
, --
in ing
Ġo o
Ġm um
ll a
ĠJ ul
Ġw ag
Ġcom fort
Ġlea f
ĠSt e
Ġcontro l
Ġsandw ich
Ġpock et
Ġori gin
Ġbe ep
ĠNove mber
ĠE n
Ġdiffere nce
vie w
Ġmot or
Ġn orth
il i
Ġch urch
Ġairpl ane
Ġb uck
Ġv ict
hi le
uri ous
ĠS ure
Ġah hah
ĠMark y
ĠR ep
Ġear th
ĠEuro pe
ĠA my
Ġplay s
Ġcall ing
Ġ19 4
atur day
I T
ĠWh ich
Ġwr itten
Ġhe l
ĠS m
ĠC os
ĠO ur
ab les
ĠV ery
Ġser ies
Ġelephan ts
Ġstraw ber
w hat
is y
Ġh ous
Ġlear ned
V E
m on
u gg
Ġst ation
Ġst udy
Ġr ul
Ġes ca
Ġtow er
ens ive
Ġfollow ing
ĠDe cember
ĠS aturday
Ġac cept
Ġup stairs
um e
Ġmark et
Ġswim ming
Ġfut ure
e le
Ġm ajor
Ġwh om
Ġhist ory
Ġg ames
or ing
Ġany where
Ġrem ind
ur se
g on
Ġgra b
Ġletter s
Ġhors es
Ġp ump
ĠT ony
ĠN omi
ĠWor ld
b um
Ġl ab
Ġes pecially
Ġc andy
en cy
Ġsit uation
ĠJose ph
b it
Ġmat ch
Ġdire ct
a a
r r
Ġb ank
Ġdoll s
Ġfly ing
Ġh ill
ĠH o
ĠG ot
Ġkind s
Ġde v
Ġ19 3
Ġfeel s
Ġsk in
as hed
Ġst ars
ĠRic hard
2 0
Ġp our
Ġn ational
c il
Ġne cess
ĠJ ane
og raph
Ġninet y
Ġv iol
Ġc art
ud d
Ġtick le
H ow
ff ic
Ġstart ing
Ġsupp er
Ġfil m
he art
Ġh iding
her n
Ġsm o
Ġa uthor
at ch
Ġno dd
res ent
Ġjump ed
Ġshar p
ĠBrit ish
Ġt urt
Ġbe ll
Ġme m
Ġvill age
E T
Ġb ump
ĠC r
il ar
Ġcomp et
Ġmil es
Ġtri p
i ers
Ġh ig
ĠEx cuse
ra p
Ġwor se
ĠAf r
ĠSant a
ĠC ity
u ct
Ġs ize
Ġf resh
ĠM on
Ġst ories
s et
Ġl uck
Ġinv est
Ġpur ple
Ġmiss ing
olog y
Ġcir cle
Ġpea ce
Ġn one
et a
Ġe h
ĠL ou
Ġv an
ro y
Ġj our
ĠO oh
ig er
Ġob viously
Ġe vent
Ġo ink
el f
Ġ1 6
ĠCar l
h ow
Ġd ig
ĠM other
Ġal though
Ġfin ally
Ġent ire
Ġw ea
Ġbea ch
Ġdep artment
Ġed uc
Ġmicro phone
A h
S he
Ġm aster
Ġchar ge
I D
r al
Ġin n
ĠD a
ĠCl a
Ġsquir rel
ĠJes us
i res
Ġlangu age
Ġpean ut
Ġcall s
Ġgre w
Ġacc ident
om b
ro p
ĠR em
Ġam ount
iss ion
Ġfif teen
Ġninet een
Ġnodd ed
ut y
Ġsp ir
Ġun less
ĠChar lie
eb ru
Ġblood y
ebru ary
O T
Ġre v
Ġro b
Ġshow s
ĠUn iversity
Ġy up
Ġm ountain
Ġp ill
ĠM c
ĠL u
Ġres ult
w ood
Ġw ake
Ġs ight
Ġsp ent
Ġdis co
ĠS u
Ġdress ed
Ġpus hed
Ġw oof
Ġto r
al es
Ġpl ane
Ġcha s
ĠFr iday
Ġdes ign
Ġfight ing
ĠPres ident
om in
ĠR ober
Ġph ot
f ord
h in
Ġt ur
Ġh un
c ut
Ġf ail
Ġl ucky
ĠP ol
Ġturn s
ĠWill iam
ĠJu ly
Ġimag ine
Ġcomput er
ĠB ye
ad a
Ġal bum
Ġper cent
Ġcoll ege
Ġvide o
Ġfur ther
ĠK en
ĠFr ank
Ġaw ful
Ġr at
ĠP ut
amp le
A P
Ġst ir
ĠJ ames
Ġsp ill
ress ed
Ġeight y
n am
Ġ $
Ġ Â
Ġc and
ri e
ĠP o
ĠT ex
ĠL ittle
Ġrecord er
A M
Ġdist rict
b re
k a
ĠA unt
Ġter ms
Ġto ng
Ġar my
ap an
Ġ1 1
d om
it ive
Ġhow ever
Ġex ample
Ġsc ar
Ġhon est
C H
Ġm eas
Ġacc ount
Ġt end
ĠP art
ĠTom my
Ġch oice
Ġturn ing
w ise
Ġd ump
ĠC ould
ĠG l
Ġsqu are
ĠB et
ul a
Ġpart s
ĠBr own
Ġtre as
l ike
ch n
ĠK im
ĠOn ly
Ġnum bers
Ġfell ow
Ġplay er
Ġv ol
Ġsn ack
Ġt ries
Ġbr idge
Ġcomm on
Ġob ject
Ġinc re
l ight
ĠF ebruary
Ġlisten ing
oun ce
ĠInd ian
Ġcl oud
Ġpres ident
Ġban ana
Ġm ama
ĠM el
Ġex cl
ĠPe ople
Ġhast a
Ġb ark
ĠTh om
Ġpo nd
Ġsix ty
ĠBr ook
Ġinvol ved
Ġcharac ter
i od
Ġl ying
ce ed
Ġus eta
Ġway s
bb ed
Ġ3 0
Ġmed ic
Ġabs olutely
Ġblank et
E x
ol f
pl oy
ci ous
Ġear l
med i
Ġsudden ly
Ġs le
ĠL ee
ĠN ational
Ġduck s
h ood
Ġw ide
Ġfor mer
Ġun cle
Ġcomp an
Ġnear ly
Ġa ut
Ġw ipe
Ġoffic er
Ġseas on
Ġs outh
Ġnot ice
ĠP ri
Ġon to
ĠS y
Ġfall ing
Ġposs ib
ĠMag gie
d o
h um
T han
âĢ ĵ
Ġpen cil
Ġdar ling
c ake
om es
if ied
Ġsing ing
Ġreturn ed
Ġdr ug
ĠNat han
Ġwe ird
Ġas leep
E L
v in
ay s
ke nd
Ġcomplete ly
r up
Ġto ol
Ġlo ad
Ġw ha
Ġbut t
Ġr ough
ĠJ apan
ur g
ĠP ooh
ĠE ve
Ġbl ess
A L
Ġto ast
ĠR o
Ġevery where
Ġapp ear
ĠUn cle
Ġreg ular
Ġsal t
Ġ et
Ġc as
Ġp un
um ent
Ġv ac
Ġmo d
Ġsc rat
Ġ201 7
Ġlight s
Ġfore st
ĠTex as
ir m
ĠH old
ell y
Ġ1 4
ord ing
Ġd ate
Ġcare er
Ġpu pp
Ġfa ult
Ġresp ons
p or
ĠA g
al ian
Ġen c
Ġstay ed
Ġdisc uss
Ġcl own
Ġ1 3
Ġsmil ing
is a
an ch
itt ed
ĠF in
Ġsp ider
Ġsub ject
r s
Ġh y
ĠM ond
Ġfor th
Ġpoint s
Ġmist ake
aim ed
U T
Ġha ll
ĠW est
Ġsha pe
ĠU m
Ġdel icious
Ġl ed
Ġag reed
ĠK e
Ġtra vel
Ġwee kend
the w
Ġeas ier
unic ip
n s
Ġy e
ĠT y
art h
Ġpro duc
Ġz eb
Ġfix ed
Ġdep end
Ġemp ty
it es
ĠP ark
od e
Ġcour t
Ġdanc ing
Ġcast le
Ġc urious
ap a
Ġche er
Ġcap tain
Ġprof ession
Ġcere al
a ly
v al
z er
Ġg ift
Ġve get
Ġwat ched
ĠTH AT
ĠMat thew
Ġn atur
ell a
Ġpr ay
Ġcap ital
Ġsnow man
Ġst age
ĠRober t
l t
er ve
Ġan t
il s
Ġsp eed
gr ound
Ġnews p
Ġt v
Ġm eal
ĠS is
ĠC ent
ĠO N
Ġper iod
Ġrece ived
Ġrad io
Ġg all
Ġdog gy
ĠEr ic
Ġdes cri
Ġst one
Ġreg ion
re et
Ġst e
Ġher self
ĠG ra
ĠAmer ica
Ġsim ple
m et
Ġs elf
Ġb unch
Ġl im
Ġdown stairs
Ġamaz ing
it ions
in o
Ġc ab
Ġ202 2
Ġmur der
Ġst airs
Ġhand le
Ġsim ilar
i pped
m other
Ġb orrow
ic ian
ĠW E
Ġkn ife
ol ution
hi re
hi ps
Ġgr own
ĠA ustr
h ouse
Ġf aster
Ġp ool
if orn
ĠN ina
Ġr ich
Ġcar ried
Ġtong ue
it ary
Ġc one
ĠN ever
ĠR y
Ġim medi
Ġele ven
I s
Ġt ie
all ow
Ġput s
are t
Ġpr ice
Ġsock s
Ġturt le
in ation
in ting
Ġf em
Ġstart s
ĠMond ay
? âĢĿ
g ly
v ies
Ġc ards
Ġn urs
ak er
Ġ201 8
ĠBrook lyn
I GH
k i
y le
Ġw ed
re me
ĠA ct
ac ing
ĠC or
Ġdraw ing
Ġw eak
Ġb oss
ĠC ouncil
ĠD am
Ġsu it
Ġrep resent
ĠCal iforn
O O
Ġg en
ri but
Ġcon n
ĠTh ree
Ġansw ered
Ġexper ience
D ad
ed s
ill e
Ġhad n
ĠF o
Ġsp oke
Ġhu ge
Ġmir ror
Ġhous es
Ġm ate
Ġf re
Ġhad ta
Ġtr ade
Ġeat s
Ġsm oke
Ġdrink ing
Ġ202 1
I f
id s
ĠA ust
Ġbe ha
ĠK itty
ĠAn n
Ġtreas ure
Ġw eather
Ġcount y
Ġwin ter
C K
Ġd un
an o
ĠS er
Ġcon vers
ect ed
Ġglass es
ĠCaliforn ia
re ct
ĠM us
ĠAl right
Ġc ous
ĠK at
ress ion
app y
s es
d a
Ġp ort
Ġfl at
so ci
Ġquar ter
f l
y y
Ġc raw
is hm
as ion
Ġfor ce
Ġpro ject
Ġint ro
Ġfo x
Ġcam era
Than k
i ant
Ġbat ter
s ha
ĠTh ose
Ġgr ad
Ġstuff ed
Ġrep eat
Ġwea p
Ġsp ort
Ġpro cess
Ġhurt s
Ġsleep y
Ġgrow ing
Ġf ence
Ġp il
as k
ill a
Ġwhe els
Ġact iv
Ġdi aper
it or
Ġshow ing
Ġser ved
ar oo
Ġnot iced
ĠD or
ĠF uck
ĠK eep
Ġschool s
I M
t ered
Ġ )
Ġm unicip
ĠO l
ere nce
ĠAn ge
Ġbas ed
Ġhors ie
ĠAb out
Ġb al
Ġp it
ĠC han
Ġsh iny
ight s
ĠF ather
Ġman age
Ġcur rent
ĠThom as
e es
p ly
Ġn et
es tern
om m
ĠT ra
Ġst eal
Ġ2 5
Ġ19 2
Ġad m
n ic
Ġour s
Ġwa ff
Ġcr ow
Ġearl ier
Ġzeb ra
h ost
Ġp ir
, '
I R
Ġy yy
is c
ĠA ye
Ġyell ed
Ġcal m
ĠPar is
Ġb ill
as c
Ġsp ring
Ġmo vies
gg y
a e
Ġg ro
Ġh ook
ĠS T
Ġhelp ing
Ġsweet heart
Ġc ust
ep ar
ang aroo
Ġlem me
Ġd ue
Ġm er
Ġfl o
Ġmag az
Ġdest roy
c han
i ving
l in
Ġm id
Ġst om
Ġshe ll
Ġsp read
ĠTim my
ĠDo ctor
Ġpriv ate
ĠM ike
o ons
Ġn urse
ar r
Ġcook ing
f ield
Ġy ard
Ġn aught
ĠS an
im ent
ĠHar ry
Ġspo ons
! âĢĿ
B ad
Ġc ell
ic o
st r
ĠC at
em pt
Ġco vered
Ġte chn
ĠM al
itt ee
Ġmu d
Ġscream ed
Ġf right
Ġhe ro
ĠB E
Ġr is
ĠR ed
Ġapp les
Ġmost ly
Ġbed room
tern ational
Ġbud dy
ĠLea ve
v enty
ĠW ed
Ġmar ry
Ġrock et
Ġt ough
Ġn or
ig g
Ġsl ice
ail s
Ġhu gged
iv il
ER E
Ġnorm al
Ġt ou
Ġm a
Ġis land
ĠS ay
ĠG ener
Ġpop ulation
Ġexp ensive
Ġd are
se y
Ġsa ved
ĠD O
ĠF red
iv id
Ġrel ations
Ġmedic ine
Ġs ens
Ġs epar
Ġup set
Ġr oof
Ġtr ad
Ġar r
Ġcat s
Ġjo ke
nes day
L D
Ġt iger
in ary
ll ustr
ĠL o
Ġbo ots
S t
Ġw ound
ell ent
ess ie
Ġhard ly
Ġpain ting
m o
Ġd ust
ĠS im
ĠH ouse
os ing
Ġcl ap
Ġex ist
Ġreal ize
bb les
Ġtruck s
Ġlaw y
M ay
i us
y a
er al
ĠS up
and a
ak ed
Ġimp ro
Ġdra gon
Ġparticular ly
a use
Ġt aught
est s
Ġse w
ĠQ ue
ur ity
Ġde g
Ġch im
gg ing
Ġpay ing
Ġf an
Ġg ate
Ġp al
ar m
um s
Ġro pe
Ġcomm and
Ġdec ide
Ġpur p
l ine
r ick
Ã Ń
Ġk angaroo
Ġe p
Ġme ow
Ġoff er
Ġpo inting
Ġball s
Ġnaught y
u zz
Ġpl enty
Ġqu een
Ġact ion
ĠEvery thing
Ġinclud ing
i ot
Ġ vers
Ġgu ard
bo x
ict ion
Ġjack et
er o
Ġth reat
ce an
ig ator
ĠE ast
Ġro se
Ġ2 4
Ġ201 9
Ġem ploy
Ġjump ing
Ġm ass
Ġlike ly
Ġso cial
Ġsw ord
Ġpick ing
urs day
re en
Ġc red
Ġp ers
ri ll
Ġlad ies
ĠJen ny
con om
ĠNathan iel
Ġw ise
.. ..
ĠL a
Ġhelp s
iz ation
ci ety
Ġopp ort
ll en
Ġl ines
Ġth irst
Ġu gly
Ġpl ants
Ġgot ten
ul ous
Ġrock s
Ġtow el
re y
Ġd ouble
ĠB illy
ep end
Ġkeep s
Ġconcer ned
Ġben ef
Ġet c
Ġl ap
ĠB ra
ĠPer haps
Ġtot ally
ĠMart in
ut ch
ver t
Ġse vent
Ġc ro
Ġfor g
ĠN ice
Ġter m
in c
is f
ly mp
Ġr ow
Ġse venty
ĠSt reet
ĠHow ever
Ġwalk s
ĠChr is
Ġsim ply
ĠGerman y
Ġcarr ot
ĠPart y
ĠM ister
Ġpl ain
Ġar rest
Ġspir it
ĠB ill
ci ent
Ġapp re
ĠFl uffy
Ġesca pe
e g
p et
at a
at ic
Ġbe ans
Ġtell s
Ġcare fully
Ġown er
Ġmess age
he red
Ġp air
ad es
ĠL ind
Ġch oose
ĠSc ott
Ġev idence
Ġhealth y
b ble
b age
ĠS us
Ġkn ee
Ġex erc
Ġslow ly
ĠWed nesday
r it
Ġs oul
it ude
Ġc her
Ġde cl
Ġdel ight
Ġpop ular
Ġhol es
v is
Ġc ries
Ġto es
ĠM il
Ġr iding
Ġpotato es
. âĢĻ
U N
a f
o ff
v an
y n
ĠC our
Ġr ice
ord er
Ġph ys
Ġsong s
Ġsal ad
Ġhol iday
u nder
ĠM ummy
ĠL isa
Ġstr ing
Ġcri me
i est
Ġth ick
ĠT V
ic le
ĠB ea
Ġu r
ro ll
Ġex am
Ġgar age
Ġeduc ation
i ally
Ġt ears
ĠW al
ĠAnd y
ard on
oss ible
Ġbrother s
Ġfore ver
Ġham mer
Ġpump kin
z en
Ġto oth
ĠB el
Ġmu ff
ĠĠĠĠ ĠĠ
Ġdun no
O S
Ġa ud
ĠG ab
Ġhold s
Ġtrain ing
Ġprofession al
y ond
le ct
ĠB at
ĠH igh
st on
ch ing
ĠR ex
Ġtw ice
ag er
ĠInd ia
Ġhig her
Ġt it
Ġb i
Ġd eter
ĠT ur
Ġan x
ĠR oy
Ġpolice man
Ġlad der
ĠSomet hing
Ġjud ge
Ġo il
Ġc ouch
Ġf ancy
Ġh orn
Ġbe yond
ĠD u
Ġen emy
ash ion
Ġcent ury
Ġpill ow
Ġst ove
ĠL ady
Ġgood bye
Ġimmedi ately
Ġt ent
us es
Ġwas te
ee z
Ġcon tain
Ġdis p
Ġid ent
Ġbar n
Ġadd ress
Ġsold iers
Ġcontin ued
Ġpleas ure
oura ge
Ġf und
ĠM er
Ġob s
Ġhang ing
Ġpract ice
ili ar
A D
j ust
id a
Ġche st
Ġset tle
ĠMic key
ues day
Ġf ol
Ġu nd
Ġtr ash
Ġsl ight
Ġkeep ing
Ġbro ad
Ġdec ision
mp ions
Ġfill ed
A ll
Ġs eal
is hes
Ġp ic
ur ry
Ġpl astic
um mer
ĠR on
Ġv ote
ĠTh ursday
Ġfin al
Ġpat ient
U R
ve y
Ġch ief
Ġeas ily
Ġbreat h
Ġbase ball
Ġcrow d
f ather
m es
Ġt our
Ġw ings
Ġc ouncil
er gy
Ġbe gin
Ġj ail
Ġso ap
Ġfl ag
Ġinf l
Ġst ea
Ġuh hum
iss a
Ġen v
Ġsur v
Ġind ust
Ġpat h
Ġstre ng
Ġnatur al
n ers
in ct
Ġc ash
Ġfair y
Ġbra in
Ġ ut
Ġbe lly
ĠH E
ĠSp an
ĠJe ff
Ġ iron
Ġb ound
ĠI r
Ġf eather
Ġn ature
op h
ber t
Ġro le
ĠBe fore
Ġperson al
Ġtur key
C E
r am
om er
ar ily
Ġnot e
um ps
Ġco ck
Ġhead s
Ġgra bbed
Ġfa ith
c ast
i que
Ġd ish
Ġm ister
Ġqu it
ip s
Ġop in
Ġrel ig
ounc ed
Ġrecogn ize
ĠGener al
Ġa unt
Ġs earch
an na
ĠM ost
Ġfor k
ĠO ut
ĠO ld
Ġim m
Ġdoll y
Ġbat tle
Ġ201 6
Ġspeak ing
Ġvict im
a ven
Ġit em
et ch
Ġwe ight
ĠS chool
Ġgo sh
if y
ess or
Ġsha d
Ġsc ene
Ġem b
Ġind ivid
Ġstep s
oint ed
Ġ1 00
Ġwonder ing
ĠSh ut
---- ----
ĠMor gan
k ins
Ġs ink
is ha
ĠM E
ĠM ore
ĠE ar
Ġ2 1
Ġbu zz
Ġra ised
Ġfam ous
ĠGo vern
Ġbas ically
Ġneighb or
H uh
Ġo ven
le nd
im ate
ĠM um
Ġr ude
Ġcr it
Ġsho pping
aw s
Ġfam iliar
Ġcomm unity
arent ly
ĠSe c
Ġrul es
Ġthirst y
Ġd uty
Ġp apers
Ġst orm
Ġkid ding
Ġad vent
Ġcount ries
Ġsca re
Ġcarr ots
Ġcray ons
ot hy
Ġde er
Ġsna p
Ġdam n
Ġjour ney
llustr ation
p en
s he
y l
ri ble
Ġrem ark
ĠIs n
Ġhot el
Ġcor rect
n eath
Ġ ign
Ġt u
Ġt ummy
it a
Ġl ake
Ġ- -
ĠT uesday
ĠS ince
Ġli br
ro at
ĠF ine
ant ly
Ġdis hes
Ġsmall er
Ġadd ed
ĠRep ubl
Ġappre ci
ĠM ac
ĠO ver
Ġlea der
pl ace
pe red
Ġpolit ician
Ġt un
Ġb one
Ġg host
ed y
ea ter
ve re
Ġare as
ĠC oll
ĠD is
Ġcont act
Ġmur d
Ġmunicip ality
Ġchim ney
I llustration
Ġl ick
Ġn est
ell e
Ġj oy
Ġsh ock
ĠU S
Ġbring ing
O f
l or
Ġ Ã
Ġw it
ha r
ĠD es
um ber
ol i
Ġ2 3
Ġwo nd
ĠJohn ny
Ġru ined
Ġcreat ed
Ġconvers ation
K E
ĠB ert
Ġsa uce
st ers
Ġsu ck
ĠWh ite
Ġunder neath
Ġbel ow
Ġdire ction
idd en
ele br
Ġwed ding
om p
ĠH am
ain ed
Ġch o
Ġapp eared
ĠDid n
ĠBl ack
Ġsat isf
Ġarri ved
I n
Ġp ages
Ġhe at
Ġe conom
ĠL ove
os h
ĠSt ep
r ation
y al
ĠI S
en ces
as ed
ĠThe ir
Ġsh h
il ing
Ġpr int
Ġfar mer
Ġdire cted
l en
Ġt ear
Ġw ine
Ġw itch
Ġc oun
Ġc ivil
us hed
ĠB ern
ac hing
ur b
ĠE aster
Ġwa ved
Ġstay ing
Ġdist ance
Ġperf orm
Ġexcl aimed
Ġcous in
e er
us ion
ic ated
al a
ĠH mm
ĠG ro
Ġbig gest
Ġend ed
Ġaw are
ĠChrist ian
ĠEl iz
sy ch
Ġprin cess
Ġmention ed
Ex cuse
ishm ent
Ġstom ach
o e
Ġs our
Ġd rew
ĠS H
ĠH uh
bo y
Ġpol icy
Ġthrow ing
Ġpen gu
Ġcomfort able
ĠAfr ican
ĠÂ ¶
Ġmagaz ine
C T
Ġt ar
Ġs ides
ve ll
Ġre nt
ĠC ong
ĠR os
Ġhel met
Ġpurp ose
Ġo cean
Ġl at
Ġl one
at ors
ch ie
ur ger
Ġother wise
Ġour selves
Ġrem em
Ġchair s
Ġfav our
C h
ot ion
Ġup side
Ġr out
ĠJ ill
Ġmo der
Ġfo ld
Ġeight een
Ġorigin al
Ġsp r
Ġsp in
Ġbr anch
Ġpre fer
Ġde b
ĠCh in
eal th
Ġchan ges
Ã ¡
at ives
Ġdo c
ĠH on
st it
ĠN ick
Ġr ate
ĠShe m
Ġlock ed
Ġpossib ly
c orn
ĠO k
Ġum bre
Ġcr ash
Ġgi ant
Ġpull ing
Ġcoll ect
Ġknock ed
Ġwood s
Ġl ower
ĠA pp
ĠB rian
be red
ĠSt ate
Ġhard er
Ġexc ellent
Ġcap t
Ġext reme
Ġeff ort
Ġnecess ary
Ġd irt
ri ger
ad o
Ġser ve
Ġrec ently
Ġyoung er
Ġjo ined
Ġsoft ly
Ġpolit ical
ĠSomet imes
Ġprodu ct
ĠRy an
ĠM ex
al ia
Ġwill ing
Ġafter wards
Ġfro gs
Ġimp ossible
Ġbelong s
Ġav ail
Ġbutt ons
Ġb oring
Ġf ed
Ġth irt
il ed
ab eth
Ġsur f
Ġref riger
Ġtot al
Ġsus p
Ġiss ue
Ġinvest ig
re r
Ġst ock
Ġwh ist
ĠP ete
Ġsc r
ather ine
Ġatt empt
ĠBe ck
ĠZ org
ĠChar les
erv ous
Ġocc asion
Ġnewsp aper
g en
o f
Ġn on
Ġha mb
Ġsa f
Ġright s
ree k
Ġrel ax
Ġenjoy ed
Ġsold ier
Ġhar m
ĠSup er
t here
v est
Ġb ounce
ĠS en
ĠW ow
ab l
p ing
Ġp ipe
ĠT od
ĠA c
ĠM aster
Ġpl eased
Ġsc ience
Ġcol our
Ġea st
Ġmar riage
ĠCha ir
Ġri bbit
Ġexpect ed
Ġgar bage
Ġfem ale
Ġcred it
v ille
Ġf aces
ĠW I
Ġthere fore
Ġpl ans
ĠD em
ĠF our
Ġmil itary
Ġca used
ĠEd na
IGH T
Ġopport unity
u its
v ious
ou red
Ġo dd
Ġn ic
us ing
Ġche e
Ġru le
as er
ĠH as
ee ze
op her
Ġbit ch
but ter
iv al
Ġfall s
OM E
Ġvar ious
P l
V ER
i ber
k er
Ġ ver
Ġb on
Ġf eat
ur al
ĠD en
Ġne ither
Ġwor m
ĠSt ay
act ion
ens ion
Ġ201 4
Ġcup s
Ġexc iting
Ġreg ard
ĠFl or
Ġgent ly
Ġpic nic
Ġumbre lla
Ġc elebr
Ġg e
Ġhe aven
ĠB er
ĠW il
Ġli ps
Ġst aff
Ġho st
inn ie
Ġcup cake
Ġtem per
r is
Ġsa ke
Ġj ar
Ġfour th
Ġpop corn
Ġsus pect
iron ment
ĠMin ister
ĠRuss ian
Ġlawy er
Ġrefriger ator
T hen
Ġth ou
Ġin j
ĠF OR
Ġbl ind
are n
ang le
Ġopen ing
Ġpig gy
Ġass ist
Ġpartic ip
Ġwall s
w orth
Ġg oose
ĠS l
ĠW ood
ĠW el
Ġmet al
Ġart ist
ĠAny way
Ġperfect ly
R O
o v
Ġy o
Ġn ervous
ĠW atch
Ġcha p
Ġapp l
ĠNe xt
Ġstrawber ries
Ġstreng th
f riend
g ress
l iam
Ġd ess
Ġto ward
Ġst ret
ĠP re
Ġcow s
ĠLe o
Ġsil ver
Ġtou ched
H ave
i j
m ond
Ġo op
ĠM ed
ĠC are
ast y
Ġcl aim
Ġgrand mother
Ġprom ised
Ġopp os
Ġcray on
Ġscrat ch
G rand
Ġd ying
Ġc ult
Ġl aid
Ġwor st
ĠNo body
ĠMar c
Ġte xt
Ġlear ning
liam ent
L Y
r ot
it ar
Ġstick s
Ġbes ides
h od
ar ing
ad d
ĠC am
ĠE arth
Ġam b
Ġtra ffic
Ġrest aur
ar row
Ġdo ors
ĠR ose
ĠE le
Ġbu bbles
act or
pt ion
Ġmat er
Ġcomm une
Ġkiss es
Ġord ers
Ġdem and
Ġcas es
L A
u ch
Ġl amb
itt ens
ct ions
Ġlo g
Ġ2 2
ian o
Ġres c
Ġcont ract
Ġsecond s
Ġdire ctor
Ġexplain ed
N ot
k n
Ġf urn
ot ed
ut en
hing ton
oc rat
Ġmag net
ĠGrand pa
Ġgun s
Ġbes ide
Ġpeanut butter
g l
ĠT e
ĠS al
ir ing
Ġst ink
Ġen ergy
Ġcr own
Ġid eas
Ġt ank
Ġm ush
ot a
ĠT ry
ĠM ove
ĠC all
ĠIt aly
Ġ2 6
ĠTh ink
Ġbear s
Ġ201 5
Ġdes k
Ġmag n
Ġfair ly
Ġstrawber ry
Ġmem ory
ĠQue en
b ack
Ġb aa
Ġm am
or ough
en ing
ĠC atherine
ill on
ĠO ther
ĠSt ill
Ġfind ing
Ġres earch
Ġatt ract
Ġcontin ue
Ġpress ure
Ġaff ord
Ġbud get
Ġprep ared
Ġdess ert
i pper
Ġha h
ĠB essie
Ġme l
ĠF ive
ĠU p
fort un
Ġnorm ally
s hip
Ġ ~
Ġw olf
Ġf irm
ing er
ĠT en
Ġknow ing
ur ance
ĠR am
ĠE ll
Ġfeel ings
led ge
ĠWho a
eng th
May be
Ġavail able
Ġf ashion
ĠA cc
Ġso ciety
ĠD ep
one l
Ġgrand pa
Ġplan ning
Ġoffic ers
Ġbri ef
Ġveget ables
Ġopin ion
E W
i ents
u x
ca kes
Ġtr unk
EN T
ĠEliz abeth
W here
b ow
Ġp sych
Ġpl ates
Ġoff ered
Ġmean ing
Ġgir aff
au gh
Ġz org
ograph y
an ny
ar i
il es
Ġsw eater
Ġwa ves
Ġstr ugg
Ġhu gs
Ġrec omm
Ġgener ally
ĠBl ue
ĠEvery one
ĠWas hington
w as
Ġc urt
Ġp or
om ed
oo per
Ġbe er
ĠD el
Ġco co
Ġact or
Ġstr uct
ĠOn ce
Ġcop y
ĠWH AT
Ġlibr ary
" )
b ly
c ip
f ish
o id
ĠM ake
Ġe mer
ap s
pl es
ian a
Ġshow er
Ġref er
ĠCla us
Ġlone ly
Ġt ip
an ing
ĠS qu
ag o
Ġfo c
Ġset t
igh s
Ġed ge
Ġcirc us
ĠSte ve
c ul
om en
et te
Ġdo lp
Ġwhe e
ĠP al
ĠJ ess
Ġ2 8
Ġra il
Ġmatter s
Ġrecord ing
Ġinc red
Ġ5 0
Ġforgot ten
ĠDor othy
h old
u ly
he st
Ġp ow
ĠT ed
use um
Ġex e
Ġde ck
Ġlar gest
b l
b ie
n al
Ġd en
om ing
Ġas soci
ĠR es
ĠR ay
Ġint ell
Ġcar riage
Ġsc ient
ĠâĢ Ļ
ord s
Ġche ap
ĠCh urch
Ġpoint ed
Ġbuy ing
Ġval ue
t ies
re es
ir gin
ive ly
ĠF ire
Ġsp ray
ĠAnd rew
Ġra re
Ġtom ato
ru ction
ĠSc ot
Ġstud io
ĠSm ith
ĠLou is
ĠAct ually
ĠSpan ish
" ?
Ġw est
ic ate
ĠM ur
ĠL ast
ĠD uring
ĠD utch
Ġsh ore
ant ic
Ġsw itch
ĠTim e
Ġdoll ar
ĠGo ld
ib ility
Ġperf or
ĠSome one
Ġclear ly
Ġspl ash
Ġwhis pered
ĠMel issa
f orm
u k
Ġn ut
ĠS ix
ĠS ummer
ĠM any
out hern
ĠP ort
Ġbu gs
ĠCar ol
Ġgentle man
AP TER
1 0
b ook
l ook
l ies
r ound
Ġ ir
ou ps
Ġd oo
Ġl oose
Ġl iter
Ġsa ving
Ġan ge
ent ed
Ġdon key
Ġj elly
Ġr ug
Ġus ual
ort hern
Ġcon v
side red
Ġind epend
Ġent ered
Ġproper ty
Ġsaf ety
Ġc rew
Ġf ra
Ġg or
Ġg um
as y
Ġmy ster
Ġwhen ever
Ġop t
Ġact ing
Ġhor rible
Ġdel iver
Ġpig s
Ġsec urity
Ġclos et
Ġpubl ished
Ġdream s
ĠDan ny
ĠRem ember
A LL
l ings
it o
Ġm ale
Ġth roat
ĠB oy
ĠJ er
Ġsp ee
Ġman aged
ous ly
ĠK aren
Ġpen ny
Ġfig ures
Ġcarry ing
ĠEm ma
Ġforg ive
Ġm kay
ĠH oney
ĠH urry
Ġsc reen
Ġad ult
Ġdro ve
Ġboat s
ĠJo ey
Ġsuccess ful
Ġcloud s
ĠChin ese
y m
Ġb le
Ġl ength
ĠA ha
ĠS ch
ĠM andy
Ġkn ees
Ġj ew
Ġpl us
ter ing
Ġcon sidered
Ġnice ly
Ġbre aking
land s
Ġbelie ved
Ġdes p
Ġmiss ion
Ġpus hing
Ġmoder n
I ON
v i
Ġf ant
Ġg ri
Ġe ld
ĠIt s
um ble
ĠJ am
ĠJ ew
end ing
ĠDon ald
Ġhop ing
Ġwind ows
Ġlate ly
Ġwag on
F F
b el
d on
Ġ =
Ġm ult
Ġc age
Ġp ony
Ġst ack
ent al
ĠD er
Ġbl ame
ĠCH APTER
Ġdisco vered
W ho
all ey
Ġlet s
Ġsp ots
Ġbo ot
Ġent er
Ġplan et
ĠChar l
ĠPr ince
Ġelect ric
ĠJul ia
Ġbuck et
Ġtool s
ĠFlor ida
r ate
om s
Ġwas hed
ĠN et
ist ed
Ġ( "
co d
Ġdr um
Ġteach ing
ĠJe an
Ġexerc ise
Ġinfl u
d ies
o ved
Ġgra ve
Ġcle ver
Ġcost s
ĠAnt h
. ,
w o
Ġ &
Ġf its
an n
as hing
ĠT urn
ĠA ld
ĠN ana
il ities
ĠP et
Ġshould er
ang es
Ġlisten ed
Ġpres ents
Ġcut ting
iet y
Ġtri al
Ġap olog
ĠJapan ese
Ġmod el
Ġwaff le
R I
S ure
Ġw ore
Ġit self
ĠT er
ic les
ĠB eth
ĠS now
Ġsa us
ĠC ont
Ġ2 7
lf riend
Ġ201 3
ache l
Ġremind s
Ġep is
Ġwit ness
3 0
Ġc ong
Ġto il
ar ies
ĠT ea
ĠM ot
Ġgo al
Ġcan cer
Ġsh ook
ĠIt alian
ain s
Ġsc ore
Ġwa ve
Ġapp arently
Ġclean ing
Ġent ertain
Ġpur se
Ġcent re
Ġserv ices
Ġgentle men
Ġsmo oth
Ġenv ironment
Ġw ire
Ġp ile
ic ulous
ri f
ĠC up
ĠO lymp
il ies
Ġr ings
ĠU s
Ġbel t
ĠFr anc
anc ed
Ġmove ment
ĠEvery body
Ġstud ent
Ġann ounced
Ġrequ est
US T
ĠCour t
r ist
it ure
Ġf ishing
ri a
ĠH A
ĠD illon
ct ors
ect ive
ĠCh ief
Ġz oom
ĠSh ould
Ġbag s
Ġtast y
min ist
ĠGu y
Ġshoot ing
ĠMo lly
Ġmotor cy
Ġmeas ure
o le
Ġm or
er ved
Ġha y
ĠB ud
all as
Ġj am
ĠO w
ul ations
Ġhelp ful
ĠK al
pl ay
Ġdr unk
Ġsix teen
reed om
Ġ.. ?
Ġbal ance
Ġgro cer
c at
er g
ke ys
ĠW hile
Ġno ises
ĠD ay
ĠP apa
ĠJ erry
Ġsing er
ĠPl ay
Ġsqu eak
AN T
Ġtast es
Ġap artment
Ġmix ed
Ġwond ered
Ġd ough
ar on
ent h
ick ed
ĠWhat ever
Ġsha me
ens us
Ġmed ical
ĠRe g
Ġclimb ed
ĠJim my
ĠAustr alia
Ġrelations hip
ĠGab ri
Ġtar get
ing o
an i
se mb
ĠL aw
ĠN O
be c
Ġra ise
Ġear n
Ġbox es
ĠTH IS
Ġdef eat
Ġcent er
Ġlem on
ĠAnth ony
m el
Ġw ra
Ġh omes
ĠB ack
âĢ ĺ
Ġcar pet
Ġhi pp
bb ie
ĠTo day
r om
Ã ¨
Ġb rand
Ġin it
as ons
ke ep
Ġst ream
ĠL I
Ġsome how
ĠJ on
qu ar
Ġco ach
Ġun c
Ġjob s
Ġea ger
Ġsn eak
Ġkill ing
Ġcra b
Ġev il
ĠDan iel
ĠAlex ander
Ġdevelop ment
u le
he m
Ġy uck
Ġl osing
ot te
ĠM oo
ĠW in
ĠC ind
ĠR ock
iss ors
Ġgr ant
Ġgr oups
Ġcha llen
Ġra p
Ġsl a
Ġele ction
ĠAl ice
min al
Ġbri ll
ĠGre en
Ġgiraff e
Ġs ac
Ġc hat
Ġto e
Ġno vel
Ġr oo
ĠJ www
ĠE h
Ġtr actor
Ġco ast
Ġcha se
Ġteacher s
Ġye h
ĠChair man
s p
Ã ¼
Ġ ess
Ġw ing
Ġs ang
Ġm erry
ĠS a
am i
ĠG O
ĠG ar
Ġback wards
iz ing
Ġsort s
Ġdec or
cc oli
Ġpower ful
Ġstud ents
Ġneck l
rup t
Ġappreci ate
h ol
Ġ ouch
Ġt ied
Ġg ay
Ġth in
ĠS n
im me
st ood
Ġus es
Ġeat en
ĠSt ar
ĠAn other
Ġbit s
Ġwait ed
Ġuse ful
ĠMar g
Ġhon or
ĠEurope an
Ġris k
Ġtun nel
Ġthirt een
Ġhamb urger
A l
a ult
d en
g ust
Ġa ye
Ġn uts
Ġre asons
Ġag ed
Ġcompan ies
ĠDam n
l aw
p ack
Ġb are
is her
on ed
Ġk ite
ĠM AN
ĠL es
ĠD ar
Ġfl ash
Ġwa ving
av ier
Ġhear ing
Ġadd ition
Ġinter view
Ġrob ot
uten ant
j o
w h
Ġa er
Ġf ought
at t
Ġre ck
ĠL y
Ġsh r
Ġsh own
ul f
Ġlo b
Ġpro ve
Ġgu itar
Ġstr uck
Ġfour teen
ĠMar ia
ug s
ret t
ĠPat rick
ĠRob in
Ġproduc ed
Ġfright ened
Ġspee ch
1 8
b ell
i os
o ver
u f
Ġy ucky
ĠM Y
ĠM ajor
Ġst yle
uck er
Ġgir lfriend
Ġball oons
Ġsign ed
Ġclot h
ĠCom p
Ġchas ing
Ġwha le
Ġintro du
Ġdeter m
Pl ease
Ġbrill iant
5 0
c up
w r
Ġb ast
Ġb omb
ĠA ir
Ġwas hing
ro ad
Ġj ury
ĠR ome
ĠR el
Ġpat ty
Ġpat tern
Ġfif th
Ġloc ated
Ġt ub
Ġw oo
Ġf ake
Ġwhat cha
ĠB oo
ĠY ep
ab ility
um ents
ĠR achel
Ġconf used
Ġpar rot
Ġmot ion
Ġincl ude
Ġbasket ball
Ġstri ke
ĠLea gue
Ã ¶
in i
ha b
Ġb un
ĠS un
ĠD allas
ĠO x
Ġor anges
ĠR iver
ĠCh ina
bb y
Ġacc ording
Ġcond ition
ĠSte ven
Ġvac ation
Ġpupp et
Ġdeg ree
k ers
t r
Ġc ents
Ġp iano
Ġre view
ĠL ab
ra b
il ty
ick s
Ġsc issors
Ġsmil es
Ġspo ken
Ġsepar ate
Ġmotorcy cle
d ri
n is
Ġt ire
Ġyou th
Ġm ut
ĠH all
ood le
ĠMar ie
Ġob l
ĠSh it
Ġbeaut y
gy pt
Ġadv ice
Ġcrack er
Ġhist or
Ġcher ry
Ġtit le
ĠI I
ĠK ore
Ġqu ality
Ġun us
Ġbro ccoli
Ġve h
le et
Ġbe nd
ĠS ing
ĠM ont
ĠW AS
ĠU nder
Ġact ual
ump h
Ġdis gust
Ġchan ging
ĠEr nie
ĠSp ain
icy cle
Ġrid iculous
uzz y
m ission
it iz
Ġp a
Ġn ea
Ġh ose
ĠS il
Ġmo ves
ĠK ay
ĠâĢľ âĢĺ
Ġwo ke
Ġpol ite
Ġow e
Ġship s
Ġshar k
Ġocc ur
Ġwhis per
Ġremem bered
t ub
or ks
ĠO pen
ĠF ar
Ġpre vent
Ġchan nel
ĠSw ed
Ġprin cip
ĠWel come
b ing
c an
g or
Ġa ver
Ġd umb
ĠS on
be cause
Ġun if
Ġact ress
ĠCan ada
Ġcomm ittee
Ġdist ribut
ĠAfr ica
Ġcraw l
ĠFranc is
1 1
y cl
Ġ 0
is l
Ġn omin
ic ing
if er
Ġv o
ĠV ict
Ġless on
Ġpleas ant
Ġextreme ly
E P
Ġm ap
Ġp ear
en a
Ġk itten
ir a
Ġher s
ĠE s
Ġpe pper
Ġsw ear
iz es
Ġmar ch
Ġkiss ed
Ġroll ing
Ġnap kin
Ġpir ate
ĠLind a
Ġrestaur ant
b urg
f ive
Ġb ake
ke l
ĠS O
Ġfor med
Ġr ac
Ġr ange
Ġsp ark
os es
ick et
em e
Ġqu al
Ġthank ed
ĠV al
gg ie
Ġfam ilies
Ġinv ited
ĠChrist opher
ĠSha ll
Ġgold en
kn own
, âĢĻ
r as
z ing
Ġd ing
Ġf art
ĠH ist
Ġman ner
Ġse ction
ĠSt an
Ġpart ner
Ġcomm unic
Ġbath tub
Ġdam age
Ġaut om
Ġdrug s
Ġweap on
Ġperfor man
Ġneckl ace
C ause
Ġa chie
Ġn ation
Ġgo at
ĠC ook
est y
Ġpo ison
Ġgreat est
Ġgrad u
Ġpil ot
Ġarr ange
Ġcro cod
S T
s pect
t es
ĠB u
ĠE gypt
Ġtr oub
Ġtalk s
ĠAn ne
Ġbird ie
Ġid iot
anc hes
Ġ201 1
AN D
Ġrecord s
ĠFl ore
Ġland ed
Ġins urance
Ġleg al
Ġevent ually
Ġindivid ual
Ġb ones
Ġf ile
ĠL ife
ain e
Ġcom ment
ber ry
Ġfl ight
Ġcheck ed
Ġblow ing
Ġprov ide
Ġsuc ceed
Ġord ered
ĠPo lly
Ġshad ow
ĠSec ret
B eep
E LL
f it
m us
Ġw ip
ll ip
ed ing
es sel
Ġbe ef
ĠD et
ick y
Ġar ch
Ġair port
Ġstrong er
Ġterri f
Ġinn oc
arr ass
i als
n ies
r id
Ġf ac
ĠM et
Ġknow ledge
ol t
... ?
ound s
Ġse eds
Ġcon cl
ian ce
Ġsure ly
Ġser iously
Ġquiet ly
Ġpos itive
Ġadvent ure
Ġ ï¿½ï¿½ï¿½ï¿½
Ġt een
Ġs en
Ġd read
ĠB re
ĠH ung
Ġpl aced
Ġboy friend
ĠLook s
Ġgrand father
Ġsent ence
Ġty p
iver se
Ġdinosaur s
ĠBo bo
ĠOl iver
ĠRepubl ic
Ġoppos ite
it ation
Ġb lew
Ġb ored
Ġto ne
Ġg imme
Ġp ure
ic ation
ĠB oth
Ġne g
ol a
Ġtr uly
Ġbr ings
Ġad vert
Ġapp eal
bb ing
ger y
Ġev ents
ĠBar b
ĠEm ily
Ġcre ate
Ġdepend s
ĠCharl otte
v y
Ġb ounc
Ġd ee
Ġf uss
Ġp red
ĠT re
ĠA LL
ĠB as
se qu
ĠM ill
ĠH y
Ġshe lf
Ġsh y
Ġr ise
our s
ol and
Ġgu ilty
Ġsha ring
Ġlea ding
Ġgr ate
Ġfood s
Ġpur s
Ġcrack ers
Ġrespons ible
b es
er k
am as
Ġman ager
Ġ2 9
Ġdis ease
eal ous
Ġmat ches
ĠAll en
Ġrel ated
Ġadv ant
oint ment
Ġauthor ity
ĠAcc ording
N A
c ing
w ith
Ġc ig
Ġl oss
Ġgo lf
ĠH al
ĠL ie
ĠD un
Ġr om
ge ant
ĠJ ake
ĠF ort
Ġmin ister
Ġpri m
Ġhur ting
Ġsell ing
Ġemb arrass
Ġwhist le
ĠWI TH
R A
g ent
r ant
Ġt iss
ra ft
Ġar g
Ġro de
Ġcon cent
ĠK N
ock s
Ġsl ipp
Ġatt end
Ġpull s
Ġmess y
Ġ202 3
ific ation
Ġburn ing
Ġspec ies
Ġrecomm end
Ġw ished
Ġo ct
nd ry
Ġc ough
ar ch
ar ian
ir l
ent ial
Ġshe l
ĠJ ud
ĠJ ason
ĠF ro
Ġlo llip
Ġwr iter
ang ers
Ġac cess
Ġfound ed
Ġgre y
Ġpain ted
Ġfig ured
Ġclimb ing
Ġspl it
Ġdevelop ed
Ġinn it
ĠDu ke
Ġroo ster
1 5
i w
y ear
ha nd
Ġv room
Ġv essel
Ġtea ms
Ġpick s
Ġrel ease
ĠCol onel
Ġocc up
Ġsport s
b ury
g a
p ie
Ġt al
re ls
Ġthe ory
Ġf ired
an as
Ġh idden
at ory
Ġbe es
out s
Ġst ro
ĠH or
ĠL ong
Ġlet ting
Ġco al
Ġbu ried
Ġpo et
ĠMm m
Ġdef end
ĠJen n
ĠNor ah
Ġanx ious
Ġindust ry
Grand ma
Ġtoil et
ĠMarg aret
d s
i pping
k o
it an
Ġin qu
le cted
ĠS and
Ġfor ced
ac hes
ĠH appy
Ġsa le
st e
ĠJ ac
Ġbr anches
Ġpre gn
Ġ( )
-- "
Ġthought s
ĠDe bbie
Ġroll ed
ĠPro f
ĠGra eme
J ust
a ign
m ark
Ġs ite
Ġthe e
Ġm ort
Ġc ourage
ĠW ant
Ġkn ights
Ġr ush
uck les
Ġhapp ily
ĠIn ternational
Ġnight s
Ġbad ly
Ġhands ome
Ġstick ing
Ġsign s
Ġiss ues
Ġresult s
Ġitem s
b a
v o
on se
Ġl ic
Ġh itting
us hing
ĠS it
Ġan cient
ĠC le
Ġno isy
Ġso da
ĠD ave
ĠJ ones
Ġgr ace
Ġad minist
Ġac qu
Ġ201 0
Ġty pes
ĠMe gan
Ġentire ly
Ġincre ase
it zer
Ġl ord
es ome
ow ing
ar n
ĠA ren
ĠD ist
ist an
ist ic
ĠK ent
Ġopen s
Ġ4 0
Ġstre ets
Ġmater ial
1 2
I L
W hen
b ur
h un
r ance
Ġs em
Ġc itiz
ĠN OT
Ġall igator
Ġcom r
Ġun ion
ĠAs ian
Ġsqu eeze
Ġdraw er
Ġland s
Ġfore ign
ĠKing dom
Ġsto le
Ġstud ied
Ġcreat ure
Ġben ch
Ġest abl
Ġchas ed
ĠFo x
ĠSus an
Ġfol ks
ĠDem ocrat
Ġintell ig
Ġcrocod ile
ha l
Ġy og
it z
er able
is ions
Ġp ra
Ġli ber
Ġst ates
ĠC ons
ce nd
ĠR oland
ĠBr other
ĠJu dy
Ġoper ation
Ġincred ible
ĠOx ford
! '
p ir
Ġm useum
Ġg ross
Ġl it
or ter
ic ient
ĠB ad
ĠW innie
ĠC O
Ġshe et
ĠD ON
Ġr ot
Ġad mit
Ġreal ized
Ġbed s
ĠUn ion
Ġfall en
Ġdes erve
Ġcompl ain
cha ir
Ġrain ing
Ġdiv or
Ġcirc um
Ġfurn iture
Ġsaus age
dri ver
Ġunus ual
Ġaver age
D addy
Ġd ea
Ġc ave
om a
ĠT oo
ĠM aj
Ġj ealous
ĠD own
ĠD ire
un ks
Ġsee k
ĠJ oy
Ġsomet ime
ant ha
Ġtra il
Ġsur round
ĠCha mpions
Ġsister s
Ġtick ets
Ġresp ond
fortun ately
g ency
m ar
Ġt eas
Ġs ch
Ġs ack
on a
ĠH ad
ĠP unch
Ġsome what
Ġsp are
Ġco in
th ur
Ġmom ma
be y
Ġfl our
Ġcha in
Ġph il
Ġmet hod
Ġbott les
ĠRuss ia
Ġweap ons
. _
re ck
er ves
Ġhe e
ĠS aint
Ġme re
ad emy
ĠD ou
Ġbo dies
Ġcom mer
Ġpro ceed
th is
ish op
Ġthr own
Ġpr ince
Ġcook ed
Ġaw ake
Ġsil ent
Ġcamp aign
Ġstat ement
Ġrespons ibility
Ġdestroy ed
Ġvers ion
Ġneighbor hood
G et
R ea
U GH
Ġa id
Ġb ush
Ġc ensus
om ers
ĠM ass
ĠH allow
ro l
ĠO sc
Ġch in
Ġact ive
Good bye
Ġfire man
Ġstick y
ĠAr my
Ġchick ens
Ġmain ly
Ġproper ly
Ġimpro ve
H appy
c les
l i
Ġc ub
Ġg az
Ġl amp
Ġli es
Ġtr ay
Ġtr oops
Ġsw allow
ĠV an
ĠV irgin
Ġroom s
anc he
ĠAl though
Ġter ror
bs olutely
ĠEd ward
Ġdisapp eared
Ġbreat he
ĠAg ain
Ġtrad ition
Ġindepend ent
Ġoct op
A G
S E
c ol
Ġg ang
Ġh id
Ġth ief
ĠT ri
ĠB ost
ĠM ouse
ĠH ot
ĠR og
ol ic
ĠF il
Ġgr ade
Ġche m
Ġrep ly
Ġret ired
app ing
olog ical
Ġprov ince
ĠBrit ain
Ġord inary
eng ers
ĠDa isy
ĠFlore nce
_ ,
ĠI m
Ġp ears
ĠS E
ad ed
am ond
ĠC ath
ĠE dd
Ġgr ay
Ġsupp ly
Ġend s
Ġsound ed
Ġbec oming
Ġsub s
ĠSe an
Ġoffic ial
IS T
Ġscrew driver
ĠLu ke
Ġpun ishment
Ġpengu in
ha s
Ġc hip
Ġg ee
an cial
Ġbe gged
ĠW ay
ĠH ear
ĠYou ng
Ġpo ll
Ġsc hed
Ġtra ins
Ġstay s
ĠIs land
ĠSh ow
Ġburn ed
Ġcompet ition
ĠTod d
Ġresc ue
' .
Ġw and
Ġin ternational
ic ans
ĠB es
Ġu na
Ġsc he
Ġfeed ing
Ġrece ive
Ġfail ed
ĠKat ie
Ġmuff in
ĠMex ico
ĠHallow een
f ight
ĠS k
Ġe w
ĠSo on
Ġcount ing
Ġtick et
ĠGre g
Ġremain ed
Ġscar f
ĠBet ty
ĠRoy al
Ġdolp hin
Ġlollip op
b les
he l
he w
Ġb ead
Ġth us
ĠA T
ĠW ind
Ġan ti
Ġpl at
un ior
Ġwant ing
ĠP an
ĠR un
Ġ201 2
Ġlau ndry
cept ion
Ġpretend ing
ĠYOU R
Ġfort une
Ġmountain s
ĠGro ver
Ġmush room
Ġsett led
Ġlob ster
ĠVict or
m eal
Ġa im
Ġd ata
Ġc ord
Ġp oo
Ġp ardon
ĠB a
ĠH u
Ġas h
ĠO rd
Ġr uff
ĠK ar
Ġsha king
ĠSt and
int s
Ġgra pes
Ġkill er
Ġpass ing
OU LD
Ġinc ome
Ġmed al
ĠTw enty
Ġsil ence
ĠPar liament
ĠRo ad
Ġbatter y
Ġstruct ure
Ġexe cut
ĠBost on
B o
R Y
T o
Ã ³
Ġp ity
ĠB al
ĠM oon
pp le
um n
ap t
Ġsha red
Ġfirst name
Ġun iversity
Ġthrough out
ĠSam antha
Ġele cted
Ġri p
Ġsign ific
ĠGer va
Ġlaw s
Ġseat s
ĠPro bably
ĠMat t
ĠX avier
Ġequ ip
rr r
ĠPol ice
Ġfeather s
Ġunif orm
ĠHist ory
Ġperforman ce
j i
n on
p y
Ġ x
Ġm os
Ġm aid
Ġl end
Ġn arrow
Ġth y
et ed
ĠB ay
ri ff
ĠM en
Ġst ones
Ġal arm
ĠR a
ĠK ate
Ġcha mp
Ġdra wn
Ġcond itions
Ġrepeat ed
Ġbenef it
Ġcoun ter
Ġdisgust ing
j a
Ġc hips
Ġl ink
id ents
ke e
ĠH ome
all ed
ra el
ĠE ff
ist ol
ĠWe re
Ġmo le
Ġcr uel
ĠCh ic
Ġset ting
Ġbas is
Ġcow boy
Ġthousand s
Ġprogram me
Ġange l
Ġepis ode
g ies
Ġ {
Ġn asty
oo s
ĠS erv
ĠP op
Ġpre cious
ĠCl ub
sh ine
itc hes
Ġdark ness
ĠAny thing
Ġbur st
Ġconst it
Ġhig hest
Ġste pped
ĠHA VE
ĠGerva ise
I E
d ge
f all
w are
Ġa ward
Ġo at
ĠI re
Ġdo ctors
ĠA ward
Ġbe et
ĠL at
ĠF if
Ġback ground
ons ense
Ġdr ama
Ġstop s
Ġmat h
Ġstand s
Ġbec omes
ier ce
Ġpri est
Ġsal es
Ġnecess arily
Ġsle pt
Ġobl ig
ĠOsc ar
' ?
Ġs sh
Ġl ack
Ġre aching
Ġnot es
ĠF oot
ven ue
Ġun l
Ġfo nd
Ġz ero
Ġpres ence
Ġattack ed
Ġpack ed
ĠHo ly
Ġdecl ared
ĠGovern ment
Ġbast ard
ĠJenn ifer
Ġoctop us
Y our
Ġt ask
he ll
ha med
Ġb icycle
ic op
ĠB ang
ĠS ea
ĠS pe
ĠM ust
ĠH aw
Ġj umps
ab el
ĠR od
ven ge
hi a
Ġcha l
Ġunder stood
Ġstr anger
ĠMar got
pect ed
Ġexc it
Ġtouch ing
Ġtri angle
Ġban anas
Ġrev eal
Ġeld er
Ġw rest
Ġm ice
Ġf al
Ġf asc
Ġg er
an or
Ġp iss
Ġin tern
Ġfor ces
ce l
ul ty
ĠĠ Ġ
Ġad op
ĠEr in
ĠCan ad
Ġinst ance
ĠAt t
Ġdep art
Ġtrans port
Ġtreat ment
Ġgod s
duc ed
Ġrequ ire
Ġnurs ery
ĠWal ter
ĠKal ie
keep er
itzer land
c ar
Ġb om
ĠI nt
Ġh oo
at han
Ġme chan
ĠC ast
ĠO ffic
Ġout fit
ER S
Ġrecord ed
Ġplan ned
Ġtax es
ĠScot land
Ġadvant age
Ġtiss ue
Rea lly
ĠEdd ie
Ġb ac
Ġm ood
nd a
ĠT a
ĠB unny
se e
Ġas ide
ĠD ra
ĠD iv
ĠHe len
ĠR en
os en
Ġch op
Ġsit s
Ġsl ip
Ġtra vell
ĠFr ances
Ġhop ed
Ġdisapp ear
Ġprodu ction
ĠAustr alian
Ġcircum st
Ġf uzzy
Ġl az
Ġp aj
Ġp oop
Ġn ail
ĠA S
Ġgo dd
ig an
ĠF air
Ġpro gress
Ġsha pes
Ġcr is
Ġown ed
Ġhat s
Ġless ons
Ġru in
ĠSw itzerland
Ġsmell s
Ġcamp ing
Ġlift ed
Ġdirect ly
Ġappear ance
ĠCent ral
ĠJam ie
ĠKN OW
Ġequip ment
a res
r an
t uce
ĠC AN
ĠP ot
ĠF re
Ġ20 00
ĠDo lly
Ġball et
Ġgra pe
Ġcont r
Ġstand ard
Ġsy mb
Ġring ing
Ġtreat ed
ĠChe er
Ġfool ish
Ġvict ory
Ġbark ed
ĠPri me
Ġself ish
Ġsevent een
ĠBes ides
Ġoat meal
w in
Ġw inning
Ġg ather
Ġp eel
Ġp ale
Ġth umb
ri al
ĠH an
ĠC orn
ell ed
Ġde but
ass es
Ġsca le
rat ulations
Ġsna kes
Ġclass es
Ġdiv ision
Ġrub ber
ĠDoes n
Ġspec ific
ĠAunt ie
Ġbatter ies
Ġdoc ument
ĠProf essor
Ġphil os
Ġw reck
Ġb isc
Ġd u
ĠA RE
ĠB rett
ĠH ill
Ġr ank
ĠE mp
hm m
Ġneed le
Ġpret z
Ġra bb
Ġres our
ĠBr itt
Ġheart s
ĠFl oss
Ġeng aged
Ġann oy
ĠAust in
ĠJess ica
look ing
ĠCook ie
mus ic
Ġcig aret
F l
Ġc e
Ġg at
Ġ- ?
ĠW he
ĠW ater
ir ts
Ġli f
st al
Ġj unk
ĠG reek
ĠF ore
ber g
Ġv ot
Ġv ent
Ġun f
Ġold est
Ġmight y
Ġcr icket
Ġdr ank
Ġcomp ared
Ġtra p
Ġclean ed
Ġdel ay
Ġlaugh s
ĠTr ans
Ġaff ect
Ġrecogn ized
Ġappro ach
Ġdisapp ointed
Ġsew ing
Ġcoco on
K ING
i as
l ow
u z
ĠG i
Ġr hy
ol ved
Ġlet tuce
Ġmo b
Ġcon c
Ġsw eat
ĠIs rael
Ġele v
Ġinv ite
Ġreg ister
Ġtre m
ĠAr thur
Ġsign al
Ġpri ze
ON E
Ġ200 7
Ġ200 8
Ġexp ress
Ġlar ger
Ġcent ral
ĠSome body
Ġreport ed
Ġhel icop
Ġhun ting
Ġcand id
ĠSim on
Ġreck on
ĠLab our
Ġinnoc ent
Ġgrate ful
Ġpregn ant
hun h
ĠIre land
1 7
w ater
Ġf reedom
Ġg ym
Ġn i
ea st
Ġin se
ĠA p
ĠB ook
ĠN ight
ess ed
Ġbab ys
Ġun iverse
ĠâĢ Ķ
Ġbit es
Ġbit ter
Ġsl ipped
Ġdis m
Ġbre ast
Ġfin ancial
Ġrel ative
ĠSp eak
ĠSc ar
Ġdra in
Ġsend ing
Ġadv ance
Ġpir ates
ĠLo is
Ġapolog ize
b on
c cer
g ate
Ġa st
Ġl ect
Ġdo zen
Ġk ittens
ĠW o
ad i
ĠC amp
ĠL A
Ġr ang
Ġcl ay
Ġgu est
Ġshould ers
Ġmon keys
Ġsur gery
Ġz ip
Ġpee p
Ġcheck ing
Ġmark ed
Ġking dom
Ġresp onse
Ġav oid
Ġtor n
Ġintrodu ce
Ġvo ices
Ġchal k
b u
b oo
l ead
w hen
Ġc ities
Ġg ain
Ġh unt
ĠM ind
ĠM aid
ch o
ĠO b
Ġwho ever
ĠE v
... "
ĠU N
Ġcomm it
Ġthrow s
Ġri bb
Ġfix ing
Ġpri or
Ġexper ien
Ġjour nal
ĠColl ege
ĠBeck y
2 00
Ġb er
Ġd im
Ġd ies
en ced
ea ks
ĠA ri
st ead
ĠP oor
ĠE ight
ĠV er
Ġpick le
Ġgl o
Ġcomm un
Ġpres chool
Ġdes ire
Ġaw fully
Ġlady b
Ġref used
Ġass um
Ġdi amond
Ġstore s
ES T
Ġfield s
ĠAnt on
Ġsuggest ed
ĠDis ney
ĠAc ademy
Ġemer gency
I A
Ġo k
Ġm ac
Ġf leet
ĠS C
ĠS ur
ac le
ink y
ĠO ff
ĠP ak
Ġplay ers
Ġsp lend
Ġcl ient
Ġpre m
Ġbuild ings
ĠDe f
Ġ200 9
Ġev ident
Ġtrans l
Ġdanc ed
Ġorigin ally
Ġaccept ed
Ġsmo king
Ġspill ed
Ġslight ly
ĠEle anor
ste in
ĠChic ago
E M
F or
es h
Ġst ew
ĠH ea
ch oo
ĠC ut
el et
Ġwhere ver
Ġag re
Ġro yal
Ġbu bble
Ġfl ies
Ġsw am
Ġun s
Ġra is
Ġgl ue
Ġbro om
Ġsun shine
Ġfull y
Ġcra p
ĠSe cond
oop y
Ġkick ed
Ġspend ing
Ġinclud ed
Ġtrack s
Ġwag ged
stit ute
ĠSecret ary
L ES
e c
t hen
Ġb ib
Ġd ude
Ġc ott
Ġp ant
ic ide
ic hes
ĠW estern
Ġas hamed
ĠC ra
Ġal tern
Ġco de
Ġhome work
Ġch ose
Ġch osen
Ġres ist
ung le
row s
ĠFr an
ph y
Ġwar ned
Ġrel ief
Ġdrink s
Ġpass engers
Ġhundred s
Ġrep air
AR D
Ġgovern or
Ġsuff er
Ġprop os
Ġcre ep
udd le
ĠKe vin
Ġmanage ment
Ġrelig ious
Ġrout e
mel on
B ang
S ee
Ġl t
Ġl ou
Ġp apa
Ġwhat s
ri er
Ġre ward
ĠL ar
ĠL ake
ĠD uck
Ġpro ved
ĠU rs
Ġun ex
Ġea ster
Ġsk i
Ġfell ows
ĠAr t
Ġ18 8
pri ate
Ġcri minal
Ġscream ing
Ġsail or
Ġdet ails
Ġcharac ters
ĠCong ress
ĠBarb ara
Ġsymb ol
F ine
W h
i able
Ġa x
Ġs i
Ġn in
ĠT or
ĠT am
ĠA ng
ĠB est
im i
ore s
ĠP ig
hi b
ĠAn nie
ict ed
Ġwater melon
ĠFr aser
Ġdes per
Ġaw esome
Ġinst ru
Ġdist urb
ĠDad a
Ġpur cha
ĠEx actly
Ġsystem s
ĠĠĠĠĠĠĠĠĠĠĠĠĠĠĠĠ ĠĠĠĠĠĠĠĠĠĠĠĠĠĠĠĠ
Ġcompan ion
Ġactiv ity
ĠTur k
Ġpow der
ĠLie utenant
U CK
o is
u a
Ġw id
Ġd ull
Ġf ever
Ġg if
ĠB ull
ĠM A
ver se
Ġsh ining
pp ers
Ġr um
Ġr acing
ul ate
Ġlo ving
ign ed
IN D
ĠGood bye
Ġtap es
ĠAmer icans
Ġprison ers
Ġesca ped
Ġmate y
Ġdeterm ined
Ġpaj amas
W ow
x y
y ard
Ġw inner
et t
ot ch
ĠT own
le m
ĠB UT
ĠW ork
ĠH ol
ĠJ ay
Ġ( ;
ĠIn vest
ci ence
Ġgreat er
per or
ĠBr ad
Ġatt itude
Ġunderstand ing
to gether
Ġgener ous
Ġreport s
Ġphys ical
ĠDer wood
Ġrap id
Ġyog urt
Ġmos qu
l am
Ġo t
Ġhe n
Ġha bit
Ġli p
all s
am in
ĠC ON
Ġso re
ĠN est
Ġwill n
ist ry
ĠU nt
Ġhand ed
Ġpo em
Ġsw eep
Ġaw hile
Ġcons ult
Ġpast a
Ġroad s
ĠGeor g
Ġinclud es
Ġsuff ering
Ġsex ual
Ġfre qu
ĠEff ie
ĠCanad ian
Ġgat hered
1 6
a pped
d og
h h
Ġw rap
ĠA bsolutely
ĠL and
ĠJ osh
ĠF er
Ġbl oom
Ġfl av
Ġfind s
Ġdro ps
Ġinst r
Ġbar rel
Ġwaff les
Ġwound ed
Ġarrest ed
Ġaud ience
ĠStep hen
O P
b our
n ces
Ġw ishes
Ġm erc
Ġn orthern
ĠB ri
Ġwh oop
ĠN a
ul ance
os c
Ġv alley
ree ze
ag ing
Ġpre vious
Ġsw an
Ġsc ra
up s
ang ed
Ġreal ity
Ġbea st
Ġhope fully
Ġfollow s
ĠAt l
ĠTr ue
erv ation
Ġtest ing
Ġpack age
Ġorgan ized
Ġsle e
Ġcurrent ly
Ġsurf ace
Ġfant astic
ĠMaj esty
Ġrabb its
C l
g iving
Ġw icked
ĠT hing
Ġli qu
ĠH ug
ie ve
Ġsp it
ak i
ate g
Ġpo le
Ġsc oot
Ġun it
Ġatt ached
ĠSw eet
Ġpea ch
Ġla wn
Ġorgan ization
ĠComm ittee
inc ol
ĠEar l
ĠDep artment
Ġfoc us
Ġexcit ement
Ġcircumst ances
Ġhelicop ter
B ob
d own
w hile
Ġt in
Ġs outhern
Ġb ul
ĠT alk
ĠH im
Ġso f
ol en
Ġcom edy
Ġlo yal
Ġle an
Ġsho vel
Ġcont ent
Ġsn eez
Ġdri ll
Ġsk ills
Ġperson ally
Ġcompl icated
Ġexp ression
Ġmed ia
ĠGr am
ĠJul ie
Ġcand le
Ġnurs ing
Ġmurd ered
Ġsour ce
S ome
p ut
Ġb order
Ġm ile
Ġm ummy
Ġp unch
ĠA B
am ing
Ġpl ums
ĠD ear
ĠF ed
own ed
Ġse vere
Ġbr ac
Ġsw ings
Ġrem oved
Ġrec ycl
Ġdel icate
Ġret ire
Ġkitty cat
ĠGr oup
ĠPr in
Ġbeg ins
ĠBar ry
Ġprof essor
Ġpolit ics
Ġcross ed
Ġmis erable
Ġpin ea
ĠEn joy
Ġnet work
ĠOlymp ics
Ġbead s
Ġlaz y
I G
y r
z il
Ġb in
Ġf ate
Ġf uel
ing ly
ow ed
ĠS han
ĠS ister
ĠS www
Ġst ress
Ġst amp
ĠH ang
Ġwh oo
un ts
Ġup per
Ġlea gue
Ġpr ide
Ġcha mpions
Ġsk irt
Ġcolor ful
Ġreg ret
Ġpig gie
Ġass ume
br ush
Ġwood en
het ic
Ġtrans fer
Ġlead ers
Ġconn ect
Ġcrit ic
Ġwra pped
ĠVirgin ia
* *
1 4
M an
c raft
n ge
t own
re ts
Ġb ust
Ġc ops
Ġp owers
ar ant
ĠS P
se ll
Ġe e
ĠH ell
ĠH umph
Ġkn ight
ĠL incol
Ġwhe at
Ġfr uits
Ġlo an
Ġse ed
Ġbr ick
Ġele ment
Ġcont ribut
IN E
Ġsoon er
Ġduck ie
Ġansw ers
Ġ200 1
Ġ200 6
Ġexpect ing
TH ER
Ġcreat ures
ĠCon f
ĠPhil ip
Ġsuff ered
Ġdet ail
Ġrat tle
Ġconn ection
Ġrelig ion
bec ca
ĠDist rict
Ġsplend id
Ġunex pected
? '
B oo
r ots
Ġt ut
Ġw estern
Ġb a
ĠI ll
Ġto ss
Ġl id
Ġp ed
ĠB on
ĠB ab
Ġfor ms
Ġso ccer
ra in
ĠO t
Ġgu ests
Ġun com
Ġapp ears
Ġser ving
ĠBr ing
ĠAl an
Ġfire fight
Ġbreak s
ĠDe v
ES S
ĠTr ust
Ġhur ried
Ġprodu ce
ĠFo llow
Ġpit cher
Ġinflu ence
semb ly
Ġchallen ge
Ġfart her
A s
B l
f ect
g le
w ar
Ġt id
Ġb ent
Ġc akes
an es
Ġp ets
Ġn u
Ġn ah
Ġh ills
ĠB ur
ĠW alk
ĠH and
ĠF R
Ġsp ank
Ġag ent
Ġsc ri
co hol
ump y
Ġwar ning
OU T
Ġcoll ar
ĠBl ood
Ġsto pping
Ġrain bow
Ġmain tain
Ġ199 0
Ġdem on
ĠKen n
Ġpal ace
ĠBud dy
Ġgrocer y
quar ters
Ġpatty cake
Ġcott age
L ook
l im
m orrow
r ough
u be
en cer
ĠT ucker
ĠB ir
ĠH ead
ch ief
Ġno ble
Ġshe d
ĠP ardon
han t
ĠJ UST
Ġex act
Ġar gu
Ġsc en
ĠSt art
Ġmother s
ĠAs soci
Ġfro st
Ġdro pping
ĠMat ty
Ġexper iment
Ġprotect ion
Ġprop osed
Ġrob ber
nam ent
Ġnewsp apers
ĠSer geant
Ġachie ve
Ġarg ument
ĠCath olic
ĠHumph rey
d ro
e on
o x
u als
Ġt ag
Ġs ons
en ger
ĠT on
Ġbe an
ĠB O
ĠM u
Ġli ons
ĠH ealth
Ġcan s
ĠL os
ĠO UT
ĠR an
ul p
Ġcl aws
Ġpr oof
Ġper mission
ib ly
izz y
Ġmark s
Ġhon our
TH ING
Ġequ al
Ġfort un
Ġincre ased
Ġintro duced
ĠTra vis
ĠBra zil
Ġble eding
b an
l ers
p ea
t ure
Ġt ables
Ġp up
Ġn ails
es ame
Ġth orough
ir ls
Ġas pect
Ġal together
ĠE ach
Ġro ot
Ġro ar
ich ol
Ġbab e
Ġevery day
Ġho ly
ren ce
ĠSam my
ĠSp ider
iet nam
Ġclos ing
ĠWith out
Ġprov ided
Ġrequ ired
ĠMon ster
ĠSu ch
ĠBet ter
Ġdeg rees
Ġscr ub
ĠUrs ula
1 3
_ .
b ee
g ues
p ro
Ġw ard
Ġf aint
Ġp istol
Ġh ut
Ġre n
ly ing
ĠY et
ĠC a
ĠD ick
Ġjust ice
Ġr ushed
Ġfr ame
Ġpart ies
ret ty
ĠZ oe
Ġexpl ore
Ġpark ing
Ġlay ing
Ġprof it
Ġquar ters
Ġlangu ages
Ġdev il
ĠRem i
ĠAnge la
Ġstea m
-------- --------
ĠEar ly
ĠBern ard
Ġamb ulance
Ġcurt ain
Ġlic ense
ĠDire ctor
Ġfal se
Ġmosqu ito
s an
Ġy ards
Ġd om
Ġd iet
is er
Ġf ierce
Ġth under
le en
ĠB ow
ĠS ub
im um
ĠW omen
ĠH um
Ġyour selves
am n
ĠC L
ĠN E
ĠN one
th y
Ġcr u
og rap
Ġsix th
Ġbear d
Ġcomm ission
Ġexc han
Ġtrain ed
ru ct
Ġdeal ing
Ġ18 6
Ġ18 9
Ġinter f
Ġtrick s
Ġvar iety
Ġscar ce
Ġlim it
ĠGovern or
ĠDemocrat ic
Ġlou der
ĠUnt il
Ġl ung
ea u
Ġst eak
un ting
ĠP ea
ol es
ĠF riend
Ġfl ood
Ġun ha
Ġsn ip
Ġsn iff
ĠUn less
ĠFor get
Ġwear s
Ġcoll ection
Ġtown s
AR T
got i
Ġdra g
ĠSe ven
ĠPro v
Ġform ula
Ġpuzz les
Ġbother ing
ĠWilliam s
Ġhonest ly
anna h
Ġchee k
u ous
Ġb ay
Ġn ick
Ġst eel
Ġst olen
ĠL ot
ion al
ĠE st
ĠV ietnam
Ġsk ip
ĠMiss ion
Ġdist ant
uss y
ĠJack son
Ġsecret ary
Ġcand les
Ġincre as
Ġsettle ment
ĠSH E
Ġfra g
Ġsla ves
Ġinse ct
Ġbrac elet
e v
i ar
s it
Ġd ed
is hi
en ly
om pl
as ha
ad u
ge nd
Ġsu itc
em ies
Ġcl ip
Ġse qu
Ġwork ers
Ġpart ners
Ġun ique
Ġrec ent
Ġdri ves
Ġcomm itted
Ġten nis
Ġconf idence
Ġgener ation
ĠEl mo
Ġcri b
Ġdanc er
Ġchew ing
Ġenc oura
Ġbenef its
Ġsac rif
G u
U M
a zz
u ing
w est
z ard
or ious
ĠT ha
Ġal cohol
ĠF ind
Ġtw ins
ĠK n
Ġapp ointment
Ġdis play
eal and
Ġcomp lex
Ġmon sters
anc ing
ĠRe becca
ĠChe ck
ĠCol in
Ġill ness
Ġeffect s
ĠMad ame
Ġcab in
Ġmagn ets
Ġce iling
R UN
t ie
u ries
ot ton
as p
ĠA w
ĠS ol
st ant
Ġj e
ĠL ew
ie ce
ĠP ict
ĠR ad
ĠR ab
ĠR IGHT
Ġgood s
Ġcl iff
Ġpro ced
Ġhapp iness
ere c
Ġqu id
Ġkind ly
Ġfun ction
Ġapp ointed
oss um
ĠTH ERE
Ġmind s
Ġclose ly
Ġter rit
Ġbas ic
Ġob vious
ĠZ ealand
Ġnear by
Ġinc ident
Ġconf erence
ounc ill
Ġ200 4
Ġ200 5
Ġsafe ly
Ġ6 0
Ġcontro ll
Ġconcer n
Ġcart oon
Ġauthor ities
Ġphot o
Ġphot ograph
Ġcelebr ate
Ġdistribut ed
Ġterrif ic
ĠOrd er
Ġfasc in
A t
e enth
m ies
s ing
ou ri
Ġp oured
ĠB amb
ĠW es
ent ine
ur a
ĠD onna
ĠN urse
Ġr ides
ĠK ill
Ġbet ray
Ġsha de
Ġfl u
av al
Ġhu gging
Ġsur re
Ġaw oh
Ġ3 1
ertain ly
Ġpat ch
Ġpat ients
Ġmus ical
Ġcatch ing
Ġcra ft
Ġsal ami
ats y
ĠHa ven
Ġben eath
Ġsandw iches
Ġhous ing
ĠWil son
Ġcitiz ens
O r
T LE
p ot
s m
s is
Ġt us
Ġn aked
ĠA L
Ġk etch
ĠM inn
ĠW all
ad or
Ġne goti
Ġab o
ĠP atsy
ul ated
Ġco ats
Ġcon qu
bo at
Ġch oke
ans as
Ġya h
Ġhigh ly
Ġperson ality
Ġem otion
Ġtap erec
Ġinst ant
sh it
Ġpen al
Ġimp ress
Ġpri me
Ġ200 2
ĠHar vey
ĠRe c
Ġloc ation
Ġsol id
Ġest ate
Ġmajor ity
Ġpossib ility
Ġdescri bed
OO D
Ġmuff ins
Ġfol k
Ġsatisf ied
Ġmyster y
ĠLes lie
Ġveh icle
Ġber ries
ĠLincol n
A B
b ish
c ase
d es
d ough
v able
z o
et ts
le ction
ic ations
ĠB an
ĠB ible
ĠM s
Ġst ing
ĠL ad
ink le
Ġab ility
ĠG il
ĠG ET
ĠF am
el ess
Ġcon sequ
Ġum m
Ġgu arant
Ġen orm
ĠSt r
Ġ19 0
Ġbot hered
Ġhead ed
Ġcol ored
ĠAs h
Ġjo lly
ged y
Ġdress ing
Ġaff air
Ġexper t
ĠRea dy
Ġappro priate
Ġpan cakes
Ġviol ent
Ġrev olution
Ġdisco ver
Ġfavour ite
Ġtemper ature
uf act
ĠKore a
Ġshel ter
Ġestabl ished
Ġcommer cial
ĠOffic er
Ġpinea pple
B ER
E very
Ġf iction
on ies
Ġp ine
Ġn onsense
ĠA ah
ĠM id
ĠH ong
ĠN ichol
ie ur
Ġro les
Ġco vers
Ġpre c
Ġen velop
ud ding
av a
Ġac he
ĠAl i
Ġdad a
Ġcons cious
ĠJo an
ĠInd ians
Ġ18 7
Ġlad s
Ġru ining
Ġviol ence
Ġbell s
Ġdesign ed
ĠMus ic
Ġmam ma
Ġjew el
ĠJac ob
Ġsche me
G E
O L
d oor
v iet
Ġb id
Ġp ork
ĠH oll
ĠD ie
ĠD ingo
ĠYou nge
ĠP ara
ge ous
Ġtw ist
Ġtw eet
Ġag es
uck le
ere lla
Ġpo ke
gg er
Ġmin or
Ġgra bs
Ġcomp os
Ġshout ing
Ġid eal
Ġhat ed
ach us
ĠAl so
Ġdes ert
Ġsqu irt
Ġjo king
ĠMiss us
cher s
Ġsy mp
Ġmill ions
Ġda ily
let on
Ġsuff icient
ĠPen n
Ġprep are
Ġvictim s
Ġmult ip
Ġaer ob
Ġresour ces
ĠNest a
Ġunha ppy
Ġtaperec order
ĠYounge un
, .
G ot
O ne
c r
l ict
r ison
u able
Ġs ung
Ġb umble
Ġp itch
Ġh its
ĠA na
ĠS OME
ro s
ĠD ak
ĠN ep
um es
el ine
Ġsp ect
end er
Ġbl ink
Ġro ast
Ġco b
ag n
ere r
Ġmom ents
Ġen emies
ud ge
ump ty
Ġstick er
Ġca res
Ġob tain
ĠJohn son
Ġpar ade
Ġstar ing
osp here
Ġcor por
Ġtax i
Ġvan illa
Ġcheer lead
Ġconn ected
sha s
ĠHon or
ĠMarc ia
ĠPrin cess
Ġabo ard
achus etts
S C
p ass
in er
ing u
oo ge
Ġwe igh
ĠA lf
ĠM i
ac ious
ĠC op
Ġab and
Ġar med
ĠK now
Ġim age
ren e
Ġtra pped
Ġz ipper
OU N
Ġsun ny
Ġpop s
ĠJack ie
ĠTr acy
Ġserv ants
Ġsum m
Ġfil ms
Ġrepl ace
Ġterri bly
Ġmist akes
Ġda isy
Ġmach ines
Ġdiffic ulty
Ġill eg
Ġcirc les
OO K
ĠAust ria
oph ie
Ġtu na
Ġlat ter
Ġcult ure
Ġnea rer
ĠEmp ire
ĠAssoci ation
b ird
c ell
e z
Ġf etch
Ġan ch
Ġj ungle
ĠD eath
ack s
ĠG ard
Ġfr ustr
Ġplay dough
ak s
Ġv it
ĠU P
Ġhouse hold
Ġim pl
Ġmust n
cl ear
aught ers
Ġsk unk
Ġri f
ĠSh h
Ġkiss ing
br idge
Ġenjoy ing
ik a
Ġprison er
ĠMad am
Ġlab el
Ġlim ited
Ġbill ion
Ġpengu ins
ĠLI KE
Ġsched ule
2 2
d oll
re ys
Ġm ask
Ġg igg
ot o
at re
ĠB ell
Ġk iw
ĠS andy
ri m
ĠM ir
ad s
ĠL ater
Ġr hin
Ġal p
Ġnow here
ive red
est ival
ĠIn c
Ġkid na
Ġsl ave
Ġdri ven
ĠSp encer
Ġinterest s
Ġcup cakes
Ġacc ompl
Ġchar ges
Ġpot ty
ĠSc r
Ġ200 3
ĠGer ald
Ġreason able
Ġstud ies
Ġbeat ing
Ġbutterf lies
Ġremain s
Ġtend er
Ġbeha ve
Ġchee ks
augh s
ĠCind erella
ĠSn oopy
ĠKenn eth
Ġketch up
F A
g al
p ting
t wo
re g
Ġb ars
er os
le v
ĠA M
ĠS hi
ĠS udd
ĠM em
Ġre ar
Ġli ed
ĠH ER
ter y
Ġsh ots
ĠE ver
Ġsp ite
qu es
ob ile
ĠIn ter
Ġhi red
ons cious
uc ed
Ġya wn
ĠAs k
Ġacc omp
olog ist
ĠRe v
Ġanswer ing
Ġmem ories
ĠAnge les
Ġsteal ing
Ġtechn ology
Ġarr anged
Ġbroad cast
Bo ys
ĠInvest igator
ĠHug o
' ,
g ers
i at
m ate
in al
Ġo l
Ġd iss
Ġd ried
Ġg inger
Ġn ative
or a
ĠS ounds
im p
Ġre ind
ĠH ard
ĠH ERE
ĠN ik
Ġman ufact
Ġbl ast
Ġcon vin
ĠK ong
ĠAl ways
Ġchair man
Ġjo int
Ġimport ance
Ġconf ir
Ġda wn
Ġdiv ided
ĠRob bie
Ġbuck s
ĠCla ire
Ġvol ume
ĠIr ish
Ġproduct s
ĠWin ter
Ġrom antic
Ġot ter
U L
c ies
m ont
s ed
w orks
Ġs orrow
Ġs ession
Ġb ills
Ġm al
Ġf rench
ĠA aron
ĠA rab
ut ation
ĠS ab
ĠW r
Ġfor b
Ġgo bble
ĠG en
Ġex ha
ite ct
ere k
Ġpr ices
Ġdec ent
Ġmus cles
Ġcap able
Ġext ent
Ġserv ant
Ġfil es
for ce
ĠHo lly
omed ay
ĠGabri ella
ĠJon athan
Ġoccur red
bur gh
Ġchamp ion
ĠLat in
Ġglo ves
Ġgif ts
Ġaerob ics
Ġkiw i
A rrr
t les
w alk
Ġt an
Ġw ealth
it ched
Ġf ee
Ġth read
ĠT erry
ĠA ss
ut ies
se x
ĠM orning
ĠM imi
Ġst ab
ĠY o
Ġan ts
ĠD ID
ra ine
ĠO H
Ġv ision
ĠK r
Ġrem ove
Ġho c
Ġun its
Ġun known
Ġhead ing
Ġyell s
Ġfact ory
Ġvis ited
Ġimag ination
Ġsol ution
Ġamong st
Ġcompet ed
Ġenc ourage
Ġdescri be
Ġneg ative
ĠMass achusetts
ĠWo nder
Ġagre ement
RUN T
Ġtus ks
L ike
f oot
Ġs ke
Ġd um
Ġc ou
Ġc able
Ġc ooper
Ġp anda
Ġ" '
Ġk il
ĠS ophie
im a
ĠW ars
ad ium
Ġan aly
ĠC ross
ĠR ect
ol ves
ess a
Ġco zy
Ġfl ip
Ġun like
Ġbea k
Ġpass ion
Ġfact s
ĠGr ace
umb ling
Ġprot est
Ġadv anced
ĠSw iss
Ġopp osed
rop ol
Ġveget able
Ġactiv ities
Ġshell s
Ġdelight ed
van ia
Ġsurv ive
Ġeconom ic
ĠSen ate
Ġinj ured
Ġgor illa
ĠHea ven
I LL
i ven
i ries
s ome
Ã ¤
Ġ %
he ast
Ġd izzy
Ġm all
ĠB i
ri ly
ee k
ĠC as
Ġpl ug
ĠP am
ol ars
ber ries
Ġcon cept
Ġbab a
ĠSo viet
ci pl
ĠV ol
Ġra ising
Ġear ned
Ġchar ged
ĠMiss ouri
Ġart icle
Ġbeg un
Ġpus hes
Ġcal f
Ġprogram s
Ġsol ve
Ġconst ruction
ĠON E
Ġnic er
Ġstrugg le
ĠJer sey
ĠSwed en
Ġsignific ant
Ġreind eer
D ear
O n
m osphere
ing le
Ġl am
Ġp add
Ġp udding
Ġh om
as hes
le e
ut ions
ĠM am
ĠW ales
Ġst iff
ĠH it
ĠY ear
ĠD E
ĠP a
ig hed
ĠF el
Ġwor n
Ġint ended
th s
Ġch rist
ile y
pt on
ĠIs lam
Ġcup board
Ġfro zen
Ġknock ing
Ġmad am
Ġdin ing
ĠNor man
Ġcomput ers
EA H
Ġsevent h
ĠJeff reys
Ġstret ch
Ġelectric ity
ĠNet her
ĠRog er
Ġsof a
d ie
z a
Ġf ab
Ġg ained
Ġl eather
Ġp ension
id ers
at i
le ment
ĠA wards
ĠB us
ad ing
Ġst ern
st one
ĠC OM
ĠG al
ĠG ary
ĠP erson
ind er
ĠE nd
Ġplay ground
Ġback pack
Ġqu eer
ure au
Ġgu ide
Ġun fortunately
Ġmin us
ta il
bb led
Ġsqu ash
Ġ3 2
Ġpass age
Ġmess ed
Ġdra gged
Ġins pect
ĠGr ay
Ġ199 5
Ġtem ple
Ġgas ped
Ġstat ue
Ġbull et
Ġviol in
ĠBel g
ĠDes mond
Ġfed eral
Ġpor ch
ĠDet ective
Ġbeet le
ĠGeorg ia
Ġsymp at
ĠSudd enly
Ġhoc key
! âĢĻ
B C
b or
r ors
ha d
Ġth rill
ĠA gn
ĠB eat
ĠW ild
Ġst able
ac her
ĠH ay
un ched
ĠN umber
ĠG ames
ĠP L
um bo
el a
est ly
ist ics
hi o
orn ey
ĠTh ough
Ġen s
ip es
hen s
Ġcr unch
Ġhead quarters
Ġdes cend
Ġcut s
Ġimp at
Ġimp ressed
Ġconf lict
ĠLuc as
ĠPer cy
Ġcri mes
19 9
ĠCon n
ĠComm ander
IC E
Ġval uable
Ġsle igh
Ġmer cy
Ġhipp o
Ġdivor ce
Ġlect ure
b al
h us
r m
v et
ha w
Ġb oop
Ġb ald
Ġd ial
Ġc mon
Ġf ountain
or ia
Ġh ob
Ġin k
Ġin ch
ĠB art
ĠS eth
Ġst ations
ĠH annah
Ġj eep
Ġj unior
ĠL iber
ur d
ĠO ri
ce ived
ĠG un
Ġbl ond
ĠMom ma
Ġsc at
Ġhor ror
Ġchar ming
ĠZ ara
Ġcons um
Ġgrow s
fort able
ĠCol umb
Ġ198 0
Ġmail man
Ġlab or
Ġdiscuss ion
Ġpers u
Ġcapt ured
augh ing
Ġhistor ical
Ġsen ior
Ġadminist rat
ĠServ ice
ĠBamb i
ĠNep al
ĠNether lands
A mer
o k
s ay
Ġs igh
it ter
Ġf acing
or ms
et tle
Ġk m
ĠS U
ĠW ent
Ġkn it
ĠL en
ĠD erek
ĠR ead
ol k
Ġsp aces
ĠK ang
ĠK elly
Ġpre f
bo ys
Ġmay or
Ġstr ict
Ġcomp ar
og ue
Ġbus hes
Ġhop es
Ġcomm ander
Ġyell ing
Ġent rance
Ġcoll ea
umb led
Ġtest s
ĠThanks giving
Ġpress ed
cri ption
Ġconcer t
Ġlead s
Ġbreat hing
Ġcheer ful
Ġdeb t
Ġoccasion ally
ĠAld red
ĠProv ince
ĠDak ota
b ar
Ġ ;
Ġt ack
Ġs in
it ors
Ġd aughters
Ġm ashed
ĠI d
ea ble
ĠS ar
ĠS her
ĠW on
ir y
Ġst ool
Ġcan ton
ĠY EAH
ĠThe o
ust ed
Ġat mosphere
Ġsh ops
ĠO s
Ġr ack
Ġal ike
ĠR ick
Ġbo ld
ist ent
Ġpro spect
Ġpo pped
Ġsw iss
Ġsc an
ĠAl bert
OU GH
ĠCl iff
AT H
Ġsec ure
Ġpresent ly
Ġ199 2
ĠGeor gie
Ġstudy ing
Ġhun hunh
Ġbac on
Fl uffy
Ġtrem end
Ġdesper ate
ĠThing s
Ġumm hm
u ction
z es
Ġb ury
ĠT ab
ĠB ol
ood les
ĠG ree
ul k
est ic
Ġar gue
ag ue
ĠU r
ob al
ĠSt ud
ĠIn stead
Ġbit ing
iv ity
ph ones
Ġwar n
Ġset s
Ġsk ill
Ġfro ggie
Ġrock ing
Ġinc hes
Ġconf ident
Ġdi apers
ĠPr ot
Ġdream ing
Ġsail ing
Ġ197 0
Ġarri ve
ĠEn ough
Ġbark ing
ĠCent er
ĠAust rian
Ġpers ons
Ġhorn s
ĠIr an
Ġintellig ent
Ġrapid ly
4 0
A CK
g age
p ers
Ġs ou
Ġo bey
Ġf ry
Ġf isher
Ġn a
Ġh int
ĠM av
Ġst ub
ĠH ind
ĠD i
Ġsh ine
ĠG ord
ĠR aj
ak ers
em ic
Ġv ine
Ġv oc
Ġover all
Ġint end
ĠK y
Ġgreat ly
inn ed
ĠGo ing
Ġtre mb
Ġref erence
ĠTHE Y
Ġimp act
Ġclot hing
Ġcompl eted
Ġexp and
Ġ199 4
Ġrepl aced
---- "
ĠChild ren
Ġfail ure
Ġpupp ets
Ġcab inet
ĠMus ab
Ġholiday s
Ġign or
ĠCong ratulations
Ġlat est
Ġinvestig ation
Ġtomato es
ĠCont in
ĠGabri el
Ġtal ent
Ġteas ing
ĠBritt any
ĠTurk ish
Ġsuitc ase
ĠLew is
2 5
e xt
g ment
i ation
k ward
m ade
in ity
ĠI ce
Ġf ires
Ġhe av
Ġin ner
im ately
Ġsa v
ĠC y
ĠL or
um bs
ĠR E
ĠR EA
ĠF ight
ep s
Ġlo ver
Ġint ention
Ġqu ant
ĠTom orrow
au ce
Ġfo g
Ġdis ag
ĠCh uck
Ġgl ance
ild a
ĠMar ian
stand ing
Ġang le
Ġexpl os
oof y
Ġsupport ed
ĠQu ick
ĠQu ite
Ġlevel s
ĠEn ter
Ġobject s
Ġperform ed
Ġnic kel
ĠCare er
Ġgradu ated
Ġdread ful
Ġtyp ical
ĠHal f
Ġslipp ers
Ġribb on
H i
b ute
Ġ ing
Ġw ool
Ġd er
Ġd omin
Ġg ear
Ġp ussy
ĠT ar
Ġst roll
ĠC ub
ĠL IT
Ġall ey
op l
!" ,
ĠR om
ĠR uth
ĠJ ord
ul s
el ia
ak a
Ġv ast
Ġtr unks
Ġro ses
ĠU k
Ġcha mber
Ġchild hood
Ġwar ri
ned y
Ġvis iting
Ġ5 00
Ġsea m
Ġleg isl
Ġvisit ors
ĠGu ard
Ġfur ry
Ġbeat en
Ġdig ging
ĠScott ish
ĠJew ish
Ġtroub les
ĠCheer ios
ĠPak istan
Ġrecycl ing
b i
c ution
d ad
l ets
w oman
Ġs omeday
Ġm ount
Ġit ch
ay lor
Ġth ie
Ġon ion
ĠT IM
ĠB ella
ĠP ubl
ĠR us
Ġfr idge
art s
ĠE X
Ġsu nd
Ġsu icide
ca re
Ġcl eared
Ġv ir
Ġv irt
ap h
Ġoff ering
Ġpro se
ĠK ansas
ĠU K
ĠWh oo
Ġche aper
ĠChrist ians
Ġass ault
Ġpresent ed
cha r
Ġ199 7
Th ose
Ġtem por
Ġrub bish
Ġtooth brush
Ġshock ed
Ġeconom y
Ġstink y
Ġopt ion
ĠTea m
Ġstro ke
Ġladyb ug
ĠAnton io
Ġenorm ous
ĠLIT TLE
f s
g ain
m pt
w a
ha ve
Ġdo ck
ĠB all
Ġre ign
Ġre aches
ir k
Ġan ger
st ick
ĠC ool
ĠL i
ĠL ane
Ġpl ot
ĠN ame
ĠG ent
ĠP itt
ĠP retty
Ġsome place
Ġtr ump
Ġbr on
ĠSo cial
Ġfun eral
Ġke en
ĠDo g
ĠV as
Ġuse less
ĠBr uce
oc r
the less
Ġstick ers
Ġmeet ings
OU R
ĠCar rots
Ġland ing
Ġsand box
Ġfree zing
ĠSha kes
ĠAny body
Ġcover ing
Ġaff ection
ĠGu ys
Ġkick ing
Ġrecogn izes
sy l
Ġneighb ors
Ġproduc er
Ġnatur ally
ĠRepubl ican
Ġflash light
ĠComp any
Ġarch itect
Ġelev ator
Ġuncom fortable
Ġfirefight er
pea re
Ġalp hab
A r
Ġ ease
in ate
Ġy arn
Ġd ent
Ġc otton
Ġp uddle
ut iful
ĠB ishop
Ġu gh
ĠS outhern
ĠW end
ro se
if ying
un te
Ġsh ift
ĠN orthern
ind a
ĠR al
ĠR ub
ĠF ord
Ġv ain
Ġbl oke
ag on
iss y
Ġle gend
ile en
Ġmar ble
Ġyoung est
Ġca uses
ĠCl ear
Ġrep utation
Ġdra ft
Ġins p
RE AM
Ġcost ume
ĠComm ission
Ġconst ant
Ġpock ets
net te
Ġview s
Ġcust omers
Ġmid night
Ġthreat ened
Ġut ter
ĠGold en
wh ich
ĠDiv ision
ĠPara lymp
ĠScr ooge
syl vania
2 1
B O
I VE
L ING
P ossum
e ys
f our
p hew
r ont
u pp
Ġw ins
in em
Ġm ig
Ġhe dge
ĠT W
ĠS at
ĠS leep
ĠM ount
ĠM ild
ĠM abel
ĠW oo
ĠH IM
Ġcan e
Ġwith d
ĠL ion
ĠL ight
Ġne phew
op ard
ul ed
Ġpro b
Ġbaby doll
Ġact ions
od es
Ġsl ed
Ġchan ces
Ġcomp ass
Ġdifferent ly
aw a
ĠMay or
Ġaw kward
less ly
Ġmess ing
ball s
Ġstrong ly
ĠAr gent
Ġdress es
Ġhum ans
Ġspeak er
ĠEx cept
Ġwall et
Ġcontin ues
Ġspo il
Ġill ustr
Ġorgan is
Ġswing ing
Ġamaz ed
Ġmeas uring
Ġdeb ate
Ġassist ant
ĠPort ug
ĠSnow man
Ġbare ly
Ġnomin ated
Ġembarrass ed
ĠJoy ce
ĠFil m
Ġsi ppy
Ġterrit ory
Ġanch or
4 5
G reat
e gr
g un
w ide
w ho
Ġt ac
Ġd ip
Ġm ittens
Ġg oo
Ġp ace
Ġp anc
Ġha w
Ġbe ets
Ġu lt
ĠM O
Ġre action
Ġre venge
Ġme lt
ir py
ac hi
Ġsh ri
ĠN ic
op hy
Ġr ising
ĠR ap
Ġsp eaks
ag ger
inn ers
Ġcont est
Ġgre edy
Ġsk ull
ĠCl are
Ġinst inct
ĠGerman s
Ġconst antly
ĠKen nedy
ĠKe ith
Ġcous ins
Ġcell s
ĠEaster n
ĠMex ican
Ġdefeat ed
Ġeager ly
Ġprincip al
Ġsucceed ed
ĠHaw ai
Ġevident ly
Ġrais ins
Ġeaster n
Ġexchan ge
ĠPenn sylvania
ĠMav is
ĠShakes peare
B E
D ER
P S
o ise
y nam
Ġt ide
Ġt ale
ou st
Ġs an
Ġo str
Ġd ot
Ġl oo
ĠT illy
ĠA y
ĠB ee
ĠS ky
ĠM ain
ĠM ine
ĠM AR
Ġe cho
ĠW ANT
Ġst eep
Ġgo in
ĠH at
Ġsa m
ĠC her
Ġsh irts
ĠN orm
ĠO hio
ĠF at
Ġsp an
Ġcl ick
Ġcl apped
Ġse lected
ag ne
Ġch ir
Ġwr ist
Ġche ers
Ġact ed
Ġcr ashed
Ġfriends hip
Ġtop ic
Ġri pped
Ġinst it
Ġdef ense
Ġsec rets
Ġpar liament
Ġinter rup
Ġ199 3
Ġ199 9
IS H
min ation
Ġmist ress
Ġbur nt
sc otch
Ġdirect ions
Ġdescri ption
ĠFrancis co
Ġ{ \
Ġpretz el
Ġsurre nder
ĠFam ily
) :
C A
K S
W E
w ill
y cle
Ġthe ater
Ġm ental
ĠI II
Ġp ha
Ġn oodles
ĠT ele
le g
ĠB Y
ĠB our
ĠS esame
am s
st ra
ĠP R
ĠP ower
ĠR O
Ġbo nd
Ġcl ue
Ġv ase
Ġgr umpy
Ġunder t
ĠHow ard
Ġbear ing
ĠCl ark
Ġpen nies
ï¿½ï¿½ ï¿½
Ġdi ary
Ġexpl an
Ġhon k
Ġinter p
ik i
Ġbelong ed
com ing
Ġcam el
Ġtrick y
Ġextra ord
Ġeffect ive
Ġremain ing
Ġpin ch
Ġspir its
Ġload s
ĠAnge l
Ġcust omer
Ġobs erved
Ġfaith ful
Ġfeat ures
bel ie
Ġentertain ment
Ġinit i
ĠCind y
Ġprincip le
Ġprim ary
hell e
Ġmac aron
Ġscarce ly
Ġpenal ty
Ġmultip le
Ġilleg al
ĠMild red
I V
M ar
c ock
e ven
n ut
n els
p her
r idge
u j
w an
Ġc ad
ĠI F
on ia
Ġhe sit
et ime
ĠT eddy
Ġwe bs
al o
Ġwh ip
ent ially
ĠC ooper
ĠG a
ĠP ier
ig ger
ess ions
Ġsp y
Ġv ice
Ġtr ace
Ġfl ow
Ġrem ote
ud ed
ĠV en
Ġdis aster
Ġend ing
ĠSp ir
Ġhair cut
Ġdes er
Ġsweet ies
Ġsad ly
Ġca red
az e
Ġbas ement
ĠCl ara
vent ion
Ġref lect
Ġimp ression
Ġshort s
Ġoffic ially
Ġart ists
Ġcross ing
Ġcond u
Ġappro ached
Ġtem pt
Ġ196 0
Ġprep ar
Ġelect ions
Ġsnack s
ĠFin ally
Ġadm itted
Ġdelight ful
Ġspr ang
Ġassoci ated
Ġgor geous
Ġdea f
Ġuna ble
Ġscri pt
ograp her
ĠPea ce
ĠNichol as
ĠHoll and
Amer ican
Ġthie ves
5 00
C he
f ire
g as
g ive
m ad
Ġw al
Ġw ires
Ġd oodle
Ġto ns
Ġg al
id dy
ĠT aylor
Ġ" _
ĠA v
ĠM ich
ad ays
Ġgo als
ĠH OW
ro g
ĠL ucky
ĠD ri
ĠN ar
Ġfr ank
em ploy
Ġco ins
Ġbr ide
Ġmu le
Ġsc old
Ġun pack
Ġsit es
ach t
Ġsur ge
Ġlight ning
Ġmus cle
Ġfree ze
Ġfil thy
erv ative
Ġ198 8
Ġcal cul
Ġfarm ers
ĠHa ving
Ġarri val
Ġlab our
Ġbump ed
Ġmeal s
Ġrepresent ed
Ġadm ir
Ġapples auce
Ġemploy ment
Ġcurt ains
Ġcoco a
Ġliter ally
wr iter
Ġwip ed
Ġcomr ade
Ġcomr ades
ĠChampions hip
Ġmere ly
Ġtradition al
ĠFoot ball
Ġni bbled
Ġcheerlead er
Ġconvin ced
Ġconfir med
c est
d le
t it
u um
v as
w estern
Ġa pr
Ġm ax
Ġc ert
is dom
Ġp aw
Ġh oop
Ġk itt
ĠS ame
Ġre ject
ac ha
ĠH ospital
ust er
ĠL yn
Ġso il
and ra
um in
ĠF C
ĠE N
qu et
Ġar row
ĠK ip
ĠTh rough
Ġgl ory
ens es
Ġrec all
Do es
Ġdep os
Ġref use
Ġ4 5
Ġshort ly
Ġed itor
Ġ199 6
Ġcond uct
Ġtall er
Ġ196 9
Ġpean uts
Ġstat us
Ġinvest ment
Ġflo at
Ġdust ing
Ġremark able
Ġsusp ic
Ġscient ific
Ġoblig ed
Ġbisc uits
Ġthorough ly
Ġrhin oc
2 3
M r
S H
s k
Ġt roll
is se
Ġhe ight
ay a
ĠA k
ĠB aker
ĠM ight
ĠC ass
ĠC OME
ĠD ead
Ġab c
Ġr ust
ĠP ick
Ġwor ship
os ity
ag ers
Ġcon ven
Ġfl esh
ĠSt one
pl o
Ġun ivers
ĠâĢ ¢
ĠV on
Ġra ven
Ġapp la
ons ieur
Ġstr ate
Ġhear s
ĠMar sha
ĠBe ing
Ġca lend
Ġacc ent
AN G
AT ION
Ġev olution
Ġstar ring
Ġ7 0
Ġbang ing
Ġexplain s
com m
Ġconsider ing
Ġforest s
Ġpupp ies
Ġpray er
ino is
ĠMus lim
ĠFuck ing
Ġcrowd ed
Ġlemon ade
Ġunc onscious
Ġgodd amn
Ġmob ile
xy gen
ĠIll inois
ouncill or
ĠWend y
ĠRal ph
! --
P H
p an
u na
Ġa ston
Ġb aked
er ation
Ġl un
Ġl aughter
ĠB ry
ĠB ank
Ġli zard
Ġshe ets
un ted
ĠN ancy
ĠN EW
ĠO bs
il ton
ab or
ĠF eel
ast e
Ġover t
Ġbl own
Ġbl ah
Ġro ared
ĠK o
Ġbr u
ĠSo ciety
Ġgr at
Ġsc oop
ĠIn stitute
Ġdis cipl
Ġper man
ins on
ĠPl an
Ġcolor ing
Ġrep ro
ĠAr ch
Ġsurpr ising
Ġbra ins
ĠCom ing
Ġexp ed
Ġ199 8
Ġban ks
Ġspo iled
AS T
ky o
ĠWH O
Ġbull shit
Ġengine er
Ġmem or
ĠGl ad
Ġvol unte
IGH S
Ġsens itive
Ġimpro ved
Ġtour nament
Ġsatisf action
Ġappl ied
Ġadult s
Ã¨ re
ĠEs pecially
Ġslipp ery
col m
ĠGreg ory
ĠSpe cial
Ġsneez ed
Ġscen es
Ġalphab et
Ġostr ich
B I
U D
b ear
b urn
g ro
p oint
r us
Ġ eth
Ġt ires
Ġo xygen
Ġb um
Ġc hi
ĠI an
Ġg rill
Ġp ad
or se
Ġhe els
ĠT ower
ĠS A
ĠM iddle
ac ity
Ġkn ot
ĠL ang
ĠL oc
ĠN OW
Ġr ates
ĠP oint
and al
ĠR oll
ĠJ essie
ul se
ĠE asy
Ġback yard
em ents
Ġlo ft
Ġbl ows
Ġlea k
ĠWh is
Ġthank ful
man n
Ġac id
ĠCh o
Ġstr angers
Ġgra bbing
port s
The se
Ġdri ft
Ġatt ended
Ġhigh way
ĠFor ce
Ġreg ist
Ġob st
Ġmess ages
Ġent hus
Ġdel ivered
Ġcry stal
Ġpot tie
Ġins ane
Ġinter rupt
ĠLe on
Ġdream ed
Ġ199 1
Ġband age
Ġpea ches
Ġoops ie
Ġscream s
19 7
Ġabs olute
Ġann ual
ĠPhil ipp
Ġprop ose
ĠLou ise
ĠLu na
Ġste ering
Ġcraw ling
ĠRon ald
Ġindust rial
ĠBern ice
Ġappl ication
Ġgri ef
ĠAgn es
Ġimpat ient
ĠJord an
ĠGent le
b il
p ool
r ings
s ix
v ard
he ro
Ġa ck
ĠI ra
Ġl imb
Ġh ire
ĠA dd
Ġk ings
ĠS ad
ĠM erc
st an
Ġas sh
ĠC ur
ĠHe l
ĠR ag
Ġany how
ĠAnd re
Ġcl uck
ort ed
Ġint ense
Ġhelp less
ĠK id
Ġsw ift
Ġunder ground
Ġapp et
Ġbeing s
Ġbed time
Ġhop scotch
Don ald
Ġrest rict
ĠCar ter
Ġext ended
Ġroll s
ĠInd eed
IS S
Ġcreat ive
Ġpan ic
ĠGreat er
Ġspell ing
Ġphot os
Ġgall ey
asc al
Ġmass ive
Ġign ore
Ġtu be
Ġcapt ure
Ġparticip ant
Ġsurround ed
Ġexecut ive
ĠAB OUT
ĠRect us
ĠGord on
Ġmacaron i
ĠMich igan
d ale
e k
l ines
m ony
m itted
t han
u ge
w he
Ġw rench
Ġd ive
Ġd ating
Ġf ears
Ġto re
Ġp ara
Ġin ha
ĠA R
Ġwas ted
ĠW OR
ac les
ĠL E
un o
il st
Ġout ta
ĠP ac
ĠP ra
um a
ĠR ail
ĠE at
Ġcl aimed
ĠNo ah
ĠSt u
ĠV in
Ġsit u
Ġres olved
Ġrel ie
ĠAs her
ĠAs sembly
pr ise
Ġdec isions
Ġinv ent
Ġjo kes
Ġdel i
Ġdist inct
Ġmet ers
Ġtast ed
ĠPh ill
ĠMe an
ĠGu ess
Ġattack s
Ġ198 5
Ġ197 2
Ġann ounce
Ġconsider able
ĠRuss ians
Ġplant ed
Ġskin ny
Ġvac uum
Ġflo ating
Ġcher ries
Ġcrit ical
Ġeffort s
Ġattract ive
Ġrefer red
Ġmor al
Ġveh icles
Ġnea rest
Ġinstr ument
Ġretire ment
Ġdemon str
Ġstub born
W ould
r ated
ou ston
it als
Ġm ild
Ġc el
ĠI ng
ll ie
ĠT em
im al
ĠM oney
Ġre act
Ġe y
ĠC D
ĠC ow
ĠC ard
Ġno on
ĠL au
ĠL ib
ĠD ex
Ġsh ield
ĠN ap
ca p
Ġv ig
Ġag ric
Ġse ctor
ĠBen ny
Ġgu ards
Ġsha mp
Ġcr ane
iv ia
Ġwo ah
Ġ3 5
ĠTo gether
Ġvis its
ĠSha r
ĠEd uc
ĠChe ers
ĠCol or
com une
Ġdar lings
oura ble
ĠRep resent
Ġpump kins
Ġturt les
Ġlawy ers
Ġdisp os
Ġindivid uals
Ġfeat ure
gl as
ĠEll ie
Ġrequest ed
ĠWind ows
Ġadop ted
Ġcigaret te
Ġaltern ative
Ġliqu id
Ġfrag ile
ropol itan
Ġrhinoc eros
Ġcalend ar
, ...
. --
P P
R OW
S h
W ill
m ay
p arent
r ase
u an
u ght
he im
Ġs ings
Ġb ore
Ġd ick
Ġd uties
Ġc ateg
er ver
Ġf east
Ġto n
Ġg ulp
Ġp ub
ot ic
ĠT an
ĠS ong
Ġwas ting
ver ing
out ing
ĠW olf
ad elp
ĠH ans
Ġan ten
st ress
ell ing
ĠP ope
ĠJ ere
ĠF ound
Ġcl ients
Ġbu ff
Ġthr one
Ġapp ly
ta h
Ġanim ated
Ġca using
ĠTo kyo
Ġchar t
ĠZ o
Ġpig eon
Ġpretend ed
Ġ4 4
Ġsal ary
Ġfuck ed
Ġreturn ing
19 8
Ġsail ed
ĠMor gie
net t
Ġadm ire
ĠMal colm
ĠMer le
Ġcoun sel
Ġdoc uments
Ġclaim s
Ġgrant ed
ĠRel ax
Ġtrail er
Ġtremend ous
Ġagric ult
: --
A IN
E n
G od
a ud
k ind
l ic
m are
s ighs
t ar
Ġt ad
Ġt ab
re p
Ġy ield
Ġb aker
Ġc reek
Ġg ates
on ge
ar io
ĠM un
Ġst ead
ook ed
ch ild
Ġat h
ĠD ong
ĠD ale
un ction
ĠG w
ĠG irl
ĠG OOD
ĠP in
ĠP ers
ĠJ os
ol ar
Ġsp icy
Ġbo il
Ġcom ments
ant a
Ġhelp er
Ġcar bon
Ġwr it
Ġact s
Ġmust ard
cl oth
Ġdoll ie
Ġea gle
IN K
Ġmar ched
Ġfire place
Ġpay ment
Ġ3 00
Ġlear nt
Ġpain ter
Ġdel iber
Ġret reat
ale m
Ġcoll ected
ĠMic helle
Ġposs ession
Ġmusic ian
OR E
ĠAN Y
Ġsweetie pie
ĠEm peror
Ġla unched
Ġstri p
Ġpract ical
Ġjoin ing
Ġought a
Ġneighb our
Ġearth qu
Ġpeace ful
ĠSy d
ĠCor por
Ġfre ak
Ġbeha lf
Ġexist ence
iction ary
Ġanx iety
ĠSec urity
Ġremark ed
Ġstret ched
Ġdemand ed
Ġbun nies
orks hire
ĠFro st
Ġcris is
Ġjournal ist
Ġinstru ctions
Ġslee ve
ĠGram my
Ġseam stress
adelp hia
A ny
F ire
V ery
b elt
h u
j e
m outh
r ical
v or
v ior
w ah
Ã ¦
Ġf ir
Ġf lex
Ġn om
es ota
Ġhe ck
Ġh osp
ar se
ar ia
ĠS i
ĠM od
ĠW oman
ĠH ank
am us
ĠC ertainly
ĠD eb
Ġgot cha
ĠR icky
ĠF ull
Ġwor ms
Ġany time
Ġsu p
Ġman ners
ĠBen j
Ġwat ches
Ġmom s
Ġam use
Ġdog gies
Ġche ating
Ġra ined
Ġbel oved
Ġele ments
ĠTH AN
Ġinf ant
Ġgrow th
Ġconf usion
Ġes c
Ġins ult
Ġeng age
Ġ9 0
ĠAm anda
Ġ197 8
ĠCal m
Ġseas ons
Ġrul er
Ġcart oons
Ġload ed
yn asty
Ġstea dy
Ġmyster ious
Ġshr ink
Ġash ore
Ġelder ly
ĠLar ry
Ġenvelop e
Ġextraord inary
Ġshamp oo
6 0
B S
O ur
l on
m ail
n i
Ġw aking
ha ll
Ġd uh
Ġd ime
Ġc ush
Ġf iring
Ġg y
Ġl oop
Ġl ux
ea m
ĠT op
ic ies
ĠB und
Ġk ettle
ĠY orkshire
Ġnot ed
Ġas hes
ĠC e
ĠD rop
ĠD iana
ĠD umbo
ĠN az
op ot
Ġab road
ĠG U
ĠP ass
ĠR et
ĠJ O
ĠE lla
Ġsp inning
Ġex it
ag raph
ĠK a
Ġen gin
Ġwa ist
au c
ĠDo c
iff y
ps hire
Ġgl orious
Ġsn eeze
Ġbea ver
ĠSp ike
Ġmar vell
Ġwind s
Ġcons ent
Ġconf ess
Ġconf irm
Ġfuck in
Ġcheck s
Ġtreat s
cri pt
ĠPhil adelphia
Ġwhis kers
Ġoper ating
Ġ195 0
ĠAg ent
Ġhy dro
Ġgen ius
Ġsword s
LA UGH
cul iar
Ġrail way
Ġenvironment al
hem at
Ġwhisper ing
Ġtroub led
Ġbounc y
ĠDou glas
anche ster
ĠTon ight
ĠLad ies
Ġheav ily
belie vable
e ight
g han
i ac
o dy
p o
p art
w ear
Ġw igg
Ġm art
ing ing
ar ter
oo o
us ive
Ġwe b
ĠB os
im ents
ĠW ake
Ġst adium
ĠH ouston
Ġcan non
Ġan cest
ell ow
Ġpl ead
ĠD ude
Ġal ert
Ġse ized
Ġpro s
Ġtr ous
th ree
orn s
Ġfl ame
Ġsc ored
eas on
Ġlong est
Ġsl ap
Ġhead ache
Ġmon arch
Ġsqu ish
Ġfavor ites
ĠHar ris
ĠGe off
Ġart icles
Ġmur m
Ġfill ing
Ġstri pes
Ġoper a
Ġbur den
Ġcomb ination
Ġinvol ve
Ġsuggest ion
Ġelect ron
Ġpour ing
ĠMc C
ĠPol ish
Ġsubject s
fl ower
Ġmunicip al
Ġmagaz ines
Ġtechn ical
ĠBat tle
Ġident ify
Ġsearch ing
Ġadvent ures
Ġsusp icious
ĠCarol ina
Ġjew els
ĠJew s
Ġpra ise
ĠWay ne
Ġplat form
Ġunl ock
Ġreveal ed
Ġcandid ate
Ġtorn ado
Ġski ing
Ġguarant ee
Ġprec ise
Ġstrate gy
. ]
T ake
d am
m al
o kay
w ick
Ã ´
Ġt ales
Ġthe atre
ha na
Ġy all
Ġm ike
ĠI mp
Ġl os
Ġl ump
Ġh ush
id i
ĠA lp
ĠS cient
Ġre in
ĠW rest
ĠC ab
ĠC and
Ġj ug
ĠN an
Ġall ows
ĠG ill
ĠG ail
ĠR ain
ĠR oom
ĠJ J
Ġnow adays
ol ve
Ġsu its
ca pe
Ġlo af
ag s
Ġpe culiar
ace y
Ġpr on
ud es
Ġwr ites
ĠDo ggy
Ġun employ
Ġcr ust
Ġdis gr
Ġred uced
Ġsur vey
Ġatt orney
Ġhair y
Ġfather s
Ġsqu ad
Ġdist ingu
ĠNew s
Ġalong side
rat or
Ġaff airs
Ġblank ets
Ġequ ally
ĠWould n
ĠPen ny
Ġconsider ation
US IC
Ġdev ice
Ġcompan ions
Ġdepend ing
ĠLa ure
Ġfund s
ĠRon nie
ĠRos ie
Ġge ese
Ġcommunic ation
Ġpoet ry
ĠSand ra
Ġconstit ution
ĠOff ice
Ġflav or
Ġtid y
ĠMinn esota
ĠDie go
Ġchrist mas
Ġshri mp
Ġkitt ies
l ife
p ol
r ac
t hm
z ed
Ã ±
Ġt rop
in ea
Ġs ear
Ġd well
Ġf urious
Ġp y
Ġp ens
Ġp ause
Ġha l
ĠT A
ĠA D
ĠA ileen
ut o
ĠS ave
im ated
ĠM anchester
Ġj et
ur bed
ĠD www
Ġmy th
ĠN avy
ĠG arth
ĠG irls
Ġal oud
Ġag gress
Ġmo ck
Ġar ts
Ġwat ers
Ġmu g
ĠTh us
ĠTh irty
Ġch uck
ĠSt ef
ord ers
ĠThere fore
Ġra nd
Ġcr umbs
Ġbus es
Ġcount ed
ĠâĻª âĻª
Ġpol icies
Ġstand ards
Ġem plo
Ġchar ity
ĠAr m
te enth
Ġass ure
Ġclass room
ĠTr ina
ĠLe g
Ġaff ected
ham mad
Ġsail ors
Ġorgan iz
Ġscrew s
Ġ196 8
Ġsus hi
Ġcere mony
ĠTy ler
Ġpray ers
ĠWE LL
Ġspr ink
Ġdesp ite
Ġaddition al
ĠLy nette
Ġpattern s
ĠKay ode
Ġast ron
Ġproced ure
ĠSpir it
) }
P h
S IGHS
U n
h ins
n uts
r ich
v ation
Ġt une
Ġa y
Ġb ail
Ġb olt
Ġm op
is ible
Ġp ots
Ġh ood
as ks
ĠA in
Ġst em
am ent
ĠD est
ĠD NA
ra h
Ġr am
ĠP ull
em eter
Ġcl imate
res a
ere nces
Ġam en
ĠU gh
ĠTim es
Ġcare less
od il
Ġnight mare
Ġim pr
Ġbre ed
ĠCh irpy
Ġgra ph
ĠMar iana
Ġdri vers
the l
ING S
Ġdist ract
ĠAr men
Ġbath s
Ġpot ential
Ġadd ressed
ON G
Ġdi agn
Ġpar agraph
ĠDav is
ĠDr ink
Ġprov iding
Ġ8 0
Ġrece iving
Ġ197 3
OM AN
Ġpract ically
Ġdet ective
Ġpocket book
Ġdistrict s
Ġdiscuss ed
Ġcontain s
ĠStep han
stit ution
Ġinj ury
Ġscient ists
Ġsaving s
Ġopt ions
Ġarrange ments
ĠLA UGH
Ġargu ing
Ġsacrif ice
ĠRad io
ĠRec ords
Ġaband oned
ĠPitt s
Ġack now
L ea
g t
l asses
r um
Ġc ement
Ġf aced
Ġg a
ing ton
Ġin her
ĠT R
us hes
ĠA men
ĠB urn
ĠB aa
ĠS aid
ĠM aur
ĠW a
Ġli ar
ĠH op
Ġan k
am ins
ro be
if ully
un ning
ĠO R
ĠG OT
ĠG riff
ab led
ĠP ay
ĠP un
art en
Ġag g
Ġint egr
Ġhapp ier
Ġbr id
Ġhm m
Ġwr ink
Ġra ge
Ġreal ise
Ġgra v
Ġpick les
Ġrec ipe
Ġsleep s
Ġwar s
ĠSp ring
ĠAl most
Ġlight er
ĠFor give
Ġpat ience
Ġpat hetic
AT E
Ġfree zer
Ġdeath s
Ġtest ed
ĠJan et
Ġcreat ing
osaur us
Ġ198 7
Ġhar sh
Ġ197 9
Ġdeep ly
Ġworth y
Ġtrust ed
Ġsquir rels
Ġrul ed
ĠPri ze
ĠPark er
Ġimmedi ate
Ġbeha vior
Ġcust om
Ġcho ices
Ġbon k
Ġdolp hins
ĠSil ver
ĠMill er
ĠBlood y
Ġimpress ive
ĠTIM E
? ,
G r
P EN
S omet
c our
Ã §
he e
in ter
Ġd ign
is co
on i
Ġp uff
ĠT ina
ic ia
ut ed
ĠB ub
ĠB oss
ĠW y
Ġst ared
ĠL iam
ĠD ream
ĠN am
ĠG or
ĠP u
ĠR eal
ĠR hod
ĠJ in
ĠF I
Ġcl in
Ġag ency
Ġtr amp
Ġco pper
Ġbu nd
Ġsm ack
Ġkind ness
Ġsha ped
Ġgr an
ĠIn spect
ps y
Ġlast ed
Ġad just
Ġdr own
Ġph ones
Ġsort ed
ĠNot ting
ĠJust in
Ġair craft
Ġduck lings
ĠCl ose
ony m
Ġbar rels
Ġsy mpt
Ġexp ressed
Ġeye b
Ġmist aken
Ġfootball er
Ġ198 2
Ġmic row
ĠNe ither
IC K
go ing
II I
ĠCr omer
Ġdisco very
ĠSu pp
ĠÂ £
Ġdump ed
Ġclown s
Ġsens ible
Ġghost s
Ġharm less
Ġmater ials
Ġreview s
Ġintellig ence
Ġtravell ing
Ġlif etime
Ġpropos al
lem n
ĠRab bit
ĠRev olution
Ġske leton
ĠWent worth
Ġpanc ake
ĠBenj amin
Ġengin es
2 7
C at
F E
F r
M AN
b out
h og
l ock
p os
r ad
Ġd ates
Ġg iddy
Ġp ence
ot ing
ar ms
Ġon line
Ġdo d
ĠA ma
ĠS id
ĠS el
ĠM R
ĠM ountain
ĠM osc
Ġe re
ĠH un
Ġcan t
Ġkn ob
Ġkn ives
ĠN onna
Ġr aces
ight y
ĠE ither
os hi
Ġman e
Ġro ots
ĠK yle
Ġam end
Ġen qu
Ġfl ed
ĠSt ory
Ġun w
Ġche ering
Ġim per
Ġgl ove
Ġpol ish
Ġnum er
Ġacc ur
Ġdef ence
Ġtrans form
Ġsmell y
Ġshar ks
Ġ198 4
Ġabs or
Ġmir acle
ĠFrank lin
Ġproject s
ĠChan nel
Ġmid st
Ġregard ed
ĠOther wise
Ġscient ist
ĠMoo shas
Ġsac red
ĠKore an
Ġï¿½ï¿½ï¿½ï¿½ ï¿½ï¿½ï¿½ï¿½
Ġphilos ophy
Ġvot es
Ġfortun ate
Ġdom estic
Ġrif le
ĠHawai i
Ġdiscipl ine
ĠGentle men
Ġinha bit
Ġdeli very
8 0
; "
A C
G RUNT
d ed
i y
p ar
t im
in ent
Ġy acht
it ha
Ġb out
Ġd ictionary
Ġm orn
Ġc uri
Ġf ulf
or p
as ions
Ġon ions
ĠA id
ĠA ud
ic ial
ĠB ush
ĠB uzz
ĠB ugs
Ġre verse
ad ad
ĠH IS
ĠC ro
ĠC ru
ĠL ow
ĠL OOK
ĠN ico
Ġout er
ĠR ef
Ġsp ons
qu is
Ġro d
ĠK u
Ġbr icks
ĠU tah
Ġhand y
Ġfl uffy
Ġpo ster
Ġra ft
Ġsl am
Ġcomp ete
Ġrel atives
Ġbelie ves
Ġ3 6
ĠSh oot
Ġent it
Ġsim pl
Ġfore head
Ġmed ium
EN D
ĠPr om
Ġgard ens
Ġband aid
lo ad
Ġla unch
ho le
ĠMary land
Ġvill ages
Ġoper ate
Ġemp has
Ġengine ering
US E
Ġbuck le
Ah oy
Ġstir ring
AM E
ĠKe isha
ĠCent re
Ġhook ed
ĠCat hy
Ġcontain er
ĠTod dy
ĠSqu are
Ġrail road
Ġhipp opot
ĠSwed ish
Ġbounc ing
ĠKar l
Ġnu clear
Ġlung s
ĠPict ures
Ġsung lasses
Ġdent ist
Ġrelie ved
ĠEduc ation
ĠSyd ney
Ġtrous ers
Ġrand om
F T
S P
S p
S ighs
V ID
w ich
Ġt ha
Ġt uck
Ġthe rm
Ġf are
Ġg ig
Ġp ills
es ter
ot y
as m
ĠS om
ĠS av
ĠY e
Ġj erk
Ġj ingle
ĠL ET
ĠD omin
Ġsh ill
ĠN ine
ĠR ich
ĠJ r
ĠJ ung
ĠF ree
ĠF reedom
ĠE VER
ound ed
Ġwhere as
ĠWe ener
Ġpro port
Ġint ent
ang led
Ġun fortun
Ġche f
Ġact ors
int on
int end
Ġcr iter
Ġdr am
Ġcomp osed
Ġsupp lies
Ġred uce
Ġhat es
Ġbat s
Ġcut ie
Ġacc used
eter a
Ġland l
Ġbow ls
Ġclass ic
Ġstar fish
ĠAny one
ĠPer fect
Ġ7 5
ĠâĢĺ _
Ġ198 6
Ġinform ed
ĠComm un
ĠĠĠĠĠĠĠĠĠĠĠĠĠĠĠĠ ĠĠĠĠĠĠĠĠ
ĠCH AR
Ġclub s
Ġ193 0
Ġaccount s
ĠFred er
ĠBea utiful
ĠBat man
ĠBat ala
Ġsuspect ed
ĠWood y
Ġstrugg ling
Ġpor cup
Ġconv ince
erg us
Ġdee per
Ġrot ten
ĠOb viously
Gu ess
Ġcontroll ed
lev ant
ĠPL AY
Ġcollea gues
ĠInspect or
I nd
P er
U E
b its
b read
b orough
s a
s en
Ġt att
Ġw olves
Ġs ip
re m
Ġo ak
Ġb aking
Ġh ip
as ped
at ter
ĠT isha
Ġwe ep
ĠA mb
ĠM all
Ġre he
Ġre un
ĠH ood
Ġwh ilst
Ġab use
Ġr ushing
Ġcl erk
Ġ( ,
Ġel im
Ġelse where
Ġcat al
Ġball er
Ġsl im
Ġcont ri
Ġph rase
ĠPl us
Ġsqu ares
ĠLook ing
iet h
Ġpass enger
Ġtri m
Ġcap acity
Ġband s
ific ent
Ġimag ined
IC H
Ġval entine
Ġcre pt
Ġprep aring
Ġtor t
bre ak
Ġvol unt
Ġste pping
ĠCour se
ĠTur key
Ġmurd erer
ĠBert ha
ĠApp arently
Ġmerry gor
ĠJud ge
Ġmethod s
Ġpoll ution
Ġpiss ed
ĠFre ud
Ġcigaret tes
Ġexperien ces
ĠFed eral
ĠCliff ord
Ġperman ent
Ġmarvell ous
ĠWrest ling
Ġaggress ive
emeter y
Ġmerrygor ound
B LE
D Y
M om
c ano
d id
e very
g i
g ood
h is
l ong
y our
Ġ /
Ġ q
Ġt act
Ġw isdom
it able
Ġd ah
Ġp ies
Ġp unk
Ġhe he
ĠT ot
ĠT ob
Ġis ol
ĠM P
Ġre tain
ĠH m
ch uckles
ĠC ry
Ġso lemn
ĠD ot
ĠD aff
Ġsh iver
ĠN iger
ĠP ur
ĠP ost
Ġfr own
ul u
ol ine
ĠF ergus
Ġdown town
ĠK er
ĠU se
Ġsw ept
Ġpart ly
Ġho pped
Ġle opard
ĠIn side
ĠIn tern
ps on
Ġgra in
Ġres ident
Ġea ter
iv ated
ma id
ER ING
Ġmiss ile
Ġpay s
Ġclean er
Ġri pe
ĠZ e
Ġref res
Ġadd ing
Ġow ls
Ġroll er
OR T
Ġ18 5
ĠHar vard
Ġtow ers
TH E
19 6
gu ard
Ġ197 6
Ġblank ie
ĠNor way
Ġdevelop ing
ipp i
Ġiss ued
Ġexcited ly
ĠPol and
Ex actly
Ġaut umn
Ġcas ual
Ġregion al
ĠSer iously
ĠChan t
IR L
Ġident ity
Ġident ified
Ġmurd ers
ĠBer lin
Ġassist ance
Ġconcent rate
Ġoccup ied
Ġliber ty
Ġmushroom s
ĠCast le
Ġchampions hip
ĠRan worth
Ġbron ze
ocr acy
Ġexplan ation
pher d
ĠIra q
C ar
I P
a ired
c ellent
h ill
Ġ eter
Ġw itches
Ġb ah
Ġd at
Ġd ared
Ġm ent
Ġm ast
ĠT s
ĠA le
ĠA uthor
ic ians
ĠS end
ĠW at
Ġgo ats
st ate
ĠC AR
Ġj er
if ically
ck s
ĠP H
ig ers
Ġthem e
ain ted
ĠJ illy
ĠF arm
Ġer ase
Ġco ord
Ġcon es
Ġneed n
ĠK han
Ġread s
Ġkind erg
Ġgr am
Ġpr ick
ip er
iz ard
Ġle aning
ĠV ill
ye es
Ġra w
Ġdr ums
ĠEr ica
Ġres ign
Ġres olution
ĠIs a
Ġgl oom
Ġguess ed
aw k
Ġgre et
Ġwar rant
ĠAs ia
Ġblue berry
Ġsqu eez
Ġfell a
Ġrest ing
any a
Ġfact or
Ġtri ps
Ġdef in
Ġplan ets
Ġhum ble
Ġswim s
LL Y
Ġsat ell
ĠGr ant
ĠGr ange
ĠMe g
Ã© e
Ġpeas ants
Ġ198 9
Ġappro aching
amb led
Ġexcept ion
Ġmeant ime
Ġscrew ed
Ġsees aw
Ġjud ges
Ġvide os
Ġrough ly
Ġnurs es
Ġweak ness
Ġforg iven
Ġtext ure
Ġassoci ation
ĠReg ion
Ġconcl usion
ĠWhe ther
Ġtut or
leen ex
Ġincreas ing
Ġfascin ating
Ġvit amins
Ġexped ition
Ġemplo yees
ĠStephan ie
Ġinhabit ants
. )
W H
Y S
t op
Ã ¢
Ġ â
Ġt ee
Ġw ret
Ġw ages
Ġw ives
ha ra
Ġb age
Ġb reeze
Ġf ans
Ġf eared
Ġto ler
Ġg rie
an kee
Ġl ugg
Ġp ans
es ar
ĠA C
ic he
ĠM ans
Ġre ct
ĠW OULD
ir o
Ġli ver
Ġst air
ĠH omer
ch i
ĠC hat
ĠC ad
ĠC ivil
ell er
ĠL O
ĠL ead
Ġpl um
ĠN eed
ĠR and
ĠR emy
ol ph
ĠF orm
ĠE thel
ak h
Ġmake up
hi es
Ġcon ver
iss ippi
ix on
Ġunder water
ĠV alley
Ġmin i
Ġcol on
Ġmat hemat
Ġguess ing
Ġbat hing
ĠAl as
ĠJust ice
Ġeight h
Ġinv asion
Ġinv itation
Ġacc omm
sh ot
Ġfight s
Ġbar gain
ĠHar old
Ġins ist
du ction
Ġpeas ant
Ġreco vered
ĠBar ney
ivers ary
Ġform al
Ġprov ision
Ġloud ly
Ġprotect ed
Ġappro ved
Ġ197 7
ĠNe il
Ġbur ger
ĠCo le
Ġlie utenant
Ġvan ished
Ġpun ished
Ġscrat ched
Ġexist ing
Ġsurv ived
Ġattempt ed
Ġange ls
Ġdesp air
quar ium
Ġadvert ising
Ġswallow ed
Ã³ n
Ġax e
OUN D
ĠTab itha
Ġexplos ion
Ġinsp ired
ĠParalymp ics
ĠPier re
ĠLau rie
ĠColor ado
ĠJere my
Ġhosp itals
ĠMosc ow
Ġunfortun ate
Ġaccomm od
2 6
A K
T O
T Y
c ca
j an
s l
u ki
Å į
Ġt ro
Ġs ighed
Ġb ol
Ġc urs
Ġf ert
Ġp aws
or por
en n
ar c
ĠA G
ĠB uck
ĠB ax
ĠB rand
ĠS ever
ĠM ort
ver ty
ad le
Ġst all
ĠN ort
ĠG as
Ġr ats
ĠR i
ul ting
res p
Ġv irgin
Ġse lect
ous es
ĠOh h
Ġfl ap
Ġfl ats
ud dy
eas es
ress ing
ĠV eg
Ġdis char
Ġac ad
Ġgra vy
Ġown s
Ġgl ow
Ġrel ation
Ġmar bles
ars on
Ġju icy
ĠGood night
Ġtap ing
Ġreg iment
ĠCl ass
Ġdraw ers
Ġent ry
Ġcons cience
izz ie
Ġsub urb
Ġbusiness es
Ġbusiness man
ze ch
Ġins isted
ĠSee ms
Ġincl ined
Ġcur ls
Ġsuper ior
Ġcop ies
ĠBo ys
ĠQu iet
Ġdet ect
ĠWar ren
heart ed
Ġpill ows
ĠMc K
Ġhun ter
Ġvol cano
Ġtravel ing
Ġport ion
Ġsepar ated
St op
Ġur ged
Ġprint ed
Ġattract ed
Ġfant asy
Ġgrocer ies
Ġrac co
Ġvessel s
Ġsch olars
Ġaward ed
Ġannoy ing
Ġnin th
ĠBri g
Ġaccomp an
Ġkil omet
Ġtremb ling
ĠRus sell
Ġtempor ary
Ġtrump et
Ġloo kee
Ġapr on
Ġporcup ine
f rom
k ets
t an
it ated
Ġc eased
ĠI D
Ġg em
on ly
Ġl umber
Ġhe h
ay ed
at ically
ĠB and
ĠM innie
Ġre b
al i
Ġst im
ĠH ob
ĠH ope
Ġkn itting
ĠC OULD
ill ed
ĠL ex
Ġso ci
ra v
op les
Ġal ien
ĠE va
ist inct
Ġer a
Ġco inc
Ġtheir s
Ġwork er
ĠTh ird
Ġthr ust
Ġhand ing
Ġsw itched
Ġgr acious
-- -
ĠSt at
ub by
pt ure
Ġac ce
Ġmat t
ĠIs ab
âĻ «
Ġsn ort
ER Y
ĠPl ano
Ġside walk
Ġinv isible
Ġri vers
Ġpain ts
AN S
sw er
sh irt
Ġcow ard
Ġdist urbed
Ġass ured
Ġconf ession
Ġ4 3
AR S
ĠBl ake
ĠEx p
Ġvisit or
Ġpos itions
Ġattack ing
Ġ198 1
Ġ198 3
Ġsuper hero
ĠBo ard
Ġbur p
Ġsex y
Ġfort night
Ġ194 0
ĠCould n
Ġbless ed
ĠTy re
Ġbeha vi
ĠKat hy
Ġtent h
cast le
Ġshad ows
ĠRock y
Ġdeterm ine
ĠFar mer
Ġautom obile
ĠHung ry
ĠFif ty
Ġintern al
Ġdism iss
ĠFR OM
Ġfrost ing
Ġje ans
ĠHolly wood
Ġblond e
Ġignor ant
Ġtac os
Ġinterrup ted
ĠRag gedy
ĠDex ter
Ġsear ched
ĠBaa ee
Ġmicrow ave
Ġcuri osity
? âĢĻ
A CE
g ic
l ah
Ã ª
Ġa quarium
Ġo y
ĠI van
Ġto ot
on n
Ġp ac
or able
at ched
ĠA ff
ĠH ur
ĠH umpty
am ps
ĠC zech
ĠL iz
ur ches
ĠD ark
ĠG ri
ab out
ig e
ĠJ unior
Ġcl o
Ġv est
Ġover night
Ġpe ppers
Ġcar ing
Ġsha res
ĠSt a
Ġwa x
co ver
ĠV ien
Ġra ins
Ġsl ipper
Ġcr ush
Ġstr ings
Ġhop eless
Ġpass es
eb ook
Ġrep orter
sel s
Ġinf ection
Ġass ign
ru it
Ġexpl od
Ġprom otion
Ġquestion ed
Ġoffic es
ĠSha ron
ĠLe ices
Ġtail s
Ġcrack ed
let t
Ġappro val
Ġdiv ide
Ġdest ruction
ĠWH EN
ĠSy l
Ġenc oun
Ġrepresent ing
Ġactiv ist
ĠDor a
vere ign
Ġsuck s
ĠHam pshire
Ġcolour s
Ġheaven s
ĠSl ow
ĠCam bridge
Ġfoc used
Ġden ied
Ġsneak ers
Ġgradu ate
ĠBas il
Ġliber al
Ġdivor ced
Ġgaz ed
ĠVan essa
Ġger ms
Ġadop t
ĠPot ter
Ġfrequ ently
ĠMu hammad
ĠFriend s
Ġinsect s
Ġbumble bee
Ġassh ole
Ġearthqu ake
Lea ve
ĠDaff odil
Ġkinderg arten
Ġlugg age
D e
F irst
R AT
U RE
j ack
m ers
m ates
m aster
w ind
Â ¶
Ġs ed
re al
Ġthe rap
Ġf ries
Ġto ps
an ie
an ne
Ġl ane
Ġn avy
Ġn erve
en ess
Ġin ject
id o
ĠT ree
ĠA EW
ic it
ĠB av
ld om
ĠS cience
ĠM uch
ĠM iffy
Ġst ake
ee red
Ġnot ebook
ch io
ĠC ous
Ġj azz
ust omed
un ty
ĠO llie
ĠG RE
Ġr amp
Ġcom ed
Ġcom ic
em an
res ents
Ġv ital
Ġag ents
Ġlo gs
ere nt
ĠK az
Ġsm ashed
ia h
ĠWh it
Ġmust ache
Ġmon itor
ĠBr idge
Ġcont ext
ĠMar ion
Ġpres um
Ġmouth s
Ġhalf way
Ġinv ented
OU S
Ġpain ful
ĠMiss issippi
Ġrep resents
Ġmag ical
Ġplan es
Ġclimb s
Ġcur ly
Ġpract icing
Ġ196 1
Ġ196 6
Ġdisapp ointment
ĠCo ff
Ġlift ing
ĠMart y
ĠGot ta
ĠMc G
Ġchas es
Ġphot ographer
Ġrepresent ative
ĠOl ivia
Ġvers us
Ġur ban
ĠWal t
Ġimm ense
Ġregard ing
Ġchap ter
ĠRam sey
Ġmult i
ĠLaw rence
Ġbisc uit
Ġrhy thm
Ġexperien ced
ĠCra ig
ĠHum an
ĠEst her
Ġjewel ry
Ġexha usted
Ġcrunch y
Ġadministrat ive
ĠGree ce
Ġstroll er
2 4
F L
F rance
I ES
e qu
n est
v ous
w hy
w ife
Ġt il
Ġt um
Ġw ig
Ġd ug
Ġc ass
Ġn iece
om y
ow a
Ġof the
as es
ĠT ak
ic ip
ut her
ĠM ick
ĠW OMAN
Ġsee king
Ġup d
Ġsh one
ĠN ations
ĠN ative
ĠN ope
ĠO re
ĠO per
ĠG ene
Ġsp ear
ard o
omet er
Ġex ists
Ġex hib
Ġer aser
Ġcar ries
ĠTh ought
Ġel bow
Ġsw ung
ĠSt ri
Ġun pl
Ġche at
Ġbad ge
ĠTH INK
Ġmove ments
amp a
Ġacc ord
head ed
Ġent ering
Ġtri be
ĠGet ting
Ġpri zes
Ġsub stant
Ġvis ible
Ġbow ling
ĠTr ump
Ġstar ving
ĠGr anny
Ġprotect ing
Ġconcer ns
Ġann iversary
ĠComm on
Ġoper ated
Ġcre ation
Ġjud gment
Ġbull ets
Ġremind ed
Ġborrow ed
Ġmer rily
ĠFred dy
Ġopport un
OS E
Ġbi kes
Ġfund ing
Ġtear ing
Ġfirm ly
Ġepis odes
ĠGO ING
Ġadvert is
Ġmort gage
Ġwrest ling
Ġcontr ary
ĠCorn y
ĠJosh ua
Ġfisher man
Ġappla use
Ġhippopot amus
A H
M e
b ot
c u
c alled
n at
n old
Ġ :
Ġ vel
Ġs ought
Ġs ank
it i
Ġd ashed
Ġc udd
Ġf er
Ġg ut
Ġn uh
en cing
en cies
ar ro
ĠT our
Ġ" "
ĠM oom
Ġre nd
Ġst are
ĠH orn
st eps
ĠL ine
ĠD ee
ĠN on
ĠO p
Ġr ic
ĠF BI
... !
Ġback s
ick en
Ġv oy
Ġse lection
ag a
Ġpre y
Ġgu id
Ġlea sh
ey e
Ġcat ches
Ġunder wear
ĠIn f
av in
Ġad apt
Ġcr adle
ĠSam uel
Ġown ers
Ġend ea
ĠBr id
ĠMar vel
Ġsur ve
Ġsk ipped
Ġem br
Ġind ign
Ġsince re
Ġref lected
Ġchick s
Ġdi pl
Ġdeal t
Ġclass ical
Ġed ition
Ġseat ed
ĠJen nie
oll ey
min als
Ġadv is
Ġocc asions
Ġcontro ls
Ġhar vest
Ġ197 1
ĠBro ad
Ġoper ations
Ġpriv ile
cut ive
Ġtend s
Ġpresident ial
Ġbless ing
Ġhy p
ĠGra ham
Ġisland s
OS T
Ġimm ig
Ġremem bers
ĠDen ise
ĠPal est
ĠMur ray
Ġaer opl
Ġmut tered
Ġfac ility
Ġteen y
ĠSE E
Ġpretz els
Ġpurcha se
Ġwid ow
Ġscoot er
Ġbul b
Ġspaces hip
Ġsurge on
ĠScient ists
Ġmatt ress
ĠTyre se
ĠMoom oo
7 0
B ill
C O
T ilda
b ies
i kes
n an
r ine
r ating
s hire
v ia
Ä ĩ
Ġ ven
Ġw ink
Ġb ass
Ġd ash
Ġg ap
Ġn erves
Ġhe ap
Ġdo ve
ĠT al
ĠT oy
le ans
ĠB een
ĠB urt
ĠM USIC
ĠW ee
ĠW ERE
Ġli king
Ġst y
ĠC ri
ĠC ir
ĠL ock
Ġso le
un es
Ġsh if
ĠG us
ĠG all
?" ,
ĠF a
ĠF all
ĠE llen
ĠAnd erson
Ġv oted
Ġer ror
Ġover come
Ġlo d
Ġse ctions
ĠK am
Ġpe oples
Ġbr ushing
Ġcar p
Ġbu lly
Ġhand ker
Ġfl ames
Ġsc ul
Ġun p
Ġche ered
gg s
Ġcol umn
Ġhat h
ĠMar s
Ġ3 8
ĠSh in
ĠAr ts
ĠDe an
Ġsoft ware
Ġvis ual
OR Y
ĠInd epend
Ġclos es
Ġtow els
iam i
ĠX V
Ġabs ence
ĠAm ong
Ġappro x
OW N
Ġrub bing
Ġfool ing
ĠMc Donald
Ġregular ly
ĠCor ps
ĠParis et
Ġemploy ed
ĠMil es
Ġcontain ed
Ġseal s
Ġinvestig ate
ĠEll is
Ġintell ect
Ġble ed
Ġess ential
Ġautom atic
ĠEgypt ian
Ġembarrass ing
pie ce
ĠCO VID
Ġchem ical
ĠCON T
Ġinterf ere
Ġbetray ed
ĠPerson al
ĠPubl ic
Ġvir us
ĠStu art
ĠVin cent
ĠMean while
Ġcel ery
Ġanten na
V D
h t
k now
l an
l ar
r in
Ġ âĻ«
Ġa e
Ġa ha
re ll
Ġto x
Ġl s
Ġl ined
Ġn ort
Ġth ro
Ġha ck
ar med
ĠT anya
us alem
ĠA bby
ĠA venue
ĠS lo
ĠM os
ĠM eet
Ġre jo
Ġre ception
ĠH ills
Ġwh ore
st ar
ch t
ĠC R
ĠC row
ĠL illy
Ġso lo
ĠD ian
ĠG host
ĠP ad
Ġal ter
Ġtr ot
ous ed
Ġco ke
Ġqu ote
ool aid
ass y
Ġcat tle
act ory
ĠAn swer
Ġche ated
ci ples
Ġim ages
Ġra z
Ġdiffere nces
Ġbea m
Ġhot dog
oun cer
Ġunderstand s
Ġblue berries
pr ints
ret e
Ġ3 3
Ġob ed
Ġdraw ings
ĠEng ine
ĠAf ghan
Ġcool er
Ġage nda
Ġground s
RE E
Ġnap kins
Ġrecogn ition
Ġmail box
Ġrub bed
Ġmembers hip
Ġ194 7
Ġcommon ly
Ġboss y
Ġpil es
Ġpurp oses
Ġcollect ing
ĠApp le
Ġhamb urg
ĠDen nis
ĠDep uty
ĠShould n
ĠMet ropolitan
Ġinqu ired
ĠCle ve
Ġsem i
Ġcitiz en
ĠHot el
Ġconstit u
ĠFore st
Ġcommit ment
ĠNa omi
Ġsympat hy
Ġpha se
tit les
ĠObs erver
Ġdisgr ace
Ġballer ina
Ġhandker chief
9 9
C hild
D O
N ew
c ia
c ont
m ighty
p at
u ke
z ie
Ã £
Ã ¸
Ġa wards
Ġw ob
Ġw ider
in ch
Ġs ust
Ġc ure
Ġl as
or ld
or ous
Ġh ic
us ions
Ġbe gg
ĠB urg
ĠB ann
ĠM useum
Ġre bu
Ġe c
out heast
al p
ĠH art
Ġcan vas
Ġsa uc
ĠY a
ĠC art
ĠC ouncillor
ĠL am
ĠG ame
ab ama
Ġv et
Ġex cess
Ġover s
hm an
Ġday light
Ġfl ute
Ġpo verty
Ġsw amp
Ġsc rap
ĠSt ation
ĠSt ella
Ġwa h
Ġpr ote
ud ing
Ġche ss
Ġad orable
Ġper mit
cl ass
Ġgl anced
Ġgl obal
Ġhat ch
Ġsk ating
Ġkill s
eed s
Ġworry ing
ling ton
Ġaw a
ĠCha p
Ġinst antly
Ġtri umph
Ġtre nd
Ġmet res
Ġass ess
ĠWill ie
ĠAh h
Ġgener ations
Ġprom ises
ĠChe f
ĠWas n
ĠJu an
Ġcamp us
Ġbeat s
Ġmix ing
Ġspl ashed
Ġcop e
ĠPaul a
Ġ196 3
ĠCo ast
EA D
Ġ195 1
ĠRep ort
Ġ193 1
ĠKen ny
Ġgall ant
ĠBra vo
Ġplain ly
ĠBel ieve
ĠHam ilton
Ġprint s
Ch oo
ĠCam er
Ġbrief ly
Ġincred ibly
Ġden y
Ġliter ature
ĠPet ers
ĠBre ak
ĠDun no
Ġacqu aint
ĠHear t
ĠVictor ia
Ġgather ing
Ġrelative ly
Ġresist ance
Ġwhoo sh
Ġren ew
ĠSOME THING
Ġscat tered
ĠUk raine
Ġwithd raw
ĠArgent ina
Ġinterp ret
Ġmax imum
Ġorganiz ations
ĠNico le
ĠChant illy
Ġaccompan ied
ĠVien na
ĠCous in
, ,
D eal
N E
N ever
b at
j u
l oy
r ane
s omet
w ould
Ġt ies
in se
in als
in ated
ha i
Ġd art
Ġd ots
Ġm ash
Ġm oose
is p
Ġp ail
Ġp eak
Ġp onies
Ġn ations
es y
Ġhe el
Ġwe eds
Ġk oolaid
ĠS ign
ĠS ik
ri ot
se m
ĠM erry
ĠM iami
ĠW ha
ĠW ally
ad ise
ĠH oo
Ġkn eel
ro it
Ġno ses
ĠL in
ĠD ig
Ġne ut
ĠG IRL
ĠP E
ĠP y
ĠP ap
our n
ĠR oc
ĠR angers
ĠE p
Ġtw in
Ġtw ig
Ġcl apping
Ġpre viously
Ġbu ggy
Ġsha kes
Ġfl ea
Ġlot ion
eas ant
Ġun b
Ġcr ooked
Ġtea pot
Ġfin ishing
Ġcol ony
tain ment
Ġele g
Ġdoor way
Ġbat tles
Ġmar ching
Ġem peror
Ġpig gies
Ġref orm
ĠAd m
Ġ18 4
Ġ# #
ĠHar rison
ĠGr an
ĠLe ft
ĠPr ice
umb ers
Ġve nd
Ġpress ing
ĠPe ggy
Ġhast e
Ġsol ved
Ġtight ly
Ġpan el
Ġcomb at
AY S
Ġmis under
Ġspec ifically
ĠSure ly
Ġmarket ing
Ġbump y
Ġwha ck
Ġfem ales
Ġemploy er
ĠHigh ness
ĠLove ly
Ġrout ine
Ġoppos ition
ĠMarc us
Ġmagn ificent
Ġmel on
Ġmel ted
ĠMur phy
ĠJer usalem
Ġgrave ly
Ġinit ially
Ġfac ilities
Ġprim arily
Ġadminist ration
ĠChampions hips
Ġtransfer red
Ġnick name
ĠBelg ium
ĠColumb ia
Ġpref ers
Ġcompass ion
Ġconven ient
ĠWhis kers
Ġregist ered
parent s
Ġstead ily
ĠGw en
Ġpros per
Ġsympt oms
Ġeyeb rows
Ġnumer ous
Ġentit led
Ġcriter ia
lah oma
" ).
I X
N e
P ro
c hen
n ine
s cream
t hi
w ing
w ait
w hel
he ld
Ġw are
Ġd ict
Ġm ales
Ġc inem
is k
is ure
Ġf e
Ġf ishi
ing e
on ent
Ġp orn
ĠB R
ĠB less
ĠS in
ĠS ex
ir s
Ġst or
ĠL ass
un ton
Ġup s
ra ham
ĠG ay
ĠG ulf
ĠP oo
ĠR h
ĠR ound
ĠR ud
ĠJ oo
ol o
ĠF estival
el ope
Ġbo ards
Ġcl am
Ġse ldom
Ġbl oss
Ġum hum
ere n
ĠK i
Ġho pping
act ive
Ġnever theless
pe ople
Ġra ke
Ġra pe
Ġsl ides
hen omen
Ġkeep er
Ġcr ank
Ġdr owned
Ġdis gu
ĠIs lands
Ġcour ts
Ġfar ms
Ġdri pped
Ġrel iable
ĠAl abama
ont o
Ġfire men
Ġlight ed
Ġwind ing
Ġ3 4
Ġhor rid
ten ance
Ġref uge
Ġgrow led
Ġsy rup
Ġsent ences
Ġexp ense
els on
ĠOr leans
Ġsupposed ly
ĠSha wn
Ġcover age
Ġsil k
Ġpack ing
Ġ197 5
Ġhast ily
Ġ196 5
Ġdifficult ies
Ġ195 8
Ġ195 9
Ġeduc ated
ID S
Ġdiscuss ing
Ġflo ors
ĠSpan i
Ġdemand s
Ġrare ly
ĠLast name
ĠCarol ine
ALL Y
ĠOlymp ic
ĠHung ary
ĠTre vor
Ġexecut ed
Ġconc eal
Ġrobber y
Ġemotion al
Ġol ives
ĠBus iness
Ġens ure
Ġsou ls
Ġcateg ory
Ġimpr ison
ĠPitts burgh
ĠNotting ham
ĠTob y
Ġracco on
Ġhamburg ers
3 5
A w
C om
E O
G as
W ith
d r
j ac
o a
p oon
r ous
r ise
t in
Ġ iv
Ġb uh
Ġb orders
Ġd ynam
Ġd ynasty
Ġc uc
er ving
ĠI rene
Ġf estival
Ġl in
Ġp ins
Ġp airs
ot es
ĠT ro
ĠB or
ĠB ac
ĠB ACK
Ġk it
ĠS unny
ri k
ĠM ade
Ġre ass
Ġme nd
al so
ac co
Ġsa fer
ĠY ES
ĠC ob
ĠN ear
ĠN ah
ĠP ack
ĠR ow
ĠJ un
ĠF E
ĠE un
Ġsp iders
Ġbo ing
Ġtw isted
Ġv olley
Ġoff ers
ant e
Ġro be
ag u
ĠK it
Ġpe g
Ġpe ck
Ġde ed
Ġpo ly
Ġch ill
Ġch urches
act us
ĠYes terday
Ġsl iding
ĠAl t
Ġmar s
Ġz one
az a
Ġacc ustomed
Ġreg ions
Ġfollow ers
Ġbeaut ifully
Ġsun set
Ġtri bes
Ġbeh old
ĠDe velop
Ġass ass
Ġconf using
Ġexp osed
Ġexp enses
Ġprom oted
Ġreco ver
Ġfa iries
ĠAb d
Ġorgan ize
Ġsol ic
Ġcomb ined
Ġspot ted
Ġfear ful
Ġpriv acy
Ġspell s
Ġ195 6
Ġ194 2
ĠCarl os
Ġwea ry
Ġeduc ational
ĠDa ven
Ġstir red
Ġscar ing
Ġsouth western
Ġpun ish
Ġpit ter
Ġhero es
Ġtit les
ĠJill ian
ĠOk lahoma
ĠWI LL
Grand pa
Ġrestaur ants
was her
don ald
ĠStan ley
Ġachie ved
Ġwip ing
Ġprior ity
Ġconsult ation
Ġinstr uments
Ġpup ils
Ġfab ric
ĠTW O
ĠPortug al
Ġdepos it
ĠPac ific
Ġagricult ural
tim ore
ĠEVER Y
Ġrehe ars
Ġbehavi our
Ġopportun ities
Ġraz or
9 0
F rom
L a
d in
f ashion
l ad
m aker
o es
r ants
Ġ ou
Ġs han
Ġb ureau
Ġm i
er ies
ĠI V
Ġg room
an im
or ters
Ġth ump
as hi
ĠT ill
ic als
ut er
ĠB irth
ĠS ax
Ġre vers
Ġme ets
ĠW illy
Ġst ated
Ġgo ver
am ation
st ance
ĠL as
ĠL il
ĠL izzie
ĠD ur
ĠD eep
ĠD ouble
ĠP ress
ĠP RO
ig i
ul ating
ĠF inn
ĠE xt
Ġsp onge
os ure
ick ing
Ġbo iled
Ġtw inkle
ort ion
Ġtr oop
uck s
Ġbr ut
ass ador
Ġun believable
co at
Ġremember ing
ost er
Ġfin est
Ġcomp are
ax y
Ġser geant
og ne
Ġatt ic
eak ing
Ġsing les
Ġsmall est
Ġbelie f
ĠPl ace
Ġrest ored
Ġind ic
Ġran ks
ĠSh ort
Ġchar m
ĠZ ach
Ġfact ors
Ġcow boys
Ġ202 4
Ġcons pir
Ġass ets
to e
Ġ4 8
ON NA
Ġcent uries
Ġpar lor
atur al
Ġmain tenance
ĠPer ri
Ġpea cock
AS E
Ġmix er
Ġsupport ing
Ġ196 4
Ġbri g
Ġtrick ed
Ġav o
Ġ195 7
Ġdev oted
Ġ193 3
CH UCK
Ġmeas ured
Ġcell ar
Ġpainting s
Ġetc etera
ades h
ĠBea ch
Ġopin ions
Ġscratch y
Ġconv icted
Ġdeliver ing
Ġunc ertain
Ġpa used
Ġqual ified
Ġconcent ration
Ġcough ing
Ġlands cape
Ġbom bs
ĠDef initely
Ġcreep y
Ġspank ing
Ġencoura ged
ĠAlf red
Ġfrustr ated
Ġkidna pped
Ġanaly sis
Ġtack le
Ġdisag ree
Ġwarri or
Ġsitu ations
ĠTem ple
ĠFrost y
Ġmunicipal ities
ĠProm ise
Ġsatell ite
ĠSta unton
ĠCleve land
Ġfishi es
W as
h ind
j ab
l aughs
p ower
u v
u ine
Ä ģ
Ġt i
Ġt igers
in ations
Ġs ib
Ġo ath
Ġl ime
Ġp and
Ġp oodle
Ġp ipes
oo ke
ic on
Ġbe gging
ĠB ul
ĠS ort
Ġre bell
ĠW an
ad er
Ġst oop
ĠL ance
Ġso aked
ĠO ak
ĠG y
ĠG em
ab et
ĠP ear
ĠJ ump
ul ars
ĠF ur
ĠF itz
ast ics
Ġv ic
Ġover whel
ag i
ey ed
iz er
Ġnew ly
Ġun ions
ĠV ice
oh o
ub s
Ġdis pl
Ġtra itor
Ġcour ses
Ġmother f
ult ure
Ġunt ie
Ġsweet s
Ġhigh chair
Ġgreen belt
Ġgrand son
Ġtri als
Ġcap e
Ġfight er
Ġdi ving
Ġhon ourable
olog na
Ġsat ur
Ġsick ness
Ġstra in
Ġsum mon
Ġsend s
Ġprov ides
19 5
Ġkick s
Ġpuzz led
Ġcard board
Ġtwel f
Ġ195 2
Ġ194 6
Ġsharp ly
Ġrev ol
ĠGl oria
Ġgro an
Ġmud dy
Ġemploy ee
Ġsurv iv
Ġlick ed
Ġfold ed
Ġscr ambled
Ġparticip ate
ĠPre m
Ġliter ary
Ġsqueak y
Ġchat ter
Ġintrodu ction
mark et
ĠCons ervative
Ġrespond ed
Ġproceed ed
Ġgaz e
ĠBal timore
Ġdepart ure
Ġpoop ie
Ġgodd ess
Ġassum ed
ĠPig gy
ĠAtl antic
ĠCa esar
SC REAM
On ly
ĠRom ans
Ġwebs ite
Ġvolunte er
child ren
Ġamuse ment
ĠRhod es
B y
D og
H er
M iss
a way
d i
g rand
u gged
v ak
w eed
Ġa rose
Ġy er
Ġo ats
Ġb ak
Ġb unk
Ġm and
is le
ĠI ron
ĠI llustr
on ing
Ġp ulse
Ġp henomen
Ġn an
at ures
Ġdo in
ĠT u
ic hi
ĠS et
ĠM AY
Ġe go
ir al
ĠH ulk
all el
am on
Ġwh ir
ĠL im
Ġsh orter
ĠN y
ĠG osh
Ġr aced
ĠP oll
Ġor phan
ĠR ey
est ion
ast ing
Ġcl ar
Ġv eter
ĠShe riff
hi bit
Ġcon vent
Ġneed les
ĠK ath
ease l
Ġfl ung
ud i
Ġcha ins
Ġun sc
Ġle isure
Ġche ep
ĠV ERY
uff s
Ġfound er
Ġlist ed
Ġrec on
Ġrec ycle
ĠMar gie
ĠUn fortunately
Ġrel uct
Ġatt ach
Ġph oned
Ġsk ate
Ġ3 7
Ġduck y
Ġtap ed
ĠChrist ine
ĠCl ay
AN CE
ĠHer mit
Ġarm our
Ġreco very
Ġsmell ed
Ġcri minals
Ġwhoops ie
Ġsail s
angu age
Ġcam er
Ġquar rel
Ġval ues
ĠWH Y
Ġ194 8
Ġ193 9
Ġcompet itive
Ġaccident ally
Ġscrat ching
Ġant icip
Ġlim its
Ġgrad ually
Ġsens es
Ġexist ed
ĠQue ens
Ġcommand ed
Ġexerc ises
ĠGab e
Ġut most
Ġaunt ie
Ġwond ers
Ġrent ed
Ġprefer red
Ã¡ n
ĠNick y
Ġbon us
Ġinj uries
Ġresc ued
Ġexe cution
ĠKent ucky
Ġvot ing
Ġmerc hant
ĠWalk er
cell or
ĠIslam ic
ĠEnter tainment
ĠCommission er
Ġappet ite
Ġtrop ical
ĠLeices ter
ĠBav aria
Ġaeropl ane
Child ren
ĠBann ister
sem ble
fashion ed
T V
T r
T ON
d aughter
g raph
h ot
i ens
l est
m ind
o ly
v als
z ip
Ã ĸ
Ķ Ģ
Ġt ink
Ġa pt
Ġs ire
it us
Ġb ung
Ġm eter
Ġc ube
Ġf res
Ġf itting
Ġf ishes
an tern
Ġp ier
Ġha mm
ar o
us k
ĠA st
ĠA ge
ĠA isl
ĠB ast
ĠB ren
ĠS um
ĠM as
ĠM oses
ĠW ard
ĠH AD
Ġcan al
Ġwh ining
ell s
ĠL ore
ĠL anc
ĠD umpty
Ġsh oo
Ġsh rie
ĠN ad
ĠN elson
ĠO i
ĠO VER
ie ge
ĠG onna
ĠP il
ct ic
ig a
ul um
ĠF ri
ĠF ab
ĠE nt
os is
Ġback ed
Ġex ceed
ap ore
Ġar rows
Ġbl ade
ag an
th od
Ġsm ash
Ġsm ugg
ĠSt ra
Ġpret t
Ġcr an
Ġreal istic
Ġcol onel
ĠAll ison
ĠMar io
Ġdri pping
Ġind icate
Ġpass port
Ġspe cially
Ġpen is
Ġdist ress
ne cess
Ġperf ume
Ġsent enced
Ġcompl ained
Ġtele phones
AR Y
Ġsna il
OR N
Ġdark er
ĠSe uss
ĠEl aine
ĠCol omb
AS S
Ġabs urd
Ġmix ture
ĠAb raham
Ġcond em
Ġ197 4
ĠOF F
che ster
ĠMart ha
ĠCH E
Ġ194 3
ĠSm all
Ġ193 5
Ġearl iest
Is n
ĠOl ive
Ġtechn ique
Ġflag s
Ġspin ach
Ġver se
Ġparticip ated
ĠTe chn
Ġir rit
Ġsla pped
ĠDar win
Ġnomin ation
ĠTre as
Ġannoy ed
Ġvent ure
Ġunf air
Wh ich
Ġscra pe
Ġpops icle
ĠOri gin
Ġutter ly
Ġdeser ted
ĠPhilipp ines
ĠFreder ick
ĠVeg as
Ġvoy age
ĠAisl inn
" ),
e ur
f are
m at
n ity
v ate
z ona
Ã º
Ġb umps
Ġm r
Ġm ead
Ġf ain
Ġf oss
Ġl itt
or al
Ġha ul
Ġwe lf
ĠB ureau
Ġk ar
Ġre levant
Ġst alk
ĠC oke
ĠL ive
ĠL og
ĠL iver
ra ined
ĠN inet
ry ing
ce ive
Ġr inse
ĠJ ar
ĠF ra
ĠF ish
ĠE ls
Ġsp out
Ġcom et
âĢ ľ
Ġtim ing
ber ly
Ġv ow
Ġpro cl
ĠK night
ĠK ids
hed ral
Ġsha llow
ĠU E
Ġfl owing
-- _
pl ain
au g
so ever
Ġmin imum
Ġchan nels
Ġcomp rom
Ġfound ation
ild ing
ĠBr uno
Ġbat t
Ġbat he
oc key
pect ive
ĠGod d
Ġsqu eal
Ġter r
Ġhung er
Ġri val
Ġbas kets
ĠSh ir
Ġblock ed
Ġsun flower
Ġtri pped
Ġdep uty
mp le
ĠMic ro
Ġdi vers
Ġhum ili
Ġposs ess
Ġposs essed
Ġext end
Ġpark ed
Ġform at
Ġadv oc
Ġallow ance
Ġcontin uing
ric ane
ĠX X
Ġcor rupt
Ġcontro vers
Ġrece ip
lo e
Ġdest ro
Ġemp ire
ĠJes se
Ġ15 0
IT Y
Ġ193 8
ID E
Ġtor ture
Ġhun m
Ġpercent age
ĠBet ween
Ġcheer fully
Ġgen uine
fl akes
Ġcraw led
Ġcust ody
Ġdecl are
af ter
Ġobs erve
Ġdish washer
ĠSen ator
Ġodd s
ocrat ic
ĠRes earch
Ġspray ed
Ġfra ud
Ġwitness es
ĠMoo sh
Ġess ay
Ġdistribut ion
ĠDet roit
ĠHung arian
Ġfuss ing
Ġpurs ue
Ġrom ance
Ġcomplain ts
._ --
Ġchem istry
ĠBang l
ĠFloss ie
Ġmanufact ure
Ġwealth y
Ġprepar ation
Ġsuspic ion
ĠMarsha ll
ĠRepresent atives
Ġdeliber ately
Ġflex ible
ĠMaur ice
Ġâ ĶĢ
Ġwelf are
A A
M M
O CK
V EN
b ag
h ist
m ill
m ie
p ow
s st
u i
x ed
Ġt ents
Ġa u
Ġw ander
Ġs ins
it ate
Ġb ind
Ġd ia
Ġc actus
Ġg uts
Ġl aser
ĠA z
ĠA ut
Ġwhat soever
ĠB ed
ĠB ald
ĠB udd
ĠS na
ĠS aw
ĠS AY
ĠM ason
Ġre ly
Ġfor ks
Ġsa mple
ell i
ill ars
na nd
ĠP ir
um i
ĠJ a
ĠJ ae
el come
Ġv ague
ap se
Ġer r
ĠNo bbles
ĠK ir
Ġbr ack
Ġbr ass
Ġam bit
Ġsm arter
Ġch ops
Ġgr ind
Ġho llow
Ġun hunh
iff erent
ĠV ar
int he
Ġstr ateg
ail ed
Ġhard est
Ġtra gedy
Ġsupp l
Ġsecond ary
Ġhor iz
Ġri g
Ġreg ards
ĠCar le
Ġimp lement
Ġdead ly
Ġcoll abor
Ġ4 2
ĠEx cellent
Ġpet rol
ĠCount ry
Ġhuman ity
Ġsol ar
Ġelect rical
Ġspill ing
Ġmeas ures
Than ks
Ġvac c
Ġmod est
ĠGra b
Ġgen et
Ġ192 9
Ġwound s
ĠSus ie
Ch uckles
Ġfold er
ĠPre viously
Ġess entially
ĠFro g
AG E
ĠRog ers
Ġmaid en
Ġdepart ments
Ġmechan ic
Ġphilos opher
Ġcontribut ion
Ġphotograph s
Ġconsequ ences
Ġcompar ison
whe el
Ġwrit ers
Ġcush ion
Ġacad emic
Ġnuh huh
Ġacquaint ance
F ound
S O
b eat
b ian
e h
i ques
l ay
l iness
o en
o kes
s ur
u ana
y an
Ġ ll
Ġ ï¿½ï¿½ï¿½
Ġs hat
Ġs izes
Ġo x
Ġo ooo
Ġb apt
Ġd ated
nd isse
Ġc ul
Ġc emetery
Ġf et
Ġg est
Ġg oofy
on ne
Ġp i
Ġp le
Ġn un
es c
ĠT ELL
ĠA hm
ĠA mber
ĠB BC
ld er
ĠS oo
ĠS eat
ĠM and
ĠM onsieur
ĠM ISS
ĠW AY
ĠW anna
Ġst out
Ġnot able
ĠC ater
ĠL ear
ĠL ia
Ġpl ung
ĠD al
ĠO cean
ack er
ĠG R
ĠG oofy
ab lish
Ġfr anch
ĠF anny
Ġany ways
em ois
Ġtw ent
Ġman ual
ĠK ind
ark s
Ġen jo
Ġgr asp
ang les
Ġthought ful
ĠV el
Ġsl id
Ġper se
air y
per ing
Ġcook s
ĠIs abel
ĠMar ine
Ġpol ar
Ġrel ate
Ġlight ing
Ġbelie ving
Ġsqu ared
ĠWho ever
Ġgrand parents
Ġchar ts
vent h
Ġdef ending
ĠAr ound
Ġdep ression
Ġref lection
Ġbar ber
ops y
Ġ4 00
Ġsub sequ
ĠCom tes
Ġpartic les
ĠGe ography
Ġoffic ials
Ġlay er
Ġmot ive
Ġtreat ing
we g
ĠCap e
Ġbrave ly
Ġconcer ning
Ġdam aged
Ġequ als
Ġsuggest ing
Ġest imate
Ġ194 1
Ġ194 9
Ġ193 6
ĠCr own
ĠPol it
Ġtreas ures
Ġmod els
Ġ192 6
ĠSup reme
ĠHon estly
Ġstock ings
ival ent
ĠMed ia
Not hing
Ġrecomm ended
aps ed
Ġindepend ence
Ġeld est
ĠUs ually
ĠAir port
Ġbend ing
ĠSing apore
Ġsurround ing
Ġwand ering
Ġlink ed
ĠDra gon
Ġrank ed
Ġcandid ates
ĠSpeak ing
ĠAri zona
Ġcommun ities
Ġassum ing
ĠHol mes
Ġlip stick
OP LE
Ġtoss ed
Ġaspect s
Ġsequ ence
Ġhob by
Ġsav age
Ġlegisl ation
Ġprose cut
Ġorganis ation
Ġecho ed
Ġsquish y
Ġmurm ured
Ġunemploy ment
ĠStef an
Ph one
ĠPLAY ING
Ġrect angle
ĠSever al
ĠCoff ee
Ġendea v
ĠDian e
Ġhic cup
emois elle
. !
2 9
C are
I O
Z Z
b ach
b ling
i i
o llow
p ite
w all
w ig
y o
Ġt ease
Ġs essions
ha ms
Ġm itten
Ġc ease
Ġg own
Ġl akes
Ġl oses
Ġn il
or f
Ġha llow
ot ions
ĠA way
ĠS ound
ĠS ang
se ven
Ġe el
ĠY un
Ġas pir
ĠC ou
ĠL ena
Ġso d
Ġso bbed
Ġso vereign
if ier
ĠD OWN
ĠO UR
ck er
ĠG ONNA
ĠP ush
ig o
ig en
ĠJ i
ĠE lect
Ġback ward
Ġcom in
Ġv ul
ĠWe b
Ġmo de
ag en
ag ine
ĠK ings
ĠU H
pl ing
Ġcha ps
Ġun ited
Ġun necess
ĠIn n
Ġper ceived
Ġcomp ens
Ġres ear
zz y
iv a
ĠBr on
ĠBr ooke
Ġcont em
Ġmil it
ĠBe cca
Ġsort a
Ġsk etch
Ġmar vel
ĠChi le
ĠMay a
Ġdes ired
Ġlive ly
Ġworld wide
Ġrest less
Ġduck ies
ING ING
Ġtom b
Ġacc idents
Ġheart ily
Ġstrong est
Ġsign ature
AT TER
Ġbar bec
Ġpri ests
Ġcountry side
Ġsal ty
Ġsub way
Ġsent iment
Ġhum or
ĠCom pl
Ġdeal er
Ġ5 5
Ġsna pped
Ġev ac
Ġlunch time
EN CE
ĠOK AY
ĠTw el
ĠBar on
Ġ6 5
RE T
Ġadv ise
Ġcor re
ĠChe ster
Ġgar lic
Ġgold fish
ĠCon way
ĠCon stant
Ġproper ties
ĠRic o
ĠMin istry
Ġtravel s
ishm an
ĠCat al
Ġrelations hips
Ġanx iously
Ġslight est
Ġign ored
Ġlick ing
Ġsour ces
Ġmam m
Ġrefer ring
semb led
Ġearn est
ĠBoo boo
ĠUnder stand
Ġprevent ed
Ġpred ict
ĠHor se
Ġcomplain ing
Ġstew ard
ĠBrazil ian
Ġencoura ging
sm ith
ĠCop y
Ġtan ks
ĠMam ma
ĠCOM P
ATH ER
ĠContin ues
Ġvirt ually
Ġcondu cted
Ġcert ific
Ġgrav ity
Ġdign ity
Ġclin ic
ĠIntern et
Ġdefin ition
Ġunpl easant
ĠLiver pool
ĠUE FA
ĠComtes se
B A
Q u
T wo
c row
f r
f olk
l ene
r un
t ree
Ġw akes
Ġb ait
Ġd ice
Ġd war
Ġm ous
Ġc ycl
ĠI owa
Ġf est
Ġto ck
Ġl es
Ġl ent
Ġn av
or ation
ĠT igger
ĠA bb
ĠB L
ĠB am
Ġk o
ĠM ig
ĠW WE
ac ting
ac ement
Ġcan cel
Ġas sembly
ĠC urt
ĠL ots
ur ai
ĠD ucky
ter m
ink s
ĠN ed
ĠP ed
um an
ul es
ĠF L
ĠF e
ĠE ag
ĠE conom
est ed
Ġv amp
Ġer rand
Ġover board
Ġcar rier
Ġhand ful
Ġfl ows
ĠSt ew
ang ing
ress es
av an
ĠV I
ĠĠĠĠ Ġ
Ġfin ance
Ġcomp re
Ġmat es
inn amon
Ġdes erves
Ġrest ore
Ġind ul
Ġind ian
Ġind icated
Ġsad dle
ĠCl ar
ĠNew man
ĠEng l
tern al
Ġcra bs
Ġext ract
Ġspeak ers
Ġcorn ers
Ġswim mer
Ġdra gging
ative ly
Ġed ges
du ct
ĠEd in
Ã© s
Th ou
ĠMan hat
Ġprov in
Ġcor resp
Ġlock er
Ġcaterp illars
ĠComm and
Ġdar n
ĠCo co
Ġdem ocracy
Ġproud ly
Ġjack inthe
ien ces
Ġarri ving
ache lor
Ġeffect ively
Ġ194 5
Ġmatch ing
ĠMon ique
Ġproduc ing
Ġgall op
Ġgen us
ĠDO OR
Ġtrad ing
Ġpers pective
Ġphys ically
Ġimm ort
ĠRos a
Ġcult ural
Ġmel ting
Ġpsych iat
ĠScot ch
Ġsaus ages
Ġcong rat
Ġinit ial
ĠSing h
Ġterrif ied
Ġarg uments
mar ine
ias m
Ġrais in
Ġdisturb ing
ĠAtl anta
Ġloyal ty
ĠShan e
ĠConf erence
Ġdetail ed
Bl ue
---------------- ----------------
Ġsequ el
Ġconsequ ence
Ġginger bread
ĠWars aw
ĠCub a
CA USE
ĠLyn n
Ġgrat itude
ĠCorpor ation
Ġdiagn osed
Ġproport ion
Ġdat ab
iche ver
Ġvend or
ĠDaven port
ĠBirth day
Ġcorresp ond
Ġjackinthe box
" ...
B et
E ven
I LD
L e
P e
b ad
b ased
c H
d ow
d ict
f y
f ly
f ia
g ins
j ud
t Ã©
Ġa ired
Ġw i
Ġl est
Ġl yr
Ġha bits
ĠT iny
Ġwe ed
ĠA II
ĠB ase
Ġk leenex
ĠM ess
ĠM ak
Ġre j
al ie
ro ck
ust y
ĠL eb
Ġpl ed
ĠD oo
Ġall erg
Ġab ilities
ĠG am
ĠP ont
um sy
ĠR idge
ĠF ace
ĠF ield
Ġwor ries
Ġcom ma
ĠAnd r
Ġman aging
ant ing
Ġbl az
Ġro sy
reat h
Ġread er
Ġbu ys
ĠTh under
ĠU t
Ġche que
av i
od a
ĠV ic
Ġnight time
Ġwon t
Ġmin es
Ġdis abled
Ġres idents
ans om
âĻª âĻª
Ġdes erved
Ġfell as
ĠCha mp
Ġwind y
Ġmen u
Ġinv al
Ġfish ie
Ġpat ting
Ġmess enger
ib i
ib ble
gr ade
Ġhum id
Ġcompl iment
ĠAd rian
Ġpark s
ĠEx e
Ġpubl isher
Ġclear ing
Ġpet ite
Ġstep mother
Ġgovern ments
ĠPro ject
ific ations
Ġcor on
Ġcast les
ĠAm elia
Ġspl ashing
Ġstri kes
ĠMor ris
Ġdest iny
Ġwild ly
ĠGre y
ien cy
Ġfool s
Ġneighb ours
Ġmis chief
Ġengine ers
Ġbump er
Ġport ray
Ġpal m
Ġur gent
Ġexam ined
Ġstreng then
Ġut tered
ĠOut side
Ġcho king
ĠEll iot
Ġdecor ation
Ġdecor ate
wr iting
Ġpolite ly
ĠVal entine
Ġcommunic ate
Ġarrange ment
hand ed
Ġimprove ment
Ġmath s
ĠCamp bell
Ġdies el
Ġpurcha sed
Ġpoem s
Ġbeast s
Ġlean ed
ĠFed eration
Ġsevere ly
Ġfascin ated
ĠWall ace
Ġcorpor ate
Ġaccomp any
Ġsippy cup
ĠClare nce
Ġenthus iasm
may be
Ġamend ment
ĠCommun ist
Ġsqueez ed
Ġtro phy
Ġapprox imately
ĠEdin burgh
ĠManhat tan
4 3
7 5
P L
T E
a ves
b oth
h r
h our
i ate
p aper
r ons
s ong
he nd
Ġa venue
Ġw ishing
Ġs way
it he
Ġd amp
Ġm oss
Ġc oo
Ġc ore
er m
is ons
Ġf ist
Ġto aster
Ġg am
Ġp ap
Ġp ouch
Ġn oodle
or i
ea ters
at us
ĠT ory
ĠT ai
us sels
ĠS op
ri l
im et
ĠM aking
ĠW ang
ĠH ook
ĠH eather
st able
st ream
ĠC old
her s
ĠL em
Ġso ot
ĠD aw
ĠD eed
ĠD arth
ĠHe nd
ĠR A
ĠR ather
ĠR ita
ĠF A
ĠF al
Ġsp itting
Ġback up
Ġtim ber
end ers
ĠAnd ers
ap e
Ġhas s
Ġar cher
Ġro bbed
ĠK ap
ĠK iss
Ġqu e
Ġqu iz
Ġbu gger
ble ep
Ġlea p
Ġhand ling
ĠTim othy
up er
Ġ19 20
Ġstart led
Ġwater fall
man s
Ġra g
Ġad ap
ors hip
Ġend ure
og y
Ġsix ties
Ġred uction
ĠBr isco
ank a
ĠSp ace
Ġlight ly
Ġsca res
Ġrest ed
ces ter
Ġri bs
Ġmonth ly
ĠCar men
Ġinc on
Ġchick ie
Ġcompl ications
Ġfree ly
Ġsec ured
Ġbow ed
Ġreturn s
ĠTr ack
Ġpar ish
Ġforget ting
oll o
Ġ7 2
Ġcost umes
min ster
rel ated
Ġprof ile
Ġcur se
ĠX an
Ġda e
Ġlarge ly
Ġburn s
ĠHa uts
Ġcop ying
Ġprogram ming
ĠNor a
ĠNor weg
ĠPres ently
Ġmicro sc
Ġamaz ement
Ġbull do
ĠMad emoiselle
Ġmis ery
Ġest imated
Ġbother s
Ġhel m
Ġ193 4
ĠSu z
Ġdesign er
Ġbark s
Ġconvers ations
Ġtou ches
ÃŃ n
Ġexam ine
ĠMed ical
ĠCare ful
Ġpsych o
ĠPal ace
Ġassoci ate
Ġgri p
Ġscore s
ĠDar ling
ĠHy un
Ġrecommend ation
Ġgaz ing
ĠAgain st
ĠSk inner
ĠHu gh
Ġconc rete
ĠScar fe
Ġnin ight
ĠJay len
Ġbloom ing
Ġelement ary
ĠDev on
ĠHand s
Ġded icated
ĠStr ange
Ġfiction al
bird s
Ġaccompl ished
Ġforb idden
ĠHit ler
Ġfab ulous
Ġinspect ion
ĠConn ect
ĠREA LLY
Ġitch y
Ġsund ay
Ġmig ration
uj ah
Ġreject ed
Ġlux ury
ĠBund le
Ġlos er
ĠCand ace
Ġmorn ings
ĠSom me
Ġdram atic
Ġtatt oo
Ġreun ion
Ġsubstant ial
Ġdipl om
Ġeleg ant
Ġenjo ys
Ġlyr ics
3 8
A choo
C D
C I
I d
M us
W ait
Y ep
b ul
d ia
f aced
n ia
n ew
p se
p illar
r ome
r ary
w orld
y er
Ġ icy
Ġt el
Ġa ster
Ġw easel
Ġb ou
Ġb ows
Ġd il
Ġd ummy
er to
Ġf ried
Ġf itted
Ġf auc
or ay
or us
Ġhe ating
Ġin ev
ĠT est
ĠT AL
ĠA unty
ic ut
ĠS ci
ĠS ection
ĠM ah
Ġre el
Ġe i
ac c
ĠH AS
ĠH OME
Ġdon g
Ġj ur
Ġj ello
ĠL ess
ion e
Ġpl uck
ĠD in
ĠD ance
ĠD AY
ĠD VD
un ches
Ġall eg
ĠG ers
ab ul
Ġr it
Ġr ural
Ġr ascal
ĠR ice
ĠR eed
ĠF ix
ĠE wo
est yle
Ġby pass
Ġcl umsy
ĠShe ll
Ġbl amed
Ġcon vey
Ġcar n
Ġpre v
Ġam used
ĠTh row
Ġen force
Ġfl akes
Ġfl ush
Ġfl aps
pl ed
Ġrem o
Ġafter ward
up t
av ia
ĠV at
ĠV iol
Ġsl op
Ġsl ower
Ġdis ability
Ġear rings
Ġser ves
Ġgre ens
Ġwar mer
ĠPl ot
ĠPl uto
the m
Ġhigh light
oun ces
Do ggy
Ġweek ly
Ġrock y
Ġrep aired
ne ys
Ġdef inite
Ġdear s
Ġsnow ing
Ġprom pt
Ġquestion ing
Ġhusband s
Ġpet ting
ĠDr um
Ġform ation
Ġve il
ĠTO O
Ġexper ts
Ġ9 5
Ġwel com
Ġdry er
ene z
Ġbelong ing
Ġhar ass
ĠCon stitution
Ġ196 2
Ġ196 7
Ġrequ ires
Ġairpl anes
Ġfool ed
Ġest ablish
Ġnecess ity
ĠCla ud
Ġdesign s
Ġalbum s
ĠGl en
ĠPri x
Ġweekend s
ĠCent ury
Ġsuit able
Ġprocess ing
Ġspread ing
ĠDO ING
ĠSim ple
Ġthreat ening
Ġmass age
ĠLind sey
Ġcorrect ly
ĠDes pite
ĠÂ¶ Â¶
Ġinvestig ating
Ġge omet
ĠLouis iana
Ġjelly fish
Ġgri m
ĠCourt ney
Ġdough nut
Ġearn estly
Ã¼ r
Ġteas poon
ĠHu ndred
ĠDra ke
Ġtravell ed
ĠFair y
ĠFore ign
Ġladyb ugs
Ġpant ies
Ġpropos als
ĠMission ary
Ġflu id
Ġcompos er
ĠFight ing
Ġwarri ors
Ġey el
Ġesc ort
Ġank le
Ġwrink led
Ġbund le
ĠIsa ac
ĠIsab elle
Ġclo ak
Ġencoun ter
ĠDevelop ment
CHUCK LES
Ġdia lect
Ġhallow een
Ġdatab ase
Ġfauc et
! _
B ird
E X
P E
b as
b rew
e or
e ff
g irl
r ice
Ġt ips
Ġo ars
Ġb ologna
Ġd itch
Ġm aj
Ġm aker
Ġc av
Ġf ag
Ġg it
ing ham
Ġn app
or ic
or gan
en ne
om ot
ea ux
Ġha e
ĠT at
ĠT ick
ĠT iger
ĠA F
ĠA ub
ĠA PP
Ġbe w
ĠB right
ĠB AR
ĠS ic
im ony
ĠM ik
ĠW ien
Ġst ere
ac o
ĠY i
ĠY oon
ro d
ro v
ĠL aughing
Ġshe pherd
ur u
ur dy
ĠD A
ĠN i
Ġlook it
Ġr ash
Ġr ational
ĠP M
ĠP ink
ĠP el
Ġal umin
Ġfr iday
ĠF ried
ĠF IR
ĠE vent
Ġman ip
Ġcl ergy
Ġv ib
Ġv ault
Ġbl ouse
Ġneed ing
ĠK ira
Ġgu ilt
Ġread ers
Ġday time
Ġsha ve
Ġbook ed
Ġfl ut
Ġpo ked
Ġch ron
ĠWh ose
ĠSt ock
ud s
ĠIn s
Ġbit sy
ĠV O
ĠV oice
ĠV era
Ġra v
Ġmin t
Ġcr ushed
Ġhold er
ail ing
ĠEr nest
Ġres ort
Ġele ctor
Ġfire works
Ġpres cription
ĠAre a
ĠCha d
ret te
Ġ3 9
Ġround s
Ġtri gger
Ġfast est
ĠCar rie
Ġcons erv
Ġsign ing
Ġdep th
Ġsy n
Ġconf ront
ON D
Ġquick er
Ġexpl o
Ġexpl ode
Ġmark er
ĠInd ust
Ġ18 0
Ġpresent ation
Ġwarm th
Ġreport ing
ced es
Ġ9 9
Ġ8 6
Ġ8 7
Ġpolit icians
Ġfat al
Ġsail boat
Ġrad i
Ġstri king
ĠMor land
Ġboard ing
Ġdiv ine
Ġequ ivalent
Ġbuck ets
Ġappear ing
Ġpun ct
Ġhall way
Ġzeb ras
Ġpray ing
Ġfem in
ĠChan el
Ġ192 8
Ġmer ged
ĠMike y
Ġfright en
Ġris ks
Ġsevent ies
ĠMil an
Ġphys ics
Ġtooth p
Ġobs ervation
Ġsink ing
CT OR
ĠDen ver
ĠDen mark
Ġcelebr ation
ĠWel sh
ĠCare y
Ġmagnet ic
Ġpsych ology
ĠOw l
Ġdough nuts
ĠRel iance
tr uck
Ġconcl uded
Ġfuss y
ĠDun can
Ġshel ves
Ġinqu iry
Ġmort al
ĠFif th
ĠPot ato
Ġcontr ast
ĠFran co
Ġslee ves
ĠBon nie
Ġargu ed
ĠSub titles
ĠNE ED
Ġobtain ed
Ġyawn ing
Ġunlike ly
Ġdescend ed
ĠColumb us
ĠHind u
Ġquant ity
Ġing red
ĠBour g
Ġcondu ctor
Ġannounce ment
Ġancest ors
Ġgiddy up
Ġaccur ate
ĠCru z
Ġtherm ometer
Ã¢ t
ĠMans field
Ġpresum ably
Com tÃ©
Ġunsc rew
ĠCater pillar
Ġrej oice
% .
B ig
F UL
G AS
G RO
M ost
N Y
Q U
S EL
b ishop
g one
i rie
k un
n ys
p ur
Â °
Å ¡
Ġt art
he ard
Ġb zz
Ġc innamon
ĠI v
Ġto b
Ġl anes
Ġl antern
om ous
Ġh ind
ĠT aking
ĠT ax
ĠT ru
ĠT rent
Ġwe ights
ic ity
Ġk en
ĠS ri
ĠS ports
ĠS eason
im mer
ad ada
ĠH ee
ĠH AP
Ġare na
all ing
am an
Ġwh ipped
Ġno sy
ĠL t
ĠL ate
ĠL ost
if l
ĠN ord
Ġall e
Ġbut cher
Ġab st
ĠP ow
ĠP rat
ĠP ART
our se
Ġor nam
ĠR est
ĠR ory
ĠR aby
ĠF unny
ort hy
Ġag ony
Ġover d
Ġover head
Ġlo bby
Ġtell y
Ġmo ist
ous y
ag ram
Ġcar ve
Ġam using
Ġen able
Ġch ili
Ġfun ctions
ip ed
Ġcha os
Ġlong ing
Ġun re
so ft
ci als
ĠV is
gg ies
ub a
fe ree
Ġgra ham
Ġcomp ound
Ġmon k
Ġlist s
Ġcount s
ĠUn ivers
ĠAl b
Ġmiss es
Ġfoot age
ĠCha mber
Ġpay ments
Ġpaper work
ĠZ en
ĠZ oo
ne um
Ġfif ties
Ġcons istent
Ġsurpr ises
Ġcoll apse
Ġsub stitute
Ġcompl et
ĠJo han
Ġtick les
Ġtick ling
Ġcoff in
ĠEl ite
ĠMan ager
ĠPer ry
Ġeff icient
Ġstraight en
Ġcur l
Ġcor rid
Ġdanc ers
19 2
Ġfinger na
Ġhar bour
Ġvill ain
Ġwhis pers
Ġprin ting
ĠWar ner
che stra
for ward
Ġrespect ed
Ġsuggest ions
ĠMad ison
Ġspell ed
Ġobject ive
ĠIndian a
Ġpencil s
ĠWest minster
Ġmarry ing
Ġvers ions
Ġguard ian
Ġthreat s
ĠScott ie
off s
ĠBea uty
Ġexam s
Ġexam ination
OS S
Ġremark s
Ġperform ing
Ġsurf ing
Ġfeat ured
add le
ĠUp on
Ġstrugg led
ĠTea cher
Ġlob sters
ĠBre nda
Ġtyp ically
Ġcub by
ĠPop eye
Ġrequire ments
ĠInt erest
ĠRen ee
ĠEv ans
Ġtransl ated
IG N
ĠBO Y
ĠCas ey
ĠBelg ian
Ġmount ed
Ġcad et
Ġtroll ey
Ġunivers ities
Ġfir ms
Ġdistingu ished
Ġdistract ed
Ġinher it
onym ous
ĠHun ter
GRUNT S
Per haps
Ġbol ts
ĠExp ress
Ġexplod ed
Ġtherap y
ĠAdm iral
Ġconspir acy
Ġsatur day
Ġkar ate
ĠSeat tle
Ġbarbec ue
ĠTwel ve
Pe ople
ĠNorweg ian
" --
4 8
D r
E l
E le
L I
T ell
Y ankee
a ire
b ound
e ons
f ood
g ard
l ete
m i
o va
p in
p erson
u ate
z on
Â Ŀ
Ġt ens
Ġt umbling
Ġa uth
Ġw izard
Ġb ade
Ġb ible
Ġd ain
Ġc ords
Ġto nic
ed er
ea ch
Ġh ive
Ġh ither
ĠT i
ĠA IDS
ĠB uff
ĠS af
se en
Ġre feree
Ġfor ming
ĠY an
ĠY up
am ental
st ore
Ġnot ion
ro id
ro gate
ĠC re
Ġj ohn
ĠL uck
ĠL omb
ĠD ew
un ken
ĠN in
ĠN em
ĠN ate
ĠN AS
Ġall oc
ore t
Ġab ol
ĠG ee
ĠG ang
ĠP ied
ig ators
ĠR ot
ĠR up
ĠR eb
ĠR io
ĠR imb
Ġfr act
ĠF ant
ĠE D
Ġsu e
Ġsp ade
Ġbo iling
ist ant
em pting
Ġman if
Ġint r
hm ent
ant ed
Ġqu aint
ĠThat cher
Ġwork sh
Ġam id
ĠU pper
Ġch lor
Ġsw ish
Ġsc ent
Ġsc ales
Ġho ll
ian c
Ġun ic
Ġold s
ĠIn v
Ġra gged
Ġra ped
Ġsl ope
Ġdis order
Ġac orn
Ġ' "
ens ity
Ġside ways
Ġfew er
Ġmiss iles
pr int
Ġclean up
Ġinv iting
Ġeas iest
ĠFor ces
Ġten se
ĠZ ack
ib ilities
Ġtri f
Ġcons ist
Ġbar rette
Ġsal mon
ĠQ U
ef ully
ĠInd ones
Ġhon ored
olog ists
Ġhang s
Ġinter ior
Ġteet hing
Ã© r
Ġcontin uous
ĠDan i
ĠAdam s
Ġexplain ing
ĠEm my
Ġappro ve
Ġpublic ity
Ġdoub ts
ĠComm unity
Ġbur gl
ĠLord s
ĠCo ch
Ġsuccess or
nes see
Ġwheel chair
EA KING
Ġ195 4
ĠEn v
ĠPo ppy
ĠMel anie
ĠSy rian
EL P
Ġtravel ed
Ġste er
Ġrepresent atives
Ġgen es
ĠChan ge
Ġ192 7
Ġfright ening
ĠMil ton
ĠTur in
Ġtour ist
Ġcrit ics
Ġlick s
Ġsusp ended
ĠSen ior
Ġappl ications
rif ied
ĠOw en
ĠBu en
Ġpurs uit
Ġdefend ant
Ġsche mes
Ġrhy me
ĠTam il
osc ope
Ġpup il
Ġproced ures
Ġconqu er
ĠGard en
ĠMir anda
ĠFel ix
Ġpersu ade
Ġstrict ly
ĠIran ian
Ġiniti ative
ĠLoc al
Ġath let
LAUGH S
pol is
ĠGriff ith
Somet imes
ĠFI FA
Fr anche
ĠAma zing
Ġgloom y
Ġwret ched
Ġcoinc idence
nat ured
Ġguid ance
Bill board
Ġstor age
Ġcamer as
Ġprett ier
nand o
ĠExe cutive
ĠDeed ee
ĠXan adu
ĠBourg ogne
1 00
B oy
B oth
F ollow
H L
H is
I AN
M art
P oor
V ES
_ ,"
b et
b ro
c ute
g row
l ea
m n
m aking
o ch
s chool
w atch
z ar
Ã ł
Ġ Å
Ġt ug
Ġb awk
Ġm ol
is ation
ĠI l
Ġto nes
Ġg amb
Ġg ender
Ġl n
Ġl ace
Ġl oos
Ġn ar
or o
en ch
Ġin aug
Ġ- [
ĠT ae
ĠB orn
ĠS pl
ĠS eb
ĠM U
ĠM ack
ĠM ist
ĠM akes
ĠM ORE
ĠW A
Ġst ages
Ġsa int
ĠY ellow
all ows
Ġwh ichever
ent er
ĠThe resa
Ġj og
ill ance
ĠD ays
ood y
ĠN ag
il ight
il ia
ĠHe brew
ĠG ust
ĠG ate
ĠP ain
ĠP age
ig ation
ol in
ĠE mb
ist ani
Ġtim er
Ġex hibit
ap ie
Ġoff ense
Ġtr icycle
ous ing
ĠK irk
Ġmom mies
be an
bo ards
Ġsha ky
Ġde eds
Ġde leg
Ġhand led
Ġpo d
Ġch illy
Ġsw ap
ĠSt orm
ĠSt aff
ĠSt upid
Ġho oray
up on
here nt
ĠAn im
Ġbird ies
Ġwater ing
Ġapp oint
uff ed
ump er
Ġdis cri
Ġres idence
Ġid i
Ġdoll ies
iv an
Ġits y
anc ies
ult an
Ġdri p
ĠBe hind
ond a
Ġperson nel
Ġem otions
ĠChrist a
Ġreg ulations
Ġrep airs
ĠAr k
Ġ4 6
idd ing
Ġpolice men
Ġsna ps
Ġmed als
ĠHer o
ĠSha h
Ġmot iv
Ã© t
Ġ6 4
Ġallow ing
Ġprof its
we ight
Ġdanc es
Ġpack et
Ġrecogn ise
Ġrad iation
Ġsummer time
ĠCo ver
Ġprin ciples
ĠQu inn
ĠWor ks
Ġtight er
ĠPen elope
Ġprop he
ĠMad eline
Ġ195 3
Ġrul ing
Ġaccept able
Ġtor ment
Ġrat t
ĠKim berly
Ġscrat ches
Ġgall eys
Ġcalm ly
Ġflo ated
ĠMal achi
Ġspirit ual
Ġdeter mination
Ġseal ed
yl um
Ġcivil ization
Ġrelax ed
Ġentertain ed
Ġstream ing
Ġnovel s
Ġpra ised
Ġsched uled
ĠServ ices
Ġgym n
Ġlect ures
Ġprem ie
ĠCra zy
bour g
Ġleaders hip
Ġfortun ately
ruct ive
ĠKn ock
Ġcob ra
ĠWonder ful
ĠConn or
ĠBol ton
ĠTele vision
ĠDri ve
ĠCho i
Ġenthus i
ĠFound ation
Ġtad ah
ĠTHAN K
ĠCe cil
Ġpy ram
Ġfert il
ĠOre gon
Ġexhib ition
Ġnort heast
ĠHoo ver
thod ox
Ġstrateg ic
Ġfranch ise
igen ous
Ġmicrosc ope
ĠConnect icut
Ġtob acco
Ġdain ty
ĠRimb olt
" ;
3 6
A ct
C har
E w
L aughs
R e
W oman
X T
b us
d ra
f old
i ors
p hana
t t
t is
t alk
u ously
in ery
Ġs her
it age
nd ay
Ġc y
Ġc ycle
Ġf i
Ġf oul
Ġf ianc
Ġto ad
Ġl ust
Ġp ave
Ġp omp
Ġn ought
ed ed
om on
ea rer
id y
ĠT ag
ĠA yl
ut t
ĠB U
Ġk in
ĠS M
ri ers
ĠM ember
ac re
ĠH ale
Ġcan c
ĠC hen
Ġj eez
Ġno bles
ur bs
ĠD w
ĠD ub
un ition
pp a
ĠO cc
il and
ab outs
ĠP arent
um ed
ĠR u
Ġfr owned
Ġsp at
ist rate
ate ur
Ġv ag
Ġlo vers
Ġoff ended
Ġar ise
ĠK E
ĠK ra
ĠK rist
urn ed
ĠSo ld
Ġfl ushed
Ġfl ashing
Ġsw orn
Ġsc orn
Ġho ot
eas ure
au x
ĠDo ing
Ġnew born
Ġeven ings
iff s
Ġsl ipping
Ġchild ish
Ġrun ner
Ġser ial
ĠBr ussels
Ġcont ents
Ġcont empt
Ġsn atch
Ġmil ks
Ġpol ished
ĠSp art
Ġsound ing
Ġhair s
Ġaw aken
ĠCha nd
Ġbuild er
Ġgrand dad
Ġpain s
Ġsun light
Ġcap s
ĠAr nold
Ġdep ressed
Ġinc orpor
Ġow ed
Ġ4 7
ON S
rat ive
ĠAd minist
Ġprom ote
ĠBl oom
Ġev al
Ġpar allel
Ġdrive way
ĠDav y
Ġsea weed
ĠSha dow
ĠPr inc
Ġform ally
Ġtreat y
ĠHen ri
Ġ9 3
cri be
Ġrace car
Ġcast ing
Ġrecogn ised
Ġlow est
Ġlow ered
Ġstrange ly
ĠPat ric
che ck
ĠWH ERE
for ced
Ġwheel b
Ġpost ed
Ġwag ons
ele ct
Ġsmo ked
ĠGl obal
ĠThom pson
Ġload ing
Ġcab bage
Ġgrown ups
ĠNever theless
ĠDam ien
ĠSer ies
Ġport ra
Ġflo ppy
ĠBE EN
Ġemploy ers
ĠLind say
ĠMil itary
ĠTur ks
Ġdisp ute
Ġident ical
Ġfund amental
oph one
ij uana
ĠTen nessee
Ġfashion ed
ĠRay mond
Ġconv ict
ĠTer rible
Ġwitness ed
Ġcong ress
Ġbounc ie
Ġcub es
IST IN
Ġwrest ler
ĠInt o
Ġbac ter
ĠCheer io
ĠWhe el
Ġdelay ed
ĠAp ollo
ĠMA KE
ĠWork ing
Some one
Ġcontribut ed
Ġconscious ness
Ġexha ust
ĠKr isten
Ġstern ly
ĠLiber al
ĠLen ita
Ġadmir ation
ĠNap ole
Ġengage ment
Ġmart ial
Ġacknow led
ĠMR S
Ġshill ings
Ġcontri bute
ĠNiger ia
Ġsincere ly
ĠShir ley
Ġdestro ying
Care ful
Ġunnecess ary
ĠLeb an
ĠDrum mond
enez uel
ĠPied mont
ĠEnv ironment
. =
. ?
A f
B B
J an
M A
M Y
P ER
b ows
b ai
c het
n k
o ft
w ealth
x ide
y on
z i
z ens
Ġ icing
Ġt ension
he y
Ġa choo
in stein
re ally
Ġb itty
Ġb ishop
Ġm unch
Ġm aze
Ġc u
Ġf ug
Ġf lee
Ġl ass
Ġn it
Ġn igh
Ġn igg
om o
Ġhe avier
et ti
Ġin ex
Ġin put
at os
Ġdo ct
Ġwe ighed
ĠB ou
ĠB ever
ĠB omb
ĠB elle
Ġu ng
ĠM is
ĠW ord
Ġst itch
ĠY E
ĠC atch
Ġj un
Ġj aws
Ġno d
Ġso ph
ĠD IS
Ġsee ming
Ġup right
ĠN u
ĠN ig
Ġout ra
ĠG RUNT
ĠG avin
ab a
ab ilities
ĠP ic
and s
ig l
ig ail
Ġal t
ĠJ ed
ĠJ ama
ĠJ azz
ĠF ood
Ġcl an
ff s
Ġmo aning
Ġar f
Ġar k
Ġbl ues
ag na
ere rs
ĠK ry
Ġbr ats
ĠBut ter
ĠTh orn
iss ions
Ġsha ving
Ġen cl
Ġfl ock
Ġfl ashed
Ġpo king
ob i
Ġpart ing
au er
Ġun anim
ci um
ĠV e
ĠV o
Ġkid do
Ġra iny
Ġsl ices
Ġmin ing
Ġtra gic
Ġear ning
Ġgl owing
Ġgl imp
bb ling
Ġhat red
Ġsn ugg
ĠUn iverse
Ġhot els
Ġdes cent
ster dam
ĠCha se
Ġdec ade
Ġca ul
OU SE
ĠTo ld
Ġhope ful
Ġsun k
Ġsun rise
ĠYour s
Ġtre ason
ĠCar ly
Ġblack board
ĠTHE N
Ġadd s
Ġdi apie
Ġhum ming
Ġext ension
ĠAd v
Ġexp osure
ming ham
Ġty ing
Ġstra p
cha rd
Ġ* **
Ġmoon light
Ġlay ers
ĠPr ue
Ġpeekab aby
ĠBar bie
ik o
Ġgard ener
Ġhors ies
Ġ7 6
Ġ7 7
Ġheal ing
Ġban ner
min ate
Ġbrown ie
Ġ9 2
ĠAm sterdam
Ġrad ish
Ġdam ned
ĠComm unic
ĠNat alie
Ġchoo sing
Ġinvol ves
.' "
Ġpin ched
Ġ17 9
ugg ing
Ġdev ices
Ġdev otion
Ġ193 2
Ġviol et
Ġcompet ing
ĠMon ica
Ġdig ital
Ġscar let
Ġobject ion
Ġwide ly
ĠPri vate
do ors
ĠEve lyn
Ġrespons ibilities
ĠFin land
Ġperiod s
Ġfre ight
Ġ192 5
Ġmid field
ÃŃ a
Ġpers istent
ĠMer cedes
ĠHE Y
Ġbound s
vere nd
Ġrout es
ĠOther s
ĠSqu ad
book s
Ġrug by
ĠNet work
Ġinflu enced
ĠAld worth
Ġdecor ations
Ġhistor ic
Ġgrace ful
Ġyog a
ĠFif teen
Ġger bil
ĠAtt ention
Ġmechan ism
ĠTrans port
Ġrhy mes
ĠIsrael i
Ġprem ium
Ġprem ises
Ġconnect ions
ĠOt to
ĠFollow ing
Ġmaintain ed
ĠGil man
ĠArab ic
Ġthrill ed
ĠIce land
oust ache
Ġspan ish
Ġundert aking
Ġprepar ations
ĠGlad ys
ĠSA ID
ĠMun ich
ĠPin oc
Ġsup reme
ĠNaz i
Ġplead ed
ĠTA KE
cour t
ĠAle c
ĠAuthor ity
ĠLO VE
Ġreb els
ĠAff airs
arro ndisse
Ġobed ient
ĠCamer on
Ġware house
Ġcinem a
Ġbung al
oen ix
Ġcertific ate
ĠMig uel
ĠVat ican
ĠFIR ST
phana ge
ĠAyl mer
ĠNapole on
Ġglimp se
J im
J ohn
T ING
V ING
a is
a ut
b one
e ous
g ee
l aughter
r ina
t ra
w ord
w eb
Ġt its
Ġt umbled
Ġw reath
in cl
Ġs outheast
Ġs iege
ha ke
Ġb erry
Ġd ub
Ġd orm
Ġm oustache
Ġf iddle
Ġl ing
Ġl ousy
Ġp neum
ed ar
Ġhe m
Ġh ides
Ġth ri
Ġha unted
ĠT reat
ĠT iff
ĠT roy
ĠT adi
us p
ĠA im
ĠB C
ĠB ug
ĠB ET
ĠB EL
ĠS ung
ĠS ug
ĠW it
Ġgo ss
ĠH ir
ĠY ang
ĠC ord
ĠC roat
ĠL ower
ĠL iving
ur ation
Ġpl ac
ĠD om
ĠG lo
Ġr ays
Ġr ansom
ĠR iding
ĠF ame
Ġsp ies
qu er
Ġback ing
onna ise
ide o
Ġv ary
Ġint im
Ġtr aces
ĠBen gal
ĠBen nett
ĠK an
ĠK urt
Ġbr ushed
Ġday care
ia o
Ġbook case
Ġmay onnaise
Ġfl ights
Ġhome made
Ġsw ell
Ġsc andal
ĠSt ars
ĠDo ll
Ġun eas
ĠV ik
Ġsl aughter
Ġapp arent
Ġdr ool
Ġtea ches
Ġmat ched
Ġroom mate
Ġfar ming
Ġlist ens
ĠMar sh
ma res
Ġsk im
Ġcle ans
oun ge
Ġexc used
Ġfro ggy
Ġdec re
Ġinv aded
Ġca ut
Ġri ot
ĠChrist ina
ex actly
Ġent r
Ġheart y
ĠJohn athan
Ġdef ensive
Ġcons ists
ĠAr chie
ĠDe c
Ġinf ect
ru cted
Ġang rily
Ġsub marine
Ġbra ke
ĠSc ream
Ġdeal s
Ġpast ry
Ġprom inent
Ġborn e
ĠOr gan
Ġstar ve
Ġloc omot
ĠPh ys
ĠEl i
ĠPer u
Ġhaha ha
Ġgarden ing
Ġ9 8
ĠRea gan
Ġmeat balls
cri bed
Ġlock s
ĠBro s
Ġcam ps
Ġdar ing
ĠSant i
Ġrespect s
Ġrespect ful
EA L
Ġ195 5
Ġdirect ors
ĠCr an
ĠDa wn
ĠLu x
ĠGl ou
ĠON LY
Ġgall ons
Ġgall ery
Ġ192 4
Ġaud ition
Ġbi ological
Ġund o
ĠJeff erson
Ġbound aries
har m
Ġstock ing
Ġattempt s
ĠSuper man
Ġver dict
Ġstret ching
Ġcong ratulations
Ġpoison ed
ĠMet ro
Ġpurs ued
Ġminister s
Ġattend ance
Ġoccup ation
ĠOxford shire
ĠIm agine
Ġcris p
Ġcontr ad
ĠTor onto
ĠBir mingham
Ġward robe
Ġcru ise
Ġfrustr ating
ĠDID N
Ġcou ples
Ġexpand ed
ĠUk rain
Ġprob ation
Ġult imate
Ġhesit ate
Ġtempt ation
Ġwal rus
Ġhydro gen
Ġwigg le
Ġemphas is
Ġresign ation
Ġacce ler
Ġadvertis ement
Ġprivile ge
ĠAfghan istan
Ġprote in
Ġassess ment
ĠPE OPLE
Ġimprison ed
ĠColomb ia
Ġbulldo zer
Mus ic
Ġwelcom ed
ĠCoch ran
Ġwheelb arrow
ISTIN CT
Ġcaul ifl
3 1
3 7
A rr
E m
M other
S A
b eep
c ular
g ans
h oo
l ist
m und
p ants
u ka
w art
w ere
Ġ ï¿½ï¿½
Ġ vert
Ġt t
Ġt at
Ġw age
Ġthe ories
it is
it udes
Ġb itten
Ġb lend
Ġc ages
Ġc uddle
is ance
Ġf ri
Ġf ees
Ġf aded
Ġto ken
on ents
Ġp end
Ġp sst
Ġhe ir
ay ak
Ġh oof
Ġ- ---
Ġ" ...
ic ular
ĠS uff
im o
ĠM ang
ĠM aced
Ġre hab
ĠW ON
Ġst ung
Ġst urdy
Ġcan oe
ĠY u
ĠY am
Ġkn ick
st ed
ĠC ost
ĠC ause
ill es
ĠL eah
Ġat om
Ġso ber
ĠD one
ĠD ino
ĠN IGHT
Ġall iance
Ġout come
ĠG one
ab ad
ĠP A
Ġal tered
Ġor nament
ge red
ul i
ol s
ĠF IND
ĠF alls
ĠE van
Ġsu ite
qu est
ist a
Ġcl ues
Ġcl utch
Ġcl asped
Ġmo nday
ĠNo el
uck ing
ĠK l
Ġqu art
Ġcar ved
Ġpre ced
Ġlot tery
Ġhome less
Ġch ina
ĠWell s
Ġgr ouch
ĠSt ick
ud er
co vered
Ġwait s
ĠV ern
ĠV enezuel
ub bs
Ġapp lying
Ġdr ummer
Ġdis k
Ġdis like
ĠCh icken
Ġper il
Ġrun g
Ġres igned
Ġres olve
Ġid le
oy a
oy o
Ġstuff ing
ĠFr ont
Ġrec ession
Ġgre ase
ĠUn it
Ġatt ending
Ġatt empting
ug u
Good night
Ġpres ume
Ġaw oke
Do or
Ġgrand children
ĠCl inton
Ġblock ing
Ġchar ging
Ġmus ket
Ġtri ump
Ġfast ened
Ġtre acher
Ġfight ers
Ġbath time
ĠNew ton
Ġinf ected
Ġbar rier
Ġcoll apsed
Ġgrow ls
ĠFl o
Ġsy nd
Ġ4 9
Ġext ensive
Ġtele gram
Ġexp end
AR K
An n
Ġpizz as
ĠHer r
ĠSe oul
Ġsum mit
Ġpubl ishing
ĠLe v
Ġarm ies
ĠDr ac
Ġtrans mit
Ġaff ili
Ġprov isions
Ġcor pse
Ġ8 8
AS H
uro s
Ġcop ied
Ġpract iced
Ġbright ly
Ġgas oline
Ġjud ged
ĠRob inson
Ġteddy bear
ĠJul ian
ĠJul iet
IT E
ĠSm art
Ġmaster s
Ġformer ly
Ġsouth west
Ġwha r
ĠRo ver
Ġappear ances
Ġgall on
Ġ192 1
Ġ192 3
ĠST ART
chan ge
Ġstom acha
ĠSus sex
Ġaud io
Ġobs essed
UR N
Ġsurv ival
Ġut ens
ĠME AN
Ġchap el
ĠPre p
Ġlog ic
ENT S
ĠDel hi
Ġstruct ures
Ġbast ards
Ġautom atically
Ġtyp ew
Ġpure ly
ĠFort y
Ġtal ented
ĠCons erv
pir ation
Ġlit ter
ĠDou g
ĠDou bs
Ġterror ist
Ġchem icals
ĠSE C
Ġwand ered
Ġribb ons
ĠPig let
ĠTha iland
ĠAsh ley
Every thing
Ġrif les
ĠNik ki
Ġstab bed
ĠBi ography
Ġpadd le
ĠSU RE
OUGH T
ĠCher ry
Ġcad ets
PH ONE
ĠMerc ury
ĠCur rent
Ġdispos al
Ġinfant ry
Ġacknow ledge
ĠPun jab
ĠPu erto
ĠMountain s
Ġcatal ogue
Ġvolunt ary
Ġresident ial
Ġassign ment
ĠSyl via
De cember
Ġcomed ian
Ġcass ette
Ġthro ats
Ġconstitu ency
DO OR
rane an
scream ing
ĠLass ie
ĠSpani ards
ĠBac on
Ġmars hm
Ġmotherf ucker
Ġmead ow
Ġmarvel ous
Ġcorre cted
Ġallerg ic
Ġincon ven
ĠSci ences
Ġgeomet ry
ĠEvent ually
ĠLomb ard
Ġstomacha che
4 9
B r
C L
F ive
L isten
M ER
W N
c s
c os
c ard
c ott
f ound
j in
k u
l if
m unition
n amed
o z
p ost
r ite
t ry
t ray
u ity
u ese
y um
y la
z an
Ġ 00
Ġa isle
in ction
ha us
ha ired
Ġm aps
Ġm onsieur
Ġc ors
is ms
Ġl orry
Ġp ose
Ġn anny
ĠA ggie
ic ist
ic able
ut ing
ĠB oom
ĠB rill
ĠS K
ĠS ed
ĠS em
ĠS ony
se ud
ĠM unicip
ĠM AD
Ġre venue
ĠW als
ĠW anda
Ġfor ts
Ġfor cing
ac ular
ĠH ELP
ith uan
st ri
Ġnot hin
ill o
ĠL ill
ĠD C
ĠD ana
ĠN AR
Ġall igators
Ġlook in
pp ity
Ġher d
Ġab rupt
ĠP sych
ĠP iper
Ġal iens
ĠR ee
Ġfr is
ĠE mer
ĠE than
Ġwor s
Ġplay ful
Ġsp ike
Ġsp lish
Ġsp ared
Ġus ers
ist le
Ġint imate
Ġro pes
ft on
ĠK as
Ġqu iver
Ġpe bble
Ġcar go
bo d
Ġsha ken
ob s
Ġpart ial
Ġhouse keeper
Ġfo e
Ġfo il
ĠV i
ĠV ick
ĠV iv
Ġalright y
Ġra id
Ġmin eral
Ġdr unken
Ġbel ts
Ġtra uma
og en
ĠAll y
Ġsn atched
ĠBe g
ĠSp ark
ĠAl ber
oc ado
ition al
Ġdec ides
Ġju gg
Ġsad d
Ġsad ness
Ġte ch
Ġround ed
Ġdraw s
Ġdef ended
Ġdress er
Ġref ers
ĠTHE M
Ġbar bar
Ġhorse back
ĠFl ash
Ġsy nt
ĠMic he
Ġdi abet
Ġcompl aint
Ġexpl oring
ĠAd ri
Ġprom ising
ĠGer tr
Ġtick lish
ĠSome where
Ġclos est
Ġloc ations
Ġleg it
Ġninet eenth
Ġglad ly
ĠBar nett
Ġrepl acement
Ġtest imony
Ġopp onent
ĠGu ild
Ġgar ments
iter ranean
Ġbang ed
Ġshut tle
Ġcal cium
Ġhar bor
Ġexcept ions
Ġwhis key
Ġwhis ky
Ġdest ination
Ġbright er
Ġ12 0
ĠEven ing
ĠIN D
Ġstat istics
Ġham ster
Ġsuggest s
ĠMad rid
Ġdoubt less
Ġdev ast
Ġcompet itions
Ġtor to
Ġtur keys
Ġprocess es
Ġpil g
Ġtechn iques
Ġhero ic
ĠBE CAUSE
Ġbedroom s
Ġimpro ving
Ġfan ci
roll ed
just ice
Ġcontact s
ĠUS A
Ġsuck ing
Ġoccasion al
ĠFour th
ĠMed iterranean
Ġstink s
cul es
Ġenter prise
ĠSnow y
Ġwra ps
ĠMoo re
Ġchallen ges
Ġsla very
Al right
Ġï¿½ï¿½ï¿½ï¿½ ï¿½
ĠJud ith
ĠHor ace
Ġacqu ired
Ġestabl ishment
ĠBrother s
Ġdea rest
Ġhee hee
ĠIm per
Ġaim ed
Ġchamp agne
ĠRod ney
Ġpeel ed
Ġaffect s
Ġbitter ly
Ġbreast s
ĠSpeak er
Ġdiamond s
ĠPak istani
bour ne
ĠVietnam ese
aval ry
Ġblink ing
Ġvit amin
Ġgigg le
Ġforb id
Ġlabor atory
ĠPortug uese
Ġsam ples
Ġgal axy
Ġfrank ly
Ġscold ed
Ġaston ished
Ġeth nic
Ġpara ly
Ġath lete
ĠGeoff rey
Ġprecise ly
Ġgran ola
ĠKu wait
Ġshiver ing
Ġbage l
Ġrend ered
Ġsurve illance
Ġrehears al
ĠPrem ier
ĠMicro soft
Ġcorrupt ion
Ġhiccup s
Ġko ala
Ġadap ted
Ġalumin um
Ġcanc elled
ĠPinoc chio
ĠUkrain ian
4 4
7 6
8 9
? --
A CH
A bsolutely
C ould
D a
M S
M rs
N G
d ig
f am
f ruit
g uh
k h
n atural
t ic
t ake
w uh
Ġt iles
he a
ha p
Ġm asks
Ġf ury
on ic
Ġhe ights
et ah
Ġha lt
id en
id el
id ency
as ing
ĠT ow
ĠT ook
ĠA W
ĠA j
ut ton
ĠB it
Ġk ab
ĠS ide
ĠS ays
ri ages
ĠM aine
ver ted
Ġe we
ad v
Ġst itches
Ġst amps
ĠH ed
ĠY outh
ook s
ĠC ensus
ĠD ye
ĠD eal
ĠD AN
ink ing
ĠN ell
ĠN intend
Ġlook out
ĠYou T
ĠO THER
il ation
Ġor bit
ĠR ing
ĠR as
ĠR oo
ĠR at
ĠF u
Ġplay room
el ujah
Ġsp ed
ĠShe ila
Ġag uh
Ġover alls
Ġpro ven
ant h
Ġar se
Ġro aring
Ġco c
Ġcon vert
ĠK h
ure en
Ġgu inea
Ġam er
Ġread ily
Ġen han
ire ct
ud der
up iter
Ġthought fully
od od
Ġcr ashing
Ġhead lines
ĠCh uckles
Ġper m
Ġstr ang
Ġmat ure
Ġpick up
Ġres ervation
Ġsho ve
âĢĿ .
ins ula
ĠAl ready
ĠAl ison
Ġmar ine
Ġbelie fs
Ġworld s
Ġem pt
Ġter minal
Ġran ch
Ġgrand daughter
Ġent reat
Ġinst all
Ġpig eons
ĠCar la
Ġcons ervative
AT ER
app ro
Ġpot entially
Ġconf essed
Ġ4 1
Ġsub stance
ĠCom ics
Ġsnow y
ĠJo anna
Ġmark ets
not hing
OR RY
ĠHer bert
no v
Ġpar as
ĠLe ila
ĠWith in
ĠMe ike
ham pton
Ġsell s
Ġfat ig
Ġsupport s
Ġdisc ount
ĠMag ic
Ġmagic ian
Ġoper ator
Ġscrew ing
Ġdem ocratic
Ġneat ly
Ġsuccess fully
Ġjack ets
Ġrespect able
Ġstat ements
Ġpost s
Ġdoubt ful
ograph ic
ĠCr us
ĠLou ie
ĠCla ude
Ġtor ch
Ġhy ster
zer bai
Ġgrown up
Ġbal oney
ĠTra in
Ġ192 2
ĠDO ES
Ġsens ation
Ġexerc ising
ĠĠĠĠĠĠ Ġ
Ġstea mer
Ġenv y
Ġsurv iving
Ġcock ro
Ġeconom ics
ĠChristian ity
Ġge ography
gl ass
Ġpor ridge
Ġspray ing
ĠTer rit
Ġmut ual
Ġneg lect
Ġloss es
Ġsch olar
Ġlink s
Ġunl ucky
Ġresour ce
Ġliqu or
Ġcritic ism
ĠNE VER
ouncill ors
Ġconsum er
ĠUr gh
ĠProt est
Ġvine gar
Ġsund ae
Ġarchitect ure
Ġhedge hog
Ġchir p
Ġinstit ution
Ġtempt ed
Ġunivers al
Ġdispos ition
Ġbuff alo
ĠZo ie
ĠZo ey
ĠRet urn
Ġelectron ic
ĠLaure n
Ġbrid ges
Ġtuck ed
ĠTot ally
ĠLead er
ĠAlas ka
RAT OR
Ġupd ate
Ġintellect ual
Ã£ o
Ġdisgu ise
Ġsolic itor
Ġsib lings
mind ed
ĠPed ro
ĠEngl ishman
Ġimmort al
Ġinval id
Ġhass le
Ġtoothp aste
Ġcorrid or
ĠBuen os
ĠSeb ast
ĠPatric ia
ĠTiff any
Ġcaulifl ower
Ġutens ils
ĠGertr ude
ĠNintend o
4 6
5 5
A pril
B Y
C ertainly
I nt
J une
J uly
M P
N ove
W elcome
] :
c ord
c ony
h ouses
j un
k k
l ac
m oon
n ik
o vers
s oo
s ie
à ¥
Ġ +
Ġt asks
Ġa le
Ġo d
Ġm im
an ks
on omous
Ġhe s
Ġhe ns
et cher
ar ation
ĠA x
gh urt
ic i
ic iency
Ġbe held
ĠB ark
ĠB eet
ĠB ae
ĠM ira
Ġe jac
Ġst rand
ĠH il
ĠH OR
ĠH ockey
Ġcan ce
Ġsa ves
am en
ook ie
ĠC T
ĠC osta
ĠC IA
ĠC elia
ĠL iter
ĠL ola
ĠL eeds
Ġpl aint
Ġsh ru
ĠN av
pp les
ry s
ĠO ops
ĠO LD
ĠO bl
Ġout standing
itt ees
ĠG on
ĠG oo
ĠG aul
ĠG www
ab lo
Ġal tar
Ġor gans
ĠR ush
ĠR af
ĠR EP
Ġwho les
ĠJ E
ĠJ upiter
ol ation
ĠE ye
ĠE ner
el and
os ition
ak o
Ġcl aw
Ġex ternal
Ġ1 000
ant is
ant on
ĠNo bel
Ġco gn
Ġco des
Ġco arse
ag ging
Ġcon vention
ĠK or
ĠK ai
Ġmean while
Ġbr at
Ġam munition
Ġch ubby
ob el
ey er
Ġho g
Ġwr ath
ang s
act ually
Ġun con
ount ered
co ffs
Ġwait er
ĠV III
ĠV ader
Ġnight mares
gg ers
ye ong
Ġkid ney
Ġapp rent
ms on
Ġdis eases
Ġac ute
Ġper ple
Ġmat ern
ĠIs obel
ister s
Ġgre eted
IN A
Ġrel ating
eak y
Ġeight eenth
Ġcut ter
Ġind o
Ġcold er
Ġbas es
Ġfact ories
ĠCar rick
ĠAr cher
Ġdep ri
Ġgrow l
Ġsy ll
Ġsub urbs
idd les
Ġexp ans
Ġsnow ball
Ġcorn flakes
OR D
Ġap ology
ĠEx per
Ġev olved
Ġtick led
cha e
ĠRe verend
Ġhur ricane
Ġart ific
Ġpet ty
ti est
ĠPh oenix
het t
ĠBar nes
Ġru na
Ġ7 9
Ġprof ound
Ġexper iments
Ġ8 3
Ġpack ages
ĠBro ck
Ġstri ps
Ġstri pped
ĠBo x
Ġexcept ional
Ġsol itary
Ġapart ments
Ġval id
ĠIN TO
ath on
ipp ers
Ġconsider ably
Ġspec im
Ġ194 4
Ġresult ed
Ġsight s
Ġphot ography
ĠFrank en
ĠSy stem
Ġproduc es
Ġpray ed
ĠGra fton
Ġborrow ing
Ġrepeat ing
Ġbal cony
isc ons
Ġtechn ically
ĠMal ays
Ġexam ples
Ġdisp osed
Ġindust ries
Ġcho ir
Ġsatisf y
Ch rist
Ġver b
Ġyo ghurt
Ġcult ures
Ġlog ical
Ġmush y
ĠSch olars
ĠCont rol
ĠPlay ing
ĠSa udi
Ġqual ities
Ġwip es
Ġï¿½ï¿½ï¿½ï¿½ ï¿½ï¿½
Ġteen age
Ġteen ager
ĠCle an
Ġsignific ance
Ġintern et
Ġdocument ary
Ġrum or
Ġsweep ing
Ġfrequ ent
ĠTalk ing
Ġped al
Ġfirefight ers
ĠSpider man
Ġcru cial
ĠPict ure
Ġcliff s
Ġconqu ered
Ġrevolution ary
Ġcooper ation
Ġrack et
ĠGree ks
Ġvoc al
Ġult imately
Ġchir ped
ĠArch bishop
Ġlimb s
ĠRail way
Ġdistinct ly
ĠPhill ip
Ġtad p
rep rene
Ġrein force
Ġenqu iry
orp ion
quis ite
intend ent
ĠCHAR LES
ĠCry stal
ĠKaz akh
ĠBroad way
Ġwob bly
ĠBul gar
ĠTreas ure
ĠBangl adesh
Ġgest ure
Ġaspir in
duct ive
ĠUnivers al
ĠRup ert
ĠNig el
Ġbungal ow
Nove mber
6 6
A m
A my
B less
D S
F ather
I l
I LY
P ING
U B
c al
c ise
f u
f ty
f unction
j our
l iest
n ation
o inting
p ose
p ence
r ack
t ell
u ver
w y
w right
Ã «
Ġt am
Ġt ame
Ġt abl
Ġa ce
Ġa uction
in ny
Ġs omers
Ġs esame
Ġs arc
Ġthe at
ha ha
it ations
Ġb os
Ġd ab
Ġm our
Ġf reed
an qu
Ġl f
Ġl ame
Ġl ounge
Ġn aval
ea dy
Ġha re
Ġha ird
ar gh
at ra
Ġdo zens
ĠT el
ĠA ction
ĠA zerbai
ke red
ĠB ag
ĠB ass
ĠB od
ĠB uc
ĠS W
ĠS ac
ĠS ull
ĠS ighs
im er
ĠM ong
ĠW ea
ĠW ol
ĠW AR
al ians
Ġst er
Ġst ump
ĠH us
am m
Ġwh im
Ġas ylum
ĠC ond
ĠC reek
ill ery
ĠL ag
ĠL ip
ĠL loy
ĠL anguage
Ġwhe w
ĠD uc
ĠD ixon
ra x
pp ings
Ġout doors
ce ans
ĠHe ctor
Ġr ay
Ġr anger
Ġr ows
ĠP and
ĠP hy
Ġor phanage
ĠR andy
ĠR www
Ġwho lly
ĠF un
ĠF ig
ĠF em
ĠF ool
ĠF leet
ĠF oster
Ġplay pen
Ġus er
Ġman kind
ard ed
Ġco con
Ġbr ushes
ish na
ĠU l
Ġpo ets
Ġch ore
Ġch ute
ĠAn cient
Ġ19 18
Ġfo am
od ka
ĠV ava
Ġbre w
Ġbre ach
ĠCh loe
oss ibly
eal ing
Ġreal ised
Ġcomp elled
ign ated
Ġres ent
Ġend less
but ton
Ġser ver
ĠUn like
Ġwar ming
Ġsk ates
ĠAl bum
ĠAl mighty
Ġmar gin
Ġmar sha
Ġfire truck
Ġpres erved
Ġind ex
Ġdec ades
Ġca f
Ġfish y
Ġten ants
ĠSh im
Ġdef ined
ĠCar lo
ĠNew castle
Ġass igned
Ġbag gage
ĠFl etcher
Ġbra kes
ĠAd vent
Ġclass ified
ĠOr ange
Ġknock s
EN S
Ġpar cel
Ġhang er
ĠGr ampa
Ġpet ition
ĠPr ison
ĠJen ell
Ġ6 7
Ġ7 1
Ġban ned
Ġadv ised
Ġbrown ies
Ġcur led
Ġopp ose
Ġda ft
Ġ8 9
Ġshut ting
Ġabs ent
Ġmach inery
ĠAb igail
ĠRoman ia
Ġpublic ation
Ġsuper market
ĠComm ons
Ġdisapp oint
Ġlift s
Ġtight en
Ġchoo ses
for mer
Ġ193 7
ĠRober to
Ġhonest y
ĠBrown ie
Ġvol umes
Ġexcl usive
Ġcharacter istics
ĠCor rect
ĠKat y
Ġris ky
Ġtrad ed
Ġplain s
Ġpopular ity
Ġphys ician
ĠBea u
Ġur ge
Ġbi ology
Ġobs erv
Ġcho pping
Ġtip toe
ĠSix ty
ĠTurn er
ĠUs her
ĠGar land
Ġwoo ly
ĠUnder stood
ĠSil ence
Ġunif orms
ĠVal er
Ġcommunic ations
Ġperforman ces
Ġacqu ainted
AG R
ĠBa iley
Ġash tray
ĠBook s
ĠVer mont
ĠShan non
ĠBab e
ĠBir dy
Ġsniff s
Ġdisplay ed
Ġcraft s
Ġnegoti ate
Ġcob web
Ġaband on
ĠWr ong
Ġhob bies
Ġcollea gue
Ġignor ance
ĠLor raine
ĠArgent ine
Ġsan ct
Ġbond s
Ġhesit ated
En joy
ĠMod ern
LAUGH ING
Ġsprink les
ĠArmen ian
oty pe
Ġslim y
Ġisol ated
ĠMP s
ĠAC C
Ġkilomet ers
ĠMoomoo shas
Ġbegg ar
Ġsauc er
Ġiv ory
Ġsuppl ied
Ġshat tered
song writer
ithe ly
abul ary
SEL F
ĠHAP PEN
Ġunanim ous
Ġpneum onia
Ġgoss ip
ĠSanti ago
ĠGlou cester
ĠNAR RATOR
ĠDye isha
iscons in
" !
2 8
4 7
9 5
I RE
K N
M en
S R
S eptember
_ --
a wn
b in
b led
c ro
g mouth
h ou
n as
n orm
o lly
o van
s i
u er
Ã ¥
Ġ `
Ġ iced
Ġt ipped
re gor
ha les
Ġo ceans
Ġb ink
Ġd usk
Ġc ork
Ġc rest
er ness
is an
ĠI ike
Ġf ame
an ium
on ian
Ġl y
Ġn aming
ed e
Ġhe nce
et on
id able
as per
as ping
ar us
ĠT es
ĠT un
ĠA P
ĠA ires
ut on
Ġbe ck
ĠB rent
ĠS ent
ĠS ears
ri am
ĠM az
ĠM www
Ġre wind
ĠW R
Ġfor wards
Ġst ain
ĠH az
Ġnot icing
ĠC EO
ĠThe od
ĠL amb
Ġshe riff
ra bbit
Ġsh ines
ĠN ash
ĠN ature
ĠO z
ĠO PEN
ie val
Ġout l
Ġout s
ĠG ates
ĠG IVE
Ġr ally
ĠP ascal
ĠP ablo
Ġright ly
ĠR ac
ĠR ah
ĠR iley
ol ia
ĠF ill
ĠF reeze
ĠE ug
ess es
Ġtim id
end ix
Ġv ines
Ġex ert
Ġint act
Ġar rog
ĠK ick
ĠK ey
ĠK iki
Ġbr ute
Ġpre ca
Ġel abor
Ġsw eaters
Ġgr asped
Ġpr isons
pl ease
Ġpret tiest
ip ur
Ġlong ed
Ġcare ers
Ġun zip
Ġsl ut
Ġsl ack
Ġrun ny
Ġfin als
Ġcol onies
zz le
Ġsho ots
Ġcount ies
ĠFr itz
Ġgre asy
IN S
Ġsur fer
Ġbox ing
Ġsk unks
ont in
vel t
ĠPl at
Ġsweet est
ier ra
ĠWhere as
Ġaw e
Ġfoot steps
Ġmind ed
pr ing
Ġind ication
Ġyoung sters
Ġca ves
Ġtable cloth
ĠMax well
Ġob sc
Ġtrain er
ĠZ ero
Ġrep ay
Ġrep ubl
Ġtri bute
ne ck
ĠCar ib
uss ian
Ġinf inity
ĠFl ight
und e
Ġow ie
Ġang les
Ġext inct
ĠWill em
Ġspecial ist
ĠCom te
OR K
ĠHar wood
Ġstar board
Ġlearn s
Ġwash cloth
Ġlay s
oose velt
Ġexpect ations
ĠEl oise
Ġru ins
Ġ6 8
Ġ7 8
Ġrepl acing
Ġcost ing
Ġtest ify
cent ury
Ġtrans pl
Ġtrans mission
Ġstraight forward
Ġcontin ent
Ġeng lish
Ġcor ps
Ġda res
Ġ8 4
Ġzoo keeper
Ġspl inter
Ġtem ples
Ġorgan ic
OW S
Ġcam els
ĠSunday s
Ġbri be
ĠMo ving
Ġav ocado
Ġarri ves
Ġstat ic
Ġmir rors
ĠCr it
ĠFrank ie
Ġtend ency
Ġmedic ines
Ġenc ountered
Ġcurious ly
Ġdescri bes
Ġgen ie
Ġprocess ion
Ġ25 0
ÃŃ s
ÃŃ t
Ġthreat en
Ġtit led
ĠDu k
Ġcontain ers
Ġsettle ments
Ġbound ary
Ġbuzz ing
ĠDis co
umber land
Ġsuck er
Ġheat hen
Ġcivil ized
Ġwilling ly
Ġhost ile
ĠMed ic
Ġattract ion
ĠRam say
Ġfashion able
Ġemer ged
ym ph
Ġboot ie
Ġcong reg
ĠUs ed
Ġsneak y
Ġreck less
Ġbomb ing
Ġhistor ian
ĠBu y
Ġsen ator
Ġstro kes
ĠJac ques
Ġbabys itter
ĠScar lett
Ġdrain board
ĠFran Ã§
Ġgif ted
Ġrum ors
ĠFer nando
ĠShan g
Ġbust ed
Ġtut u
ĠDev il
Ġsumm ers
Ġlam ps
ĠRead ing
ĠStud ios
Ġtremb led
Ġaffection ate
Ġhaw k
Ġparliament ary
Ġabc s
ĠSad ie
stan bul
ĠWOR K
ĠPhill ips
ĠCow boys
ĠLib rary
ĠPers ian
Ġpron ounce
Somet hing
cour se
ĠSupp ose
ĠSid ney
Ġslam med
Ġweep ing
Ġcatal og
Ġbage ls
ĠRand all
Ġpac ifier
ĠCommon wealth
Ġvel vet
Ġembr ace
Ġscul pture
Ġsust ain
Ġovers eas
Ġneut ral
Ġpand emic
Ġtwelf th
SCREAM ING
ĠIllustr ated
ĠBast ard
ĠBren nan
Ġreceip t
Ġambit ious
Ġplung ed
Ġvul ner
ĠClaud ia
GAS PS
ĠPow ell
Ġornam ents
Ġauth ors
Ġmanif est
Act ually
Ġwhar f
Ġtypew r
Ġtorto ise
Ġfanci ed
ĠImper ial
Ġsomers ault
3 00
A ugust
B R
B oom
C ol
E ng
E CT
F O
F riend
G L
G rab
I FF
L aughing
M E
M a
M ENT
O ct
P A
R EN
T is
c ore
d ers
e an
e ges
f ree
f ront
k ar
l aughing
n ar
p ay
p res
r one
r its
t ha
t oo
v ol
z ards
Ã ¯
Ġ ide
Ġ icky
Ġ venge
Ġt ant
Ġt eased
Ġs ul
Ġthe ft
Ġyou u
Ġb ins
Ġd inners
Ġd airy
Ġm es
Ġm oth
Ġc ured
is andy
ĠI gn
Ġf ib
Ġf erry
Ġg ale
Ġp its
Ġn g
Ġn ipp
ed a
or ah
or ial
Ġhe a
Ġth orns
ar ity
ĠT us
ĠT RI
us a
ĠA th
ĠA va
ut ches
Ġbe gs
ĠB ess
ĠB urger
ĠB RO
ĠB ingo
Ġk ayak
ĠS out
ĠS ER
ĠS elf
ĠM itc
Ġre ef
Ġre tail
Ġe ee
ĠW isconsin
ly de
ad ers
Ġst ap
Ġst eth
ĠH O
ĠY ard
Ġkn ots
ee m
ee ps
Ġan th
st ones
Ġas cend
Ġas sembled
Ġdon ut
ĠThe m
ĠThe atre
Ġj ig
ĠL ithuan
Ġso bbing
Ġpl a
Ġpl ugs
ĠD J
Ġmy st
ĠN ay
ĠN ation
ĠN eb
ĠO nt
il k
il ocks
Ġher ds
op y
ĠG iant
Ġr asp
ĠP LE
um ns
ĠR id
ĠR ale
ĠR ES
ĠR oosevelt
ĠJ our
ĠF ay
ĠE cu
Ġsp un
Ġdown hill
ough s
ate red
Ġv icious
Ġover th
Ġlo ans
Ġoff ensive
Ġbr ow
Ġsm ashing
Ġlea ped
Ġsw ore
Ġsw ans
Ġsc ree
ĠSt rat
Ġpr ank
ock ing
ĠDo or
Ġun h
ĠV ince
pt ions
Ġac res
ĠCh ow
Ġper mitted
Ġstr ay
Ġfound ing
Ġres umed
Ġwalk er
Ġwalk iet
Ġred uc
Ġele venth
âĢĿ ,
ĠBe vis
ĠAl ger
Ġcomm enced
Ġmiss us
Ġmiss ions
Ġsecond ly
ĠWhen ever
ĠCha gmouth
ĠRight s
Ġpat ter
Ġreg ime
ĠSh op
ĠMark s
ched ule
ual ity
Ġsong writer
uss ia
Ġinc om
Ġpretend s
Ġpeek ing
aj i
Ġdi agram
Ġexp ose
Ġdeal ers
Ġ5 2
Ġmark ers
ĠEx pl
ĠOr thodox
ĠHar low
ĠHar rogate
Ġground hog
ĠRe ception
Ġloc ate
Ġpet als
ĠSha me
ĠEd win
Ġarm chair
IS E
Ġ6 00
Ġsmell ing
Ġspo kes
Ġ9 7
Ġ8 5
ĠCap ital
Ġocc urs
Ġfill s
ĠPar ish
Ġcrack s
Ġspend s
ĠPe an
Ġpract ise
ĠMag n
ĠAlex a
IC T
Ġrequ ests
che on
work ing
Ġvar i
Ġplant ing
ĠJul ius
Ġwag ging
ĠRichard son
Ġamount s
Ġhun ters
Ġtong ues
EL Y
Ġprofession ally
Ġfre aking
ression al
Ġadm ired
Ġris en
Ġsepar ately
Ġmass es
Ġsevent eenth
Ġrow ing
ĠBill ie
Ġinfl ation
Ġappreci ated
Ġcontact ed
Ġsatisf actory
Ġcivil ian
Ġcapt ive
Ġcelebr ating
Ġamb ition
ĠTry ing
ĠThink ing
Ġbrief case
ENT Y
Ġgiraff es
Ġsett ling
ĠGold ilocks
Ġconv iction
Ġmyster ies
bel ieve
Ġentertain ing
ĠUs agi
ĠRock et
ĠLy dia
ĠMont real
Ġconcl usions
Ġadvant ages
Ġattend ant
Ġpregn ancy
Ġcommer cials
Ġcub s
Ġchip m
Ġcruel ty
ĠAtt ack
Ġdepart ed
ĠBritt ney
Ġsweat shirt
Ġtrem ble
Ġbabys it
ĠDef ense
Ġpant ing
Ġnu isance
Ġflood ing
Ġcorpor ation
aph ne
ĠRap hael
Ġinstinct s
Ġinstit utions
ĠMuslim s
Ġmemor ial
part y
Ġelectron ics
Ġmyth ology
ĠArmen ia
Ġagg rav
Ġabsor bed
Ġintent ions
Ġlandl ord
Ġcoord in
Ġaccommod ation
Ġdischar ged
ĠSlow ly
Ġadopt ion
ĠPalest in
Ġtox ic
ĠEngine ering
somet imes
Ġcompassion ate
ĠRud olph
Ġconceal ed
Gas ps
Ġrebell ion
Ġsurviv ors
Ġvacc ine
esc ope
Ġvamp ire
ĠStew art
Ġcongrat ulate
ĠTai wan
ĠAub rey
Ġingred ients
Ġunic orn
Ġpave ment
ĠDw ight
Ġmilks hake
Af ter
Ġsoph ist
Ġtransmit ter
Ġfris bee
Ġhes itation
ĠBae k
Ġindo ors
ĠCarib bean
ĠEcu ador
Ġwalkiet alk
A nt
A EW
F reeze
G row
P ut
R o
c ould
c ount
c aster
f o
f ace
f irst
g os
g reen
h op
i Äĩ
l it
l og
m ot
m art
m ary
t w
t est
v ich
w l
w ow
w oo
z ag
Ã Ł
Ġw ri
Ġw ilt
Ġw inners
Ġs or
it tering
Ġb art
Ġb red
Ġb iz
Ġb orough
Ġd io
Ġd ense
Ġd angers
Ġc ouncillor
Ġc unning
is en
ĠI mm
Ġf el
on et
en o
Ġhe ed
Ġth i
Ġth igh
Ġha il
ot ted
at isf
ĠT urt
ĠT EA
ĠA ra
ĠA ce
ut ter
ĠB erry
Ġk ung
Ġk ites
ĠS ene
ri ka
ĠM ale
Ġwas t
ĠW eek
al ion
ĠH od
ĠH AND
st ep
ĠC ALL
ĠC inem
ĠC arson
ust ers
ĠL EA
ion a
Ġpl ugged
ĠD ame
ĠN FL
ĠO g
ĠO ber
Ġher b
Ġher bs
Ġout break
Ġab und
ĠG an
ĠG ina
ĠG inger
Ġr ises
ĠP O
ĠP aper
ĠR hett
ge l
ĠJ eez
ĠF le
ĠF AM
ĠE ss
ĠE ars
uh d
Ġsp arrow
os l
Ġbo oth
ak u
Ġman s
Ġv oom
Ġex agger
Ġex quisite
Ġag rees
Ġag encies
Ġlo dge
Ġse ize
Ġoff ence
ant ry
Ġar ray
ĠK on
Ġpre jud
Ġevery time
Ġsha dy
Ġsha ft
Ġhand c
Ġch orus
ĠSt o
Ġpr ud
ix ie
Ġho arse
eas ing
Ġle ver
co gn
Ġfo ster
Ġra gs
Ġcr umb
Ġbre eding
hes s
Ġper pet
Ġres erved
ĠIs le
og ram
ens ed
ens ions
Ġrec re
Ġrec ru
Ġanim ation
Ġrel ieve
ĠAl icia
ĠTH ING
ĠTH REE
ss on
Ġz omb
ah l
Ġem ig
Ġdad adad
Ġca ution
Ġpat rol
Ġbuild s
Ġhoney moon
Ġrock ets
AN E
AN Y
AN ING
io ca
Ġcons isted
Ġbath robe
Ġdep ths
Ġdep ressing
Ġpur r
Ġpot atos
Ġinc idents
Ġow es
Ġconf ined
rat ch
Ġtele graph
Ġgener ate
ĠRoss y
ef initely
Ġmark ing
Ġmed ieval
you ng
ring ton
Ġstar red
ĠTw eet
Ġinter vals
Ġ* *
Ġloc ally
Ġpet ted
ĠSha un
Ġfil ming
ĠDan ish
Ġ8 2
Ġgar rison
la us
Ġprotect s
ĠRoman ian
ho e
Ġben ches
Ġstri pe
Ġstri ped
Ġtem pting
Ġsecret ly
Ġdiv isions
Ġconst ructed
ĠPat ty
Ġsex ually
ĠMa ureen
Ġprop eller
Ġshop keeper
Ġest ates
ĠSm ur
ĠDa ily
Ġhun ted
ĠBrook s
Ġaut o
Ġsalt ine
ĠPark man
Ġveget arian
Ġspeed ing
OO L
Ġintro duc
Ġpil ed
ĠChan g
ĠChan cellor
ĠDO CTOR
Ġcommand s
Ġvers es
Ġlap top
ĠHE LL
Ġimm unity
ĠÃ ī
Ġspr outs
Ġwhist led
Ġhost age
Ġsuspect s
Ġartist ic
Ġfurn ished
ĠTe resa
ĠPlay St
Ġwra pping
ĠLI FE
Ġchat tering
Ġdecor ated
wh ite
ĠSon ny
ĠBu ilding
Ġinnoc ence
Ġteen agers
ĠBas ically
ĠMill isandy
Ġtiss ues
Ġconcent rating
Ġlic ence
ĠDemocrat s
ĠCons ider
Ġsubs id
ĠRod ger
Ġdu ke
Ġvent ured
ĠTrans l
ĠSC REAM
Ġfrequ ency
Ġscen ario
ĠAw esome
Ġnegoti ations
Ġguarant eed
Ġminor ity
Ġsufficient ly
ĠMi riam
ĠMem bers
Ġmanufact uring
Ġfee ble
iven ess
Ġpadd ock
Ġinspect or
Ġdisag re
BO TH
BO DY
ĠMO THER
ynam ite
ĠVen us
Ġsuspic ions
Ġaston ishment
Ġrepro ductive
ĠCard inal
ĠRepresent ative
heim er
Ġinvolve ment
ĠImp ossible
Ġbail iff
Ġinher ited
ĠBub bles
ĠRich ie
Ġelim inated
ĠKer mit
Ġeter nal
Ġment ally
Ġgreet ing
Ġric hest
Ġadvis or
ĠBurt on
ĠCir cle
Ġdart ed
Ġprosper ity
Ġvolley ball
Ġbrut al
Ġsummon ed
Ġgroan ed
ĠKath leen
Ġcomprom ise
Ġtwent ieth
ĠPolit ical
ĠCompl ete
Ġnapp ie
Ġbew ild
Ã¢t eau
ĠBuff alo
ĠNem o
ĠNAS A
ĠGriffith s
ĠMU CH
Ġidi ots
Ġenthusi astic
Ġpyram id
Ġdoct rine
ĠBever ly
Ġmidfield er
ĠLux em
Ġexpend iture
ĠDrac ula
ĠLombard y
Ġtypewr iter
rits ar
Ġsteth oscope
ĠRale igh
3 3
4 1
5 7
C C
F in
F ebruary
H ar
O oh
S W
S ha
S ay
T A
U P
V I
a ah
b ra
c ade
c ats
g ull
l u
m ith
m ist
n in
o i
o ca
o qu
p ies
r ates
r ange
s ure
s pe
s uch
t em
t able
y ears
he it
Ġa i
Ġa qu
ou h
re rs
Ġy Ã¶
it ating
it ives
Ġb ounced
Ġc rop
Ġc avalry
er d
er als
er ted
is ode
ĠI stanbul
ll is
Ġto dd
Ġg uh
Ġl ee
Ġl ords
Ġp all
Ġp ip
Ġp udd
Ġh ips
Ġha v
Ġin justice
as ia
Ġ- =
ĠT ip
ĠT ren
ĠT ouch
ĠA CT
ĠB ot
ĠB one
ĠB ond
ĠB ones
ĠS N
ĠS ty
ĠS port
ĠS ORRY
ri et
ĠM ut
ĠM ead
ĠM ult
ĠM UST
Ġre pt
out e
ĠW u
ĠW har
Ġli ly
Ġli able
Ġst ressed
ĠH ab
ĠH ig
ĠH ud
Ġcan n
ĠY as
all e
am el
st orm
ro ps
ent on
ĠC oss
ĠC raw
ĠC AM
ĠC OUR
ĠL is
ĠL ay
ĠL ist
ĠL ud
Ġso b
ur st
Ġpl acing
ĠD aphne
ood ood
ĠN AT
il ian
Ġout line
op er
op ath
Ġab ortion
ĠHe in
Ġjust ified
ĠP s
ĠP ly
ĠP ie
ĠP RE
Ġfr anc
ol ed
ol ics
ĠF O
ĠF ear
ĠF ast
eat ing
Ġbo b
Ġcom a
est on
Ġtw os
Ġcl im
Ġcl ung
Ġv i
Ġv on
Ġer rors
Ġoff s
hm ond
Ġtr act
Ġtr aced
Ġar oused
Ġco d
ft en
Ġcon ception
ĠK erry
Ġqu oted
Ġen lar
Ġhand writing
Ġfl ipping
Ġgr in
Ġsc ener
Ġsc iences
ĠSt adium
Ġho e
Ġho h
Ġun kind
ĠAn imal
Ġ19 10
Ġ19 12
Ġra ises
ave nder
Ġad equ
Ġfour s
Ġfin ishes
Ġres erve
cl ip
Ġsupp lement
Ġsupp orters
port ant
bb ers
ĠBr istol
Ġrec ruit
Ġsn out
uc cess
Ġatt ent
ug a
Ġset up
Ġunt ied
Ġsk ipping
Ġmar ijuana
Ġpres erve
Ġdes ir
Ġdes ires
Ġexc uses
Ġfro ck
Ġbuy er
Ġtap ioca
Ġspe ck
ener al
Ġacc us
ĠAt hens
Ġpen et
Ġpop e
Ġdef ine
Ġdear ly
by n
Ġmet h
Ġmet aph
ĠTHE SE
Ġinf er
Ġass es
Ġcoll eges
Ġbirthday s
ĠSc outs
ĠQ ing
ows ki
Ġ5 8
Ġfore cast
Ġbunny rabbit
Ġhon king
Ġtick ing
Ġdra ught
ĠGrand father
Ġhang ed
ĠSha w
Ġfil med
Ġfil mm
ĠEd ith
ĠEd ie
Ġreco ll
ĠBar n
ĠBar na
ĠDr ama
Ġtrans f
Ġprof ess
Ġperfect ion
Ġrece iver
Ġfinger prints
ĠAm ritsar
Ġbottom s
ho ven
LE CT
ĠBo zo
ĠAlex andra
ĠRic hmond
Ġequ ation
Ġtight s
Ġtrack ing
Ġjud ging
eng ine
Ġpriv ately
Ġcere mon
Ġnorth west
ĠSm o
Ġbank ing
ĠRichard s
ograph ical
Ġluck ily
Ġrat tles
Ġcand ies
ĠSy bil
hum an
Ġwha les
ĠRo bo
Ġcourt esy
Ġant eater
Ġbeha ved
Ġrepeat s
Ġadm ission
Ġmeow ed
ĠBat t
Ġaddress es
Ġshad es
ĠHam mer
Ġcho ked
len ess
ĠGro s
Ġwhist ling
ĠBeck ett
Ġheaven ly
ĠMed al
Ġcontract s
Ġcrown ed
ĠPal mer
ĠPort land
Ġir res
RI END
Ã¨ s
Ġbrand y
Ġinterview s
Ġguitar ist
ĠComp uter
ĠKay la
ĠEs sex
Ġpred icted
Ġsem in
._ ]
Ġoblig ation
Ġrequire ment
Ġgrape fruit
Ġlif estyle
Ġchalk board
ĠUN DER
Ġglo be
Ġaltern ate
Ġsymbol s
Ġdesper ately
ĠBrad ley
Ġscra ped
ĠSweet ie
ĠSweet heart
ĠStart ing
Ġren amed
Ġmosquito es
Ġincreas es
Ġincreas ingly
Ġcontroll ing
ĠWes ley
ĠStr ong
Ġsumm ons
Ġgigg ling
Ġencourage ment
Ġcooper ate
Ġmall ard
ĠLiber ty
Ġvoc abulary
ĠSleep ing
ĠLion el
ĠRap id
gas ps
ĠBry an
ĠLeon ard
Ġsitu ated
Ġtab let
Ġcush ions
ĠLAUGH ING
GRUNT ING
ĠAud rey
ĠPH ONE
ĠVill age
Ġcurs ed
ĠBax ter
Ġscholars hip
ĠPalest ine
Ġsty les
Ġscul pt
Pro bably
Ġrefuge es
Ġavo iding
ĠPear l
Ġoverwhel ming
ĠLore n
Ġcran berry
ĠGodd amn
Ġhoriz on
Ġles bian
Ġprovin ces
Ġtel escope
Ġrit ual
Ġalle ged
ĠVenezuel a
ĠPrep are
Ġkab oom
Ġexpans ion
ĠScholars hip
ĠAzerbai jan
ĠLloy d
Ġincom pet
ĠPlaySt ation
Ġscener y
) "
5 6
A VE
B rrr
C on
I LE
O K
S e
S ir
S cream
T om
U ES
W AYS
b ike
c ra
c ure
d ist
f i
g her
k ie
k ov
m ph
n or
p it
u y
u ating
w orm
Ã ¬
Ã ®
Ġt et
Ġa ft
ou ched
in ished
Ġs ill
re ster
ha lf
Ġy oyo
Ġb ount
Ġb ash
Ġb idding
Ġd ame
Ġd ang
Ġd ashing
Ġm ul
Ġc yl
Ġf ret
Ġf udge
Ġg ag
Ġg au
Ġg ene
on er
Ġl or
Ġl uc
Ġp am
Ġn ibble
es us
ea polis
Ġh ound
Ġh ull
Ġth ither
Ġth ursday
Ġth rees
et ta
as is
ar re
at ha
ĠT E
ĠT M
ĠT ara
us cript
ĠA H
Ġbe ers
ĠB ears
ĠB ott
ĠB IG
ld ow
ĠS ca
ĠS imb
ri ous
ri bute
ĠM oss
ĠM old
ĠM eth
ĠM ills
ĠM Ã¼
Ġre ve
ĠW i
ĠW right
ĠW ish
ĠW itch
ir p
al om
Ġst orms
ĠH app
ĠH uckle
ĠH OUSE
Ġsa kes
ee ee
Ġan al
Ġan onymous
Ġwh ined
ook y
st ad
st own
ĠC ory
ĠC andy
ĠC ric
Ġj aw
ill er
ĠL anka
Ġshe er
Ġpl ough
if ty
if ies
ĠD ud
un ge
Ġdid ldow
ĠN adu
il ess
ĠHe idi
Ġjust ify
ĠG is
ĠG igi
ab bed
Ġr ider
ĠP G
ĠP ast
Ġor chard
ol ate
ĠF ly
ĠF AR
ĠF ATHER
ĠE lly
Ġsu cc
Ġsp ikes
Ġbo ast
Ġcom fy
ist ical
Ġtw ink
ose x
Ġcl ink
Ġv ia
Ġer ased
Ġover time
ĠWe ird
Ġpro long
th ird
Ġbr ook
Ġ( ),
Ġbu rial
ble m
ĠTh ou
Ġen light
Ġde ceived
ĠSo fia
Ġfl apping
Ġpo pping
Ġfun n
Ġgr id
Ġsc um
Ġsc ram
Ġsc otch
ci ation
Ġbit ches
ĠV aud
âĢĻ ,
âĢĻ .
Ġsl ips
int o
int erest
Ġdis com
ta ils
Ġopen ly
Ġcol umns
zz o
Ġgl ittering
og o
ens ie
Ġred s
ĠBr un
Ġcont ented
ĠMar x
ĠMar gery
Ġwo e
Ġpol o
ĠSp rings
Ġmar mal
ane ous
ane ously
Do ctor
Ġdec iding
ĠFor rester
Ġreg ain
Ġgrand p
ĠZ ee
Ġtri angles
Ġpig let
Ġfif teenth
Ġblack smith
ĠDe cl
Ġbar r
Ġbar ge
Ġsub mit
Ġsub mitted
Ġhum our
Ġ5 1
Ġsna pping
Ġless er
ĠBl ock
Ġwall paper
no x
Ġpresent er
Ġquiet er
Ġpar ano
Ġpar rots
Ġins piration
Ġinter act
Ġlad ders
ĠEl ena
Ġprot ocol
Ġprot ests
ĠPro duction
ĠPer se
Ġ7 4
Ġboo ze
Ġcur ve
ĠGu ards
Ġcor rel
Ġcreat es
Ġsil ently
Ġdry ing
ĠCap it
Ġcrack ing
Ġill usion
Ġhar ness
Ġhospital ity
Ġgrass ho
Ġcam per
Ġhast ened
Ġcirc uit
ĠNe v
ĠBaby lon
ĠCo al
Ġprin ter
ï¿½ï¿½ï¿½ï¿½ ï¿½ï¿½ï¿½ï¿½
ĠIN TER
ĠCH ILD
Ġrespect ively
Ġ17 8
Ġcomfort ably
ele ction
Ġviol ently
ĠMc donald
Ġfail s
ĠPol icy
Ġdump ing
Ġobject ives
Ġcharacter istic
Ġpossib ilities
EL D
Ġdepend able
Ġrepresent ation
ĠST ORY
Ġtrad ers
Ġdust y
Ġclap s
ĠBra in
Ġdecl ine
ĠHigh way
Ġund erest
Ġcrowd s
Ġcouncil s
Ġheads ets
ĠÃ ģ
Ġcho pped
Ġspr ings
Ġdeb ts
ĠBeck et
itar ian
ĠTe ch
Ġbudget s
Ġpsych ic
Ġstrugg les
Ġdeck s
ĠAld ithely
ĠLaw son
Ġstream s
bell s
wr itten
Ġaccording ly
EP ING
Ġpear l
Ġspark s
Ġspark ling
Ġdread ed
ĠDave y
Ġsurround ings
Ġproceed ings
IE VE
Ġbeet les
Ġmechan ical
ĠFre eman
Ġphilos oph
ĠGi bb
Ġbul k
Ġfaint ly
Ġpartners hip
Ġterrit ories
des ignated
ĠJoan ne
Ġcompos ition
Ġblink ed
Ġpassion ate
ĠPam ela
Ġlam ent
Ġpersu aded
ĠKy ung
ĠLor na
Ġprose cution
Ġdraft ed
ĠParalymp ic
ĠNic ol
ĠNar rator
ĠMarsha l
Ġbru ised
ĠRail ways
Ġneighbour hood
ĠCorpor al
Ġunemploy ed
ĠHop efully
Ġfare well
Ġshill ing
Ġcasual ties
Ġforgiven ess
Ġoy ster
ĠOper ation
ĠIndepend ent
ĠSlo vak
Ġlas agna
thi er
Ġlin en
ĠBor is
Ġgover ness
Ġbak ery
ĠOrigin al
ĠJar vis
Ġcontrovers ial
Ġcul pr
Ġmamm als
Ġsteward ess
Ġblaz ing
Ġcarn ival
ĠFried rich
ĠVO ICE
ĠAdminist ration
Ġportra it
ĠVern on
ĠConserv atives
ĠBrill iant
Ġdiabet es
ĠYouT ube
ĠSebast ian
Ġcance led
Ġshru gged
Ġtabl ets
Ġhaird ress
Ġcocon ut
ĠMitc hell
ĠPly mouth
Ġmarmal ade
3 2
6 1
6 8
7 8
A d
A y
C ourse
E s
G old
G irls
H old
K eep
L ove
M ING
P T
R a
S w
S orry
T ime
a el
b en
b un
c us
g own
h usband
i qu
l ittle
m os
p m
r ics
s ki
u gh
u ated
y ah
z burg
Ġ ry
Ġt ended
Ġt angled
he aster
Ġa j
Ġa unts
ou dy
Ġw atered
ha st
Ġb ingo
Ġb achelor
Ġd ental
Ġm as
Ġm unches
Ġc oop
er man
Ġf u
Ġto ll
Ġg oof
Ġg ums
Ġl ones
Ġl atch
Ġn ests
en ance
et ry
Ġha zard
ar ians
at ics
ĠT all
ĠT itus
ĠT unde
Ġwe pt
le ys
ĠA gr
ke en
ĠB un
ĠB ong
ĠB ash
ĠB apt
ĠB uster
ĠS IX
ri bly
im an
im eter
Ġe rect
ĠW orth
Ġli zards
al us
ĠH amb
Ġan them
st op
ro gen
ĠC ame
ĠC ave
ĠC www
Ġj us
Ġno ds
ĠL iv
ĠL ONG
ĠL ulu
Ġpl iers
ĠD R
ĠD re
ĠD ill
ĠD ore
ĠD ifferent
Ġsh itty
ĠN anny
Ġall y
Ġout put
ĠG ir
ĠG ib
ĠG oth
ĠG oose
ab ra
Ġr oused
ĠP ha
ĠP it
ĠP as
ĠP ent
ĠP ip
Ġright eous
ig ible
Ġal as
Ġor chestra
han g
ĠR aven
Ġfr amed
ĠF iona
Ġsp ilt
qu al
ick er
Ġwhen ce
Ġman agers
Ġv odka
Ġer upt
Ġsomet hin
Ġtr anqu
Ġbl aze
Ġhelp ers
Ġro bbers
Ġco aster
th ose
Ġcon j
ĠK end
Ġbr ows
Ġbr oth
ĠTh ousand
Ġel astic
Ġel bows
Ġch unk
Ġsw oll
Ġsc ope
ĠSt acy
get s
Ġcha mbers
ĠDo ver
Ġun just
Ġ19 19
Ġbefore hand
gg les
Ġsit com
Ġra h
Ġsl ot
pt ic
xt on
uff le
int ed
Ġac ademy
ĠCh op
Ġbad ji
eal s
Ġmon it
Ġmon ks
Ġmon ument
Ġgl ancing
ĠCan nie
IN T
Ġdri es
ĠAl c
Ġcomm ittees
Ġbest owed
ĠPl enty
Ġunderstand able
Ġsqu ished
Ġsqu eaks
pr oof
Ġyoung ster
Ġair line
oor ay
Ġpat ron
Ġacc um
ĠCl oud
Ġjump er
Ġinst ruction
Ġinst alled
Ġtri ple
gr adu
Ġcons ervation
ĠNew port
AT CH
ense i
ĠFl orry
ĠMic hel
Ġcool ed
Ġbra very
Ġmusic ians
Ġspecial ized
ĠSc ha
ĠSc rew
ĠQ uit
Ġ5 7
Ġ5 9
Ġsna ils
Ġhon ors
Ġfeed s
Ġpar ach
Ġwarm ly
Ġinter ven
Ġinter vention
Ġsea food
ĠLe go
ĠPh one
ĠEd mund
Ã© n
oub ted
ĠMan or
ĠMan uel
iam ond
ĠGeor ges
ĠChe ese
âĢĶ âĢĶ
Ġ9 4
Ġ9 11
Ġbang s
ĠPar adise
Ġhar mon
ĠAb u
ĠAb bey
ĠAm end
Ġpublic ly
Ġsuper v
Ġrad ical
Ġrad iant
Ġrad ius
Ġdoub les
Ġworth less
ĠMor oc
Ġtrust ing
ĠAlex and
ĠNe igh
Ġsol utions
Ġquar ry
Ġdest ined
Ġwild erness
Ġdem ol
Ġrid ers
Ġpleas antly
Ġhurry ing
ĠAnt o
Ġchew ed
ĠWar wick
ĠMin or
for man
for ms
Ġvar ied
Ġwag s
Ġlab els
Ġpour s
Ġsmo kes
ilar ious
Ġvan ish
Ah h
Ġrob ots
Ġaccount ant
Ġaut onomous
ĠFin al
Ġspeed ily
Ġlim p
ishm ents
ĠTra il
Ġhook s
Ġcust oms
str ong
igg les
Ġcro ps
Ġphys icist
ĠWal ton
Ġcontain ing
Ġaddress ing
Ġign oring
Ġappreci ation
Ġtun ed
ĠÃ ł
har t
Ġcivil ians
ĠSH OULD
ado x
Ġfeat uring
Ġcelebr ated
ĠBer g
ĠWil bur
Ġblind s
Ġparticip ating
Ġclaim ing
Ġamb assador
ĠMove ment
form ation
Ġir re
ĠWin ston
sp eaking
Ġbare foot
Ġtub es
Ġpear ls
Ġqual ification
Ġpoison ous
Ġrecommend ations
Ġhee haw
ĠTri p
Ġsubs idi
ĠPan ama
Ġaim ing
ĠAtt orney
ĠHelen a
Ġtravell ers
ĠOb ject
Ġtransl ation
EM BER
ĠFran z
Ġinstru ctor
Ġsneez es
Ġcritic ized
Ġexperiment al
Ġprofit able
ĠBow l
ruct ure
ĠSol omon
Got cha
Ġol ive
ĠGen oa
ĠGray son
hens ive
Ġpref erence
ĠSher man
Ġprospect s
ĠStud io
Ġsou ven
Ġtempor arily
Ġlegend ary
ĠSat urn
Ġillustr ations
ĠVen ice
Che ese
ĠNEW S
ĠNap les
Ġvig il
Ġagricult ure
Ġgy psy
Ġconfirm ation
Ġdistingu ish
Ġconstitution al
Ġdwell ings
Ġdrown ing
ĠMall ory
Ġisol ation
Ġfrown ing
Ġeter nity
Ġconver ted
Ġmini ature
Ġkilomet res
Ġacce pting
Ġhotdog s
Ġrenew ed
Ġkneel ing
Ġmisunder standing
Ġcrank y
Ġcuc umbers
ĠFE EL
Ġrevers ed
ĠGem ma
ĠFur ther
ĠTechn ology
ĠLog an
Ġadvoc ate
pow der
Ġcontem por
Ġmous ie
ĠEag le
ĠTAL K
ĠEwo k
Ġelector al
ĠPrat t
Ġfingerna ils
ĠInterest ing
Ele ven
ĠFant astic
ĠIndones ia
ĠDani elle
Ġgymn astics
Ġbacter ia
ĠWheel er
ĠYE ARS
ĠCommunic ations
ĠSuff olk
Ġamer ican
ĠObl ast
ĠPhy llis
Ġvenge ance
Ġsophist icated
Ġdio xide
ĠLuxem bourg
heaster n
' !
' --
3 4
3 9
7 7
A bout
B illy
D own
D AY
D ynamite
L ily
M on
O FF
S c
Y OU
b ah
b urger
d ar
d at
d ong
d ered
g om
g um
h on
h ore
j or
l ia
m ine
o ir
p ath
s or
s ince
t or
w inning
w yn
y u
Ä ±
he us
Ġw its
in um
Ġb ong
Ġb ree
Ġb illy
Ġd w
Ġd y
Ġd re
Ġm asc
Ġc uck
er ts
Ġl ac
Ġl ease
Ġp ent
Ġp el
Ġp ulp
Ġp outing
Ġn oun
Ġn ana
es pecially
Ġhe ated
Ġhe aps
et o
Ġ- ...
Ġdo omed
ĠT ink
ĠT www
le gate
ĠA U
ĠA i
ĠA ur
ĠA hem
ut us
ut ure
ĠB ey
ĠB www
ĠB iden
Ġk i
ĠS ak
ĠS IR
ĠS ierra
ri g
ri ever
ĠM ON
ĠM OM
ĠM ask
Ġwas her
Ġre nder
Ġre vel
Ġme g
ĠW ing
ĠW ine
al ine
Ġst ains
ĠH om
ĠH ort
ĠH ON
Ġcan on
ĠY ears
am y
am ine
am ount
am ma
ĠC ore
ĠL ac
ĠL av
ĠL ift
ĠL AST
ur red
ur ous
ĠD ue
ĠD ool
ĠD AR
Ġsh red
ĠN aval
ie u
ie ls
ce ls
Ġab used
ĠP ep
ĠP ER
ĠP ops
ĠP UT
ĠP inky
ĠP eps
our t
han ts
ĠR AD
ĠR INGING
ĠJ oon
ĠJ ungle
ĠF ell
ĠE t
ĠE w
ĠE instein
ca le
Ġlet hal
eat s
ist on
em aker
Ġman uscript
Ġcl op
ber y
ĠShe lly
Ġint ri
uck ling
th ink
Ġcon ce
Ġhapp iest
Ġqu arts
Ġbr isk
Ġcar avan
ish ops
ĠBut ton
Ġam ateur
Ġbu bb
Ġsm ock
ĠTh or
Ġsha ved
Ġhand les
Ġch uckle
Ġsc out
Ġpart ed
ud a
Ġho lly
Ġcat hedral
fore st
Ġun ite
Ġun huh
ci ble
Ġhi king
av id
gg le
Ġalright ie
Ġsl alom
Ġcr us
Ġcr ick
Ġ[ _
Ġper ch
Ġopen er
Ġcomp aring
Ġcomp uls
Ġlist ing
Ġsix teenth
Ġsix pence
ĠMar ge
Ġsn ar
Ġpol es
Ġnum bered
ĠBe ij
ĠGo es
Ġz ig
Ġsweet ness
ier y
Ġtop ics
Ġind igenous
Ġdec eased
Ġair s
az ed
ĠCl imate
Ġchar ter
ĠMiss ing
Ġdel ic
Ġpig lets
ĠDe ird
Ġref using
Ġcoll ision
Ġhorse men
Ġcra z
Ġow ing
Ġsent encing
Ġ5 4
OR M
ls ea
ĠChar ge
ĠGrand mother
Ġpresent ing
ĠTr uth
Ġpar l
Ġclos ure
Ġinter cept
Ġsum s
Ġeye ball
Ġenjoy ment
Ġenjoy able
Ġfil ing
Ġarm or
fort une
Ġmot to
Ġgovern ors
Ġ6 2
Ġ7 3
Ġform idable
Ġcur ric
ĠGu inea
Ġ8 00
Ġshoot er
Ġneck s
lo af
Ġconcer ts
Ġsuper vis
Ġspl at
Ġvill agers
Ġworth while
Ġcirc ular
ĠCal vin
ĠMo ham
TER S
board ing
Ġinvol ving
che ese
ĠPen gu
Ġfear ing
ĠNorth umberland
Ġbull s
Ġest im
ĠJul es
Ġbeep ing
Ġmotor way
Ġdirect ory
Ġbank rupt
Ġcart on
ĠMon k
Ġdig ger
OT S
ĠLu is
Ġtor ped
Ġdesign ated
Ġrat io
ĠPo le
ĠGl as
Ġaut ograph
ĠAg reed
Ġhy pot
Ġdescri bing
ĠDam ian
Ġcraw ls
Ġbal anced
Ġgro ans
Ġmer it
Ġtrad itions
Ġep ic
Ġdecl ined
Ġtun nels
ĠBert rand
ĠApp ro
Ġsusp ension
Ġinvestig ated
Ġrelax ing
ĠFour teen
Ġyo nder
ij i
Ġtext s
ĠEle ven
Ġcrew s
Ġfra gr
Ġopt im
Ġinflu ential
Ġapolog ies
keep ing
Ġess ays
Al most
Ġbun s
Ġunus ually
ĠMont ana
Ġvo iced
Ġqual ify
ras ka
Ġdread fully
ĠFort un
ĠSand ers
ĠCath olics
ĠSpe ed
Ġtransport ation
ĠAS K
Ġwreck ed
Ġdism ay
ĠBull shit
ĠHol iday
Ġchampions hips
Ġconnect ing
ĠOt t
Ġachieve ment
Ġtag s
Ġdom ain
Ġdrag ons
Ġfrag ments
ĠAL WAYS
ĠBan bury
Ġhousehold s
Ġgigg led
Ġyawn ed
ĠBeat rice
ĠId iot
Ġobey ed
Ġfry ing
ĠQuick ly
ĠEnter prise
ĠRub y
ĠSat an
Ġillustr ated
Ġsam urai
ĠNorm ally
ĠNorm andy
Ġswift ly
Ġdemonstr ation
Ġdemonstr ate
Ġcateg ories
ĠNaz is
ĠGriff in
Ġtransform ed
Ġfulf illed
ĠAid an
ĠAid en
asm ine
ĠAmb assador
Ġelim inate
Ġtort ured
Ġsolemn ly
Ġmathemat ics
ĠAG AIN
ĠGRE EN
Ġcudd ly
ĠWee ks
Ġawa iting
ĠChap ter
somet hing
ourn ier
ĠRoc he
Ġfe ud
Ġbloss om
Tr ue
Ġsire n
Ġcondem ned
Ġfoss ils
Ġsubsequ ently
ĠElect ric
ĠWeb ster
Ġcompens ation
ĠChamp ion
Ġhelm ets
Ġharass ment
GRO ANS
Ġtrif le
ĠJama ica
ĠBEL IEVE
ĠSug ar
Ġuneas y
Ġcontrad ict
Ġtriump hant
Da isy
adv ant
Ġcoc aine
ĠEner gy
Ġartific ial
ĠFranken stein
Ġtadp oles
ĠRah ul
Ġvulner able
ĠOnt ario
ĠHud son
ĠSimb a
ĠCric ter
Ġlones ome
ĠPeps i
ĠBeij ing
A unt
B ELL
C AR
E K
F I
G R
G S
G l
G ro
I BLE
T C
b id
b ility
c ot
c ad
c am
f ull
f inals
g reat
l as
m ings
o ka
r Ãª
t was
Ä į
Å Ĥ
Ġ Ä
Ġt res
Ġt umble
ou che
Ġw aken
in as
Ġs s
Ġs ly
Ġs urn
Ġthe oret
Ġd ye
Ġm ow
Ġm are
Ġm ia
Ġc aw
Ġc ables
Ġf ade
Ġl ang
Ġl ending
Ġp sy
Ġn ay
Ġn ip
ed ict
ed ale
Ġhe d
Ġh ub
Ġh ilarious
Ġth orn
et ty
Ġin ward
id ae
Ġon going
Ġ- (
Ġdo om
ĠT it
ĠT um
ĠT res
ĠT itan
us ively
le igh
Ġbe f
ĠB in
ĠB end
ĠB ased
ĠS or
ĠS ire
ri x
ĠM iz
ĠM oor
ĠM umb
Ġre semb
Ġme ek
ĠW ag
ĠW ade
ly sis
al t
Ġst a
ĠH ail
Ġsa ints
ĠY ay
ĠY ong
Ġwh ites
st age
ch w
ch y
ĠC het
ĠC era
Ġj a
Ġj ars
ĠL inton
ĠL uther
ur re
Ġpl aster
Ġpl under
ĠD inner
Ġup t
ra wn
ĠN ol
Ġall ies
pp led
ĠO uch
ear ing
ĠHe h
ĠHe w
ĠG ob
ĠG ret
Ġr ou
ĠP www
ĠP ipp
Ġal ight
ĠR EM
Ġgood y
ĠJ ang
one ys
ĠF en
ĠF und
ĠF uzzy
ĠF RIEND
ĠE P
ĠE VEN
Ġwhere by
Ġsp ice
os a
qu ila
Ġcom ics
Ġthing y
ation ally
Ġcl er
Ġcl icks
Ġv s
Ġv ivid
Ġv owed
ĠShe pherd
Ġex ter
Ġex port
Ġse iz
Ġse ctors
Ġar chae
ĠNo v
ĠNo ble
Ġbl uff
ag ag
th rough
Ġcon se
ĠK irst
Ġpe w
ue y
Ġcar ving
Ġpre cip
ĠMom o
Ġgu ll
Ġgu ided
Ġam ended
Ġtalk in
Ġsha ck
Ġsha wl
age ment
Ġde ceive
Ġch ug
Ġsw ine
ĠSt eam
ĠSt ubbs
ĠSt eady
get ic
Ġunder cover
Ġun load
Ġact ively
ĠV a
man ship
ren cy
Ġra pper
Ġsl o
Ġsl ate
Ġmust h
Ġad s
ons ider
Ġdis cl
Ġdis advant
Ġtra ps
Ġid ol
iv ate
Ġred und
Ġrec ip
ult ural
ach ine
ĠMar co
Ġleft overs
Ġwar med
Ġsk et
Ġsk ins
ĠAl ong
ĠTH OUGHT
ah o
ĠWhere ver
ĠAre na
Ġwonder fully
iet ies
ĠSh ri
Ġmess es
igh ing
ĠCar ry
Ġcons p
Ġblack mail
AT OR
AT ED
Ġhit ch
ĠBob bie
Ġadd ict
phan t
Ġspoon ful
Ġgener ated
Ġprom oting
Ġpound ing
Ġfore most
ĠChar lem
Ġcir cl
Ġfit ness
ĠHar per
Ġpar adise
ĠGr ac
Ġclear s
ĠSee ing
ĠSha ke
ĠSha ring
ĠLe vi
ĠPr ay
ĠPr isc
Ġmot ions
Ġmot ivated
Ã© l
Th ink
ats on
Ġ6 9
ocol ates
Ġeff iciency
Ġban ished
Ġve ins
Ġpea c
pper ton
ĠX IV
Ġ9 1
ham es
Ġshot gun
ĠCol by
Ġimag inary
Ġlock ing
ĠCon rad
Ġpract ising
ĠBo oth
Ġorgan ised
Ġorgan ism
Ġorgan izing
Ġsol itude
Ġoper ates
Ġdest ructive
ĠCo dy
Ġlem ons
Ġwild life
ĠQu arter
Ġequ ipped
ĠAnt ar
Ġsuccess ion
Ġprop osing
mit ive
Ġstat ues
Ġmention ing
ĠMad onna
ooh oo
Ġspec ulation
ĠBird s
Ġcomfort ing
ĠSte vie
Ġesca ping
20 19
20 16
Ġpeace fully
Ġdig est
ĠCla vering
Ġspir al
Ġrob es
Ġobject ed
Ġmedic ation
medi ately
ĠSy n
ĠAg ency
Ġenc han
Ġhy per
Ġcourt room
Ġspeed y
Ġpool s
Ġgen re
ĠSer ge
fl ies
Ġgrad es
Ġpil ots
ĠST R
field s
ĠCat hedral
St ar
St ill
Ġqueen s
Ġguard ed
Ġsocial ist
Ġwise ly
ĠBea st
Ġdeter rent
Ġund ressed
ĠRon ny
Ġsuck ed
ĠHam mond
ĠEliz a
oe be
Ġfold ing
ĠHon our
Ġnic est
Ġhost s
ov ich
Ġstruct ural
ĠSqu eaky
hold ers
Ġeld ers
Ġ= =
Ġstack ing
ĠNet ty
Ġinflu ences
Ġmor on
Ġchallen ged
Ġnovel ist
ĠSa asha
Al ice
ĠRome o
Ġwoo lly
tr ack
isl as
Ġpepper oni
Ġqual ifying
ĠAccording ly
Ġconcent rated
Ġdefend er
Ġsem ester
Ġjealous y
Ġterror ists
Ġanti que
Ġsignific antly
ĠRa oul
Ġsales man
cel ona
Ġaffect ing
Ġsweat y
ĠAp art
Ġgain ing
ĠVer on
Ġassum ption
ĠTor rence
ĠTam my
ĠWork ers
Ġconsult ant
Ġflav ors
Ġrecycl ed
Ġstamp ed
Ġuncom mon
hant om
Ġexplore rs
ĠCL OS
Ġflood ed
Ġsniff ing
Ġsniff ed
Ġalcohol ic
ĠMinn eapolis
cr acker
Ġspect acular
Ġaccompl ish
ĠWr iting
Ġprotest ed
Ġlam bs
ĠHay es
Ġdescend ants
Ġadministrat or
ĠHind i
Ġquant ities
Ġbabydoll s
Ġtons ils
Ġadmir al
Ġbru ise
Ġdrift ing
ĠAndre a
Ġrestrict ed
than k
ĠPra gue
Ġvig orous
ĠJos Ã©
ĠANY THING
ĠAlp ha
ĠCab inet
ĠNan ette
ĠGill ian
ĠDest ournier
ĠLAUGH TER
ĠWa iting
Ġimper ial
ĠLow ell
Ġspons or
Ind eed
Ġtact ics
Ġjer sey
Ġcolon ial
ĠOp al
Ġbegg ars
ĠSik h
ĠEp isode
Ġcuc umber
ĠNear ly
Ġstoop ed
ĠMAY BE
Ġhamm ock
ĠLanc aster
ĠCHE ERING
Ġfoss il
Ġresear cher
Ġsentiment al
ĠCurt is
Bet ter
ĠSop hia
Ġinev itable
ĠShell ey
Ġenforce ment
ĠAF TER
Ġunre ason
ĠMist ress
ĠCroat ia
ĠGlo be
Ġintim id
Ġgrouch y
Ġsynd rome
Ġejac ulated
ĠKazakh stan
Ġmarsha l
norm al
ĠEug ene
ĠShang hai
Ġwalkietalk ie
ĠFAM ILY
Ġmans ion
Ġhoh oho
Ġculpr it
ĠDeird rÃª
ĠCharlem agne
5 2
5 8
A pp
B ell
C o
C r
C han
C ER
D es
F C
H N
J o
J ack
L ittle
M arch
N ay
O ut
S hall
T w
U p
b ard
b ank
c ers
c ross
c onscious
d rop
f urt
g ow
g ons
h im
j ae
l asting
l iga
m ic
m ast
m od
n it
p us
r ide
s ized
v ag
w on
w ant
w ash
Ġt ins
Ġt apping
he nt
ou pe
in ty
Ġs ard
Ġs ash
Ġo key
Ġo val
it ably
Ġb ir
Ġc ate
is ive
ĠI zzy
Ġto ots
Ġl ining
Ġp es
Ġp umps
Ġp ads
Ġp harm
Ġn en
Ġha uled
Ġin appro
ot er
id ences
as ma
ar u
at ee
ĠT ig
ĠT akes
Ġwe bbed
ĠA qu
ĠA www
ĠA IR
ĠB ha
ĠB le
ĠB EN
ld a
ld on
Ġk a
ĠS V
ĠS ud
ĠS au
ĠS earch
ĠM end
ĠM ap
ĠM uff
ĠM ats
ĠM UR
ĠM otion
Ġre ins
ĠW ald
ĠW atson
ad in
Ġst am
Ġst ables
ac hment
ĠH AM
.. "
Ġkn elt
st ill
st ock
ro e
ro ph
ĠC er
ĠC el
ĠC ort
ĠC ald
ĠC otton
ĠC BS
ĠC edar
Ġso aking
na ire
Ġpl ank
Ġpl ague
ĠD iet
ĠD ubl
ĠD anger
ĠD ynasty
ĠN T
ĠN de
ĠN isha
ĠN onsense
ĠN BC
ĠN HL
Ġne uro
ĠO y
ĠO dd
il ts
ĠG ast
ĠG io
Ġr ating
Ġr ushes
ĠP or
ĠP ity
ĠP od
ĠP ret
ĠP rest
ĠP LA
ĠP arson
ĠP ossibly
and o
ig ious
um ma
ĠR ough
ĠR anger
ĠR idd
ĠR usty
ĠF resh
ĠF isher
Ġput t
ĠE R
ĠE yes
ĠE www
Ġsp elt
qu ite
Ġbo d
Ġus age
ak in
Ġman ned
Ġcl oudy
res pect
Ġtr ough
Ġbl unt
Ġbl okes
Ġco ve
ag ara
Ġam p
Ġ( ï¿½ï¿½ï¿½ï¿½
bo ats
Ġde ce
Ġfl ank
Ġpo ppy
Ġsc re
Ġsc am
ĠSt al
Ġpr ow
ang o
Ġcat ast
ĠDo d
Ġun ac
Ġun ity
Ġun cover
ile e
Ġ19 17
ci o
iff e
od s
ĠV ir
ĠV ul
ĠV icky
ren ched
Ġra ff
Ġsl ain
Ġad min
uff eur
Ġper ish
Ġper ception
Ġfin s
Ġhard s
Ġmon aster
zz a
zz ie
Ġend ured
Ġwalk ie
Ġstuff y
ĠAll an
Ġbed side
Ġrec ess
Ġrec alled
Ġwar fare
land o
Ġsk irts
Ġcomm itting
ĠChi pperton
Ġsing ular
oc ulars
ange lo
Ġmouth ful
Ġfoot prints
Ġexc ite
Ġter min
Ġind ians
Ġdad ada
ret ion
Ġri pping
Ġgrand ad
ĠCl imb
Ġent reprene
ĠAt hen
Ġret rie
Ġrecord ings
ĠAr lington
Ġmet als
ĠDe ck
Ġsign als
uss on
Ġcertain ty
ĠTHE IR
Ġtown ship
ĠFl at
ĠFl int
und y
Ġtast ing
Ġsub tle
Ġbra ids
ĠWill is
ĠSc out
Ġgener als
Ġpast e
Ġ5 6
Ġshort ened
ĠBl ow
Ġpoor ly
olog ies
Ġcent ers
ĠSome how
EN G
ĠTr ouble
ĠTr inity
ĠHar riet
ĠUh h
Ġpar ole
Ġpar adox
Ġground ed
Ġins ists
Ġleg ally
Ġleg os
Ġleg acy
Ġart ic
Ġrain coat
ĠSha olin
Ġfil ed
Ġfil ter
Ġmad ness
Ġexpect ation
ĠEl vis
Th ree
ĠLuc ia
ĠBar celona
Ġru gged
ĠPro gram
ĠMat ilda
ĠSw im
ĠSw ord
Ġcontin ually
Ġpress ures
Ġdin er
ĠChe m
Ġcri mson
Ġmist y
Ġmeat loaf
Ġgod mother
ĠEm ilia
Ġill ust
Ġprotect ive
ĠPe pper
Ġdeep est
ĠAlex is
ĠNe ville
Ġhide ous
Ġkey board
Ġdisapp ointing
Ġconst ruct
Ġsuff ers
ĠQu estion
Ġfort ress
Ġdet ected
Ġcomb ust
ĠGre ene
Ġtrack ed
gue z
Ġfear less
Ġjud icial
ĠSte in
Ġdirect ing
ĠHo ff
Ġsmo other
ĠCr ist
Ġ16 0
ĠSu k
ĠSu zy
Ġtong s
Ġexcl aim
Ġsle nder
ĠPri est
Ġvac ant
Ġhy rax
Ġled ge
Ġproduc ers
Ġdepend ent
Ġbal ancing
Ġpit iful
Ġmer ger
Ġarr anging
ĠSim one
ĠSim pson
Ġimpro v
Ġsew ed
ĠQue bec
Ġcommand ing
inc inn
Ġrow ed
Ġhammer ing
ĠBel arus
Ġaud it
Ġfund ed
ĠMer cer
Ġund ers
Ġchief ly
Ġbreath less
ram atic
Ġimm une
Ġcapt ivity
Ġsusp ense
Ġinvestig ations
ĠAc ross
Ġhost ed
Ġsilver ware
uten berg
back s
ĠRes erves
ĠMur der
Ġfant as
Ġpony tail
Ġcong ressional
Ġjam mies
ANT ING
ĠReg ional
Ġtarget s
Ġchat ting
ĠSon ia
Ġspark ly
ĠHist or
Ġpositive ly
Ġappeal s
Ġappeal ed
Ġcig ar
Ġoccup y
ĠDire ct
ĠHear d
Bo bo
Ġoblig ations
Ġdisappear ing
Ġdisappear ance
Ġprogress ive
Ġunf old
ĠGi ven
ĠDisney land
Ġtransl ate
Ġagre eable
Ġpropos ition
Ġnin ja
Ġhurried ly
Ġachieve ments
pro fit
Ġinterf erence
Ġnick named
Ġsuitc ases
AB LE
ĠBan ks
cr ack
ĠInc red
Ġkidna pping
ĠMem orial
Ġmanufact ured
ĠKr ishna
ĠDE AR
Ġsympat hetic
Ġthrill er
Ġfisher men
Ġinterrup ting
ĠCass andra
ĠPlan et
Ġvolunte ers
gro ans
Ġregist ration
Ġimpatient ly
ĠCow boy
Ġcounsel or
rac ting
Ġpens ions
ĠDest roy
Ġank les
Ġgig antic
Ġvolunt eered
Ġrefres hing
ĠIraq i
Ġdischar ge
Ġsoci et
ĠGRE AT
Ġric her
Ġowners hip
Ġindign ation
Ġimmig ration
Ġtrot ted
Ġdynam ite
ĠAlt ru
Ġassass in
Ġmand atory
Ġphenomen on
ĠStra ight
Ġlitt ler
ĠNinet y
ĠEls ie
Ġfet ched
Ġple be
Ġstrengthen ed
Ġbou quet
ĠSic ily
Ġabol ition
Ġworksh op
ĠAnim als
Ġappoint ments
Ġdiscri mination
arrondisse ment
Ġdecre ase
Ġrehab il
Ġmarshm allows
yum yum
ĠMiche le
Ġlegit imate
ĠNell ie
ĠTerrit ory
ĠJE FF
ĠBulgar ia
cise ly
Ġmour ning
ĠBeau fort
ĠFranÃ§ ois
ĠyÃ¶ u
Ġfranc s
clip se
ĠDud ley
Ġswoll en
gradu ate
ĠDool ittle
ĠMoham med
ĠNde R
" :
6 7
9 7
= -
A W
C ha
D A
D I
E asy
G B
G ER
H E
I Z
O nce
P LE
U LL
b ea
e i
e ffic
g ah
h l
h orn
h orse
n ever
p re
p ical
p read
r uff
v ice
Å ĵ
Ġ à¥
Ġa venge
Ġw ides
Ġb icy
Ġd ement
Ġm s
Ġm use
Ġc ot
is i
Ġf ax
Ġf ern
Ġto en
an net
on ation
Ġl al
Ġl av
Ġl ingu
Ġp est
Ġp ian
Ġn ee
Ġn aw
Ġn atives
Ġn igger
or r
or ge
ea ge
Ġh iring
Ġth ine
Ġin cap
ot ie
oo ey
at ops
Ġdo se
Ġdo pe
ĠT in
ĠT ess
ĠT oto
ĠT URN
ĠT hames
le vel
ĠA ch
ĠA bo
ke ley
ĠB ree
ĠB reat
ĠB US
ĠB AD
ĠB orough
ĠB OOK
ĠS ou
ĠS ana
ĠS CH
ĠS UN
ĠS ultan
se in
se ct
ĠM ing
ĠM ix
ĠM its
ĠM oll
Ġre arr
Ġe uros
ĠW ong
ĠW izard
Ġst ag
ĠY ug
ĠY ankee
all i
am o
Ġas p
ĠC od
ĠC ash
ĠC ale
ĠC ats
ĠC aret
ĠC issy
ĠC lyde
ĠC incinn
ĠL an
ĠL acey
Ġat tain
Ġso ak
ĠD um
ĠD art
ĠD epend
ĠD iamond
Ġget tin
Ġup wards
Ġsh rill
ĠN G
ĠN atur
ry an
ĠO ften
il ize
Ġher itage
Ġout a
ce line
op ol
ĠG L
ĠG ig
ĠG az
Ġr idge
Ġr idden
ĠP ierce
ĠP eek
ĠP uddy
ig ence
Ġthem es
Ġal mighty
um atic
ĠJ ob
ĠF ew
ĠF uj
ĠE AR
el ic
Ġsp ills
Ġbo g
ist ance
Ġman t
Ġman ly
Ġcl uster
Ġv ows
ap o
Ġover fl
Ġover heard
ĠWe bb
Ġint ending
hi pped
hm a
ant i
Ġar ist
are z
Ġro gue
ag us
Ġcon ting
ĠK um
be ing
Ġbu dd
Ġbet ting
Ġlea pt
Ġen er
Ġen abled
Ġde w
Ġfl uff
ass an
Ġpo ker
Ġch ores
Ġch ocolates
ob ia
Ġsc ab
ĠSt acey
Ġpr une
Ġpr unes
Ġafter no
Ġcha riot
iz ers
Ġun st
Ġun armed
ĠIn it
co de
Ġwait ress
ĠV isc
Ġdiff er
ors es
Ġdis o
Ġdis li
Ġac orns
Ġcol oured
ĠCan ter
Ġser mon
ens is
Ġcount enance
Ġrec ipes
ater nity
Ġhop s
ĠMar low
Ġatt itudes
Ġph ras
Ġsk ies
ĠChi p
oc us
ĠPl ain
Ġbreak down
amp ed
the se
Ġcut est
Ġind oor
Ġfro ze
Ġju ries
ĠGood ness
Ġtap s
Ġri b
ĠSh rew
ĠMark et
Ġjo ins
ĠZ eb
ĠMiss y
sh ield
Ġfav ourable
cept able
gr aded
Ġmet eor
Ġblack s
ĠDe er
Ġdep ended
Ġref erences
Ġpush keen
Ġbar red
Ġgrow ling
ĠFl ower
ĠMic ah
Ġconf erences
Ġext rem
Ġpast ure
Ġty ping
ES E
ĠEx cell
br id
br other
olog ically
Ġliving room
cha nd
Ġinter rog
ĠRe ese
Ġart illery
ĠLe gend
ĠLe gal
du ctions
ĠPh oebe
ĠEd ge
ĠEd dy
Ġexpect s
ĠBar r
Ġ6 3
Ġban jo
ĠTO LD
ĠJan ice
Ġcur ling
ĠX box
Ġcor al
ĠChe lsea
Ġ8 1
ĠHi ya
ĠCount ess
Ġcal ories
la use
Ġfat h
Ġrece ives
Ġpack ets
Ġta pped
isten cy
ĠCon stable
Ġdecided ly
ĠHa iley
Ġprogram mes
Ġdoub led
Ġpract ices
Ġhast y
Ġcirc ulation
Ġbur g
Did n
Ġval ued
Ġclock s
Ġcomb ine
Ġjack s
ĠMa o
ĠPen insula
ĠMin us
ĠCH ATTER
sc reen
ĠCr icket
ĠMon key
Ġtur f
ĠÂ ¤
ĠGl ass
ĠKim ura
Ġexcl amation
Ġhy mn
ĠKe ys
Ġcab oose
Ġwed ge
Ġwed nesday
ĠSer b
fl owers
itor ial
Ġpit ched
ĠST AR
Ġhero in
igg ins
Ġsepar ation
St ump
Ġkangaroo s
ĠHigh land
ĠMer cy
Ġund one
Ġund oubted
vey ard
Ġstea med
Ġstea ming
Ġpath s
ĠIr is
Ġpersonal ities
ram ent
ĠColl ins
ĠÃ ĸ
ĠDes ign
Ġmoder ate
Ġthirt ies
ĠSuper intendent
Ġbon net
Ġregard less
Ġassist ed
Ġparticip ants
ij a
Ġpsych ological
bl ood
Ġspee ches
ĠDer by
ĠTurn s
Ġunc les
wh is
Ġgirlfriend s
Ġmotion less
Ġgradu ating
ĠEgypt ians
Ġdefend ers
itan ie
IL TON
ĠCO L
Ġchin ese
ĠIm mediately
RY ING
ĠEight y
Ġcommun ist
Ġcreep ing
Ġ188 8
ĠBri ggs
Ġsneez ing
ĠGram ma
yr us
Ġbin oculars
Bl ack
ĠNE XT
Ġexpert ise
OUN T
Ġsumm at
iat ric
ĠAss istant
Ġpension ers
ĠBart on
Ġscat ter
Ġcompar atively
Ġquant um
Ġlegisl ature
Ġdock s
Ġsled ge
ĠThrough out
Ġlun cheon
ĠJos celine
Ã± or
Ġdod ged
ĠAma zon
Ġcant ons
Ġenqu iries
Ġsimpl er
SP EAKING
ĠCAR E
ĠMcK ay
Ġdismiss ed
Ġinject ion
ĠWhit ney
ĠInf antry
ĠCri me
Ġshif ted
Ġcarp enter
ĠIndepend ence
ĠCONT IN
ĠFinn ish
Ġindic ates
Ġavo ided
ĠFitz ie
Ġprocl aimed
ĠPir ate
Ġrig id
Ġgenet ic
Ġprosecut or
Ġfest iv
Ġpled ge
âĻªâĻª âĻª
imet res
Ġjur is
Ġconserv atory
Ġradi ator
Ġdeleg ates
Ġawaken ed
elect ric
ĠLeban ese
Jan uary
Ġalt itude
ĠBET TER
ĠMunicip ality
Ġsynt hes
Ġstrand ed
ĠHOR AT
Ġcaf eter
ĠTes co
Ġcongreg ation
ĠPLE ASE
ĠJour nal
Ġoffs pring
Ġdesir able
Ġprofess ors
Ġcorrel ation
ĠAmend ment
gom ery
ĠGlas gow
ĠPrisc illa
Ġwides pread
Ġafterno ons
' -
, âĢĶ
6 5
9 3
9 8
B aa
C ool
C LE
C onn
D el
G annet
H AL
I ER
K ing
K ES
L and
M ax
R ed
S N
U ARY
W ater
Y ea
b red
d iv
f leet
k as
m ons
m oor
m akers
p ast
r ust
r ast
s n
s u
s qu
w ives
Â ¡
Ä ĥ
Å «
Ġ icon
Ġ igl
Ġt anger
he lf
in ating
Ġs ss
re z
Ġy ak
it os
Ġd ual
Ġm wuh
nd y
nd an
nd ers
Ġc er
Ġc unt
Ġc ouncillors
is al
Ġf en
Ġto pping
Ġg in
Ġp as
Ġp eter
es is
en zie
Ġhe ater
Ġh orm
Ġh ulk
ot he
Ġdo le
Ġdo key
ĠT as
ĠT ud
ĠA ig
ĠA ges
ic ent
ĠB eep
ĠB RE
ĠB ath
Ġk er
Ġk ern
ĠS ke
ĠS ere
ĠS aul
ĠS ask
ri ans
se nd
ĠM au
Ġme lo
ad ar
Ġfor the
Ġst un
Ġst ained
ĠH ye
ĠH onda
ĠY ale
all eys
Ġnot ices
ch op
ĠC ay
ĠC red
ĠC oun
ĠC rab
Ġj unction
ĠL az
ur p
Ġpl ea
ĠD im
ĠD RA
un i
un s
Ġup py
ra ble
Ġsh ipping
ĠN ak
ĠO m
ĠO oo
ĠO pp
il ot
ie h
Ġout door
ack y
op al
ĠG olf
ab ab
Ġr uth
ĠP C
ĠP ee
ĠP ine
Ġal ibi
ĠR iv
ĠR ank
ĠR Ã©
ĠR ivers
ĠR uf
Ġgood ies
Ġfr inge
ĠJ ur
ĠJ AN
ul ia
ol ving
ĠF ul
ĠF lying
ĠE Y
ĠE b
ĠE rik
Ġwere w
Ġsp ouse
Ġsp ears
qu in
ily n
Ġbo ck
em ia
Ġtw ilight
Ġcl ause
Ġcl ips
Ġcl over
Ġv om
ap or
ĠWe ren
Ġtr out
Ġtr am
Ġmo an
Ġar th
Ġbl u
Ġbl iss
Ġco ached
ĠK ab
ĠK el
ĠK ara
ĠK leenex
Ġqu ot
Ġqu ad
Ġpre acher
be fore
be ans
ect or
Ġread iness
Ġlea king
Ġel f
Ġde legate
Ġfl aming
Ġfun ky
Ġgr unts
Ġgr inned
Ġsc outs
Ġsc alp
ĠSt udy
pl us
Ġrem orse
ment al
Ġpart ially
Ġho ppity
Ġwr ought
act s
ĠIn st
Ġche ery
Ġhi er
Ġhi ke
ĠV illa
Ġnight gown
Ġlast ing
ren ches
Ġsl ay
Ġsl ob
Ġmin ce
fe ld
Ġcr ude
ĠCh ocolate
Ġreal m
Ġgra veyard
Ġcomp act
Ġhard ware
Ġres ulting
cl ub
Ġcour ty
Ġgl ac
Ġsho el
row ing
ĠAll ah
ĠFr is
ĠBr u
ĠBr at
Ġrec ital
ĠMar riage
ĠMar issa
ĠMar cel
ĠMar ilyn
Ġnum my
ma ids
Ġbox er
Ġbear ings
ĠAl one
ĠAl ban
Ġsing ers
Ġkill ers
Ġeight ies
ĠCha llen
Ġwind shield
Ġem ail
Ġpass ive
Ġpat ches
Ġbas ics
Ġjo gging
Ġmess engers
AN GE
Ġret iring
Ġdist inction
Ġcons ort
ĠAr rest
Ġi Phone
ĠDe id
AT ING
ĠHis pan
Ġass urance
Ġpri mitive
Ġsal ute
Ġsub t
Ġdi pped
ĠAh hh
ĠSc ots
Ġcream y
ĠGer ard
ĠInd ivid
Ġap iece
ĠJack y
Ġhon oured
Ġpartic ulars
Ġcent res
Ġgun powder
Ġreason ably
ĠTr ade
ĠHar bor
Ġed it
Ġpar cels
Ġstar ter
ĠGr anger
ĠRe id
ding ton
Ġhur ray
Ġrain forest
ĠPh ini
umb ent
het to
ĠMe aning
ĠEd wards
Ġdream t
Ġmot ors
ĠBar ons
Ġorder ing
Ġorder ly
Ġ7 00
Ġheal thier
ric ate
Ġboo st
Ġspo ilt
Ġsil ky
ĠPar amount
ession al
Ġpack s
Ġann ex
ĠCon nie
LE D
Ġrad ar
Ġdoub ted
Ġdisapp ears
ĠCo ca
Ġbright ness
Ġconst ra
ĠNor folk
ĠNat asha
ĠMo e
Ġori ent
Ġrub s
ĠIT V
Ġbes ie
Ġmis fortune
Ġpin chers
ĠSm ile
Ġrul ers
rr rr
20 18
20 15
Ġviol ets
ĠCr ane
uct ions
rop he
Ġfail ing
ĠPo ly
ĠPo pp
Ġaccount ing
Ġpond s
Ġpun ched
Ġ13 0
Ġhy ena
met ic
ĠRy edale
ribut ed
ĠAnn ouncer
Ġport s
ĠTra ining
Ġtrad es
Ġsew er
ĠBra hm
ĠMil k
ĠMil o
Ġident ification
Ġpatient ly
ĠJeff rey
Ġdish on
Ġrelig ions
Ġemb assy
ĠMore over
yl on
Ġremark ably
Ġtu ition
Ġlibr arian
ĠMac Donald
Ġshock ing
Ġaware ness
Ġthirt ieth
Ġwhist les
Ġscr ut
Ġver bal
ĠBer keley
Ġhost ages
Ġtemper atures
Ġnervous ly
ĠPre cisely
Ġcult ivated
gl asses
ĠSal t
ĠSal v
Ġmel od
ĠDel ta
Ġcheap est
Ġperfor mer
Ġscreen writer
FF FF
ĠTea ch
ĠUs ing
Ġsqueak ing
ĠReg ina
Ġbrand s
ĠJon ah
Ġsneak ing
Ġchallen ging
Ġess ence
ĠGar field
hol m
Ġinterview ing
Ġinterview ed
Ġshr ine
ĠMont gomery
can ic
Ġrac ial
Ġadvert ise
Ġadvert ised
Ġappeal ing
Ġacqu ire
Ġpra irie
ĠFil ip
ĠStand ard
Ġburst ing
Ġbom ber
ĠRen Ã©
ĠEv il
Ġswam ps
Ġpant ry
Ġreward ed
ĠĠĠĠĠĠĠĠĠĠĠĠĠĠĠĠĠĠĠĠĠĠĠĠĠĠĠĠĠĠĠĠ ĠĠĠĠĠĠĠĠ
sell ing
ĠConf eder
Ġped est
dro ps
ĠBO TH
Ġ189 0
Ġencoura ges
ĠGil bert
Ġ190 5
BER T
Every body
Ġenvelop es
Ġpitch ing
Ġspect ators
pass ing
Ġtender ly
ĠWr ite
ropol is
ĠOs lo
ĠUr ugu
Ġconfident ial
Ġing en
Ġdomin ated
ĠTar get
ĠGuard ian
Ġprob able
Ġsled ding
Ġorganis ms
Ġsurge ons
Ġcalcul ated
Ġcert ified
ĠEN D
ĠCass ie
ATION S
comm unes
ĠPlan ning
Ġshrink ing
ĠBund es
Ġunlock ed
ĠLeg ion
Ġfulf ill
Ġgram mar
Ġmathemat ician
Ġaccommod ate
orpor ated
ĠBrig ade
ĠGene va
Ġaccord ance
Ġadapt ation
Ġindign ant
Ġhyp ocr
ĠFa ith
Ġhack ed
Ġsust ained
ĠPeters burg
Ġinterpret ation
Ġbloss oms
ĠAbd ul
ĠWan aka
Ġdispl ays
Ġtwelf ths
SCREAM S
grand father
Ġconvent ional
Ġreluct antly
Ãĸ Ãĸ
Ġbrack ets
Ġsubsequ ent
Ġendeav our
hams hire
ĠEconom ic
ĠClar ke
Ġpsychiat ric
Ġcorrespond ence
ĠBase ball
ĠFace book
Ġsoot hing
Ġprompt ly
Ġclergy man
Ġchron ic
Ġinherit ance
Ġgamb ling
nk ÃĸÃĸ
ĠJed i
Ġatom ic
Ġabrupt ly
ĠVick i
Ġpilg rim
Ġhyster ical
Ġcockro ach
ĠValer ie
Ġelabor ate
Oct ober
Ġspokes man
ĠCapit ol
Ġhairdress er
ĠAgr ic
forman ce
Ġsurn ame
ĠHAM ILTON
ĠDubl in
ĠGio van
Ġunac ceptable
ĠCincinn ati
Ġmelo dy
ĠPhini as
ĠUrugu ay
4 00
8 5
C OM
D U
D IE
F ar
F our
H ay
I F
L o
L ast
M ore
M ake
N ice
O k
P C
S am
U H
W ARD
b ase
c in
c ur
c ons
c any
d is
d oo
d ef
d rant
e cess
f ed
f its
g ree
l ast
l ier
m om
m ust
m itt
m ere
o lyn
p ound
p oons
r ade
r ations
s ky
s upp
t ac
v iv
v ial
w ald
â ģ
Ġ ic
Ġt s
Ġw ist
Ġs is
Ġs ighs
Ġs issy
Ġthe r
Ġb op
Ġb ounces
Ġd ow
Ġd ine
Ġd ung
Ġd agger
Ġm orrow
is o
ĠI R
Ġf idd
Ġg ears
an oke
on so
Ġl ens
Ġl aces
Ġl umpy
Ġp ike
Ġp uss
Ġp oul
Ġn ae
es a
ea gues
Ġth inner
Ġth resh
et ings
ot hes
Ġon ward
Ġ- --------------------------------
at ile
ĠT ap
ĠT ale
Ġ" ".
le an
ic er
ut ory
ut ta
ĠB A
ĠB M
ĠB ach
ĠB IR
ĠB LA
ĠB umper
ĠS L
ĠS ons
ĠS tern
ri ms
se em
im on
ĠM ate
ĠM ail
ĠM itch
ĠM ICH
Ġre e
Ġre cept
Ġre app
ĠW ool
ĠW ins
ir rel
Ġli ken
ad os
Ġfor ged
Ġst ately
Ġst umbled
ĠH os
ĠH ah
ĠH unt
ĠH assan
Ġsa bot
ĠY v
ĠY oo
am oto
st ack
st reet
Ġas par
Ġdon keys
ĠC ara
ĠC ait
ĠC AP
ĠC ode
ĠC ec
ĠC emetery
ill ac
ĠL ed
ĠL al
Ġpl unge
ĠD ing
Ġhere by
ra ve
Ġsh rew
Ġsh udder
ĠN ail
Ġne ct
ĠO st
ĠO wn
ie nd
op en
ĠG ong
ĠG hana
ab e
?" .
ĠP S
ĠP ors
ĠP andy
ĠP ears
ĠP ilar
ĠR ou
ĠR im
ĠR aw
ĠR udy
ĠR INGS
ge on
ĠJ IM
ul us
art e
art y
ĠF an
ĠF eet
ĠF ury
ĠF UCK
ĠF INE
ĠE e
ĠE gg
ĠE du
ĠE sc
Ġsu ited
ound rel
Ġsp here
Ġsp ik
os lo
ep lay
Ġbo ll
Ġmore over
Ġdown ward
Ġtw itch
Ġman atee
Ġv oid
Ġv andal
ĠShe l
ĠWe ist
Ġpro x
Ġtr ooper
Ġar d
ies on
ĠBen edict
ĠK os
Ġpe ed
Ġpe ers
Ġpre st
Ġpre ach
Ġpre hist
Ġsha bby
ĠU FO
Ġhand ic
Ġfl own
Ġfl eas
Ġfl apped
Ġch um
-- ?
Ġsc orpion
ull en
iz oph
ĠIn formation
Ġhouse wife
Ġhi jack
ĠV ent
ĠV ers
ĠV ideo
Ġmin istry
ara h
ĠCh u
Ġrun way
Ġrun ners
Ġ' ?
Ġmon ot
ign on
ign ment
cl air
Ġear ring
Ġgl ued
Ġgl itter
oy al
ĠAll ow
Ġea ters
Ġdifferent iate
Ġcount less
oup le
iv able
Ġred d
ĠBr om
Ġsleep er
ĠUn believable
Ġph oning
Ġsort ing
ĠTH INGS
Ġcomm end
ĠNot e
ĠPl easure
ah ua
Ġhigh ways
Ġdad s
Ġinv ention
Ġpee red
Ġpee ped
Ġpee ping
Ġca fe
az ine
Ġhor rors
Ġpat ri
ĠSh un
ĠSh ield
ĠSh outing
ĠZ ig
Ġbooks helf
Ġtri but
gr own
gr unts
Ġcry st
Ġmet re
Ġref uses
Ġimp aired
Ġcountry men
Ġsal on
Ġsal vation
Ġsent ry
Ġposs essions
Ġfuck er
ĠAd ity
Ġstore d
ĠSc reen
Ġimportant ly
An other
Ġty r
Ġap ost
ĠBl air
ĠBl anche
ĠEx change
Ġhon ours
ĠChar t
Ġ18 00
ĠSe venty
Ġstra ined
Ġins ign
ĠRe ich
ĠRe view
Ġsea man
ĠPh ot
ĠJen kins
Ġmain land
ald i
ĠMan ipur
ĠPro ductions
Ġrepl ies
Ġban quet
Ġadv ancing
ĠSw an
ĠSw itch
ĠTO M
Ġstraight ened
Ġ10 5
Ġcur ved
read ing
ĠChe w
Ġcross es
Ġta vern
Ġsuper st
Ġsuper natural
LE Y
Ġrad ishes
Ġtem p
Ġbur gers
Ġsuff oc
Ġtax pay
ĠNat ives
ĠPat ri
ĠMo z
ĠMo le
Ġpleas ures
Ġsquir ting
Ġdet ention
ĠWH ICH
Ġpost p
Ġpost man
Ġneighb oring
ĠRob by
Ġmis chie
Ġvict ories
ĠSaturday s
Ġbump ing
Ġsight ed
ĠRober ts
ĠKen ya
ĠGl ory
light s
ĠThom son
ĠSy ria
do ch
Ġpupp ys
ĠFin ish
Ġhall uc
Ġprofession als
ĠRy u
ĠCor byn
Ġweak er
Ġbeha ving
sha ped
Ġgrad uation
Ġactiv ists
ĠTra ffic
asc ar
Ġhook er
ĠST OP
ĠST ILL
Ġspread she
ĠBE H
Ġsens ors
Ġroof s
Ġsew s
ero cious
Ġdecl aring
Ġdeter ior
ĠRon ville
Ġiron ing
ĠMost yn
isha l
Ġadvent urous
Ġlibr aries
ĠMac donald
Ġjoy ous
ĠRos en
ĠRos amond
ĠHas n
uch i
Ġmel ts
Ġmel anch
Ġfoc uses
Ġassoci ations
ĠAndrew es
ĠMur doch
Ġshore s
ĠJam ieson
ĠTer ror
play ing
Ġtarget ing
ĠNO THING
ĠBack ground
ĠGO D
ĠLes ter
ĠLy on
Ġshr ub
Ġbend s
ĠStan ford
ĠStan islas
Ġcommunic ating
Ġnation wide
Ġcomment ed
Ġpred ators
Ġpred ecess
ĠMill ie
Ġtal ents
bur st
Ġrot ting
Ġgang s
Ġuna v
ĠWind sor
Ġpoo rer
ĠPop ular
Ġintern ationally
Ġmechan ics
ĠTa lyn
Ġcris py
ĠFore ver
ĠGi ants
Ġsweat ing
Ġprior ities
Ġ188 0
ĠGeorg ian
ĠFer r
Ġmerc hants
Ġsof ter
ĠAB C
ĠBur ke
pro bably
Ġcommission ed
Ġinterf ace
ĠMission aries
Ġillness es
Ġspect acle
ĠGard ener
ĠInter state
Ġconvin cing
walk er
Ġcooper ative
Ġhom icide
ĠHay ley
ela ide
hens ion
Ġdial ogue
ĠProt ection
ĠContin ue
ĠCub an
Ar thur
ĠClear ly
Ġwithd rawn
Ġillustr ation
Ġdot ted
Ġundert ake
Ġscold ing
Ġadmir able
Ġovert ake
Ġrestrict ions
ĠWOR LD
Ġinvent ions
ĠSong s
Ġanten nas
Ġyield ed
ĠJos ie
hu ahua
Ġinsult ed
ĠGU YS
ĠKa iser
cript ions
ĠRain bow
Ġhal ves
Ġhal ted
Ġmock ing
ĠBurn s
Ġintegr ity
Gr unts
Ġtramp oline
ĠSel by
Ġknob s
Ġlandl ords
Mom my
ĠZe us
ĠCad illac
ĠBrand on
Ġsuburb an
Ġoy sters
Ġexplod ing
nold s
Ġlod ging
Ġbully ing
Ġobed ience
ĠBless ed
Ġiv y
Ġoverwhel med
Ġsurviv or
ĠIllustr ations
ĠNad ia
ĠPil ot
ĠBald win
Ġbapt ized
Ġmilit ia
ĠConstant in
Ġdwar fs
ĠKap oor
Ġremo ving
ĠTru ly
ĠTi ppy
ĠDew ey
ĠEmb assy
Ġprophe cy
Ġpremie red
ĠKE EP
ĠPrinc ip
Ġnit rogen
Ġencl osed
ĠTreat y
Ġcaut iously
ĠScream ing
Ġcors airs
anth rop
Ġfatig ue
ĠGon z
ĠGoo gle
ĠMalays ia
Ġarrog ant
Ġtranspl ant
ĠAth let
ĠTurt le
ĠTren with
ĠWhar ton
ĠBarna by
Ġirres ist
Ġbount y
Ġscram ble
Ġparano id
Ġgrassho pper
Ġparach ute
Ġcontempor ary
Ġcurric ulum
Ġtorped o
ĠFortun ately
ĠMumb ai
oneys uckle
Ġunreason able
Ġinappro priate
Ġbicy cles
ĠNatur ally
Ġphras es
ĠHORAT IA
Ġcafeter ia
rast ructure
âģ Ħ
Ġaspar agus
Ġnect ar
izoph ren
/ /
0 7
6 3
A lp
A ub
A lex
B uzz
C Y
C arr
D E
E VER
F ly
F red
G eor
H S
H as
K O
M ic
M ad
M BER
N or
N ER
O THER
P ol
Q ue
R OUGH
W A
] .
a uts
c ue
f a
f in
f ing
g oo
h ome
h il
j ar
j eet
k ir
m ma
m uch
n Ã©e
o ked
o ffic
r t
r ace
s d
s ch
s ire
s uit
t aking
v il
z heimer
Ġt l
he al
Ġw iser
re ep
re cy
ha gen
Ġo omp
it ic
Ġb am
Ġb ord
Ġd umps
Ġd ensity
Ġm ute
Ġm ower
Ġm ah
Ġm akers
nd on
Ġf use
Ġf ences
Ġf ancies
Ġf erocious
Ġg iv
ing les
Ġp ell
Ġn ud
Ġn ymph
or rect
Ġh unk
Ġh uts
et he
ar in
ar ming
oo ch
ĠT P
ĠT her
ĠT able
ĠT eal
ĠT ib
ĠT ales
ĠT arn
us ky
Ġwe ld
Ġwe ighs
ĠA I
ĠB are
ĠB inky
ĠB AB
ĠS ain
ĠS ON
ĠS ki
ĠS iber
ĠS ieur
im ir
ĠM ell
Ġre cl
Ġe clipse
ĠW IN
ĠW ik
ĠW isdom
ir ling
ad der
ad ier
ad abra
Ġst unt
Ġst ability
ac a
ac ies
ĠH es
ĠH eat
ĠH ers
ĠH ide
ĠH ub
ĠH urt
Ġan at
am eter
Ġwh it
Ġwh iz
st ruction
Ġnot ions
ro c
ent ines
Ġas c
Ġdon ation
ĠC ork
ĠC itiz
ĠC RA
ĠC ulture
ill as
ĠL OU
ĠL OT
ĠL IST
ĠL iar
ĠL aughs
ion eer
Ġso y
Ġso bs
Ġshe lt
ur m
ur ich
Ġpl ots
ĠD ab
ĠD ul
ĠD ane
ĠD rew
ĠD ata
ĠD yl
ĠD raft
Ġup ro
Ġup hold
ra oh
Ġsh ipped
ĠN I
pp ie
ĠO din
il ings
op old
Ġab normal
itt e
ĠG ru
ĠG eez
Ġr uddy
Ġal armed
um ing
Ġor ch
ĠR ut
ĠR um
ĠR oute
ĠJ asmine
ul ates
ul ator
ol is
ĠF K
ĠF aster
ĠE L
ĠE k
ĠE z
Ġsp erm
ers ed
est one
Ġthen ce
Ġcl earer
ort ing
ber n
ap est
Ġover look
Ġpro hib
Ġint ently
Ġmo ons
ĠNo va
Ġro bbing
Ġco ax
ag ged
Ġcon cess
Ġcon ceived
ĠK ur
ĠK een
ĠK wan
ich o
Ġbr ont
Ġcar riages
ĠTom ato
Ġbu p
iss ance
Ġaf ore
Ġel ves
Ġch ow
Ġch ol
ĠWh oops
Ġsw elling
Ġsc or
Ġsc ars
ĠSt ore
ĠSt age
ang a
ang ular
me ga
Ġunder pants
ĠDo gs
co e
Ġ19 11
Ġ19 15
Ġop ossum
iff erence
ĠV il
ub ub
Ġmin erals
rd u
Ġapp ar
Ġapp ra
ons on
Ġcr uc
Ġdr ows
Ġac ro
Ġper imeter
Ġgra vel
Ġcomp onents
Ġpick y
Ġpick et
ĠDon ny
inn ings
cl ears
Ġcour te
Ġgl ea
Ġgl oss
Ġgl ances
og an
ĠAll iance
bb ler
Ġmil adi
Ġsur g
Ġwo k
Ġpol ishing
Ġrel ay
Ġgi ants
Ġsk irm
ĠTH OSE
ĠTH ROUGH
oc al
oc ity
Ġpoint less
Ġsecond ed
Ġinv itations
Ġacc use
Ġreg ulation
ĠCl ock
Ġten ant
ĠSh o
Ġjo e
ĠZ one
sh ould
sh ore
Ġrep et
Ġdist ribute
ne g
gr unting
Ġtre ad
ĠAr ist
by ter
Ġref ined
AT S
Ġinf inite
app a
Ġbar riers
Ġconf use
Ġdi arr
ounc ing
ĠAd elaide
AR ING
Ġ5 3
ĠGer ry
ĠJo in
Ġquestion naire
ĠBl ind
ĠBl ues
ĠHer man
ĠEvery where
ĠGrand e
ĠSe o
ĠTr ish
Ġed ible
Ġed itions
ĠTw in
ĠRe cent
ĠPr adesh
ĠPr ussia
ald o
ĠLuc ifer
oub t
ĠBar be
ĠPro p
ĠPro vin
Ġband ana
Ġpos h
Ġfa wn
ĠJan ey
Ġboo bs
Ġopp osing
ĠX I
Ġ9 6
Ġda is
Ġda zz
AS TER
Ġfarm house
com b
Ġappro aches
born e
isten ing
ray s
Ġsuper b
Ġsuper vision
ĠPaul ine
ĠMor rison
Ġcard inal
Ġsol ving
Ġtruth ful
ĠMo k
ĠEuro vision
Ġfort ies
Ġchew y
ĠMin jae
Ġprop ag
Ġextra vag
Ġstat utory
Ġpost ers
EA K
Ġpin ching
Ġelect ro
Ġleaf let
20 14
Ġcart s
Ġmem o
Ġcompet ent
ĠMon roe
Ġspir ited
CH ING
Ġmeas les
Ġexcl usively
Ġaut hent
Ġ14 0
Ġdiscuss ions
Ġhall s
Ġant ib
Ġant agon
Ġfre ck
Ġport ions
ĠTra vel
Ġspring ing
chan ce
ĠMal ay
ĠFred a
ĠFred die
Ġupset ting
iot ics
Ġbenef icial
rit is
off ice
ĠRoy ce
Ġpic n
Ġtour s
Ġbound ed
CE LL
Ġcock y
Ġcock tail
Ġimm oral
Ġemb ark
ĠMac G
ĠColl eagues
Ġmurd erers
ĠÃ İ
ĠGro ve
Ġcollect or
Ġcollect ive
Ġlower ing
Ġsurf board
Ġscr itch
Ġdemand ing
Ġfurn ace
ĠTe h
Ġcrown s
ĠDel aw
ĠSqu ire
hold er
Ġstack s
Ġapolog ise
Ġtoil ets
Ġjam med
Ġtarget ed
sp eak
Ġdecor ating
road s
ĠBoo bo
ĠSing les
ĠMont e
Ġrac ism
Ġspark les
Ġpoison ing
Ġterrif ying
Ġneg lected
ĠBas ket
ĠHy de
Ġpurs uing
RA IN
Ġinqu iries
Ġrespond ing
Ġterror ism
Ġsubs cription
Ġlack ed
Ġwrest le
ERS ON
Ġdu o
Ġrank ing
Ġexpress ions
ĠScar borough
boo sh
ĠAng ie
Ġinstru cted
Ġwid th
Ġhabit at
Ġsore ly
Ġbul bs
ĠHell wig
Ġcontribut ions
fect ure
Ġfierce ly
ĠBow ie
Ġexchan ged
Ġ186 1
Ġ189 1
Ġinterf ering
Ġsacrif ices
Ġconqu ering
Ġenorm ously
Every one
ĠMid land
Ġmultip ly
Ġcorpor al
ĠKnow ing
Ġsumm ary
ĠGard ens
Ġgigg les
ĠMir ror
Ġkidna p
ĠArab ia
ĠPa ige
Ġtremend ously
Ġna ive
Ġexpand ing
ĠMarian ne
Ġpussy cat
Ġassault ed
ĠTW ENTY
Ġprob ability
Ġgoo ey
ĠHawai ian
Ġpha raoh
Che ers
Ġrepro ach
Ġsurprising ly
Ġassh oles
ĠJO B
ĠBos well
ĠMcC art
Ġlos ers
Ġastron aut
ĠWy att
ĠDream s
Ġfulf il
ĠRef erences
Ġtatt oos
Ġhehe he
Ġretain ed
ĠNiger ian
Ġgram ma
Ġstair case
ĠForm ula
ĠCzech oslo
Ġadvertis ements
ĠHorn er
ĠNon no
Ġsole ly
Ġrebu ilt
alp ine
Ġtrend s
Ġmisunder stood
ĠRud olf
ĠSax on
Ġbrig ade
ĠRey nolds
Ġclar inet
Ġveter an
Ġskate board
ĠNinet een
Ġterr ace
ĠLear ning
ĠBron x
Ġcontem pl
ĠConstant ine
Ġerrand s
Ġcompre hend
ĠDaw son
ĠFal con
Ġque ue
Ġpsycho ana
Ġaster oid
Ġremo val
ĠNi agara
ĠLt d
Ġabst ract
ĠLuck ily
Ġmotiv ation
ĠAim ee
ĠOrgan ization
Ġlocomot ives
icular ly
Ġinconven ience
ĠMAD E
ĠWals all
ĠEmer gency
ĠVi king
ĠProtest ant
ĠBeet hoven
ĠRaf ael
Ġwholes ome
Ġbos om
KN OCK
ĠTus cany
Ġintroduc ing
Ġgrandp Ã¨re
ĠNev ada
ĠDore en
ĠMoroc co
ĠObject ion
Ġdw elt
ĠTink er
ĠRAD IO
Ġparl our
ĠOtt oman
ĠKirst en
ĠVeron ica
Ġadmin ister
ĠFlint stones
ĠAbo ve
ĠYug osl
Ġdiso bey
ĠCanter bury
Ġcourty ard
ĠDeid re
ĠIndivid ual
Ġthresh old
ĠPears on
Ġprehist oric
ĠConstantin ople
! )
" ]
4 2
6 9
: //
A b
B all
B aby
C R
C all
C ap
G eneral
H ad
I TH
K n
M ine
M ag
R em
S I
S uch
T M
T oo
T AIN
U ALLY
W o
W on
a inder
b ys
b ug
d ings
f ell
f ew
f orth
g ence
g ne
h or
k ies
k ens
l ove
l anguage
m id
m iss
n ell
n og
o ken
r ish
s hed
s aw
t z
t ea
v id
v ar
v ah
w ee
w ords
w agen
w orthy
Ä «
Å Ł
Ġ 000
Ġ ounce
Ġt ic
Ġt ul
Ġt renches
Ġw ither
in qu
Ġb ishops
Ġd ys
Ġm uck
nd ered
Ġc ue
Ġc ens
hat e
ll o
Ġf le
Ġf urs
Ġf ives
an ity
on by
Ġl ur
Ġl ull
Ġl iner
Ġp ite
Ġp als
Ġp ah
Ġn arr
or ig
en hagen
ea e
Ġh ick
Ġth umbs
ot hel
as ket
ar an
ar ound
at ar
at ers
ĠT een
Ġ" (
le z
le in
ĠA ther
ĠA ctor
ĠA argh
Ġbe fall
ĠB ates
ĠB itch
ĠB isc
Ġu l
Ġk ins
ĠS r
ĠS ig
ĠS ey
ĠS ail
ĠS UR
ĠS kel
ĠS omers
ĠS asha
ĠS outheast
ri o
ĠM ard
ĠM obile
Ġre bel
Ġre igned
Ġre organ
ĠW AL
ĠW ords
ir ting
Ġli lies
Ġgo ggles
ĠH unting
ĠH wa
ĠH ooray
Ġsa ge
ĠY ORK
Ġkn ack
am ous
ro ken
Ġdon uts
ĠC reat
ĠC age
ĠC ock
ĠC elt
ĠC ros
ĠThe ory
ĠThe ater
Ġj an
Ġlike wise
ion ed
Ġso cially
Ġpl umb
Ġpl astics
if ting
ĠD ed
ĠD ol
ĠD ia
Ġup coming
Ġup hill
ĠN ass
il er
il ion
ie ces
Ġout right
Ġout post
op ed
ĠHe ung
Ġhis sed
ĠG ad
ĠG ol
ĠG ave
ĠG AS
ĠG imme
Ġr ar
ĠP ul
ĠP os
ĠP ump
ĠP AR
ĠP orter
and el
ig ate
ind istinct
Ġor gas
ĠR avi
ain es
Ġgood night
ĠJ ab
ĠJ asper
ĠF eat
ĠF ancy
ĠE ileen
uh g
ca v
Ġsp ine
Ġsp ont
Ġsp ices
ong s
ick le
Ġbo ar
ist e
Ġcl a
Ġv as
ĠShe ff
Ġex ile
Ġag itated
Ġover he
Ġse izing
Ġse rene
Ġse gment
Ġpro pri
hi er
Ġmo ld
ĠNo k
Ġbl ot
Ġco als
ĠK ha
ĠK aw
Ġpe er
Ġbr r
Ġcar amel
Ġbab es
Ġbab bling
thing s
be k
ect s
Ġsm ith
Ġsm ily
Ġsha ker
Ġbook ing
Ġbook ie
Ġthr ong
Ġfl am
Ġfl op
Ġfl aw
Ġfl irt
Ġhome land
ĠWh ig
Ġsw apped
ob a
ob iles
ob bing
Ġgr ants
Ġgr anny
Ġrem ainder
Ġfind ings
Ġhm hm
Ġcha ined
Ġcha uffeur
act ed
ĠDo h
ĠDo dge
Ġnew er
ile mma
eel a
Ġ19 13
Ġfo ll
Ġfo es
Ġshow ers
Ġstart ling
ĠV id
ĠV ij
ĠV ishal
ub ilee
Ġlast s
pe cial
Ġra ging
Ġsl ick
Ġapp alling
Ġapp endix
Ġcr um
Ġcr ummy
Ġcr ows
Ġdr one
Ġdis band
Ġdis respect
ĠCh ick
Ġstr angled
Ġhard ship
Ġcol t
Ġcook er
Ġres erv
ĠIs h
Ġgl eam
Ġsupp ressed
ild er
ĠAll onby
ph ur
ĠBr ace
ĠBr ought
ult s
IN ESS
Ġsn uff
Ġbea ms
Ġbat tered
Ġrel ates
Ġph ooey
ĠAl zheimer
ĠTH IR
Ġcomm otion
ĠNot es
Ġlight house
ĠPl ains
ĠGod s
Ġmiss y
ĠChr issy
Ġrest ra
Ġdad dies
Ġdec ree
Ġice berg
Ġduck ling
Ġgreen house
Ġca vern
Ġri ots
Ġpat riot
ĠMax im
Ġreg rets
Ġbas in
ĠCl er
ĠSh ot
ĠZ urich
sw orth
sh ots
Ġpen nys
gr an
Ġmag istrate
Ġfast en
Ġdef er
Ġdef icit
Ġcons ented
Ġcons ulting
Ġcons istency
ĠAr med
ĠAr ctic
Ġmet ropolitan
Ġi OS
ĠNew ark
Ġimp ulse
izz a
ĠFl owers
old s
und heit
Ġsal oon
Ġsub mission
rat ic
ĠCom o
ĠCom pet
ĠSc ri
Ġsand s
Ġsand als
ĠInd istinct
Ġfore ns
ĠJack o
br ook
ĠOr lando
no vation
ĠTr acey
oop ers
unk y
Ġstar ved
Ġpubl ish
Ġsea men
Ġpet t
ĠLe opold
ters hire
ĠJen na
umb les
Th under
Ġ6 6
ĠMan ning
ĠMan agement
Ġve he
Ġve xed
Ġtrans ition
Ġpictures que
ĠDan es
ĠChe ering
Ġcamp ed
ĠCol bert
ĠAN N
ĠFrench man
lo aded
Ġbelong ings
Ġbud s
Ġspl ashes
Ġgrass y
Ġdisc onn
ĠMag istrate
Ġbur row
Ġlem ur
Ġbreat hed
Ġdem ons
ĠNor ris
ĠQu in
Ġequ ations
Ġrid ges
ĠAnt i
ĠWar ri
ĠCH UCK
Ġview ers
ĠMad die
Ġpriv at
Ġmir acles
,-- "
Ġoo aa
ĠSm oke
Ġstation ed
ĠHo gg
20 17
Ġbell e
ĠMon a
Ġinvest ed
Ġinvest ments
Ġdig s
bre cht
Ġvol canic
Ġobject ions
ĠRo x
Ġvac ations
Ġhy drant
ĠPark inson
ĠFo zzie
ĠKat z
Ġport able
Ġflat ten
Ġadm iring
Ġmer maid
chan g
ĠSim ilar
Ġep id
ĠBra ve
Ġbi as
Ġbi ased
Ġtent acles
Ġtour ists
Ġcock pit
Ġbattle field
yl ophone
oe uv
CT ION
Ġstock s
ĠAc cess
Ġcelebr ity
Ġparticip ation
ĠWood end
Ġstret ches
ĠMarc ella
ĠMarc elle
ĠCam ille
Ġstink ing
Ġpsych ologist
ĠSqu irrel
form ed
ĠSix teen
Ġliter acy
ĠPet rov
mel ess
Ġinit ials
sp ace
ĠSa fe
Ġhonor able
ĠDar n
ĠDar ren
Ġcondition ing
ĠLab or
Ġpa wn
Ġswear ing
ST AND
Ġfac ulty
Ġconcl ude
ĠRepublic ans
Ġpred omin
ĠTre may
with standing
Ġinqu ire
mark s
Ġforeign ers
Ġestabl ishing
Ġsack ed
ĠHaw kins
Ġfasc ination
Ġtransport ed
ĠEmp ress
Ġvot ers
Ġelev ation
Ġast hma
Ġroyal ty
Wh is
Ġpurcha sing
ĠĠĠĠĠĠĠĠĠĠĠĠĠĠĠĠĠĠĠĠĠĠĠĠĠĠĠĠĠĠĠĠ ĠĠĠĠĠĠĠĠĠĠĠĠĠĠĠĠ
IND ISTINCT
Ġscra ps
Ġunexpected ly
ĠOt is
Ġtid ings
ĠBir k
Ġnoble man
Ġscrub bing
Ġflood s
UM B
ĠKill ing
Ġemotion ally
ĠMid lands
Ġprec inct
Ġtwist ing
Ġcompos ite
Ġcheerlead ers
Ġweigh ing
Ġbroadcast ing
Ġdawn ed
Ġsorrow s
Ġmal function
Ġske let
ĠPam per
ĠDesmond stown
bor o
ĠBeat les
Ġimpat ience
Ġcompar ative
Ġmount ing
ĠTIM ES
ĠSocial ist
Ġorganis ations
Ġexplan ations
ĠAv on
Ġcalcul ate
Ġdepos ited
Ġrust y
Ġaston ishing
Ġlun ches
ĠFeel s
gro aning
Ġeth ics
ĠCur ly
Ġvig or
Ġdeliber ate
Ġesc al
ĠJO HN
Ġgraph ic
ĠPitts burg
ĠBurn ing
Gr unting
Ġbund les
Ġcoord ination
Ġprick ly
Ġtoler ate
only incl
Ġmulti pl
ĠStri ke
ĠBrid get
Ġimmig rant
ĠXV I
Ġrebu ild
NE Y
ĠDig ital
ĠSpani ard
Ġdynam ic
Ġreass uring
Ġrevol ver
ĠLim ited
Ġreluct ant
ĠQueens land
Ġexceed ing
Ġirrit ating
ĠEls a
Ġcontrovers y
Ġmanufacture r
Ġbapt ism
Ġdwar f
Ġsway ed
Ġinev itably
Ġprev ailed
Ġslop es
Ġragged y
Ġloos en
ĠWA IT
Ġratt ling
ĠOcc itanie
BB ING
Ġfug itive
ĠThorn e
ĠCarly on
Ġinfect ious
Ġpend ulum
ĠWON DER
Ġtreacher ous
haus en
ĠSpark y
ĠAlber to
Ġempt ied
ĠHil ary
Ġapprent ice
Ġmatern ity
Ġreinforce ments
ĠSull ivan
ĠFem ale
ĠDisco very
Ġnipp le
ĠNeb raska
Ġreduc ing
Ġchipm unk
Ro anoke
Ġpudd les
Ġadequ ate
LECT R
Ġlor ries
ĠMeth od
Ġtwink ling
Ġbarr acks
ĠPerse us
bun al
Ġsubsidi ary
Ġcuck oo
ĠPengu in
ĠRoche ster
ĠTum mus
ĠNol an
Ġslo ppy
Ġsard ines
ĠRidd ick
Ġsociet ies
Ġdement ia
ĠCaret to
ĠSerb ia
Ġundoubted ly
HAL ES
Ġigl oo
Ġtanger ine
ĠAig oo
ĠGiovan ni
ĠMICH A
Ġshrew d
ĠAdity a
ĠDyl an
Ġappar atus
ĠCzechoslo vak
ĠSheff ield
onlyincl ude
2 000
2 20
5 9
? .
A Z
B re
C U
C ong
D rop
E d
G un
G UN
G osh
I OUS
J esus
L ord
L uc
L ER
N ord
P ar
P olar
S te
T im
V ENT
W ar
_ ."
a gh
b est
d iction
f red
g all
j ee
l oo
l ink
l ore
l ins
l ical
m ain
m ower
m obile
n u
n en
p el
p ress
s bury
s ensei
t ons
t led
u u
u ish
y ama
z el
Â £
Ã ½
Ġ nd
Ġ ounces
Ġt uesday
he um
Ġa ven
Ġa ah
Ġa ching
ou x
Ġw addle
in ters
Ġs ane
Ġs ided
Ġs ized
ha il
Ġy en
Ġo re
it ory
Ġb il
Ġb io
Ġb amb
Ġb ae
Ġd red
Ġd arts
Ġm ing
Ġm irth
Ġm wah
is n
ll i
Ġf ow
ing ed
Ġl ids
Ġp out
Ġp imp
Ġn our
es undheit
Ġit alian
om atic
Ġh ump
et or
et tes
as i
ar ina
Ġon wards
Ġdo s
ĠT ER
ĠT RE
us ha
us chw
ĠA e
ĠA br
ĠA bbie
ĠA stra
ke ls
ic z
ic ol
ĠB EA
ĠB auer
ĠS Y
ĠS ul
ĠS ick
ĠS ully
ĠS AM
ĠS IM
ĠS AME
ri um
im portant
ĠM ous
ĠM IN
ĠM ered
ĠM uri
ĠM AG
Ġre vision
Ġe cc
ĠW er
ĠW ick
ĠW ash
ĠW AGR
ir us
ly ph
al ways
ĠH av
ĠH eath
ĠH AR
ĠH ousing
Ġsa x
ĠY ah
ee le
Ġwh ine
Ġwh ipping
ro ls
Ġdon or
ch urch
ĠC u
ĠC ell
ĠC elebr
ĠC yrus
Ġj est
ill ion
Ġno bility
ĠL ob
ĠL od
ĠL ah
ĠL ights
Ġat oms
ur able
Ġpl ump
Ġpl asma
if ton
ĠD illy
ĠD ES
un ciation
Ġsee ks
ĠN ut
ĠN urs
pp ling
ĠO u
ĠO il
ĠO ma
ĠO sw
ĠO WN
op oly
ĠHe il
hing s
ĠG H
ĠG I
ĠG RO
ĠG Ã¼
Ġr ation
Ġr ins
Ġr iches
ĠP ia
ĠP aw
ĠP RET
our ce
ight ed
Ġal k
Ġal ias
um bered
Ġor ang
han e
ĠR in
ĠR ange
ĠR ED
ĠR AY
ĠR eds
Ġfr antic
ĠJ erv
ĠJ aff
ĠJ ACK
ul in
ul as
ol id
ol utions
ĠF ang
ĠF idd
ĠE M
ĠE rie
Ġwhere abouts
Ġsp ins
Ġsp ying
ist ing
ist ically
em a
Ġman iac
Ġcl ang
Ġcl ump
Ġcl inging
Ġv alleys
Ġer otic
ty pe
Ġint ol
ant ine
Ġmo or
Ġbl ades
Ġbl aming
uck ers
ĠBen son
ĠK il
ĠK ris
ĠK ov
ich ton
Ġpe gs
Ġpre lim
Ġam ple
Ġam mo
day s
Ġshould a
ĠTh y
ĠTh irt
Ġsha lt
Ġsha meless
Ġen forced
Ġel igible
Ġhand ica
ass ium
ĠWell ington
Ġgr oo
Ġgr unting
Ġsc all
Ġsc ur
ĠSt uck
ves ter
Ġunder way
Ġun qu
so on
so le
ĠIn ez
ĠAn at
Ġball ot
Ġche etah
od or
Ġname ly
ĠV ia
ĠV innie
ĠV lad
Ġim itate
man y
Ġad ren
Ġad verse
ĠHow e
Ġac oust
ĠCh im
Ġper ished
Ġschool ing
Ġbad ger
Ġstr ung
ks wagen
Ġtra ff
Ġever lasting
Ġres id
Ġgl am
Ġend ange
Ġsho ved
og a
ild ers
ĠAll ies
ph ine
ĠBr an
ank ing
ater al
ach y
Ġdoor bell
Ġdoor step
Ġleft over
Ġmil eage
Ġwar p
Ġwar ran
uc c
uc le
ĠJust us
Ġz e
Ġpres idency
Ġaw ait
Ġfoot ing
Ġmind ing
aur us
Ġfell er
Ġwind mill
Ġem blem
Ġrest oration
Ġpay check
Ġind uce
Ġind ifferent
Ġduck ing
Ġhor ribly
ĠTo ad
Ġreg ener
ĠCl ive
ĠCl ifton
head s
Ġchar ms
Ġinst ances
Ġrep ent
Ġtri pping
Ġdel ivers
Ġdel ays
Ġheart h
Ġsign atures
Ġdep ot
Ġdep loy
Ġref ere
Ġinf irm
Ġegg nog
Ġass et
app en
Ġpot tery
ĠFl ag
ĠFl ip
Ġconf isc
Ġcool est
Ġsoft ball
Ġsal aries
Ġdi ver
Ġcheese burger
Ġcompl iments
Ġstre ak
ĠAh j
Ġexpl icit
ĠAd a
Ġexp ired
Ġsnow ed
Ġsnow balls
Ġgener ator
AR A
Ġpast or
Ġsim ult
Ġsec recy
Ġshort age
Ġdark est
ĠEx plain
ls on
ĠGrand addy
Ġfeed back
ĠTr amp
ĠHar court
oop ing
Ġstar ry
cha l
Ġins ight
Ġins ert
Ġins ulting
Ġinter action
ĠGr amp
Ġclear ance
Ġseat belt
ĠSha l
IS TER
ĠBar ber
ĠPro ven
ĠPro per
Ġcost ly
Ġband aged
Ġban ners
ific ant
Ġbrown ish
ĠSw ind
Ġtrans m
Ġfa ire
Ġpress es
Ġ10 1
Ġcur b
ĠGu er
Ġgar ment
ĠHi pp
Ġpolit ically
gu ys
lo at
let ter
ĠAb i
Ġimag ining
ĠCon vention
ho ot
ĠPe g
Ġcard iac
ĠLea ving
Ġoper ational
ĠCo hen
ĠCo ach
ĠCo vent
IC AL
Ġconst able
Ġtax ed
Ġprin ces
ĠNor wich
Ġbri m
ĠQu ad
Ġequ ity
Ġclock wise
Ġcomb ing
Ġcomb ed
Ġgas p
ĠGre etings
Ġrub y
Ġamaz e
Ġview ing
Ġvar ies
Ġvar ieties
Ġbyeb yes
Ġham per
Ġbull ied
Ġoo f
Ġvict orious
Ġesca pes
Ġremind ing
Ġnodd ing
ĠCr ichton
ĠMon ty
ĠMon arch
Ġinvest igator
Ġrev olt
Ġrob in
Ġtor ches
ĠGl enn
ĠMel bourne
Ġexcl ude
ĠFin ancial
Ġhall elujah
Ġprice less
ĠCouncil s
Ġfre aked
Ġfox es
Ġgrad er
IM E
Ġmer chand
igg ling
St and
Ġep ile
Ġmass acre
Ġarrest s
UN E
Ġthick er
Ġbi ography
Ġjudge ment
Ġdisp ro
Ġbreath s
ĠJeff ery
Ġiron ic
Ġindivid ually
Ġscare crow
ĠDis p
Ġjoy fully
ĠÃ Ĩ
Ġwit hered
Ġprincess es
ĠHon ours
Ġproduct ive
gen cies
Ġharm ony
abl isse
ĠMaster s
ĠBer ks
ĠWil mot
Ġappl ies
ĠEle ctor
ĠEle phant
ĠSal zburg
ĠCall ing
ĠDel ia
Ġpow dered
Ġir r
Ġble nder
Ġdesp ised
ĠJean ne
Sure ly
Ġhay stack
ĠBud apest
ĠReg iment
Ã¨ res
ĠGar c
ĠGar cia
Ġneckl aces
Ġshr ug
Ġshr ubs
ĠRel ease
Ã¶ r
Ġbun nys
ĠSing le
Ġnomin ee
ĠVict ory
EP S
Ġshadow y
ĠBre ndan
Ġgrate fully
Ġpurs u
ĠDun n
ĠJud as
ĠFro ggy
Ġlollip ops
Ġstro ked
ĠHor at
Ġinqu is
Ġinqu iring
Ġadminist ered
Ġneighborhood s
Ġimprove ments
Ġsubs cribe
ĠAT T
Ġplat forms
ĠBa ha
ĠStand ing
To day
Ġx ylophone
Ġmole cules
ĠRod ri
Ġexcit able
ĠInt ell
Ġce ilings
Ġelev ated
200 7
See ms
ĠLar ge
ĠAng lo
Ġconsult ed
ĠFer din
Ġlawn mower
Ġdrill s
Ġpunch ing
Ġconnect s
** **
Ġped als
ĠWalk ing
Ġpistol s
Ġren owned
ĠHum m
Ġje opard
ĠRab bi
Ġsurre ndered
Ġ187 6
SC OFF
Ġfrustr ation
Ġhom osex
ĠGal axy
Ġsav ages
ĠCy pri
ĠVas ie
ĠRub ens
ĠNic kel
Ġsan ction
ĠBee f
Ġiniti ate
Ġiniti ated
Ġwal nuts
Ġconven ience
Ġlun atic
ĠBry ce
ĠKo ch
Ġdrift ed
Ġobst acles
Ġsteering wheel
ĠShar ston
En ough
Ġboil er
Ġretreat ed
ĠDeb orah
ĠFull er
ĠJO E
ĠGill igan
Ġpron ounced
Ġsquad ron
Ġsprink ler
Ġintegr ated
Ġaccur ately
Sp eaking
sen al
Ġsqueez ing
ĠChat ty
Ġmathemat ical
Ġfert ile
ĠMort imer
ĠBurg undy
Ġprote ins
ĠSik ander
ĠRh ine
jac ent
ĠTro phy
Ġuncertain ty
ĠGy psy
Ġvic ar
Ġveter in
ĠWard en
Ġshrie ked
ĠFri lly
Ġreceip ts
Ġgenuine ly
pow ered
ĠAut umn
Ġhoriz ont
Ġimplement ed
Ġple bes
ĠLear n
Ġtwent ies
fr ame
Ġnav igation
ĠEag les
Ġhumid ity
CD P
ĠTest ament
Ġalleg ations
Ġmaj esty
Ġrav iol
ĠIndust ry
Ġalloc ation
Ġchlor ine
Ã©t ablisse
Char lie
Ġnigg a
Ġoutra geous
ĠGRUNT S
ĠSEC OND
Ġenhan ce
Ġstrang est
ĠDOES N
Ġmim ic
Ġspecim en
jour ned
ĠHus sein
Ġsanct uary
ĠMedic ine
Eng lish
ĠLithuan ia
Ġwri gg
Ġbiz arre
ĠAra bs
Ġzomb ie
ĠSmur f
ĠHELL O
ĠComplete ly
tem pered
ĠCoss ack
ĠCOUR SE
mph ony
Es pecially
ĠAnto ine
ĠBey ond
Ġintri gu
Ġsupervis or
ĠTres ham
ĠPipp in
Ġbod ily
Ġpian ist
ĠBreat he
Ġbudd ies
Ġener getic
ĠExcell ency
ĠTud or
ĠSere na
ĠRuf us
Ġarth ritis
ĠPors che
Ġirresist ible
Aub usson
Ġsurg ical
Ġpicn ics
ĠDelaw are
ĠAther ton
ĠSkel ton
Ġvehe ment
ĠTremay ne
Polar ity
uschw itz
ĠJerv oise
Ġhandica pped
Ġendange red
Ġwarran ty
Ã©tablisse ment
! ...
% ,
0 3
0 5
1 20
6 4
8 8
9 2
A rab
B ea
B ring
D R
D ead
E at
E ast
F ind
F ort
F ish
G ROW
H ear
H urry
L S
L ON
L aughter
M aster
M USIC
N ESS
P O
P R
P r
P aul
S a
S upp
S uper
T was
V A
V ED
W ere
_ _
_ !"
b ber
b reed
b ath
c ow
c ans
d ut
d ate
d orf
f al
f il
f ires
f iction
g ha
i ator
j ou
k ill
l ate
m atic
o pp
o val
o ids
p ace
u w
w er
È Ļ
Ë Ī
Ġ ib
Ġt ed
Ġt iring
Ġt haw
Ġt sk
he id
ou cher
in ence
re gate
ha g
Ġy aw
Ġo v
Ġo ar
Ġo min
Ġo asis
it zen
Ġb ould
Ġb our
Ġb ouncer
Ġd an
Ġd ome
Ġc m
Ġc it
is ch
ĠI z
ll e
Ġf ished
Ġf uzz
Ġf ading
Ġto pped
Ġg n
Ġg esundheit
on ce
Ġl en
Ġl ure
Ġp he
Ġp ul
Ġp au
Ġp oops
Ġp ooh
Ġn ug
Ġn ieces
en na
en burg
et ary
Ġha unt
Ġha iled
Ġin land
ot ine
as ive
as aki
Ġon i
Ġdo dge
ĠT ir
ĠT ough
ĠT owers
ĠA o
Ġwhat not
Ġbe friend
ĠB ets
ĠB oll
ĠB achelor
Ġu gl
ĠS ie
ĠS eal
ĠS oul
ĠS OUND
ĠS utton
ri en
ĠM ara
ĠM ater
ĠM orm
ĠM illy
ĠM unch
ĠM iddles
Ġre leg
Ġe ve
Ġme llow
Ġme erk
ĠW itt
ĠW eather
ir atory
Ġli lac
al ing
Ġst if
Ġst ero
Ġst unning
ac r
ac ter
ĠH ast
ĠH ip
ĠH ence
ĠH ush
ĠH ait
Ġcan ned
ĠY uri
ook er
st a
st ro
st art
st appen
Ġnot orious
Ġdon t
Ġdon ated
ĠC A
ĠC um
ĠC rew
ĠC OR
ĠC RE
ĠC urry
ĠC ratch
ĠC ouple
ĠThe a
Ġj oo
Ġj ets
Ġno is
Ġso ar
ur ring
ĠD red
ĠD IST
un ct
pp et
ore r
Ġne ur
Ġab du
itt in
ĠG iff
ĠG ren
ĠG AR
ĠG osp
ĠG iving
ĠG iles
ab s
ab oo
Ġr ated
Ġr owers
Ġr amb
Ġr ites
ĠP ey
ĠP addy
ĠP ony
ĠP oke
ĠP ills
ig os
Ġal che
um er
Ġor al
ĠR ace
ĠR ica
ĠR acing
ĠR UN
ĠJ P
ĠJ ade
ĠJ ude
ĠF ac
ĠF res
ĠF are
ĠF RE
ĠF erry
ĠF asc
ĠF ellow
ĠE y
ĠE vie
Ġplay house
Ġwhere in
os ion
Ġcom ical
ĠAnd roid
ough ing
Ġcl ack
ber ger
Ġex otic
Ġover l
Ġlo go
Ġlo vable
Ġlo fty
Ġpro ving
ff ord
Ġtr uce
Ġmo at
Ġbl o
Ġro ds
ere t
ĠK in
ĠK em
ĠK ung
ĠK ens
ĠK atherine
ĠK hal
ĠBut ler
irst y
Ġwork out
urn ing
Ġam pl
Ġcall er
Ġsm oot
ĠTh umper
ark ing
Ġlea ked
Ġtry in
Ġel ite
ĠU lt
ĠU rdu
ĠSo vi
ass ing
Ġpo key
Ġpo inty
Ġgr umbled
Ġsc ones
Ġsc oundrel
ĠSt ark
ĠSt ories
Ġwa iling
ix ed
Ġho pper
ip sy
up hin
Ġwr ists
Ġgirl ie
Ġun inc
ĠIn str
ĠAn ita
Ġ19 00
Ġ19 14
Ġfo lly
Ġthank ing
od o
ĠV iew
Ġnight ie
gg in
Ġwater y
Ġra pt
Ġsl aught
fe it
Ġad vers
Ġad ored
Ġad jacent
Ġkeep ers
Ġcr utches
Ġac cl
Ġper t
air o
Ġstr angle
Ġstr ayed
Ġfour teenth
Ġreal izing
Ġah h
Ġgra ves
Ġcomp ly
Ġcomp artment
Ġtra itors
ĠDon at
Ġres erves
cl uding
cl iffe
ĠNow here
Ġsupp osing
ĠAnna bel
ĠCan yon
ens er
ens en
Ġlist ings
Ġguess es
ĠBr anch
ĠMar m
ĠMar se
ĠMar ina
Ġsn oring
Ġsn oopy
Ġsur m
Ġbea con
Ġbat ch
Ġbat ting
Ġrel eases
Ġunt ill
Ġmar row
Ġcomm od
oc ese
Don ovan
Ġdes olate
Ġsqu id
Ġsqu ashed
Ġem bed
pr ot
Ġind uced
Ġind irect
Ġdec isive
Ġinv ade
az ar
ĠFor mer
ĠFor bes
Ġpat io
[...]
