{"<unk>":0,"<pad>":1,"<|endoftext|>":2,"!":3,"\"":4,"#":5,"$":6,"%":7,"&":8,"'":9,"(":10,")":11,"*":12,"+":13,",":14,"-":15,".":16,"/":17,"0":18,"1":19,"2":20,"3":21,"4":22,"5":23,"6":24,"7":25,"8":26,"9":27,":":28,";":29,"<":30,"=":31,">":32,"?":33,"@":34,"A":35,"B":36,"C":37,"D":38,"E":39,"F":40,"G":41,"H":42,"I":43,"J":44,"K":45,"L":46,"M":47,"N":48,"O":49,"P":50,"Q":51,"R":52,"S":53,"T":54,"U":55,"V":56,"W":57,"X":58,"Y":59,"Z":60,"[":61,"\\":62,"]":63,"^":64,"_":65,"`":66,"a":67,"b":68,"c":69,"d":70,"e":71,"f":72,"g":73,"h":74,"i":75,"j":76,"k":77,"l":78,"m":79,"n":80,"o":81,"p":82,"q":83,"r":84,"s":85,"t":86,"u":87,"v":88,"w":89,"x":90,"y":91,"z":92,"{":93,"|":94,"}":95,"~":96,"¡":97,"¢":98,"£":99,"¤":100,"¥":101,"¦":102,"§":103,"¨":104,"©":105,"ª":106,"«":107,"¬":108,"®":109,"¯":110,"°":111,"±":112,"²":113,"³":114,"´":115,"µ":116,"¶":117,"·":118,"¸":119,"¹":120,"º":121,"»":122,"¼":123,"½":124,"¾":125,"¿":126,"À":127,"Á":128,"Â":129,"Ã":130,"Ä":131,"Å":132,"Æ":133,"Ç":134,"È":135,"É":136,"Ê":137,"Ë":138,"Ì":139,"Í":140,"Î":141,"Ï":142,"Ð":143,"Ñ":144,"Ò":145,"Ó":146,"Ô":147,"Õ":148,"Ö":149,"×":150,"Ø":151,"Ù":152,"Ú":153,"Û":154,"Ü":155,"Ý":156,"Þ":157,"ß":158,"à":159,"á":160,"â":161,"ã":162,"ä":163,"å":164,"æ":165,"ç":166,"è":167,"é":168,"ê":169,"ë":170,"ì":171,"í":172,"î":173,"ï":174,"ð":175,"ñ":176,"ò":177,"ó":178,"ô":179,"õ":180,"ö":181,"÷":182,"ø":183,"ù":184,"ú":185,"û":186,"ü":187,"ý":188,"þ":189,"ÿ":190,"Ā":191,"ā":192,"Ă":193,"ă":194,"Ą":195,"ą":196,"Ć":197,"ć":198,"Ĉ":199,"ĉ":200,"Ċ":201,"ċ":202,"Č":203,"č":204,"Ď":205,"ď":206,"Đ":207,"đ":208,"Ē":209,"ē":210,"Ĕ":211,"ĕ":212,"Ė":213,"ė":214,"Ę":215,"ę":216,"Ě":217,"ě":218,"Ĝ":219,"ĝ":220,"Ğ":221,"ğ":222,"Ġ":223,"ġ":224,"Ģ":225,"ģ":226,"Ĥ":227,"ĥ":228,"Ħ":229,"ħ":230,"Ĩ":231,"ĩ":232,"Ī":233,"ī":234,"Ĭ":235,"ĭ":236,"Į":237,"į":238,"İ":239,"ı":240,"Ĳ":241,"ĳ":242,"Ĵ":243,"ĵ":244,"Ķ":245,"ķ":246,"ĸ":247,"Ĺ":248,"ĺ":249,"Ļ":250,"ļ":251,"Ľ":252,"ľ":253,"Ŀ":254,"ŀ":255,"Ł":256,"ł":257,"Ń":258,"Ġt":259,"he":260,"Ġa":261,"ou":262,"Ġw":263,"in":264,"Ġs":265,"re":266,"Ġthe":267,"ha":268,"Ġ.":269,"Ġy":270,"Ġo":271,"Ġyou":272,"it":273,"Ġb":274,"Ġd":275,"Ġm":276,"nd":277,"Ġc":278,"er":279,"is":280,"hat":281,"ĠI":282,"ll":283,"Ġf":284,"Ġto":285,"Ġg":286,"ing":287,"an":288,"on":289,"Ġl":290,"Ġ?":291,"Ġp":292,"'s":293,"Ġn":294,"ed":295,"or":296,"es":297,"Ġand":298,"Ġit":299,"en":300,"om":301,"Ġhe":302,"ay":303,"ow":304,"ea":305,"Ġh":306,"Ġthat":307,"Ġth":308,"et":309,"Ġha":310,"Ġin":311,"ot":312,"Ġof":313,"ve":314,"id":315,"as":316,"ar":317,"Ġon":318,"Ġ-":319,"oo":320,"at":321,"Ġdo":322,"ĠT":323,"us":324,"Ġwe":325,"Ġ\"":326,"Ġis":327,"le":328,"'t":329,"ĠA":330,"gh":331,"ke":332,"ic":333,"ut":334,"Ġwhat":335,"Ġbe":336,"ĠB":337,"Ġu":338,"ld":339,"Ġk":340,"ĠS":341,"ght":342,"ri":343,"se":344,"im":345,"ĠM":346,"Ġwas":347,"ver":348,"Ġre":349,"Ġe":350,"Ġme":351,"out":352,"ĠW":353,"ir":354,"ly":355,"ome":356,"Ġli":357,"al":358,"ad":359,"Ġfor":360,"Ġst":361,"Ġgo":362,"xx":363,"ac":364,"Ġ,":365,"Ġthis":366,"ĠH":367,"Ġcan":368,"Ġsa":369,"ith":370,"..":371,"Ġare":372,"Ġhave":373,"ĠY":374,"Ġwith":375,"Ġkn":376,"ee":377,"all":378,"Ġan":379,"Ġyour":380,"am":381,"Ġwh":382,"ook":383,"st":384,"Ġnot":385,"ro":386,"ent":387,"Ġas":388,"Ġknow":389,"Ġdon":390,"ch":391,"ĠC":392,"ell":393,"Ġwan":394,"eah":395,"her":396,"Ġthey":397,"Ġthere":398,"ĠThe":399,"Ġj":400,"ould":401,"Ġlike":402,"ill":403,"ust":404,"Ġno":405,"ĠL":406,"ion":407,"Ġat":408,"Ġsaid":409,"Ġso":410,"Ġshe":411,"ur":412,"na":413,"Ġpl":414,"Ġwhe":415,"Ġone":416,"if":417,"'re":418,"kay":419,"ĠD":420,"ood":421,"ter":422,"Ġ!":423,"Ġhere":424,"ink":425,"un":426,"Ġmy":427,"Ġsee":428,"Ġdid":429,"Ġget":430,"Ġup":431,"ra":432,"right":433,"Ġoh":434,"Ġsh":435,"ĠN":436,"Ġall":437,"Ġokay":438,"Ġlook":439,"Ġwant":440,"pp":441,"ore":442,"ake":443,"Ġsay":444,"ĠYou":445,"ry":446,"Ġne":447,"ĠO":448,"Ġbut":449,"Ġxx":450,"Ġxxx":451,"il":452,"Ġher":453,"ie":454,"Ġout":455,"ack":456,"ear":457,"Ġthink":458,"ce":459,"op":460,"Ġab":461,"!\"":462,"ĠHe":463,"'m":464,"Ġjust":465,"Ġyeah":466,"itt":467,"very":468,"ck":469,"hing":470,"Ġhis":471,"ĠG":472,"ab":473,"Ġr":474,"?\"":475,"ĠP":476,"our":477,"and":478,"Ġright":479,"ight":480,"ct":481,"Ġsome":482,"ig":483,"ĠIt":484,"Ġthem":485,"ind":486,"Ġal":487,"um":488,"'ll":489,"Ġabout":490,"Ġor":491,"han":492,"Ġgot":493,"Ġhim":494,"ĠR":495,"use":496,"ally":497,"ge":498,"ain":499,"Ġgood":500,"Ġwho":501,"ice":502,"Ġhad":503,"Ġfr":504,"ĠJ":505,"Ġnow":506,"one":507,"ul":508,"art":509,"ive":510,"ol":511,"ĠF":512,"Ġif":513,"ittle":514,"Ġput":515,",\"":516,"ĠE":517,"Ġwor":518,"Ġany":519,"Ġlittle":520,"own":521,"ess":522,"Ġuh":523,"Ġask":524,"...":525,"Ġplay":526,"uh":527,"Ġsu":528,"ound":529,"Ġwould":530,"ca":531,"Ġtoo":532,"Ġlet":533,"el":534,".\"":535,"Ġwhere":536,"Ġwere":537,"Ġsp":538,"Ġfrom":539,"os":540,"qu":541,"Ġcome":542,"Ġhow":543,"Ġback":544,"eat":545,"ers":546,"red":547,"ep":548,"ong":549,"Ġwill":550,"onna":551,"ick":552,"Ġwhen":553,"ily":554,"Ġbo":555,"Ġgonna":556,"Ġgoing":557,"Ġus":558,"Ġcom":559,"Ġmore":560,"Ġwell":561,"way":562,"est":563,"Ġdoes":564,"nt":565,"Ġvery":566,"ame":567,"Ġthen":568,"ist":569,"âĢ":570,"ast":571,"Ġtim":572,"end":573,"ak":574,"em":575,"Ġdown":576,"ĠAnd":577,"Ġby":578,"Ġtw":579,"ose":580,"Ġthing":581,"Ġman":582,"ard":583,"dy":584,"ation":585,"ough":586,"Ġcl":587,"'ve":588,"ĠWhat":589,"cause":590,"ven":591,"ate":592,"ide":593,"ine":594,"res":595,"ort":596,"ber":597,"Ġtime":598,"Ġv":599,"omet":600,"ĠShe":601,"Ġex":602,"Ġcould":603,"Ġag":604,"Ġwanna":605,"Ġ...":606,"ther":607,"ap":608,"Ġer":609,"other":610,"Ġ1":611,"Ġover":612,"Ġlo":613,"Ġse":614,"lp":615,"Ġoff":616,"Ġsays":617,"Ġmake":618,"ĠLily":619,"ĠWe":620,"ty":621,"Ġpro":622,"Ġtell":623,"Ġint":624,"Ġsomet":625,"alk":626,"hi":627,"hm":628,"ff":629,"Ġhas":630,"my":631,"ite":632,"ant":633,"Ġtake":634,"Ġasked":635,"Ġtr":636,"ree":637,"Ġmo":638,"Ġar":639,"Ġbecause":640,"ĠNo":641,"Ġbl":642,"ies":643,"Ġthan":644,"are":645,"Ġhelp":646,"ous":647,"Ġro":648,"Ġtwo":649,"Ġco":650,"ag":651,"uck":652,"th":653,"Ġother":654,"Ġreally":655,"Ġbig":656,"ft":657,"ĠBen":658,"Ġcon":659,"Ġbeen":660,"ĠThey":661,"Ġum":662,"Ġneed":663,"Ġhapp":664,"ĠYeah":665,"ere":666,"ĠK":667,"Ġmean":668,"ich":669,"Ġqu":670,"Ġpe":671,"ue":672,"Ġsomething":673,"Ġour":674,"Ġbr":675,"Ġdoing":676,"ĠĠ":677,"Ġcar":678,"Ġ2":679,"ĠOh":680,"ace":681,"Ġeat":682,"Ġmm":683,"Ġyes":684,"Ġtheir":685,"Ġwhy":686,"Ġway":687,"ish":688,"ĠBut":689,"ello":690,"ople":691,"Ġwat":692,"Ġbab":693,"Can":694,"Ġdidn":695,"ĠThat":696,"Ġmu":697,"Ġmom":698,"nder":699,"ure":700,"thing":701,"Ġpre":702,"irst":703,"ĠMom":704,"ys":705,"Ġwork":706,"Ġthese":707,"Ġgu":708,"ought":709,"urn":710,"ĠTom":711,"Ġagain":712,"Ġam":713,"Ġpeople":714,"be":715,"day":716,"Ġshould":717,"Ġevery":718,"ect":719,"Ġ(":720,"reat":721,"Ġread":722,"Ġday":723,"Ġcall":724,"Ġbu":725,"Ġaway":726,"ble":727,"Ġmuch":728,"Hello":729,"Ġbaby":730,"orn":731,"Ġdog":732,"Ġbet":733,"Ġthose":734,"Ġsm":735,"ĠTh":736,"Ġhuh":737,"ving":738,"'d":739,"ia":740,"iss":741,"ity":742,"Ġwhich":743,"Ġkind":744,"bo":745,"Ġtalk":746,"huh":747,"Ġaf":748,"hed":749,"Ġinto":750,"ool":751,"ting":752,"riend":753,"ease":754,"ark":755,"ade":756,"Ġsha":757,"Ġgive":758,"Ġlea":759,"Ġtry":760,"ouse":761,"Ġen":762,"Ġel":763,"age":764,"ĠU":765,"Ġbook":766,"Ġde":767,"ĠSo":768,"Ġthr":769,"Ġmay":770,"Ġthings":771,"Ġhand":772,"ew":773,"Ġfirst":774,"Ġfl":775,"ass":776,"Ġlot":777,"Ġhome":778,"Ġpo":779,"Ġch":780,"ĠWh":781,"ĠWell":782,"Ġsw":783,"Ġfun":784,"lf":785,"Ġfriend":786,"Ġelse":787,"ird":788,"ny":789,"ob":790,"Ġgr":791,"--":792,"ey":793,"Ġsc":794,"Ġke":795,"ful":796,"ĠSt":797,"ĠTim":798,"ire":799,"Ġwa":800,"Ġpr":801,"ves":802,"Ġyear":803,"pl":804,"get":805,"Ġonly":806,"Ġrem":807,"Ġnice":808,"ment":809,"Ġpart":810,"ix":811,"Ġgir":812,"ud":813,"Ġpret":814,"Ġ20":815,"Ġfind":816,"Ġho":817,"eas":818,"Ġafter":819,"Ġhm":820,"ip":821,"ull":822,"up":823,"ved":824,"Ġcha":825,"Ġwr":826,"ang":827,"Ġturn":828,"Ġhappen":829,"Ġcat":830,"act":831,"iz":832,"me":833,"ww":834,"wn":835,"fore":836,"au":837,"Ġgirl":838,"ng":839,"ock":840,"ĠYes":841,"Ġunder":842,"ian":843,"Ġwent":844,"Ġlong":845,"Ġcare":846,"Ġdoesn":847,"ried":848,"ĠDo":849,"Ġnew":850,"Ġun":851,"Ġboy":852,"ĠâĢ":853,"so":854,"ount":855,"ary":856,"Ġle":857,"ord":858,"here":859,"Ġold":860,"Ġmade":861,"ile":862,"ĠIn":863,"oney":864,"co":865,"eet":866,"Ġnever":867,"eel":868,"Ġhouse":869,"ĠAn":870,"ĠMr":871,"Ġstill":872,"Ġthree":873,"Ġball":874,"body":875,"Ġthought":876,"Ġ19":877,"Ġfo":878,"Ġche":879,"ise":880,"Ġanything":881,"ci":882,"les":883,"Ġop":884,"Ġeven":885,"Ġhi":886,"ress":887,"able":888,"Ġsure":889,"Ġshow":890,"iff":891,"ember":892,"av":893,"Ġaround":894,"Ġact":895,"Ġanother":896,"ĠThis":897,"Ġbefore":898,"Ġstart":899,"ict":900,"Ġthank":901,"od":902,"Uh":903,"Ġbetter":904,"Yeah":905,"Ġmhm":906,"Ġname":907,"Ġplease":908,"Ġfeel":909,"side":910,"Ġlove":911,"Ġbit":912,"Ġbird":913,"Ġwait":914,"ĠV":915,"Ġnight":916,"Ġbot":917,"gg":918,"mer":919,"ps":920,"oh":921,"Ġthrough":922,"ather":923,"Ġsit":924,"Ġim":925,"âĢĻ":926,"ub":927,"ye":928,"Ġkid":929,"ory":930,"Ġwater":931,"man":932,"een":933,"Ġgreat":934,"ually":935,"Ġlast":936,"pe":937,"ĠThere":938,"Ġpretty":939,"Ġmany":940,"ren":941,"Ġdone":942,"Ġalright":943,"hild":944,"Ġwon":945,"Ġra":946,"Ġsl":947,"Ġmin":948,"aking":949,"orry":950,"Ġmust":951,"Ġlooks":952,"Ġcame":953,"chool":954,"fe":955,"ance":956,"ave":957,"rd":958,"Ġad":959,"pt":960,"Ġmight":961,"Ġapp":962,"xt":963,"ute":964,"uff":965,"ons":966,"hen":967,"But":968,"Ġwww":969,"Ġdiff":970,"Ġkeep":971,"fta":972,"Ġhafta":973,"Ġremember":974,"ors":975,"ĠHow":976,"ara":977,"int":978,"gether":979,"Ġcr":980,"Ġdr":981,"urt":982,"ump":983,"ways":984,"Ġerm":985,"Ġmaybe":986,"You":987,"addy":988,"ĠMommy":989,"Ġhead":990,"ady":991,"ms":992,"Ġdis":993,"Ġac":994,"Ġbre":995,"ĠCh":996,"hes":997,"Ġ[":998,"oss":999,"ost":1000,"Ġper":1001,"Ġtogether":1002,"Ġtea":1003,"ions":1004,"air":1005,"Ġschool":1006,"Ġchild":1007,"per":1008,"ream":1009,"ta":1010,"Ġrun":1011,"Ġopen":1012,"Ġsaw":1013,"Ġuse":1014,"Hey":1015,"Ġbad":1016,"ĠĠĠĠ":1017,"eal":1018,"ĠSam":1019,"Ġstr":1020,"Ġcalled":1021,"Ġhold":1022,"ail":1023,"Ġalways":1024,"Ġfour":1025,"Ġchan":1026,"self":1027,"Ġhear":1028,"Ġreal":1029,"Ġah":1030,"Ġtoday":1031,"ence":1032,"Ġbel":1033,"Ġisn":1034,"ĠIf":1035,"Ġgra":1036,"Ġwatch":1037,"Ġasks":1038,"ks":1039,"Ġstop":1040,"ied":1041,"Ġnext":1042,"Ġsorry":1043,"Ġyears":1044,"als":1045,"Ġhappy":1046,"Ġown":1047,"Ġfin":1048,"Ġ'":1049,"ious":1050,"Ġcomp":1051,"Ġalso":1052,"Ġdiffere":1053,"Ġhard":1054,"Ġcol":1055,"Ġbeing":1056,"Ġshout":1057,"Ġwanted":1058,"Ġgoes":1059,"Ġmat":1060,"Ġcook":1061,"Ġfound":1062,"tain":1063,"Ġfive":1064,"Ġpick":1065,"Ġhu":1066,"Ġtra":1067,"ĠWhy":1068,"ĠDon":1069,"Ġmon":1070,"ign":1071,"Ġsame":1072,"Ġstay":1073,"ever":1074,"Ġwee":1075,"Ġever":1076,"Ġgetting":1077,"Ġroom":1078,"ĠOn":1079,"ĠEr":1080,"Ġres":1081,"inn":1082,"cl":1083,"akes":1084,"Ġplace":1085,"ĠNow":1086,"ĠIs":1087,"ated":1088,"ans":1089,"Ġcour":1090,"ĠSara":1091,"zz":1092,"Ġear":1093,"Ġgl":1094,"ead":1095,"Ġsupp":1096,"outh":1097,"Ġfood":1098,"ax":1099,"Ġid":1100,"Ġend":1101,"ĠLet":1102,"ĠAnna":1103,"ush":1104,"Ġready":1105,"Ġkids":1106,"ably":1107,"oy":1108,"ward":1109,"Ġtook":1110,"Ġsho":1111,"ĠâĢľ":1112,"Ġwalk":1113,"Ġjob":1114,"And":1115,"ung":1116,"Ġdoll":1117,"Ġhey":1118,"Ġhappened":1119,"leep":1120,"ĠCan":1121,"but":1122,"Ġmoney":1123,"row":1124,"Ġser":1125,"âĻ":1126,"Ġtold":1127,"Ġfar":1128,"ings":1129,"Ġcoming":1130,"âĻª":1131,"Ġlooking":1132,"og":1133,"Ġstuff":1134,"Ġlooked":1135,"ild":1136,"port":1137,"ĠMm":1138,"ĠCome":1139,"Ġpie":1140,"ens":1141,"Ġhurt":1142,"ĠAll":1143,"Ġmother":1144,"oon":1145,"bb":1146,"Ġea":1147,"Ġused":1148,"00":1149,"Ġdifferent":1150,"Ġbus":1151,"Ġlist":1152,"Ġmost":1153,"Ġenough":1154,"Ġcount":1155,"pped":1156,"Ġwhile":1157,"bably":1158,"Ġbed":1159,"ĠFr":1160,"Ġguess":1161,"The":1162,"oup":1163,"iv":1164,"Ġits":1165,"Ġsix":1166,"ph":1167,"Ġred":1168,"Oh":1169,"Ġlife":1170,"Ġele":1171,"anc":1172,"ĠBr":1173,"ĠâĻª":1174,"ister":1175,"Ġrec":1176,"Ġanim":1177,"Ġhat":1178,"ult":1179,"ank":1180,"ater":1181,"Ġthough":1182,"Ġcont":1183,"orning":1184,"aw":1185,"raw":1186,"ach":1187,"It":1188,"Ġgre":1189,"kes":1190,"orm":1191,"Ġhop":1192,"Ġleave":1193,"yes":1194,"Ġeverything":1195,"ĠMar":1196,"Ġfriends":1197,"Ġdoor":1198,"âĢĿ":1199,"ĠThan":1200,"Ġuhhuh":1201,"Ġcourse":1202,"Ġword":1203,"Ġprobably":1204,"IN":1205,"Ġsn":1206,"Ġleft":1207,"Ġmil":1208,"Ġsur":1209,"Ġmorning":1210,"Ġwo":1211,"Ġdri":1212,"Ġnothing":1213,"aught":1214,"Ġpol":1215,"Ġnum":1216,"ĠOkay":1217,"ince":1218,"ï¿":1219,"ï¿½":1220,"Ġboth":1221,"ma":1222,"ouch":1223,"Ġsleep":1224,"Ġbox":1225,"Ġseen":1226,"ĠUn":1227,"Ġfam":1228,"Ġbea":1229,"Ġwar":1230,"ger":1231,"Ġbat":1232,"Ġeyes":1233,"Ġactually":1234,"uc":1235,"Ġcareful":1236,"Ġrel":1237,"ike":1238,"Ġatt":1239,"ĠBe":1240,"ĠMy":1241,"Ġbear":1242,"Ġtrying":1243,"Ġtoys":1244,"Ġph":1245,"der":1246,"oice":1247,"ĠSp":1248,"erest":1249,"Ġsort":1250,"aper":1251,"Ġpict":1252,"Ġ201":1253,"ER":1254,"Ġsuch":1255,"ered":1256,"ug":1257,"Ġset":1258,"Ġdrink":1259,"ĠMia":1260,"Ġbro":1261,"ins":1262,"Ġunt":1263,"land":1264,"Ġchildren":1265,"Ġgi":1266,"Ben":1267,"Ġyet":1268,"Ġhell":1269,"Ġtalking":1270,"Ġsk":1271,"ates":1272,"ase":1273,"erson":1274,"We":1275,"ĠAl":1276,"ĠTH":1277,"Ġstand":1278,"Ġbring":1279,"Ġinterest":1280,"Ġface":1281,"Ġmar":1282,"Ġcomm":1283,"eak":1284,"Good":1285,"ĠHey":1286,"ss":1287,"ĠChi":1288,"Ġsing":1289,"Ġwasn":1290,"ness":1291,"ĠMay":1292,"Ġsmall":1293,"Ġbest":1294,"Ġquite":1295,"ont":1296,"Yes":1297,"ical":1298,"ower":1299,"ĠNot":1300,"Ġfall":1301,"Ġsound":1302,"Ġmove":1303,"Ġkill":1304,"Ġfire":1305,"Ġlight":1306,"Come":1307,"Ġpull":1308,"eed":1309,"Ġya":1310,"Ġbelie":1311,"ited":1312,"oc":1313,"Ġwom":1314,"Ġwhole":1315,"Ġshouted":1316,"enty":1317,"Ġhair":1318,"vel":1319,"stand":1320,"Ġplaying":1321,"ĠJust":1322,"cond":1323,"Ġhands":1324,"med":1325,"Ġhot":1326,"ĠGo":1327,"Ġfather":1328,"Don":1329,"ĠPl":1330,"elp":1331,"pect":1332,"ĠDaddy":1333,"ash":1334,"Ġuntil":1335,"Ġsca":1336,"Ġlisten":1337,"Ġidea":1338,"Ġz":1339,"Ġmaking":1340,"Ġbreak":1341,"Ġside":1342,"ations":1343,"ĠThen":1344,"Ġwants":1345,"amp":1346,"Ġgone":1347,"Ġpres":1348,"Ġdes":1349,"ĠGod":1350,"Ġfew":1351,"Ġlive":1352,"ts":1353,"Ġmine":1354,"Ġcle":1355,"Ġbec":1356,"Ġsweet":1357,"ĠAs":1358,"ange":1359,"Well":1360,"ier":1361,"Help":1362,"Ġworry":1363,"the":1364,"illy":1365,"orrow":1366,"ah":1367,"Ġeach":1368,"tle":1369,"Ġpoint":1370,"Ġhigh":1371,"Ġheard":1372,"vers":1373,"Ġhaving":1374,"ling":1375,"Ġsoon":1376,"ond":1377,"Ġtree":1378,"oun":1379,"Ġwrong":1380,"ĠWhere":1381,"ane":1382,"Ġmiss":1383,"ning":1384,"ished":1385,"Ġaw":1386,"Do":1387,"Ġmommy":1388,"Ġcomes":1389,"ets":1390,"led":1391,"lly":1392,"Ġsecond":1393,"Ġeight":1394,"Ġgave":1395,"Ġmouth":1396,"Ġcut":1397,"Ġunderstand":1398,"Ġfunny":1399,"gan":1400,"ese":1401,"Ġblue":1402,"Ġperson":1403,"Ġfoot":1404,"cess":1405,"Ġmind":1406,"Ġstory":1407,"Ġcup":1408,"Ġwouldn":1409,"Ġminute":1410,"ĠChr":1411,"ents":1412,"Ġsqu":1413,"rew":1414,"ition":1415,"Ġworld":1416,"ctor":1417,"Ġcolor":1418,"ries":1419,"llow":1420,"Ġtruck":1421,"Ġhaven":1422,"Ġgotta":1423,"cial":1424,"aur":1425,"ĠWho":1426,"Ġinside":1427,"Ġfell":1428,"ĠWhen":1429,"Ġlater":1430,"ĠAre":1431,"most":1432,"ster":1433,"ĠCha":1434,"ama":1435,"Ġwind":1436,"unch":1437,"ĠRight":1438,"Ġem":1439,"Ġexc":1440,"Ġsaying":1441,"ton":1442,"Ġclose":1443,"Ġstarted":1444,"Ġrest":1445,"hy":1446,"That":1447,"Ġchair":1448,"Ġtop":1449,"ired":1450,"Ġyell":1451,"Ġvoice":1452,"Ġter":1453,"Ġwonder":1454,"Ġnumber":1455,"Ġstick":1456,"osed":1457,"ars":1458,"ready":1459,"Ġtouch":1460,"Ġknew":1461,"Ġmen":1462,"Ġhalf":1463,"ither":1464,"Ġpay":1465,"pr":1466,"Ġind":1467,"Ġdad":1468,"ible":1469,"Ġyoung":1470,"ĠLook":1471,"Ġanimals":1472,"Ġfro":1473,"Ġclean":1474,"Ġdec":1475,"Ġice":1476,"Ġproble":1477,"Ġguy":1478,"Ġju":1479,"ife":1480,"less":1481,"ures":1482,"Ġalready":1483,"Ġmatter":1484,"Ġlau":1485,"Ġguys":1486,"ret":1487,"Ġsad":1488,"Ġbelieve":1489,"Ġplayed":1490,"Ġonce":1491,"Ġthrow":1492,"ross":1493,"Ġbuy":1494,"Ġhung":1495,"Ġtoy":1496,"Ġshall":1497,"Ġ3":1498,"imes":1499,"Ġmakes":1500,"Ġte":1501,"oud":1502,"Ġair":1503,"Ġinv":1504,"Ġones":1505,"Ġduck":1506,"Ġwithout":1507,"ces":1508,"iet":1509,"Ġgreen":1510,"Ġmilk":1511,"ĠThank":1512,"itty":1513,"ĠGood":1514,"Ġpee":1515,"Ġeas":1516,"cle":1517,"dd":1518,"Ġround":1519,"Ġca":1520,"az":1521,"Ġtap":1522,"Ġfamily":1523,"its":1524,"Ġhor":1525,"ertain":1526,"ĠFor":1527,"Ġfish":1528,"Ġpass":1529,"irty":1530,"oor":1531,"Ġoutside":1532,"Ġspe":1533,"Ġri":1534,"ĠDid":1535,"ican":1536,"Ġpat":1537,"key":1538,"Ġtable":1539,"Ġwear":1540,"Ġalmost":1541,"eb":1542,"ten":1543,"Ġbrother":1544,"Ġmeet":1545,"ĠMax":1546,"where":1547,"ING":1548,"OU":1549,"ndred":1550,"Ġtom":1551,"Ġweek":1552,"ener":1553,"ĠTo":1554,"Ġcold":1555,"Ġbuild":1556,"Ġhour":1557,"Ġacc":1558,"Ġquest":1559,"Ġran":1560,"Ġlear":1561,"Ġscared":1562,"Ġhope":1563,"Ġhoney":1564,"ident":1565,"ĠChrist":1566,"Ġdays":1567,"Ġfix":1568,"Ġreg":1569,"Ġgrand":1570,"Ġsomeone":1571,"mber":1572,"Ġfine":1573,"Ġbas":1574,"ĠCl":1575,"Ġten":1576,"Ġpain":1577,"Ġhundred":1578,"vie":1579,"Ġob":1580,"head":1581,"Ġpaper":1582,"Ġfollow":1583,"Ġjump":1584,"aster":1585,"ĠSh":1586,"irt":1587,"Ġjuice":1588,"ular":1589,"Ġrock":1590,"Ġsir":1591,"ummy":1592,"rand":1593,"Ġpiece":1594,"Ġblock":1595,"Are":1596,"Ġfeet":1597,"Ġgame":1598,"Ġtried":1599,"ĠMark":1600,"Ġlikes":1601,"Ġtrain":1602,"ots":1603,"Ġlady":1604,"Ġchar":1605,"ction":1606,"Ġdraw":1607,"Ġpicture":1608,"Ġjo":1609,"Here":1610,"Be":1611,"ĠZ":1612,"Ġmess":1613,"Ġbooks":1614,"Ġdro":1615,"Ġlost":1616,"ised":1617,"Ġhungry":1618,"AN":1619,"Ġmus":1620,"ĠAmer":1621,"ĠMrs":1622,"Ġbeaut":1623,"Ġnear":1624,"eter":1625,"elt":1626,"Ġhello":1627,"Ġcouldn":1628,"ĠMiss":1629,"eep":1630,"ames":1631,"ged":1632,"room":1633,"gs":1634,"ohn":1635,"ex":1636,"Ġmonth":1637,"igh":1638,"Ġent":1639,"ween":1640,"itting":1641,"irth":1642,"What":1643,"any":1644,"Ġsun":1645,"ball":1646,"night":1647,"Ġinst":1648,"io":1649,"Ġfact":1650,"sw":1651,"ial":1652,"sh":1653,"ants":1654,"Ġpu":1655,"Ġfav":1656,"inner":1657,"ib":1658,"ove":1659,"ork":1660,"Ġrep":1661,"Ġcow":1662,"ĠAt":1663,"Ġpen":1664,"Ġ202":1665,"Ġtri":1666,"Ġsmil":1667,"Ġsince":1668,"ched":1669,"Ġbeh":1670,"iness":1671,"cept":1672,"eath":1673,"Ġdel":1674,"Ġret":1675,"Ġfly":1676,"Ġdist":1677,"Ġpig":1678,"ĠSue":1679,"Ġheart":1680,"Ġbetween":1681,"Ġdaddy":1682,"ĠJohn":1683,"ï¿½ï¿½":1684,"ĠYour":1685,"cher":1686,"iful":1687,"ne":1688,"gie":1689,"Ġsomebody":1690,"vent":1691,"Ġbirth":1692,"ĠDad":1693,"gr":1694,"Ġcry":1695,"ize":1696,"ual":1697,"Ġfif":1698,"Ġmag":1699,"Ġsong":1700,"ned":1701,"Ġbehind":1702,"cer":1703,"Ġaren":1704,"Ġfast":1705,"ĠGet":1706,"Ġwhite":1707,"Ġpop":1708,"Ġyourself":1709,"Ġrecord":1710,"utes":1711,"Ġdef":1712,"Ġtre":1713,"Ġdear":1714,"Ġfull":1715,"ĠCar":1716,"Ġboat":1717,"Ġcons":1718,"Ġletter":1719,"Ġwrite":1720,"Ġstrong":1721,"Ġcap":1722,"Ġsometimes":1723,"uring":1724,"ĠAr":1725,"by":1726,"Ġtwenty":1727,"Ġtimes":1728,"Ġtomorrow":1729,"Ġson":1730,"Ġeating":1731,"Ġmet":1732,"Ġfight":1733,"Ġblack":1734,"Ġkiss":1735,"Ġi":1736,"Ġtrue":1737,"Ġago":1738,"airs":1739,"Ġtaking":1740,"No":1741,"ĠĠĠĠĠĠĠĠ":1742,"ĠDe":1743,"Ġalone":1744,"Ġdress":1745,"ina":1746,"Ġeither":1747,"une":1748,"Ġsign":1749,"ĠPlease":1750,"uss":1751,"Ġbath":1752,"Ġdep":1753,"Ġplan":1754,"aid":1755,"ics":1756,"ating":1757,"Ġnose":1758,"ĠNew":1759,"Ġminutes":1760,"Ġcake":1761,"Ġref":1762,"Ġansw":1763,"Ġalong":1764,"Ġcertain":1765,"Ġcried":1766,"Ġfelt":1767,"AT":1768,"ony":1769,"Ġyours":1770,"sel":1771,"ĠOne":1772,"Ġchange":1773,"ational":1774,"ĠTHE":1775,"Ġboys":1776,"Ġinf":1777,"Ġegg":1778,"ouble":1779,"ubl":1780,"Ġpush":1781,"Ġagainst":1782,"mb":1783,"te":1784,"Ġcatch":1785,"ale":1786,"Ġmoment":1787,"Ġsurpr":1788,"ense":1789,"ĠHis":1790,"Ġmeans":1791,"Ġimp":1792,"Ġass":1793,"ĠEng":1794,"Ġbeautiful":1795,"Ġdied":1796,"ision":1797,"Ġahead":1798,"app":1799,"Ġwoman":1800,"Ġbar":1801,"Ġworking":1802,"Ġparty":1803,"Ġdead":1804,"Ġkitty":1805,"ject":1806,"Ġproblem":1807,"Ġhit":1808,"mp":1809,"Ġpur":1810,"Ġseven":1811,"gy":1812,"ĠMaybe":1813,"Ġsister":1814,"Ġbag":1815,"Ġsilly":1816,"ĠBob":1817,"ked":1818,"unny":1819,"izz":1820,"Ġable":1821,"Ġfloor":1822,"Ġpri":1823,"Ġcoll":1824,"ined":1825,"Ġyellow":1826,"Ġ_":1827,"Ġpot":1828,"Ġbirthday":1829,"Ġtown":1830,"ops":1831,"Ġimport":1832,"ru":1833,"So":1834,"tern":1835,"Ġshare":1836,"Ġhorse":1837,"Ġgrow":1838,"Ġwow":1839,"wards":1840,"Ġinc":1841,"Ġcra":1842,"ĠErm":1843,"uth":1844,"Ġclot":1845,"Ġpretend":1846,"ĠFl":1847,"old":1848,"Ġfair":1849,"ason":1850,"Ġfront":1851,"Ġdinner":1852,"Ġphone":1853,"Ġadd":1854,"ĠAf":1855,"Ġsy":1856,"und":1857,"Ġgirls":1858,"ĠMic":1859,"more":1860,"to":1861,"Ġeverybody":1862,"Ġow":1863,"Ġconf":1864,"Ġcool":1865,"Ġ4":1866,"orth":1867,"Ġpeek":1868,"Ġbrought":1869,"Ġknown":1870,"ital":1871,"Ġgets":1872,"Ġcountry":1873,"ken":1874,"ON":1875,"hip":1876,"ime":1877,"ĠHere":1878,"Ġtast":1879,"Ġsoft":1880,"Ġate":1881,"Ġchick":1882,"phan":1883,"Ġang":1884,"Ġperf":1885,"aj":1886,"Ġsal":1887,"Ġsub":1888,"Ġfavor":1889,"ery":1890,"Ġshoes":1891,"Go":1892,"Ġlate":1893,"ted":1894,"Ġdi":1895,"anger":1896,"Ġcheese":1897,"ila":1898,"Ġsent":1899,"Ġbra":1900,"Ġhum":1901,"Ġvis":1902,"Ġland":1903,"Ġquick":1904,"rat":1905,"\".":1906,"Ġposs":1907,"cc":1908,"Ġupon":1909,"Ġcompl":1910,"Ġuhoh":1911,"Ġext":1912,"Ġbutter":1913,"Ġfuck":1914,"vern":1915,"ĠWill":1916,"Ġcheck":1917,"Ġtape":1918,"arent":1919,"Ġfrog":1920,"itc":1921,"Ġstre":1922,"ĠAh":1923,"Right":1924,"Ġdire":1925,"Ġfing":1926,"ider":1927,"Ġexpl":1928,"Ġmusic":1929,"Ġspecial":1930,"idd":1931,"Ġcoup":1932,"ounc":1933,"ĠAd":1934,"ĠCom":1935,"Ġstore":1936,"ĠSc":1937,"Ġspoon":1938,"Ġbusiness":1939,"Ġpark":1940,"Ġanymore":1941,"Ġelephan":1942,"ield":1943,"Ġbread":1944,"Ġtele":1945,"Ġ200":1946,"ote":1947,"Ġimportant":1948,"Ġwords":1949,"Ġride":1950,"aken":1951,"Ġexp":1952,"Ġsnow":1953,"iny":1954,"Ġdeal":1955,"Ġfinish":1956,"Ġknows":1957,"imb":1958,"ention":1959,"ude":1960,"Ġgener":1961,"AR":1962,"Ġwife":1963,"Ġpast":1964,"Ġprom":1965,"Ġcouple":1966,"Ġwish":1967,"got":1968,"Ġcookie":1969,"Ġpolice":1970,"Ġspeak":1971,"ison":1972,"ĠRoss":1973,"Ġleast":1974,"An":1975,"ĠQ":1976,"ully":1977,"gin":1978,"Ġnews":1979,"Ġborn":1980,"Ġroad":1981,"Ġnine":1982,"pping":1983,"ows":1984,"raid":1985,"Ġcream":1986,"Ġ5":1987,"Ġsafe":1988,"Ġmovie":1989,"aughter":1990,"aces":1991,"ĠGer":1992,"ming":1993,"inet":1994,"Ġsitting":1995,"Ġcorn":1996,"ator":1997,"Ġanyway":1998,"Ġsand":1999,"Ġroll":2000,"Ġsim":2001,"Ġwhatever":2002,"ĠJo":2003,"Ġpound":2004,"ĠAmerican":2005,"oof":2006,"ef":2007,"Ġmark":2008,"Ġfree":2009,"Ġeasy":2010,"owers":2011,"Ġsec":2012,"Ġgent":2013,"Ġthinking":2014,"ple":2015,"not":2016,"Ġquestion":2017,"Ġturned":2018,"Give":2019,"Ġrather":2020,"ĠFirst":2021,"Ġsna":2022,"els":2023,"OR":2024,"ĠInd":2025,"Ġty":2026,"Ġfore":2027,"ana":2028,"ĠHave":2029,"cy":2030,"haps":2031,"iting":2032,"unt":2033,"Ġswim":2034,"ES":2035,"Ġafraid":2036,"ient":2037,"Ġap":2038,"Ġshort":2039,"Ġdark":2040,"joy":2041,"Ġfinished":2042,"oke":2043,"Ġbite":2044,"Ġmed":2045,"Ġless":2046,"ĠBl":2047,"Ġbunny":2048,"Ġpoor":2049,"Ġcase":2050,"ĠEx":2051,"ls":2052,"ury":2053,"ĠUnited":2054,"Ġev":2055,"Ġseems":2056,"Ġage":2057,"ities":2058,"Ġcity":2059,"ĠMama":2060,"Ġpizz":2061,"oth":2062,"ides":2063,"ĠHer":2064,"Ġbow":2065,"ĠJack":2066,"ney":2067,"Ġcos":2068,"Ġbecame":2069,"Ġpage":2070,"br":2071,"Ġusually":2072,"Ġlar":2073,"Ġhon":2074,"olog":2075,"Ġblood":2076,"Ġangry":2077,"LL":2078,"Ġclass":2079,"Ġtired":2080,"Ġdoctor":2081,"Ġpartic":2082,"nce":2083,"Ġcent":2084,"Ġfig":2085,"ĠOr":2086,"Ġtonight":2087,"Ġlunch":2088,"ete":2089,"Ġrunning":2090,"Ġes":2091,"Ġtick":2092,"ert":2093,"ĠKing":2094,"Ġsat":2095,"ĠChar":2096,"ĠSome":2097,"ided":2098,"actly":2099,"ĠLila":2100,"Ġbody":2101,"ĠBecause":2102,"Ġwin":2103,"band":2104,"Ġcir":2105,"Ġbottle":2106,"iding":2107,"Ġwall":2108,"Ġdra":2109,"ĠEvery":2110,"ards":2111,"ages":2112,"Ġpizza":2113,"gn":2114,"Ġlaugh":2115,"Ġfit":2116,"ica":2117,"ousand":2118,"Ġ18":2119,"ĠâĢĵ":2120,"ues":2121,"you":2122,"no":2123,"ring":2124,"ĠGrand":2125,"Ġ#":2126,"Ġdeath":2127,"ĠSe":2128,"Ġpresent":2129,"Ġknock":2130,"terday":2131,"Ġlots":2132,"Ġreturn":2133,"Ġgun":2134,"Ġclothes":2135,"EN":2136,"ĠYOU":2137,"bs":2138,"Ġyep":2139,"ĠHello":2140,"Ġbye":2141,"Ġreason":2142,"Ġliving":2143,"He":2144,"Ġfeed":2145,"Ġnoise":2146,"come":2147,"Ġneeds":2148,"Ġthousand":2149,"ĠTr":2150,"Ġtrouble":2151,"phone":2152,"ze":2153,"Ġlaw":2154,"ative":2155,"Ġtaken":2156,"ĠHar":2157,"selves":2158,"ches":2159,"oop":2160,"bbit":2161,"Ġcoff":2162,"Ġblocks":2163,"Ġfavorite":2164,"Ġsmiled":2165,"unk":2166,"Why":2167,"Ġquiet":2168,"fully":2169,"name":2170,"ĠUh":2171,"Ġed":2172,"ĠOK":2173,"Ġring":2174,"ĠGe":2175,"Ġpar":2176,"Ġorange":2177,"Ġwarm":2178,"ines":2179,"Ġsick":2180,"Ġstra":2181,"Ġstar":2182,"Ġground":2183,"usband":2184,"iously":2185,"ying":2186,"zy":2187,"Ġline":2188,"cha":2189,"Ġhang":2190,"Ġins":2191,"Ġlearn":2192,"Ġdrive":2193,"Ġclos":2194,"ĠTw":2195,"Ġinteresting":2196,"Ġinter":2197,"Ġliked":2198,"Ġserv":2199,"Ġtow":2200,"aura":2201,"Ġain":2202,"Ġsto":2203,"Ġyesterday":2204,"eth":2205,"iver":2206,"Ġlad":2207,"oops":2208,"Ġsum":2209,"ĠGr":2210,"ized":2211,"ppy":2212,"ober":2213,"Ġdanger":2214,"Ġpubl":2215,"Ġduring":2216,"Ġclear":2217,"Ġoffic":2218,"Ġ*":2219,"ĠDav":2220,"ĠSee":2221,"ĠRe":2222,"ding":2223,"Ġseat":2224,"ically":2225,"Ġloc":2226,".âĢĿ":2227,"Ġsea":2228,"Ġclimb":2229,"Ġhusband":2230,"Ġforget":2231,"Ġsupposed":2232,"Ġcoffee":2233,"Ġleg":2234,"Ġglass":2235,"Ġhur":2236,"ner":2237,"ĠLaura":2238,"Ġanswer":2239,"Ġsend":2240,"andy":2241,"Ġart":2242,"Ġeye":2243,"Ġwash":2244,"Ġpower":2245,"Ġrain":2246,"Ġpet":2247,"Ġmoon":2248,"Ġyummy":2249,"ief":2250,"Anna":2251,"Ġhappens":2252,"ĠSha":2253,"),":2254,"Ġarea":2255,"Ġmonths":2256,"osp":2257,"Ġenjoy":2258,"Ġhole":2259,"Ġlay":2260,"oose":2261,"ĠLe":2262,"Ġwindow":2263,"ti":2264,"Ġwood":2265,"lish":2266,"du":2267,"Ġninet":2268,"atur":2269,"Ġputting":2270,"ured":2271,"itchen":2272,"men":2273,"Ġwomen":2274,"mas":2275,"urs":2276,"ĠPh":2277,"Bye":2278,"teen":2279,"oman":2280,"ters":2281,"Ġglad":2282,"ience":2283,"king":2284,"ĠPr":2285,"Ġpeekab":2286,"ĠJen":2287,"ait":2288,"ĠWith":2289,"Ġteacher":2290,"Ġmain":2291,"Ġlives":2292,"Ġtail":2293,"Ġstud":2294,"rench":2295,"ĠSarah":2296,"itch":2297,"Ġfil":2298,"umb":2299,"Ġdaughter":2300,"ments":2301,"Ġcompany":2302,"het":2303,"ĠMe":2304,"ĠEd":2305,"Ġmad":2306,"ĠOf":2307,"Ġbroke":2308,"ones":2309,"Ġkitchen":2310,"Ġcars":2311,"amed":2312,"ĠAny":2313,"ears":2314,"Ġflowers":2315,"Ġwet":2316,"Ġoften":2317,"Ġarm":2318,"eased":2319,"Ġdream":2320,"fort":2321,"Ġkilled":2322,"ato":2323,"ĠStates":2324,"Ġworked":2325,"fast":2326,"used":2327,"Ġmot":2328,"Ġplate":2329,"Ġseemed":2330,"Ġ199":2331,"Ġchicken":2332,"Ġteet":2333,"ĠPeter":2334,"Ġblow":2335,"Ġearly":2336,"Ġexpect":2337,"ared":2338,"bye":2339,"Ġstep":2340,"avy":2341,"Ã©":2342,"Ġpeekaboo":2343,"Ġteam":2344,"Ġanybody":2345,"ately":2346,"Ġapple":2347,"ald":2348,"ustr":2349,"Ġgovern":2350,"ĠEl":2351,"Ġprot":2352,"Th":2353,"ĠSpot":2354,"Ġbegan":2355,"Ġcookies":2356,"Ġthirty":2357,"Ġbeg":2358,"Ġking":2359,"IS":2360,"ices":2361,"Ġhours":2362,"ĠLuc":2363,"Ġmarried":2364,"Ġanyone":2365,"Ġkinda":2366,"ucky":2367,"Ġpeas":2368,"Ġreco":2369,"oub":2370,"stairs":2371,"ĠBar":2372,"hael":2373,"ats":2374,"Ġsounds":2375,"Ġstuck":2376,"oll":2377,"Ġseem":2378,"ik":2379,"Ġtill":2380,"Ġru":2381,"Ġ6":2382,"Ġorder":2383,"RE":2384,"that":2385,"ĠMan":2386,"Ġgard":2387,"ĠPro":2388,"Ġcarry":2389,"ges":2390,"ĠGive":2391,"lex":2392,"ĠPer":2393,"ocol":2394,"Ġhors":2395,"erv":2396,"Ġforgot":2397,"Ġbroken":2398,"Ġ7":2399,"Ġeveryone":2400,"ĠDr":2401,"Ġincl":2402,"Ġtelling":2403,"Ġacross":2404,"Ġrepl":2405,"Ġdirty":2406,"Ġcost":2407,"Ġgentle":2408,"iam":2409,"Ġexactly":2410,"Ġeff":2411,"ering":2412,"Ġheal":2413,"ution":2414,"Ġbreakfast":2415,").":2416,"Ġholding":2417,"Ġcause":2418,"ĠDavid":2419,"Ġband":2420,"\",":2421,"Ġlived":2422,"Ġkept":2423,"Ġban":2424,"ific":2425,"They":2426,"min":2427,"Ġmill":2428,"Ġreport":2429,"ivers":2430,"Ġothers":2431,"Ġwaiting":2432,"Ġfifty":2433,"Ġform":2434,"Ġslide":2435,"ĠMat":2436,"Ġsold":2437,"Ġterri":2438,"Ġcute":2439,"Ġadv":2440,"ached":2441,"Ġcannot":2442,"Ġvisit":2443,"Ġbott":2444,"ced":2445,"Ġve":2446,"Ġtest":2447,"Ġtakes":2448,"Ġteeth":2449,"cent":2450,"gged":2451,"Ġinterested":2452,"ĠThanks":2453,"idge":2454,"Ġpos":2455,"Ġparent":2456,"Ġchance":2457,"Ġbrown":2458,"Ġ]":2459,"rest":2460,"ĠSw":2461,"stem":2462,"Ġwhether":2463,"Ġtrans":2464,"eather":2465,"pri":2466,"Ġmyself":2467,"rel":2468,"Ġfa":2469,"ĠGeor":2470,"son":2471,"Ġbecome":2472,"ĠTO":2473,"ocolate":2474,"Ġdie":2475,"Ġallow":2476,"Ġgiven":2477,"Ġslow":2478,"ĠMichael":2479,"Ġstraight":2480,"Ġprof":2481,"Ġcontin":2482,"Ġtreat":2483,"Ġpress":2484,"ists":2485,"Ġteach":2486,"Ġgroup":2487,"uit":2488,"Ġpea":2489,"ĠJan":2490,"iday":2491,"itten":2492,"Ġsmell":2493,"ley":2494,"Ġcover":2495,"Ġaff":2496,"artment":2497,"Ġpictures":2498,"Ġgiving":2499,"ipe":2500,"ric":2501,"we":2502,"Ġboo":2503,"ĠChristmas":2504,"Ġexper":2505,"Ġsuppose":2506,"pper":2507,"Ġeng":2508,"ĠAfter":2509,"Ġ10":2510,"Ġprov":2511,"Ġship":2512,"Ġoops":2513,"Ġtaste":2514,"cted":2515,"Ġweeks":2516,"Ġcur":2517,"read":2518,"Ġopp":2519,"Ġfeeling":2520,"ility":2521,"ories":2522,"lew":2523,"de":2524,"ĠDan":2525,"Ġworks":2526,"Ġchocolate":2527,"zzz":2528,"inning":2529,"Ġbought":2530,",âĢĿ":2531,"ĠHen":2532,"ĠGu":2533,"Ġsystem":2534,"Ġsave":2535,"Ġthanks":2536,"ĠX":2537,"Ġbigger":2538,"Ġwhoa":2539,"Ġdin":2540,"ĠâĢĺ":2541,"Ġperhaps":2542,"TH":2543,"Ġcor":2544,"ĠEnglish":2545,"Ġparticular":2546,"ĠChe":2547,"Ġspo":2548,"Ġbug":2549,"ians":2550,"Ġcreat":2551,"Ġfur":2552,"Ġheavy":2553,"ality":2554,"Ġhimself":2555,"aul":2556,"Ġhaha":2557,"Ġgarden":2558,"Ġzzz":2559,"Ġperfect":2560,"Ġcri":2561,"âĢĶ":2562,"Ġstreet":2563,"Ġshirt":2564,"Ġanimal":2565,"ĠHelp":2566,"Ġinstead":2567,"iddle":2568,"Ġmist":2569,"ement":2570,"Ġdance":2571,"Ġ9":2572,"Ġda":2573,"Ġpus":2574,"Ġheld":2575,"Ġscream":2576,"----":2577,"ives":2578,"Ġcrazy":2579,"ĠLike":2580,"Ġ8":2581,"Ġsomewhere":2582,"ket":2583,"oom":2584,"Ġelephant":2585,"ham":2586,"Ġrabbit":2587,"urch":2588,"Ġoffice":2589,"Ġnamed":2590,"Ġbuilding":2591,"Ġgar":2592,"Ġgold":2593,"aby":2594,"ĠGerman":2595,"ler":2596,"ilt":2597,"Ġfootball":2598,"Ġpounds":2599,"Ġshot":2600,"Ġmouse":2601,"Ġshoot":2602,"ror":2603,"iter":2604,"Ġwel":2605,"Ġneck":2606,"ĠJune":2607,"Because":2608,"ĠAdam":2609,"ĠFirstname":2610,"Ġsil":2611,"Ġmur":2612,"ĠRea":2613,"Ġsuc":2614,"ghed":2615,"Ġwhoops":2616,"uri":2617,"Ġdry":2618,"ĠWas":2619,"Ġshar":2620,"gar":2621,"ism":2622,"ĠJu":2623,"ospital":2624,"yeah":2625,"Ġloud":2626,"Ġdoggie":2627,"Ġgoodness":2628,"000":2629,"Ġbang":2630,"ĠTake":2631,"Ġcaught":2632,"aff":2633,"velop":2634,"cuse":2635,"erry":2636,"Ġstate":2637,"ĠHi":2638,"Ġwatching":2639,"Ġpolit":2640,"Ġexplain":2641,"Ġlarge":2642,"Ġcamp":2643,"osaur":2644,"ĠCol":2645,"Ġshut":2646,"Ġweren":2647,"AS":2648,"ĠAN":2649,"Ġneedta":2650,"Ġpicked":2651,"Ġattack":2652,"reed":2653,"Ġsweetie":2654,"Ġbeat":2655,"erp":2656,"Ġdanc":2657,"ĠYork":2658,"ĠFrench":2659,"Ġsmart":2660,"Ġcertainly":2661,"Ġmeat":2662,"ĠCap":2663,"19":2664,"Ġshake":2665,"Ġocc":2666,"osta":2667,"Ġresp":2668,"nie":2669,"Ġlaughed":2670,"Ġsell":2671,"aim":2672,"cri":2673,"ĠCount":2674,"Ġcross":2675,"Ġfill":2676,"Ġ198":2677,"Ġwonderful":2678,"Ġabs":2679,"Ġcontro":2680,"Ġcal":2681,"ĠPar":2682,"www":2683,"gram":2684,"Ġlonger":2685,"ĠHenry":2686,"Okay":2687,"ĠSorry":2688,"Ġsmile":2689,"Ġhealth":2690,"Ġwhose":2691,"Ġcrack":2692,"Ġtrees":2693,"Ġparents":2694,"ĠJim":2695,"gu":2696,"la":2697,"Ġfat":2698,"ene":2699,"Ġrece":2700,"Ġmach":2701,"Ġrace":2702,"Ġruns":2703,"lo":2704,"Ġgod":2705,"well":2706,"ession":2707,"Ġpieces":2708,"Ġnap":2709,"Ġnobody":2710,"Ġbelong":2711,"oint":2712,"ĠEm":2713,"Ġdangerous":2714,"Ġsail":2715,"Ġmoved":2716,"Ġdiffic":2717,"icy":2718,"Ġkick":2719,"ĠThese":2720,"ĠStop":2721,"Ġsoup":2722,"Ġpack":2723,"olute":2724,"Ġbrave":2725,"Ġfarm":2726,"ĠWait":2727,"ept":2728,"Ġsurprised":2729,"cream":2730,"uro":2731,"Ġla":2732,"Ġsheep":2733,"Ġloves":2734,"Ġyum":2735,"Ġreading":2736,"Ġbabies":2737,"Ġshouldn":2738,"ped":2739,"vered":2740,"cially":2741,"Ġill":2742,"Ġmix":2743,"ĠBig":2744,"Ġfinger":2745,"Ġprotect":2746,"ging":2747,"ĠSir":2748,"time":2749,"Ġburn":2750,"ored":2751,"Ġgovernment":2752,"let":2753,"Ġhar":2754,"Ġbud":2755,"Ġwelcome":2756,"ajor":2757,"Ġpossible":2758,"Ġta":2759,"Ġcast":2760,"Ġlion":2761,"Ġstopped":2762,"Ġsposta":2763,"Ġpink":2764,"ĠAb":2765,"Ġhist":2766,"Ġimag":2767,"Ġpuzz":2768,"Ġinform":2769,"inite":2770,"Ġcond":2771,"Ġrecogn":2772,"ĠAm":2773,"Ġfucking":2774,"ĠLucy":2775,"com":2776,"Ġappro":2777,"Ġfigure":2778,"ract":2779,"Ġ197":2780,"illar":2781,"Ġbottom":2782,"amb":2783,"kin":2784,"Ġbutterf":2785,"Ġuhuh":2786,"Ġlock":2787,"ĠRoman":2788,"Ġspace":2789,"born":2790,"Ġlegs":2791,"Ġpublic":2792,"Ġooh":2793,"dden":2794,"isten":2795,"Ġ2020":2796,"Ġlose":2797,"though":2798,"Ġconcer":2799,"Ġshouts":2800,"Ġexcuse":2801,"rict":2802,"ĠBro":2803,"Ġwithin":2804,"Ġchanged":2805,"Ġsingle":2806,"ray":2807,"vision":2808,"Ġann":2809,"lie":2810,"Ġsense":2811,"ĠCon":2812,"Ġsuper":2813,"ĠFrance":2814,"Ġzoo":2815,"Ġdecided":2816,"Ġhospital":2817,"Ġcaterp":2818,"ĠBrit":2819,"ouncil":2820,"ĠHa":2821,"Ġthemselves":2822,"ho":2823,"Ġben":2824,"Ġmic":2825,"Ġspend":2826,"Ġcolors":2827,"LE":2828,"Ġrad":2829,"ott":2830,"Ġsudden":2831,"OM":2832,"Ġarms":2833,"Ġstanding":2834,"Ġeggs":2835,"pes":2836,"ift":2837,"Ġspl":2838,"ened":2839,"Ġcop":2840,"ĠPaul":2841,"Ġdam":2842,"Ġhol":2843,"angu":2844,"sy":2845,"ature":2846,"unic":2847,"Ġhate":2848,"ium":2849,"ently":2850,"Ġwalking":2851,"uary":2852,"eared":2853,"Ġthird":2854,"ĠMary":2855,"Ġsupport":2856,"Ġears":2857,"Ġsummer":2858,"ĠPe":2859,"Ġbasket":2860,"Ġdropped":2861,"Ġgrass":2862,"This":2863,"Ġstri":2864,"Ġvill":2865,"Ġsock":2866,"Ġprogram":2867,"Ġdisc":2868,"GH":2869,"uce":2870,"Ġtall":2871,"Ġdoub":2872,"Ġpract":2873,"Ġshoe":2874,"Ġcomplete":2875,"Ġflower":2876,"ĠFrom":2877,"Ġhuman":2878,"Ġdinosaur":2879,"ĠBo":2880,"Ġbowl":2881,"ĠPhil":2882,"Ġtem":2883,"Ġtiny":2884,"Ġmiddle":2885,"ĠSund":2886,"Ġdeep":2887,"Ġord":2888,"Ġorgan":2889,"pril":2890,"noon":2891,"Ġsurprise":2892,"ĠComm":2893,"Ġsecret":2894,"Ġexcept":2895,"upid":2896,"Ġtype":2897,"Ġworth":2898,"OW":2899,"Ġcam":2900,"ising":2901,"ĠMor":2902,"ĠMag":2903,"Ġcard":2904,"Ġboard":2905,"Ġquestions":2906,"Ha":2907,"viously":2908,"Ġyay":2909,"Ġlow":2910,"Ġhast":2911,"Ġforward":2912,"ĠLea":2913,"Ġtrust":2914,"Ġafternoon":2915,"Ġopened":2916,"Ġdiv":2917,"Ġmeant":2918,"Ġmoving":2919,"Ġlead":2920,"Ġmagic":2921,"Ġcirc":2922,"Ġforty":2923,"pa":2924,"unity":2925,"Ġquack":2926,"ountain":2927,"ĠAlex":2928,"ĠNe":2929,"Ġreach":2930,"Ġwhis":2931,"Ġblank":2932,"Ġsky":2933,"ĠTwo":2934,"Ġtot":2935,"Ġpaint":2936,"Ġsandw":2937,"Ġsol":2938,"Ġtowards":2939,"Ġevening":2940,"iversity":2941,"ety":2942,"raph":2943,"Ġmeeting":2944,"Ġproper":2945,"initely":2946,"Ġcaterpillar":2947,"Ġhide":2948,"Ġdogs":2949,"Ġbusy":2950,"Ġoper":2951,"ĠSunday":2952,"Um":2953,"uts":2954,"Ġbur":2955,"Ġboom":2956,"Ġscrew":2957,"Ġdar":2958,"Ġfield":2959,"Ġquar":2960,"Ġkey":2961,"mm":2962,"ern":2963,"ĠLord":2964,"Ġtruth":2965,"ills":2966,"Ġnope":2967,"Ġbee":2968,"ED":2969,"Ġbutton":2970,"Ġneigh":2971,"ĠBaby":2972,"Ġsever":2973,"pecially":2974,"Ġhug":2975,"Now":2976,"Ġdest":2977,"earch":2978,"Ġbirds":2979,"Did":2980,"nel":2981,"Ġ196":2982,"Ġ..":2983,"ĠApril":2984,"Ġdisapp":2985,"Ġwalked":2986,"Ġsees":2987,"Ġapart":2988,"org":2989,"ĠMhm":2990,"ĠCo":2991,"Ġmillion":2992,"Ġbright":2993,"eddy":2994,"Ġdrop":2995,"Ġcarr":2996,"There":2997,"Ġstrange":2998,"clock":2999,"Ġjoin":3000,"Ġcrying":3001,"Ġdifficult":3002,"ege":3003,"ived":3004,"Ġlem":3005,"Ġstraw":3006,"Ġplaces":3007,"aghet":3008,"IC":3009,"Ġsus":3010,"olutely":3011,"ĠBy":3012,"Ġlift":3013,"Ġval":3014,"duc":3015,"now":3016,"Ġwild":3017,"Ġwearing":3018,"Ġinclud":3019,"Ġnorm":3020,"Ġconst":3021,"Ġamong":3022,"Ġtwel":3023,"ky":3024,"Ġreached":3025,"Ġsuff":3026,"Ġpock":3027,"Ġtax":3028,"Ġbreat":3029,"Ġprin":3030,"Ġdem":3031,"aced":3032,"Ġusing":3033,"ĠJanuary":3034,"ĠNor":3035,"Ġkeys":3036,"Ġseveral":3037,"ĠRic":3038,"Ġ12":3039,"bers":3040,"Ġthrew":3041,"Ġshit":3042,"Ġbri":3043,"Ġneat":3044,"ĠTell":3045,"ĠCal":3046,"Ġloved":3047,"ĠNat":3048,"Ġproud":3049,"Ġflew":3050,"Ġstupid":3051,"Ġspaghet":3052,"they":3053,"uation":3054,"ĠQu":3055,"ĠWor":3056,"iel":3057,"ĠPres":3058,"Ġrequ":3059,"Ġequ":3060,"ĠReally":3061,"ĠPat":3062,"Ġclock":3063,"ĠMarch":3064,"Ġtight":3065,"Ġlangu":3066,"Ġrid":3067,"Ġasking":3068,"Ġchoo":3069,"Ġswing":3070,"ĠMo":3071,"Ġsex":3072,"Ġleaves":3073,"TER":3074,"ior":3075,"ĠBear":3076,"Ġpleas":3077,"iol":3078,"rent":3079,"Ġgives":3080,"Ġmail":3081,"Ġsugar":3082,"Ġproblems":3083,"ĠGeorge":3084,"Ġpan":3085,"Ġhelped":3086,"Ġtalked":3087,"Ġmonkey":3088,"Ġhurry":3089,"ai":3090,"astic":3091,"Ġowl":3092,"Ġpromise":3093,"Let":3094,"erc":3095,"ĠAnt":3096,"ĠSomet":3097,"ĠEuro":3098,"Ġpants":3099,"Ġriver":3100,"ĠĠĠĠĠĠĠĠĠĠĠĠĠĠĠĠ":3101,"Ġbutterfly":3102,"Ġfort":3103,"idence":3104,"Ġseas":3105,"ĠSant":3106,"Ġsquir":3107,"board":3108,"ĠNothing":3109,"Ġspaghetti":3110,"go":3111,"ĠJe":3112,"Ġwrote":3113,"ron":3114,"Ġori":3115,"iron":3116,"Ġchew":3117,"Ġsuccess":3118,"ĠOF":3119,"ĠOct":3120,"Ġdevelop":3121,"Ġpulled":3122,"Ġfingers":3123,"Ġservice":3124,"Ġdet":3125,"Ġcomb":3126,"Ġtrick":3127,"Ġinvol":3128,"ĠGrandma":3129,"nes":3130,"Ġgas":3131,"ĠWar":3132,"ĠEven":3133,"Ġworried":3134,"Ġsleeping":3135,"ises":3136,"ï¿½ï¿½ï¿½ï¿½":3137,"Ġjack":3138,"ĠGre":3139,"Ġserious":3140,"Ġlie":3141,"Ġav":3142,"che":3143,"ĠWould":3144,"Ġterrible":3145,"Ġmachine":3146,"Ġmember":3147,"Ġbrush":3148,"Ġtelevision":3149,"eptember":3150,"ued":3151,"omi":3152,"iced":3153,"Ġemp":3154,"Ġicecream":3155,".'":3156,"ien":3157,"ĠSally":3158,"ĠSouth":3159,"iew":3160,"que":3161,"Ġwriting":3162,"Ġcomput":3163,"II":3164,"Ġspot":3165,"ĠBobby":3166,"ĠMa":3167,"ĠWH":3168,"Ġtrack":3169,"Ġcharac":3170,"fer":3171,"gue":3172,"Ġbike":3173,"ĠPen":3174,"Ġgrandma":3175,"mbers":3176,"uthor":3177,"ĠMin":3178,"Ġthinks":3179,"emy":3180,"Ġprison":3181,"Ġrub":3182,"ugust":3183,"ĠIT":3184,"Ġnames":3185,"icious":3186,"ander":3187,"Ġalive":3188,"Ġleaving":3189,"Ġfear":3190,"Ġscary":3191,"con":3192,"Ġmissed":3193,"Ġgeneral":3194,"ĠCounty":3195,"for":3196,"Ġbes":3197,"Ġcloser":3198,"oot":3199,"Ġstood":3200,"Ġwheel":3201,"Ġfriendly":3202,"Ġreplied":3203,"work":3204,"hard":3205,"ĠIN":3206,"ĠGreat":3207,"ondon":3208,"Ġquickly":3209,"Ġtwelve":3210,"Ġprop":3211,"aged":3212,"Ġcray":3213,"Ġshop":3214,"Ġairpl":3215,"Ġmicro":3216,"ath":3217,"Ġlovely":3218,"Ġbathroom":3219,"ĠOctober":3220,"ipp":3221,"Ġought":3222,"ĠAbe":3223,"resh":3224,"Ġposition":3225,"udy":3226,"Ġprodu":3227,"Ġcre":3228,"ĠJose":3229,"ended":3230,"Ġarri":3231,"Ġamaz":3232,"ĠMart":3233,"ĠCH":3234,"lyn":3235,"ĠListen":3236,"Ġhappening":3237,"My":3238,"Ġpean":3239,"ĠDoes":3240,"ggest":3241,"Ġrespect":3242,"Ġextra":3243,"acy":3244,"ache":3245,"Ġseeing":3246,"Ġprep":3247,"Ġlevel":3248,"Ġolder":3249,"ĠEngland":3250,"Ġmoo":3251,"Ġbase":3252,"ĠJoe":3253,"mit":3254,"net":3255,"oura":3256,"ĠLondon":3257,"Ġview":3258,"hah":3259,"Ġstat":3260,"Ġjud":3261,"Ġvar":3262,"era":3263,"Ġbyeb":3264,"Ġï¿½":3265,"Ġham":3266,"ĠSeptember":3267,"Ġclosed":3268,"Ġpost":3269,"ancy":3270,"Ġdefinitely":3271,"ishing":3272,"eng":3273,"ĠJes":3274,"Ġsuggest":3275,"uffy":3276,"Ġeffect":3277,"Ġhasn":3278,"Ġcoat":3279,"Ġremain":3280,"riage":3281,"ĠNorth":3282,"AY":3283,"oul":3284,"Ġmention":3285,"apers":3286,"Ġtelephone":3287,"Ġreleased":3288,"Ġpuppy":3289,"cember":3290,"Ġvide":3291,"Ġbull":3292,"Ġfool":3293,"Ġfruit":3294,"Ġ15":3295,"Ġneeded":3296,"Ġfollowed":3297,"ĠMad":3298,"ection":3299,"Ġpassed":3300,"Ġpaid":3301,"Ġballoon":3302,"Ġdollars":3303,"va":3304,"Ġsnake":3305,"uel":3306,"Ġagree":3307,"Ġpriv":3308,"bed":3309,"Ġmonster":3310,"Ġneighb":3311,"ooh":3312,"ĠRob":3313,"EA":3314,"Ġmis":3315,"Ġmir":3316,"Ġspell":3317,"Ġbuilt":3318,"Ġdriver":3319,"Ġconsider":3320,"Ġengine":3321,"Ġinformation":3322,"Ġmembers":3323,"Ġbeginning":3324,"ĠRuss":3325,"aint":3326,"Ġallowed":3327,"US":3328,"gest":3329,"Ġest":3330,"Ġbother":3331,"Ġfut":3332,"Ġplant":3333,"ope":3334,"sc":3335,"Ġiss":3336,"ĠAugust":3337,"ĠChild":3338,"Ġclub":3339,"Ġlocal":3340,"Ġpin":3341,"Ġ17":3342,"Ġelect":3343,"Ġdriving":3344,"Ġattention":3345,"Ġpotato":3346,"Ġcorner":3347,"Ġpuzzle":3348,"Ġbyebye":3349,"Ġteddy":3350,"Ġcere":3351,"ulation":3352,"Ġ195":3353,"Ġspec":3354,"Ġlaughing":3355,"ĠCaptain":3356,"Ġdoubt":3357,"Ġexcited":3358,"Ġindeed":3359,"Ġabove":3360,"ances":3361,"ĠAND":3362,"rian":3363,"ĠNove":3364,"ĠBird":3365,"Ġshowed":3366,",--":3367,"ining":3368,"Ġoo":3369,"Ġmum":3370,"lla":3371,"ĠJul":3372,"Ġwag":3373,"Ġcomfort":3374,"Ġleaf":3375,"ĠSte":3376,"Ġcontrol":3377,"Ġsandwich":3378,"Ġpocket":3379,"Ġorigin":3380,"Ġbeep":3381,"ĠNovember":3382,"ĠEn":3383,"Ġdifference":3384,"view":3385,"Ġmotor":3386,"Ġnorth":3387,"ili":3388,"Ġchurch":3389,"Ġairplane":3390,"Ġbuck":3391,"Ġvict":3392,"hile":3393,"urious":3394,"ĠSure":3395,"Ġahhah":3396,"ĠMarky":3397,"ĠRep":3398,"Ġearth":3399,"ĠEurope":3400,"ĠAmy":3401,"Ġplays":3402,"Ġcalling":3403,"Ġ194":3404,"aturday":3405,"IT":3406,"ĠWhich":3407,"Ġwritten":3408,"Ġhel":3409,"ĠSm":3410,"ĠCos":3411,"ĠOur":3412,"ables":3413,"ĠVery":3414,"Ġseries":3415,"Ġelephants":3416,"Ġstrawber":3417,"what":3418,"isy":3419,"Ġhous":3420,"Ġlearned":3421,"VE":3422,"mon":3423,"ugg":3424,"Ġstation":3425,"Ġstudy":3426,"Ġrul":3427,"Ġesca":3428,"Ġtower":3429,"ensive":3430,"Ġfollowing":3431,"ĠDecember":3432,"ĠSaturday":3433,"Ġaccept":3434,"Ġupstairs":3435,"ume":3436,"Ġmarket":3437,"Ġswimming":3438,"Ġfuture":3439,"ele":3440,"Ġmajor":3441,"Ġwhom":3442,"Ġhistory":3443,"Ġgames":3444,"oring":3445,"Ġanywhere":3446,"Ġremind":3447,"urse":3448,"gon":3449,"Ġgrab":3450,"Ġletters":3451,"Ġhorses":3452,"Ġpump":3453,"ĠTony":3454,"ĠNomi":3455,"ĠWorld":3456,"bum":3457,"Ġlab":3458,"Ġespecially":3459,"Ġcandy":3460,"ency":3461,"Ġsituation":3462,"ĠJoseph":3463,"bit":3464,"Ġmatch":3465,"Ġdirect":3466,"aa":3467,"rr":3468,"Ġbank":3469,"Ġdolls":3470,"Ġflying":3471,"Ġhill":3472,"ĠHo":3473,"ĠGot":3474,"Ġkinds":3475,"Ġdev":3476,"Ġ193":3477,"Ġfeels":3478,"Ġskin":3479,"ashed":3480,"Ġstars":3481,"ĠRichard":3482,"20":3483,"Ġpour":3484,"Ġnational":3485,"cil":3486,"Ġnecess":3487,"ĠJane":3488,"ograph":3489,"Ġninety":3490,"Ġviol":3491,"Ġcart":3492,"udd":3493,"Ġtickle":3494,"How":3495,"ffic":3496,"Ġstarting":3497,"Ġsupper":3498,"Ġfilm":3499,"heart":3500,"Ġhiding":3501,"hern":3502,"Ġsmo":3503,"Ġauthor":3504,"atch":3505,"Ġnodd":3506,"resent":3507,"Ġjumped":3508,"Ġsharp":3509,"ĠBritish":3510,"Ġturt":3511,"Ġbell":3512,"Ġmem":3513,"Ġvillage":3514,"ET":3515,"Ġbump":3516,"ĠCr":3517,"ilar":3518,"Ġcompet":3519,"Ġmiles":3520,"Ġtrip":3521,"iers":3522,"Ġhig":3523,"ĠExcuse":3524,"rap":3525,"Ġworse":3526,"ĠAfr":3527,"ĠSanta":3528,"ĠCity":3529,"uct":3530,"Ġsize":3531,"Ġfresh":3532,"ĠMon":3533,"Ġstories":3534,"set":3535,"Ġluck":3536,"Ġinvest":3537,"Ġpurple":3538,"Ġmissing":3539,"ology":3540,"Ġcircle":3541,"Ġpeace":3542,"Ġnone":3543,"eta":3544,"Ġeh":3545,"ĠLou":3546,"Ġvan":3547,"roy":3548,"Ġjour":3549,"ĠOoh":3550,"iger":3551,"Ġobviously":3552,"Ġevent":3553,"Ġoink":3554,"elf":3555,"Ġ16":3556,"ĠCarl":3557,"how":3558,"Ġdig":3559,"ĠMother":3560,"Ġalthough":3561,"Ġfinally":3562,"Ġentire":3563,"Ġwea":3564,"Ġbeach":3565,"Ġdepartment":3566,"Ġeduc":3567,"Ġmicrophone":3568,"Ah":3569,"She":3570,"Ġmaster":3571,"Ġcharge":3572,"ID":3573,"ral":3574,"Ġinn":3575,"ĠDa":3576,"ĠCla":3577,"Ġsquirrel":3578,"ĠJesus":3579,"ires":3580,"Ġlanguage":3581,"Ġpeanut":3582,"Ġcalls":3583,"Ġgrew":3584,"Ġaccident":3585,"omb":3586,"rop":3587,"ĠRem":3588,"Ġamount":3589,"ission":3590,"Ġfifteen":3591,"Ġnineteen":3592,"Ġnodded":3593,"uty":3594,"Ġspir":3595,"Ġunless":3596,"ĠCharlie":3597,"ebru":3598,"Ġbloody":3599,"ebruary":3600,"OT":3601,"Ġrev":3602,"Ġrob":3603,"Ġshows":3604,"ĠUniversity":3605,"Ġyup":3606,"Ġmountain":3607,"Ġpill":3608,"ĠMc":3609,"ĠLu":3610,"Ġresult":3611,"wood":3612,"Ġwake":3613,"Ġsight":3614,"Ġspent":3615,"Ġdisco":3616,"ĠSu":3617,"Ġdressed":3618,"Ġpushed":3619,"Ġwoof":3620,"Ġtor":3621,"ales":3622,"Ġplane":3623,"Ġchas":3624,"ĠFriday":3625,"Ġdesign":3626,"Ġfighting":3627,"ĠPresident":3628,"omin":3629,"ĠRober":3630,"Ġphot":3631,"ford":3632,"hin":3633,"Ġtur":3634,"Ġhun":3635,"cut":3636,"Ġfail":3637,"Ġlucky":3638,"ĠPol":3639,"Ġturns":3640,"ĠWilliam":3641,"ĠJuly":3642,"Ġimagine":3643,"Ġcomputer":3644,"ĠBye":3645,"ada":3646,"Ġalbum":3647,"Ġpercent":3648,"Ġcollege":3649,"Ġvideo":3650,"Ġfurther":3651,"ĠKen":3652,"ĠFrank":3653,"Ġawful":3654,"Ġrat":3655,"ĠPut":3656,"ample":3657,"AP":3658,"Ġstir":3659,"ĠJames":3660,"Ġspill":3661,"ressed":3662,"Ġeighty":3663,"nam":3664,"Ġ$":3665,"ĠÂ":3666,"Ġcand":3667,"rie":3668,"ĠPo":3669,"ĠTex":3670,"ĠLittle":3671,"Ġrecorder":3672,"AM":3673,"Ġdistrict":3674,"bre":3675,"ka":3676,"ĠAunt":3677,"Ġterms":3678,"Ġtong":3679,"Ġarmy":3680,"apan":3681,"Ġ11":3682,"dom":3683,"itive":3684,"Ġhowever":3685,"Ġexample":3686,"Ġscar":3687,"Ġhonest":3688,"CH":3689,"Ġmeas":3690,"Ġaccount":3691,"Ġtend":3692,"ĠPart":3693,"ĠTommy":3694,"Ġchoice":3695,"Ġturning":3696,"wise":3697,"Ġdump":3698,"ĠCould":3699,"ĠGl":3700,"Ġsquare":3701,"ĠBet":3702,"ula":3703,"Ġparts":3704,"ĠBrown":3705,"Ġtreas":3706,"like":3707,"chn":3708,"ĠKim":3709,"ĠOnly":3710,"Ġnumbers":3711,"Ġfellow":3712,"Ġplayer":3713,"Ġvol":3714,"Ġsnack":3715,"Ġtries":3716,"Ġbridge":3717,"Ġcommon":3718,"Ġobject":3719,"Ġincre":3720,"light":3721,"ĠFebruary":3722,"Ġlistening":3723,"ounce":3724,"ĠIndian":3725,"Ġcloud":3726,"Ġpresident":3727,"Ġbanana":3728,"Ġmama":3729,"ĠMel":3730,"Ġexcl":3731,"ĠPeople":3732,"Ġhasta":3733,"Ġbark":3734,"ĠThom":3735,"Ġpond":3736,"Ġsixty":3737,"ĠBrook":3738,"Ġinvolved":3739,"Ġcharacter":3740,"iod":3741,"Ġlying":3742,"ceed":3743,"Ġuseta":3744,"Ġways":3745,"bbed":3746,"Ġ30":3747,"Ġmedic":3748,"Ġabsolutely":3749,"Ġblanket":3750,"Ex":3751,"olf":3752,"ploy":3753,"cious":3754,"Ġearl":3755,"medi":3756,"Ġsuddenly":3757,"Ġsle":3758,"ĠLee":3759,"ĠNational":3760,"Ġducks":3761,"hood":3762,"Ġwide":3763,"Ġformer":3764,"Ġuncle":3765,"Ġcompan":3766,"Ġnearly":3767,"Ġaut":3768,"Ġwipe":3769,"Ġofficer":3770,"Ġseason":3771,"Ġsouth":3772,"Ġnotice":3773,"ĠPri":3774,"Ġonto":3775,"ĠSy":3776,"Ġfalling":3777,"Ġpossib":3778,"ĠMaggie":3779,"do":3780,"hum":3781,"Than":3782,"âĢĵ":3783,"Ġpencil":3784,"Ġdarling":3785,"cake":3786,"omes":3787,"ified":3788,"Ġsinging":3789,"Ġreturned":3790,"Ġdrug":3791,"ĠNathan":3792,"Ġweird":3793,"Ġasleep":3794,"EL":3795,"vin":3796,"ays":3797,"kend":3798,"Ġcompletely":3799,"rup":3800,"Ġtool":3801,"Ġload":3802,"Ġwha":3803,"Ġbutt":3804,"Ġrough":3805,"ĠJapan":3806,"urg":3807,"ĠPooh":3808,"ĠEve":3809,"Ġbless":3810,"AL":3811,"Ġtoast":3812,"ĠRo":3813,"Ġeverywhere":3814,"Ġappear":3815,"ĠUncle":3816,"Ġregular":3817,"Ġsalt":3818,"Ġet":3819,"Ġcas":3820,"Ġpun":3821,"ument":3822,"Ġvac":3823,"Ġmod":3824,"Ġscrat":3825,"Ġ2017":3826,"Ġlights":3827,"Ġforest":3828,"ĠTexas":3829,"irm":3830,"ĠHold":3831,"elly":3832,"Ġ14":3833,"ording":3834,"Ġdate":3835,"Ġcareer":3836,"Ġpupp":3837,"Ġfault":3838,"Ġrespons":3839,"por":3840,"ĠAg":3841,"alian":3842,"Ġenc":3843,"Ġstayed":3844,"Ġdiscuss":3845,"Ġclown":3846,"Ġ13":3847,"Ġsmiling":3848,"isa":3849,"anch":3850,"itted":3851,"ĠFin":3852,"Ġspider":3853,"Ġsubject":3854,"rs":3855,"Ġhy":3856,"ĠMond":3857,"Ġforth":3858,"Ġpoints":3859,"Ġmistake":3860,"aimed":3861,"UT":3862,"Ġhall":3863,"ĠWest":3864,"Ġshape":3865,"ĠUm":3866,"Ġdelicious":3867,"Ġled":3868,"Ġagreed":3869,"ĠKe":3870,"Ġtravel":3871,"Ġweekend":3872,"thew":3873,"Ġeasier":3874,"unicip":3875,"ns":3876,"Ġye":3877,"ĠTy":3878,"arth":3879,"Ġproduc":3880,"Ġzeb":3881,"Ġfixed":3882,"Ġdepend":3883,"Ġempty":3884,"ites":3885,"ĠPark":3886,"ode":3887,"Ġcourt":3888,"Ġdancing":3889,"Ġcastle":3890,"Ġcurious":3891,"apa":3892,"Ġcheer":3893,"Ġcaptain":3894,"Ġprofession":3895,"Ġcereal":3896,"aly":3897,"val":3898,"zer":3899,"Ġgift":3900,"Ġveget":3901,"Ġwatched":3902,"ĠTHAT":3903,"ĠMatthew":3904,"Ġnatur":3905,"ella":3906,"Ġpray":3907,"Ġcapital":3908,"Ġsnowman":3909,"Ġstage":3910,"ĠRobert":3911,"lt":3912,"erve":3913,"Ġant":3914,"ils":3915,"Ġspeed":3916,"ground":3917,"Ġnewsp":3918,"Ġtv":3919,"Ġmeal":3920,"ĠSis":3921,"ĠCent":3922,"ĠON":3923,"Ġperiod":3924,"Ġreceived":3925,"Ġradio":3926,"Ġgall":3927,"Ġdoggy":3928,"ĠEric":3929,"Ġdescri":3930,"Ġstone":3931,"Ġregion":3932,"reet":3933,"Ġste":3934,"Ġherself":3935,"ĠGra":3936,"ĠAmerica":3937,"Ġsimple":3938,"met":3939,"Ġself":3940,"Ġbunch":3941,"Ġlim":3942,"Ġdownstairs":3943,"Ġamazing":3944,"itions":3945,"ino":3946,"Ġcab":3947,"Ġ2022":3948,"Ġmurder":3949,"Ġstairs":3950,"Ġhandle":3951,"Ġsimilar":3952,"ipped":3953,"mother":3954,"Ġborrow":3955,"ician":3956,"ĠWE":3957,"Ġknife":3958,"olution":3959,"hire":3960,"hips":3961,"Ġgrown":3962,"ĠAustr":3963,"house":3964,"Ġfaster":3965,"Ġpool":3966,"iforn":3967,"ĠNina":3968,"Ġrich":3969,"Ġcarried":3970,"Ġtongue":3971,"itary":3972,"Ġcone":3973,"ĠNever":3974,"ĠRy":3975,"Ġimmedi":3976,"Ġeleven":3977,"Is":3978,"Ġtie":3979,"allow":3980,"Ġputs":3981,"aret":3982,"Ġprice":3983,"Ġsocks":3984,"Ġturtle":3985,"ination":3986,"inting":3987,"Ġfem":3988,"Ġstarts":3989,"ĠMonday":3990,"?âĢĿ":3991,"gly":3992,"vies":3993,"Ġcards":3994,"Ġnurs":3995,"aker":3996,"Ġ2018":3997,"ĠBrooklyn":3998,"IGH":3999,"ki":4000,"yle":4001,"Ġwed":4002,"reme":4003,"ĠAct":4004,"acing":4005,"ĠCor":4006,"Ġdrawing":4007,"Ġweak":4008,"Ġboss":4009,"ĠCouncil":4010,"ĠDam":4011,"Ġsuit":4012,"Ġrepresent":4013,"ĠCaliforn":4014,"OO":4015,"Ġgen":4016,"ribut":4017,"Ġconn":4018,"ĠThree":4019,"Ġanswered":4020,"Ġexperience":4021,"Dad":4022,"eds":4023,"ille":4024,"Ġhadn":4025,"ĠFo":4026,"Ġspoke":4027,"Ġhuge":4028,"Ġmirror":4029,"Ġhouses":4030,"Ġmate":4031,"Ġfre":4032,"Ġhadta":4033,"Ġtrade":4034,"Ġeats":4035,"Ġsmoke":4036,"Ġdrinking":4037,"Ġ2021":4038,"If":4039,"ids":4040,"ĠAust":4041,"Ġbeha":4042,"ĠKitty":4043,"ĠAnn":4044,"Ġtreasure":4045,"Ġweather":4046,"Ġcounty":4047,"Ġwinter":4048,"CK":4049,"Ġdun":4050,"ano":4051,"ĠSer":4052,"Ġconvers":4053,"ected":4054,"Ġglasses":4055,"ĠCalifornia":4056,"rect":4057,"ĠMus":4058,"ĠAlright":4059,"Ġcous":4060,"ĠKat":4061,"ression":4062,"appy":4063,"ses":4064,"da":4065,"Ġport":4066,"Ġflat":4067,"soci":4068,"Ġquarter":4069,"fl":4070,"yy":4071,"Ġcraw":4072,"ishm":4073,"asion":4074,"Ġforce":4075,"Ġproject":4076,"Ġintro":4077,"Ġfox":4078,"Ġcamera":4079,"Thank":4080,"iant":4081,"Ġbatter":4082,"sha":4083,"ĠThose":4084,"Ġgrad":4085,"Ġstuffed":4086,"Ġrepeat":4087,"Ġweap":4088,"Ġsport":4089,"Ġprocess":4090,"Ġhurts":4091,"Ġsleepy":4092,"Ġgrowing":4093,"Ġfence":4094,"Ġpil":4095,"ask":4096,"illa":4097,"Ġwheels":4098,"Ġactiv":4099,"Ġdiaper":4100,"itor":4101,"Ġshowing":4102,"Ġserved":4103,"aroo":4104,"Ġnoticed":4105,"ĠDor":4106,"ĠFuck":4107,"ĠKeep":4108,"Ġschools":4109,"IM":4110,"tered":4111,"Ġ)":4112,"Ġmunicip":4113,"ĠOl":4114,"erence":4115,"ĠAnge":4116,"Ġbased":4117,"Ġhorsie":4118,"ĠAbout":4119,"Ġbal":4120,"Ġpit":4121,"ĠChan":4122,"Ġshiny":4123,"ights":4124,"ĠFather":4125,"Ġmanage":4126,"Ġcurrent":4127,"ĠThomas":4128,"ees":4129,"ply":4130,"Ġnet":4131,"estern":4132,"omm":4133,"ĠTra":4134,"Ġsteal":4135,"Ġ25":4136,"Ġ192":4137,"Ġadm":4138,"nic":4139,"Ġours":4140,"Ġwaff":4141,"Ġcrow":4142,"Ġearlier":4143,"Ġzebra":4144,"host":4145,"Ġpir":4146,",'":4147,"IR":4148,"Ġyyy":4149,"isc":4150,"ĠAye":4151,"Ġyelled":4152,"Ġcalm":4153,"ĠParis":4154,"Ġbill":4155,"asc":4156,"Ġspring":4157,"Ġmovies":4158,"ggy":4159,"ae":4160,"Ġgro":4161,"Ġhook":4162,"ĠST":4163,"Ġhelping":4164,"Ġsweetheart":4165,"Ġcust":4166,"epar":4167,"angaroo":4168,"Ġlemme":4169,"Ġdue":4170,"Ġmer":4171,"Ġflo":4172,"Ġmagaz":4173,"Ġdestroy":4174,"chan":4175,"iving":4176,"lin":4177,"Ġmid":4178,"Ġstom":4179,"Ġshell":4180,"Ġspread":4181,"ĠTimmy":4182,"ĠDoctor":4183,"Ġprivate":4184,"ĠMike":4185,"oons":4186,"Ġnurse":4187,"arr":4188,"Ġcooking":4189,"field":4190,"Ġyard":4191,"Ġnaught":4192,"ĠSan":4193,"iment":4194,"ĠHarry":4195,"Ġspoons":4196,"!âĢĿ":4197,"Bad":4198,"Ġcell":4199,"ico":4200,"str":4201,"ĠCat":4202,"empt":4203,"Ġcovered":4204,"Ġtechn":4205,"ĠMal":4206,"ittee":4207,"Ġmud":4208,"Ġscreamed":4209,"Ġfright":4210,"Ġhero":4211,"ĠBE":4212,"Ġris":4213,"ĠRed":4214,"Ġapples":4215,"Ġmostly":4216,"Ġbedroom":4217,"ternational":4218,"Ġbuddy":4219,"ĠLeave":4220,"venty":4221,"ĠWed":4222,"Ġmarry":4223,"Ġrocket":4224,"Ġtough":4225,"Ġnor":4226,"igg":4227,"Ġslice":4228,"ails":4229,"Ġhugged":4230,"ivil":4231,"ERE":4232,"Ġnormal":4233,"Ġtou":4234,"Ġma":4235,"Ġisland":4236,"ĠSay":4237,"ĠGener":4238,"Ġpopulation":4239,"Ġexpensive":4240,"Ġdare":4241,"sey":4242,"Ġsaved":4243,"ĠDO":4244,"ĠFred":4245,"ivid":4246,"Ġrelations":4247,"Ġmedicine":4248,"Ġsens":4249,"Ġsepar":4250,"Ġupset":4251,"Ġroof":4252,"Ġtrad":4253,"Ġarr":4254,"Ġcats":4255,"Ġjoke":4256,"nesday":4257,"LD":4258,"Ġtiger":4259,"inary":4260,"llustr":4261,"ĠLo":4262,"Ġboots":4263,"St":4264,"Ġwound":4265,"ellent":4266,"essie":4267,"Ġhardly":4268,"Ġpainting":4269,"mo":4270,"Ġdust":4271,"ĠSim":4272,"ĠHouse":4273,"osing":4274,"Ġclap":4275,"Ġexist":4276,"Ġrealize":4277,"bbles":4278,"Ġtrucks":4279,"Ġlawy":4280,"May":4281,"ius":4282,"ya":4283,"eral":4284,"ĠSup":4285,"anda":4286,"aked":4287,"Ġimpro":4288,"Ġdragon":4289,"Ġparticularly":4290,"ause":4291,"Ġtaught":4292,"ests":4293,"Ġsew":4294,"ĠQue":4295,"urity":4296,"Ġdeg":4297,"Ġchim":4298,"gging":4299,"Ġpaying":4300,"Ġfan":4301,"Ġgate":4302,"Ġpal":4303,"arm":4304,"ums":4305,"Ġrope":4306,"Ġcommand":4307,"Ġdecide":4308,"Ġpurp":4309,"line":4310,"rick":4311,"ÃŃ":4312,"Ġkangaroo":4313,"Ġep":4314,"Ġmeow":4315,"Ġoffer":4316,"Ġpointing":4317,"Ġballs":4318,"Ġnaughty":4319,"uzz":4320,"Ġplenty":4321,"Ġqueen":4322,"Ġaction":4323,"ĠEverything":4324,"Ġincluding":4325,"iot":4326,"Ġvers":4327,"Ġguard":4328,"box":4329,"iction":4330,"Ġjacket":4331,"ero":4332,"Ġthreat":4333,"cean":4334,"igator":4335,"ĠEast":4336,"Ġrose":4337,"Ġ24":4338,"Ġ2019":4339,"Ġemploy":4340,"Ġjumping":4341,"Ġmass":4342,"Ġlikely":4343,"Ġsocial":4344,"Ġsword":4345,"Ġpicking":4346,"ursday":4347,"reen":4348,"Ġcred":4349,"Ġpers":4350,"rill":4351,"Ġladies":4352,"ĠJenny":4353,"conom":4354,"ĠNathaniel":4355,"Ġwise":4356,"....":4357,"ĠLa":4358,"Ġhelps":4359,"ization":4360,"ciety":4361,"Ġopport":4362,"llen":4363,"Ġlines":4364,"Ġthirst":4365,"Ġugly":4366,"Ġplants":4367,"Ġgotten":4368,"ulous":4369,"Ġrocks":4370,"Ġtowel":4371,"rey":4372,"Ġdouble":4373,"ĠBilly":4374,"epend":4375,"Ġkeeps":4376,"Ġconcerned":4377,"Ġbenef":4378,"Ġetc":4379,"Ġlap":4380,"ĠBra":4381,"ĠPerhaps":4382,"Ġtotally":4383,"ĠMartin":4384,"utch":4385,"vert":4386,"Ġsevent":4387,"Ġcro":4388,"Ġforg":4389,"ĠNice":4390,"Ġterm":4391,"inc":4392,"isf":4393,"lymp":4394,"Ġrow":4395,"Ġseventy":4396,"ĠStreet":4397,"ĠHowever":4398,"Ġwalks":4399,"ĠChris":4400,"Ġsimply":4401,"ĠGermany":4402,"Ġcarrot":4403,"ĠParty":4404,"ĠMister":4405,"Ġplain":4406,"Ġarrest":4407,"Ġspirit":4408,"ĠBill":4409,"cient":4410,"Ġappre":4411,"ĠFluffy":4412,"Ġescape":4413,"eg":4414,"pet":4415,"ata":4416,"atic":4417,"Ġbeans":4418,"Ġtells":4419,"Ġcarefully":4420,"Ġowner":4421,"Ġmessage":4422,"hered":4423,"Ġpair":4424,"ades":4425,"ĠLind":4426,"Ġchoose":4427,"ĠScott":4428,"Ġevidence":4429,"Ġhealthy":4430,"bble":4431,"bage":4432,"ĠSus":4433,"Ġknee":4434,"Ġexerc":4435,"Ġslowly":4436,"ĠWednesday":4437,"rit":4438,"Ġsoul":4439,"itude":4440,"Ġcher":4441,"Ġdecl":4442,"Ġdelight":4443,"Ġpopular":4444,"Ġholes":4445,"vis":4446,"Ġcries":4447,"Ġtoes":4448,"ĠMil":4449,"Ġriding":4450,"Ġpotatoes":4451,".âĢĻ":4452,"UN":4453,"af":4454,"off":4455,"van":4456,"yn":4457,"ĠCour":4458,"Ġrice":4459,"order":4460,"Ġphys":4461,"Ġsongs":4462,"Ġsalad":4463,"Ġholiday":4464,"under":4465,"ĠMummy":4466,"ĠLisa":4467,"Ġstring":4468,"Ġcrime":4469,"iest":4470,"Ġthick":4471,"ĠTV":4472,"icle":4473,"ĠBea":4474,"Ġur":4475,"roll":4476,"Ġexam":4477,"Ġgarage":4478,"Ġeducation":4479,"ially":4480,"Ġtears":4481,"ĠWal":4482,"ĠAndy":4483,"ardon":4484,"ossible":4485,"Ġbrothers":4486,"Ġforever":4487,"Ġhammer":4488,"Ġpumpkin":4489,"zen":4490,"Ġtooth":4491,"ĠBel":4492,"Ġmuff":4493,"ĠĠĠĠĠĠ":4494,"Ġdunno":4495,"OS":4496,"Ġaud":4497,"ĠGab":4498,"Ġholds":4499,"Ġtraining":4500,"Ġprofessional":4501,"yond":4502,"lect":4503,"ĠBat":4504,"ĠHigh":4505,"ston":4506,"ching":4507,"ĠRex":4508,"Ġtwice":4509,"ager":4510,"ĠIndia":4511,"Ġhigher":4512,"Ġtit":4513,"Ġbi":4514,"Ġdeter":4515,"ĠTur":4516,"Ġanx":4517,"ĠRoy":4518,"Ġpoliceman":4519,"Ġladder":4520,"ĠSomething":4521,"Ġjudge":4522,"Ġoil":4523,"Ġcouch":4524,"Ġfancy":4525,"Ġhorn":4526,"Ġbeyond":4527,"ĠDu":4528,"Ġenemy":4529,"ashion":4530,"Ġcentury":4531,"Ġpillow":4532,"Ġstove":4533,"ĠLady":4534,"Ġgoodbye":4535,"Ġimmediately":4536,"Ġtent":4537,"uses":4538,"Ġwaste":4539,"eez":4540,"Ġcontain":4541,"Ġdisp":4542,"Ġident":4543,"Ġbarn":4544,"Ġaddress":4545,"Ġsoldiers":4546,"Ġcontinued":4547,"Ġpleasure":4548,"ourage":4549,"Ġfund":4550,"ĠMer":4551,"Ġobs":4552,"Ġhanging":4553,"Ġpractice":4554,"iliar":4555,"AD":4556,"just":4557,"ida":4558,"Ġchest":4559,"Ġsettle":4560,"ĠMickey":4561,"uesday":4562,"Ġfol":4563,"Ġund":4564,"Ġtrash":4565,"Ġslight":4566,"Ġkeeping":4567,"Ġbroad":4568,"Ġdecision":4569,"mpions":4570,"Ġfilled":4571,"All":4572,"Ġseal":4573,"ishes":4574,"Ġpic":4575,"urry":4576,"Ġplastic":4577,"ummer":4578,"ĠRon":4579,"Ġvote":4580,"ĠThursday":4581,"Ġfinal":4582,"Ġpatient":4583,"UR":4584,"vey":4585,"Ġchief":4586,"Ġeasily":4587,"Ġbreath":4588,"Ġbaseball":4589,"Ġcrowd":4590,"father":4591,"mes":4592,"Ġtour":4593,"Ġwings":4594,"Ġcouncil":4595,"ergy":4596,"Ġbegin":4597,"Ġjail":4598,"Ġsoap":4599,"Ġflag":4600,"Ġinfl":4601,"Ġstea":4602,"Ġuhhum":4603,"issa":4604,"Ġenv":4605,"Ġsurv":4606,"Ġindust":4607,"Ġpath":4608,"Ġstreng":4609,"Ġnatural":4610,"ners":4611,"inct":4612,"Ġcash":4613,"Ġfairy":4614,"Ġbrain":4615,"Ġut":4616,"Ġbelly":4617,"ĠHE":4618,"ĠSpan":4619,"ĠJeff":4620,"Ġiron":4621,"Ġbound":4622,"ĠIr":4623,"Ġfeather":4624,"Ġnature":4625,"oph":4626,"bert":4627,"Ġrole":4628,"ĠBefore":4629,"Ġpersonal":4630,"Ġturkey":4631,"CE":4632,"ram":4633,"omer":4634,"arily":4635,"Ġnote":4636,"umps":4637,"Ġcock":4638,"Ġheads":4639,"Ġgrabbed":4640,"Ġfaith":4641,"cast":4642,"ique":4643,"Ġdish":4644,"Ġmister":4645,"Ġquit":4646,"ips":4647,"Ġopin":4648,"Ġrelig":4649,"ounced":4650,"Ġrecognize":4651,"ĠGeneral":4652,"Ġaunt":4653,"Ġsearch":4654,"anna":4655,"ĠMost":4656,"Ġfork":4657,"ĠOut":4658,"ĠOld":4659,"Ġimm":4660,"Ġdolly":4661,"Ġbattle":4662,"Ġ2016":4663,"Ġspeaking":4664,"Ġvictim":4665,"aven":4666,"Ġitem":4667,"etch":4668,"Ġweight":4669,"ĠSchool":4670,"Ġgosh":4671,"ify":4672,"essor":4673,"Ġshad":4674,"Ġscene":4675,"Ġemb":4676,"Ġindivid":4677,"Ġsteps":4678,"ointed":4679,"Ġ100":4680,"Ġwondering":4681,"ĠShut":4682,"--------":4683,"ĠMorgan":4684,"kins":4685,"Ġsink":4686,"isha":4687,"ĠME":4688,"ĠMore":4689,"ĠEar":4690,"Ġ21":4691,"Ġbuzz":4692,"Ġraised":4693,"Ġfamous":4694,"ĠGovern":4695,"Ġbasically":4696,"Ġneighbor":4697,"Huh":4698,"Ġoven":4699,"lend":4700,"imate":4701,"ĠMum":4702,"Ġrude":4703,"Ġcrit":4704,"Ġshopping":4705,"aws":4706,"Ġfamiliar":4707,"Ġcommunity":4708,"arently":4709,"ĠSec":4710,"Ġrules":4711,"Ġthirsty":4712,"Ġduty":4713,"Ġpapers":4714,"Ġstorm":4715,"Ġkidding":4716,"Ġadvent":4717,"Ġcountries":4718,"Ġscare":4719,"Ġcarrots":4720,"Ġcrayons":4721,"othy":4722,"Ġdeer":4723,"Ġsnap":4724,"Ġdamn":4725,"Ġjourney":4726,"llustration":4727,"pen":4728,"she":4729,"yl":4730,"rible":4731,"Ġremark":4732,"ĠIsn":4733,"Ġhotel":4734,"Ġcorrect":4735,"neath":4736,"Ġign":4737,"Ġtu":4738,"Ġtummy":4739,"ita":4740,"Ġlake":4741,"Ġ--":4742,"ĠTuesday":4743,"ĠSince":4744,"Ġlibr":4745,"roat":4746,"ĠFine":4747,"antly":4748,"Ġdishes":4749,"Ġsmaller":4750,"Ġadded":4751,"ĠRepubl":4752,"Ġappreci":4753,"ĠMac":4754,"ĠOver":4755,"Ġleader":4756,"place":4757,"pered":4758,"Ġpolitician":4759,"Ġtun":4760,"Ġbone":4761,"Ġghost":4762,"edy":4763,"eater":4764,"vere":4765,"Ġareas":4766,"ĠColl":4767,"ĠDis":4768,"Ġcontact":4769,"Ġmurd":4770,"Ġmunicipality":4771,"Ġchimney":4772,"Illustration":4773,"Ġlick":4774,"Ġnest":4775,"elle":4776,"Ġjoy":4777,"Ġshock":4778,"ĠUS":4779,"Ġbringing":4780,"Of":4781,"lor":4782,"ĠÃ":4783,"Ġwit":4784,"har":4785,"ĠDes":4786,"umber":4787,"oli":4788,"Ġ23":4789,"Ġwond":4790,"ĠJohnny":4791,"Ġruined":4792,"Ġcreated":4793,"Ġconversation":4794,"KE":4795,"ĠBert":4796,"Ġsauce":4797,"sters":4798,"Ġsuck":4799,"ĠWhite":4800,"Ġunderneath":4801,"Ġbelow":4802,"Ġdirection":4803,"idden":4804,"elebr":4805,"Ġwedding":4806,"omp":4807,"ĠHam":4808,"ained":4809,"Ġcho":4810,"Ġappeared":4811,"ĠDidn":4812,"ĠBlack":4813,"Ġsatisf":4814,"Ġarrived":4815,"In":4816,"Ġpages":4817,"Ġheat":4818,"Ġeconom":4819,"ĠLove":4820,"osh":4821,"ĠStep":4822,"ration":4823,"yal":4824,"ĠIS":4825,"ences":4826,"ased":4827,"ĠTheir":4828,"Ġshh":4829,"iling":4830,"Ġprint":4831,"Ġfarmer":4832,"Ġdirected":4833,"len":4834,"Ġtear":4835,"Ġwine":4836,"Ġwitch":4837,"Ġcoun":4838,"Ġcivil":4839,"ushed":4840,"ĠBern":4841,"aching":4842,"urb":4843,"ĠEaster":4844,"Ġwaved":4845,"Ġstaying":4846,"Ġdistance":4847,"Ġperform":4848,"Ġexclaimed":4849,"Ġcousin":4850,"eer":4851,"usion":4852,"icated":4853,"ala":4854,"ĠHmm":4855,"ĠGro":4856,"Ġbiggest":4857,"Ġended":4858,"Ġaware":4859,"ĠChristian":4860,"ĠEliz":4861,"sych":4862,"Ġprincess":4863,"Ġmentioned":4864,"Excuse":4865,"ishment":4866,"Ġstomach":4867,"oe":4868,"Ġsour":4869,"Ġdrew":4870,"ĠSH":4871,"ĠHuh":4872,"boy":4873,"Ġpolicy":4874,"Ġthrowing":4875,"Ġpengu":4876,"Ġcomfortable":4877,"ĠAfrican":4878,"ĠÂ¶":4879,"Ġmagazine":4880,"CT":4881,"Ġtar":4882,"Ġsides":4883,"vell":4884,"Ġrent":4885,"ĠCong":4886,"ĠRos":4887,"Ġhelmet":4888,"Ġpurpose":4889,"Ġocean":4890,"Ġlat":4891,"Ġlone":4892,"ators":4893,"chie":4894,"urger":4895,"Ġotherwise":4896,"Ġourselves":4897,"Ġremem":4898,"Ġchairs":4899,"Ġfavour":4900,"Ch":4901,"otion":4902,"Ġupside":4903,"Ġrout":4904,"ĠJill":4905,"Ġmoder":4906,"Ġfold":4907,"Ġeighteen":4908,"Ġoriginal":4909,"Ġspr":4910,"Ġspin":4911,"Ġbranch":4912,"Ġprefer":4913,"Ġdeb":4914,"ĠChin":4915,"ealth":4916,"Ġchanges":4917,"Ã¡":4918,"atives":4919,"Ġdoc":4920,"ĠHon":4921,"stit":4922,"ĠNick":4923,"Ġrate":4924,"ĠShem":4925,"Ġlocked":4926,"Ġpossibly":4927,"corn":4928,"ĠOk":4929,"Ġumbre":4930,"Ġcrash":4931,"Ġgiant":4932,"Ġpulling":4933,"Ġcollect":4934,"Ġknocked":4935,"Ġwoods":4936,"Ġlower":4937,"ĠApp":4938,"ĠBrian":4939,"bered":4940,"ĠState":4941,"Ġharder":4942,"Ġexcellent":4943,"Ġcapt":4944,"Ġextreme":4945,"Ġeffort":4946,"Ġnecessary":4947,"Ġdirt":4948,"riger":4949,"ado":4950,"Ġserve":4951,"Ġrecently":4952,"Ġyounger":4953,"Ġjoined":4954,"Ġsoftly":4955,"Ġpolitical":4956,"ĠSometimes":4957,"Ġproduct":4958,"ĠRyan":4959,"ĠMex":4960,"alia":4961,"Ġwilling":4962,"Ġafterwards":4963,"Ġfrogs":4964,"Ġimpossible":4965,"Ġbelongs":4966,"Ġavail":4967,"Ġbuttons":4968,"Ġboring":4969,"Ġfed":4970,"Ġthirt":4971,"iled":4972,"abeth":4973,"Ġsurf":4974,"Ġrefriger":4975,"Ġtotal":4976,"Ġsusp":4977,"Ġissue":4978,"Ġinvestig":4979,"rer":4980,"Ġstock":4981,"Ġwhist":4982,"ĠPete":4983,"Ġscr":4984,"atherine":4985,"Ġattempt":4986,"ĠBeck":4987,"ĠZorg":4988,"ĠCharles":4989,"ervous":4990,"Ġoccasion":4991,"Ġnewspaper":4992,"gen":4993,"of":4994,"Ġnon":4995,"Ġhamb":4996,"Ġsaf":4997,"Ġrights":4998,"reek":4999,"Ġrelax":5000,"Ġenjoyed":5001,"Ġsoldier":5002,"Ġharm":5003,"ĠSuper":5004,"there":5005,"vest":5006,"Ġbounce":5007,"ĠSen":5008,"ĠWow":5009,"abl":5010,"ping":5011,"Ġpipe":5012,"ĠTod":5013,"ĠAc":5014,"ĠMaster":5015,"Ġpleased":5016,"Ġscience":5017,"Ġcolour":5018,"Ġeast":5019,"Ġmarriage":5020,"ĠChair":5021,"Ġribbit":5022,"Ġexpected":5023,"Ġgarbage":5024,"Ġfemale":5025,"Ġcredit":5026,"ville":5027,"Ġfaces":5028,"ĠWI":5029,"Ġtherefore":5030,"Ġplans":5031,"ĠDem":5032,"ĠFour":5033,"Ġmilitary":5034,"Ġcaused":5035,"ĠEdna":5036,"IGHT":5037,"Ġopportunity":5038,"uits":5039,"vious":5040,"oured":5041,"Ġodd":5042,"Ġnic":5043,"using":5044,"Ġchee":5045,"Ġrule":5046,"aser":5047,"ĠHas":5048,"eeze":5049,"opher":5050,"Ġbitch":5051,"butter":5052,"ival":5053,"Ġfalls":5054,"OME":5055,"Ġvarious":5056,"Pl":5057,"VER":5058,"iber":5059,"ker":5060,"Ġver":5061,"Ġbon":5062,"Ġfeat":5063,"ural":5064,"ĠDen":5065,"Ġneither":5066,"Ġworm":5067,"ĠStay":5068,"action":5069,"ension":5070,"Ġ2014":5071,"Ġcups":5072,"Ġexciting":5073,"Ġregard":5074,"ĠFlor":5075,"Ġgently":5076,"Ġpicnic":5077,"Ġumbrella":5078,"Ġcelebr":5079,"Ġge":5080,"Ġheaven":5081,"ĠBer":5082,"ĠWil":5083,"Ġlips":5084,"Ġstaff":5085,"Ġhost":5086,"innie":5087,"Ġcupcake":5088,"Ġtemper":5089,"ris":5090,"Ġsake":5091,"Ġjar":5092,"Ġfourth":5093,"Ġpopcorn":5094,"Ġsuspect":5095,"ironment":5096,"ĠMinister":5097,"ĠRussian":5098,"Ġlawyer":5099,"Ġrefrigerator":5100,"Then":5101,"Ġthou":5102,"Ġinj":5103,"ĠFOR":5104,"Ġblind":5105,"aren":5106,"angle":5107,"Ġopening":5108,"Ġpiggy":5109,"Ġassist":5110,"Ġparticip":5111,"Ġwalls":5112,"worth":5113,"Ġgoose":5114,"ĠSl":5115,"ĠWood":5116,"ĠWel":5117,"Ġmetal":5118,"Ġartist":5119,"ĠAnyway":5120,"Ġperfectly":5121,"RO":5122,"ov":5123,"Ġyo":5124,"Ġnervous":5125,"ĠWatch":5126,"Ġchap":5127,"Ġappl":5128,"ĠNext":5129,"Ġstrawberries":5130,"Ġstrength":5131,"friend":5132,"gress":5133,"liam":5134,"Ġdess":5135,"Ġtoward":5136,"Ġstret":5137,"ĠPre":5138,"Ġcows":5139,"ĠLeo":5140,"Ġsilver":5141,"Ġtouched":5142,"Have":5143,"ij":5144,"mond":5145,"Ġoop":5146,"ĠMed":5147,"ĠCare":5148,"asty":5149,"Ġclaim":5150,"Ġgrandmother":5151,"Ġpromised":5152,"Ġoppos":5153,"Ġcrayon":5154,"Ġscratch":5155,"Grand":5156,"Ġdying":5157,"Ġcult":5158,"Ġlaid":5159,"Ġworst":5160,"ĠNobody":5161,"ĠMarc":5162,"Ġtext":5163,"Ġlearning":5164,"liament":5165,"LY":5166,"rot":5167,"itar":5168,"Ġsticks":5169,"Ġbesides":5170,"hod":5171,"aring":5172,"add":5173,"ĠCam":5174,"ĠEarth":5175,"Ġamb":5176,"Ġtraffic":5177,"Ġrestaur":5178,"arrow":5179,"Ġdoors":5180,"ĠRose":5181,"ĠEle":5182,"Ġbubbles":5183,"actor":5184,"ption":5185,"Ġmater":5186,"Ġcommune":5187,"Ġkisses":5188,"Ġorders":5189,"Ġdemand":5190,"Ġcases":5191,"LA":5192,"uch":5193,"Ġlamb":5194,"ittens":5195,"ctions":5196,"Ġlog":5197,"Ġ22":5198,"iano":5199,"Ġresc":5200,"Ġcontract":5201,"Ġseconds":5202,"Ġdirector":5203,"Ġexplained":5204,"Not":5205,"kn":5206,"Ġfurn":5207,"oted":5208,"uten":5209,"hington":5210,"ocrat":5211,"Ġmagnet":5212,"ĠGrandpa":5213,"Ġguns":5214,"Ġbeside":5215,"Ġpeanutbutter":5216,"gl":5217,"ĠTe":5218,"ĠSal":5219,"iring":5220,"Ġstink":5221,"Ġenergy":5222,"Ġcrown":5223,"Ġideas":5224,"Ġtank":5225,"Ġmush":5226,"ota":5227,"ĠTry":5228,"ĠMove":5229,"ĠCall":5230,"ĠItaly":5231,"Ġ26":5232,"ĠThink":5233,"Ġbears":5234,"Ġ2015":5235,"Ġdesk":5236,"Ġmagn":5237,"Ġfairly":5238,"Ġstrawberry":5239,"Ġmemory":5240,"ĠQueen":5241,"back":5242,"Ġbaa":5243,"Ġmam":5244,"orough":5245,"ening":5246,"ĠCatherine":5247,"illon":5248,"ĠOther":5249,"ĠStill":5250,"Ġfinding":5251,"Ġresearch":5252,"Ġattract":5253,"Ġcontinue":5254,"Ġpressure":5255,"Ġafford":5256,"Ġbudget":5257,"Ġprepared":5258,"Ġdessert":5259,"ipper":5260,"Ġhah":5261,"ĠBessie":5262,"Ġmel":5263,"ĠFive":5264,"ĠUp":5265,"fortun":5266,"Ġnormally":5267,"ship":5268,"Ġ~":5269,"Ġwolf":5270,"Ġfirm":5271,"inger":5272,"ĠTen":5273,"Ġknowing":5274,"urance":5275,"ĠRam":5276,"ĠEll":5277,"Ġfeelings":5278,"ledge":5279,"ĠWhoa":5280,"ength":5281,"Maybe":5282,"Ġavailable":5283,"Ġfashion":5284,"ĠAcc":5285,"Ġsociety":5286,"ĠDep":5287,"onel":5288,"Ġgrandpa":5289,"Ġplanning":5290,"Ġofficers":5291,"Ġbrief":5292,"Ġvegetables":5293,"Ġopinion":5294,"EW":5295,"ients":5296,"ux":5297,"cakes":5298,"Ġtrunk":5299,"ENT":5300,"ĠElizabeth":5301,"Where":5302,"bow":5303,"Ġpsych":5304,"Ġplates":5305,"Ġoffered":5306,"Ġmeaning":5307,"Ġgiraff":5308,"augh":5309,"Ġzorg":5310,"ography":5311,"anny":5312,"ari":5313,"iles":5314,"Ġsweater":5315,"Ġwaves":5316,"Ġstrugg":5317,"Ġhugs":5318,"Ġrecomm":5319,"Ġgenerally":5320,"ĠBlue":5321,"ĠEveryone":5322,"ĠWashington":5323,"was":5324,"Ġcurt":5325,"Ġpor":5326,"omed":5327,"ooper":5328,"Ġbeer":5329,"ĠDel":5330,"Ġcoco":5331,"Ġactor":5332,"Ġstruct":5333,"ĠOnce":5334,"Ġcopy":5335,"ĠWHAT":5336,"Ġlibrary":5337,"\")":5338,"bly":5339,"cip":5340,"fish":5341,"oid":5342,"ĠMake":5343,"Ġemer":5344,"aps":5345,"ples":5346,"iana":5347,"Ġshower":5348,"Ġrefer":5349,"ĠClaus":5350,"Ġlonely":5351,"Ġtip":5352,"aning":5353,"ĠSqu":5354,"ago":5355,"Ġfoc":5356,"Ġsett":5357,"ighs":5358,"Ġedge":5359,"Ġcircus":5360,"ĠSteve":5361,"cul":5362,"omen":5363,"ette":5364,"Ġdolp":5365,"Ġwhee":5366,"ĠPal":5367,"ĠJess":5368,"Ġ28":5369,"Ġrail":5370,"Ġmatters":5371,"Ġrecording":5372,"Ġincred":5373,"Ġ50":5374,"Ġforgotten":5375,"ĠDorothy":5376,"hold":5377,"uly":5378,"hest":5379,"Ġpow":5380,"ĠTed":5381,"useum":5382,"Ġexe":5383,"Ġdeck":5384,"Ġlargest":5385,"bl":5386,"bie":5387,"nal":5388,"Ġden":5389,"oming":5390,"Ġassoci":5391,"ĠRes":5392,"ĠRay":5393,"Ġintell":5394,"Ġcarriage":5395,"Ġscient":5396,"ĠâĢĻ":5397,"ords":5398,"Ġcheap":5399,"ĠChurch":5400,"Ġpointed":5401,"Ġbuying":5402,"Ġvalue":5403,"ties":5404,"rees":5405,"irgin":5406,"ively":5407,"ĠFire":5408,"Ġspray":5409,"ĠAndrew":5410,"Ġrare":5411,"Ġtomato":5412,"ruction":5413,"ĠScot":5414,"Ġstudio":5415,"ĠSmith":5416,"ĠLouis":5417,"ĠActually":5418,"ĠSpanish":5419,"\"?":5420,"Ġwest":5421,"icate":5422,"ĠMur":5423,"ĠLast":5424,"ĠDuring":5425,"ĠDutch":5426,"Ġshore":5427,"antic":5428,"Ġswitch":5429,"ĠTime":5430,"Ġdollar":5431,"ĠGold":5432,"ibility":5433,"Ġperfor":5434,"ĠSomeone":5435,"Ġclearly":5436,"Ġsplash":5437,"Ġwhispered":5438,"ĠMelissa":5439,"form":5440,"uk":5441,"Ġnut":5442,"ĠSix":5443,"ĠSummer":5444,"ĠMany":5445,"outhern":5446,"ĠPort":5447,"Ġbugs":5448,"ĠCarol":5449,"Ġgentleman":5450,"APTER":5451,"10":5452,"book":5453,"look":5454,"lies":5455,"round":5456,"Ġir":5457,"oups":5458,"Ġdoo":5459,"Ġloose":5460,"Ġliter":5461,"Ġsaving":5462,"Ġange":5463,"ented":5464,"Ġdonkey":5465,"Ġjelly":5466,"Ġrug":5467,"Ġusual":5468,"orthern":5469,"Ġconv":5470,"sidered":5471,"Ġindepend":5472,"Ġentered":5473,"Ġproperty":5474,"Ġsafety":5475,"Ġcrew":5476,"Ġfra":5477,"Ġgor":5478,"Ġgum":5479,"asy":5480,"Ġmyster":5481,"Ġwhenever":5482,"Ġopt":5483,"Ġacting":5484,"Ġhorrible":5485,"Ġdeliver":5486,"Ġpigs":5487,"Ġsecurity":5488,"Ġcloset":5489,"Ġpublished":5490,"Ġdreams":5491,"ĠDanny":5492,"ĠRemember":5493,"ALL":5494,"lings":5495,"ito":5496,"Ġmale":5497,"Ġthroat":5498,"ĠBoy":5499,"ĠJer":5500,"Ġspee":5501,"Ġmanaged":5502,"ously":5503,"ĠKaren":5504,"Ġpenny":5505,"Ġfigures":5506,"Ġcarrying":5507,"ĠEmma":5508,"Ġforgive":5509,"Ġmkay":5510,"ĠHoney":5511,"ĠHurry":5512,"Ġscreen":5513,"Ġadult":5514,"Ġdrove":5515,"Ġboats":5516,"ĠJoey":5517,"Ġsuccessful":5518,"Ġclouds":5519,"ĠChinese":5520,"ym":5521,"Ġble":5522,"Ġlength":5523,"ĠAha":5524,"ĠSch":5525,"ĠMandy":5526,"Ġknees":5527,"Ġjew":5528,"Ġplus":5529,"tering":5530,"Ġconsidered":5531,"Ġnicely":5532,"Ġbreaking":5533,"lands":5534,"Ġbelieved":5535,"Ġdesp":5536,"Ġmission":5537,"Ġpushing":5538,"Ġmodern":5539,"ION":5540,"vi":5541,"Ġfant":5542,"Ġgri":5543,"Ġeld":5544,"ĠIts":5545,"umble":5546,"ĠJam":5547,"ĠJew":5548,"ending":5549,"ĠDonald":5550,"Ġhoping":5551,"Ġwindows":5552,"Ġlately":5553,"Ġwagon":5554,"FF":5555,"bel":5556,"don":5557,"Ġ=":5558,"Ġmult":5559,"Ġcage":5560,"Ġpony":5561,"Ġstack":5562,"ental":5563,"ĠDer":5564,"Ġblame":5565,"ĠCHAPTER":5566,"Ġdiscovered":5567,"Who":5568,"alley":5569,"Ġlets":5570,"Ġspots":5571,"Ġboot":5572,"Ġenter":5573,"Ġplanet":5574,"ĠCharl":5575,"ĠPrince":5576,"Ġelectric":5577,"ĠJulia":5578,"Ġbucket":5579,"Ġtools":5580,"ĠFlorida":5581,"rate":5582,"oms":5583,"Ġwashed":5584,"ĠNet":5585,"isted":5586,"Ġ(\"":5587,"cod":5588,"Ġdrum":5589,"Ġteaching":5590,"ĠJean":5591,"Ġexercise":5592,"Ġinflu":5593,"dies":5594,"oved":5595,"Ġgrave":5596,"Ġclever":5597,"Ġcosts":5598,"ĠAnth":5599,".,":5600,"wo":5601,"Ġ&":5602,"Ġfits":5603,"ann":5604,"ashing":5605,"ĠTurn":5606,"ĠAld":5607,"ĠNana":5608,"ilities":5609,"ĠPet":5610,"Ġshoulder":5611,"anges":5612,"Ġlistened":5613,"Ġpresents":5614,"Ġcutting":5615,"iety":5616,"Ġtrial":5617,"Ġapolog":5618,"ĠJapanese":5619,"Ġmodel":5620,"Ġwaffle":5621,"RI":5622,"Sure":5623,"Ġwore":5624,"Ġitself":5625,"ĠTer":5626,"icles":5627,"ĠBeth":5628,"ĠSnow":5629,"Ġsaus":5630,"ĠCont":5631,"Ġ27":5632,"lfriend":5633,"Ġ2013":5634,"achel":5635,"Ġreminds":5636,"Ġepis":5637,"Ġwitness":5638,"30":5639,"Ġcong":5640,"Ġtoil":5641,"aries":5642,"ĠTea":5643,"ĠMot":5644,"Ġgoal":5645,"Ġcancer":5646,"Ġshook":5647,"ĠItalian":5648,"ains":5649,"Ġscore":5650,"Ġwave":5651,"Ġapparently":5652,"Ġcleaning":5653,"Ġentertain":5654,"Ġpurse":5655,"Ġcentre":5656,"Ġservices":5657,"Ġgentlemen":5658,"Ġsmooth":5659,"Ġenvironment":5660,"Ġwire":5661,"Ġpile":5662,"iculous":5663,"rif":5664,"ĠCup":5665,"ĠOlymp":5666,"ilies":5667,"Ġrings":5668,"ĠUs":5669,"Ġbelt":5670,"ĠFranc":5671,"anced":5672,"Ġmovement":5673,"ĠEverybody":5674,"Ġstudent":5675,"Ġannounced":5676,"Ġrequest":5677,"UST":5678,"ĠCourt":5679,"rist":5680,"iture":5681,"Ġfishing":5682,"ria":5683,"ĠHA":5684,"ĠDillon":5685,"ctors":5686,"ective":5687,"ĠChief":5688,"Ġzoom":5689,"ĠShould":5690,"Ġbags":5691,"Ġtasty":5692,"minist":5693,"ĠGuy":5694,"Ġshooting":5695,"ĠMolly":5696,"Ġmotorcy":5697,"Ġmeasure":5698,"ole":5699,"Ġmor":5700,"erved":5701,"Ġhay":5702,"ĠBud":5703,"allas":5704,"Ġjam":5705,"ĠOw":5706,"ulations":5707,"Ġhelpful":5708,"ĠKal":5709,"play":5710,"Ġdrunk":5711,"Ġsixteen":5712,"reedom":5713,"Ġ..?":5714,"Ġbalance":5715,"Ġgrocer":5716,"cat":5717,"erg":5718,"keys":5719,"ĠWhile":5720,"Ġnoises":5721,"ĠDay":5722,"ĠPapa":5723,"ĠJerry":5724,"Ġsinger":5725,"ĠPlay":5726,"Ġsqueak":5727,"ANT":5728,"Ġtastes":5729,"Ġapartment":5730,"Ġmixed":5731,"Ġwondered":5732,"Ġdough":5733,"aron":5734,"enth":5735,"icked":5736,"ĠWhatever":5737,"Ġshame":5738,"ensus":5739,"Ġmedical":5740,"ĠReg":5741,"Ġclimbed":5742,"ĠJimmy":5743,"ĠAustralia":5744,"Ġrelationship":5745,"ĠGabri":5746,"Ġtarget":5747,"ingo":5748,"ani":5749,"semb":5750,"ĠLaw":5751,"ĠNO":5752,"bec":5753,"Ġraise":5754,"Ġearn":5755,"Ġboxes":5756,"ĠTHIS":5757,"Ġdefeat":5758,"Ġcenter":5759,"Ġlemon":5760,"ĠAnthony":5761,"mel":5762,"Ġwra":5763,"Ġhomes":5764,"ĠBack":5765,"âĢĺ":5766,"Ġcarpet":5767,"Ġhipp":5768,"bbie":5769,"ĠToday":5770,"rom":5771,"Ã¨":5772,"Ġbrand":5773,"Ġinit":5774,"asons":5775,"keep":5776,"Ġstream":5777,"ĠLI":5778,"Ġsomehow":5779,"ĠJon":5780,"quar":5781,"Ġcoach":5782,"Ġunc":5783,"Ġjobs":5784,"Ġeager":5785,"Ġsneak":5786,"Ġkilling":5787,"Ġcrab":5788,"Ġevil":5789,"ĠDaniel":5790,"ĠAlexander":5791,"Ġdevelopment":5792,"ule":5793,"hem":5794,"Ġyuck":5795,"Ġlosing":5796,"otte":5797,"ĠMoo":5798,"ĠWin":5799,"ĠCind":5800,"ĠRock":5801,"issors":5802,"Ġgrant":5803,"Ġgroups":5804,"Ġchallen":5805,"Ġrap":5806,"Ġsla":5807,"Ġelection":5808,"ĠAlice":5809,"minal":5810,"Ġbrill":5811,"ĠGreen":5812,"Ġgiraffe":5813,"Ġsac":5814,"Ġchat":5815,"Ġtoe":5816,"Ġnovel":5817,"Ġroo":5818,"ĠJwww":5819,"ĠEh":5820,"Ġtractor":5821,"Ġcoast":5822,"Ġchase":5823,"Ġteachers":5824,"Ġyeh":5825,"ĠChairman":5826,"sp":5827,"Ã¼":5828,"Ġess":5829,"Ġwing":5830,"Ġsang":5831,"Ġmerry":5832,"ĠSa":5833,"ami":5834,"ĠGO":5835,"ĠGar":5836,"Ġbackwards":5837,"izing":5838,"Ġsorts":5839,"Ġdecor":5840,"ccoli":5841,"Ġpowerful":5842,"Ġstudents":5843,"Ġneckl":5844,"rupt":5845,"Ġappreciate":5846,"hol":5847,"Ġouch":5848,"Ġtied":5849,"Ġgay":5850,"Ġthin":5851,"ĠSn":5852,"imme":5853,"stood":5854,"Ġuses":5855,"Ġeaten":5856,"ĠStar":5857,"ĠAnother":5858,"Ġbits":5859,"Ġwaited":5860,"Ġuseful":5861,"ĠMarg":5862,"Ġhonor":5863,"ĠEuropean":5864,"Ġrisk":5865,"Ġtunnel":5866,"Ġthirteen":5867,"Ġhamburger":5868,"Al":5869,"ault":5870,"den":5871,"gust":5872,"Ġaye":5873,"Ġnuts":5874,"Ġreasons":5875,"Ġaged":5876,"Ġcompanies":5877,"ĠDamn":5878,"law":5879,"pack":5880,"Ġbare":5881,"isher":5882,"oned":5883,"Ġkite":5884,"ĠMAN":5885,"ĠLes":5886,"ĠDar":5887,"Ġflash":5888,"Ġwaving":5889,"avier":5890,"Ġhearing":5891,"Ġaddition":5892,"Ġinterview":5893,"Ġrobot":5894,"utenant":5895,"jo":5896,"wh":5897,"Ġaer":5898,"Ġfought":5899,"att":5900,"Ġreck":5901,"ĠLy":5902,"Ġshr":5903,"Ġshown":5904,"ulf":5905,"Ġlob":5906,"Ġprove":5907,"Ġguitar":5908,"Ġstruck":5909,"Ġfourteen":5910,"ĠMaria":5911,"ugs":5912,"rett":5913,"ĠPatrick":5914,"ĠRobin":5915,"Ġproduced":5916,"Ġfrightened":5917,"Ġspeech":5918,"18":5919,"bell":5920,"ios":5921,"over":5922,"uf":5923,"Ġyucky":5924,"ĠMY":5925,"ĠMajor":5926,"Ġstyle":5927,"ucker":5928,"Ġgirlfriend":5929,"Ġballoons":5930,"Ġsigned":5931,"Ġcloth":5932,"ĠComp":5933,"Ġchasing":5934,"Ġwhale":5935,"Ġintrodu":5936,"Ġdeterm":5937,"Please":5938,"Ġbrilliant":5939,"50":5940,"cup":5941,"wr":5942,"Ġbast":5943,"Ġbomb":5944,"ĠAir":5945,"Ġwashing":5946,"road":5947,"Ġjury":5948,"ĠRome":5949,"ĠRel":5950,"Ġpatty":5951,"Ġpattern":5952,"Ġfifth":5953,"Ġlocated":5954,"Ġtub":5955,"Ġwoo":5956,"Ġfake":5957,"Ġwhatcha":5958,"ĠBoo":5959,"ĠYep":5960,"ability":5961,"uments":5962,"ĠRachel":5963,"Ġconfused":5964,"Ġparrot":5965,"Ġmotion":5966,"Ġinclude":5967,"Ġbasketball":5968,"Ġstrike":5969,"ĠLeague":5970,"Ã¶":5971,"ini":5972,"hab":5973,"Ġbun":5974,"ĠSun":5975,"ĠDallas":5976,"ĠOx":5977,"Ġoranges":5978,"ĠRiver":5979,"ĠChina":5980,"bby":5981,"Ġaccording":5982,"Ġcondition":5983,"ĠSteven":5984,"Ġvacation":5985,"Ġpuppet":5986,"Ġdegree":5987,"kers":5988,"tr":5989,"Ġcents":5990,"Ġpiano":5991,"Ġreview":5992,"ĠLab":5993,"rab":5994,"ilty":5995,"icks":5996,"Ġscissors":5997,"Ġsmiles":5998,"Ġspoken":5999,"Ġseparate":6000,"Ġmotorcycle":6001,"dri":6002,"nis":6003,"Ġtire":6004,"Ġyouth":6005,"Ġmut":6006,"ĠHall":6007,"oodle":6008,"ĠMarie":6009,"Ġobl":6010,"ĠShit":6011,"Ġbeauty":6012,"gypt":6013,"Ġadvice":6014,"Ġcracker":6015,"Ġhistor":6016,"Ġcherry":6017,"Ġtitle":6018,"ĠII":6019,"ĠKore":6020,"Ġquality":6021,"Ġunus":6022,"Ġbroccoli":6023,"Ġveh":6024,"leet":6025,"Ġbend":6026,"ĠSing":6027,"ĠMont":6028,"ĠWAS":6029,"ĠUnder":6030,"Ġactual":6031,"umph":6032,"Ġdisgust":6033,"Ġchanging":6034,"ĠErnie":6035,"ĠSpain":6036,"icycle":6037,"Ġridiculous":6038,"uzzy":6039,"mission":6040,"itiz":6041,"Ġpa":6042,"Ġnea":6043,"Ġhose":6044,"ĠSil":6045,"Ġmoves":6046,"ĠKay":6047,"ĠâĢľâĢĺ":6048,"Ġwoke":6049,"Ġpolite":6050,"Ġowe":6051,"Ġships":6052,"Ġshark":6053,"Ġoccur":6054,"Ġwhisper":6055,"Ġremembered":6056,"tub":6057,"orks":6058,"ĠOpen":6059,"ĠFar":6060,"Ġprevent":6061,"Ġchannel":6062,"ĠSwed":6063,"Ġprincip":6064,"ĠWelcome":6065,"bing":6066,"can":6067,"gor":6068,"Ġaver":6069,"Ġdumb":6070,"ĠSon":6071,"because":6072,"Ġunif":6073,"Ġactress":6074,"ĠCanada":6075,"Ġcommittee":6076,"Ġdistribut":6077,"ĠAfrica":6078,"Ġcrawl":6079,"ĠFrancis":6080,"11":6081,"ycl":6082,"Ġ0":6083,"isl":6084,"Ġnomin":6085,"icing":6086,"ifer":6087,"Ġvo":6088,"ĠVict":6089,"Ġlesson":6090,"Ġpleasant":6091,"Ġextremely":6092,"EP":6093,"Ġmap":6094,"Ġpear":6095,"ena":6096,"Ġkitten":6097,"ira":6098,"Ġhers":6099,"ĠEs":6100,"Ġpepper":6101,"Ġswear":6102,"izes":6103,"Ġmarch":6104,"Ġkissed":6105,"Ġrolling":6106,"Ġnapkin":6107,"Ġpirate":6108,"ĠLinda":6109,"Ġrestaurant":6110,"burg":6111,"five":6112,"Ġbake":6113,"kel":6114,"ĠSO":6115,"Ġformed":6116,"Ġrac":6117,"Ġrange":6118,"Ġspark":6119,"oses":6120,"icket":6121,"eme":6122,"Ġqual":6123,"Ġthanked":6124,"ĠVal":6125,"ggie":6126,"Ġfamilies":6127,"Ġinvited":6128,"ĠChristopher":6129,"ĠShall":6130,"Ġgolden":6131,"known":6132,",âĢĻ":6133,"ras":6134,"zing":6135,"Ġding":6136,"Ġfart":6137,"ĠHist":6138,"Ġmanner":6139,"Ġsection":6140,"ĠStan":6141,"Ġpartner":6142,"Ġcommunic":6143,"Ġbathtub":6144,"Ġdamage":6145,"Ġautom":6146,"Ġdrugs":6147,"Ġweapon":6148,"Ġperforman":6149,"Ġnecklace":6150,"Cause":6151,"Ġachie":6152,"Ġnation":6153,"Ġgoat":6154,"ĠCook":6155,"esty":6156,"Ġpoison":6157,"Ġgreatest":6158,"Ġgradu":6159,"Ġpilot":6160,"Ġarrange":6161,"Ġcrocod":6162,"ST":6163,"spect":6164,"tes":6165,"ĠBu":6166,"ĠEgypt":6167,"Ġtroub":6168,"Ġtalks":6169,"ĠAnne":6170,"Ġbirdie":6171,"Ġidiot":6172,"anches":6173,"Ġ2011":6174,"AND":6175,"Ġrecords":6176,"ĠFlore":6177,"Ġlanded":6178,"Ġinsurance":6179,"Ġlegal":6180,"Ġeventually":6181,"Ġindividual":6182,"Ġbones":6183,"Ġfile":6184,"ĠLife":6185,"aine":6186,"Ġcomment":6187,"berry":6188,"Ġflight":6189,"Ġchecked":6190,"Ġblowing":6191,"Ġprovide":6192,"Ġsucceed":6193,"Ġordered":6194,"ĠPolly":6195,"Ġshadow":6196,"ĠSecret":6197,"Beep":6198,"ELL":6199,"fit":6200,"mus":6201,"Ġwip":6202,"llip":6203,"eding":6204,"essel":6205,"Ġbeef":6206,"ĠDet":6207,"icky":6208,"Ġarch":6209,"Ġairport":6210,"Ġstronger":6211,"Ġterrif":6212,"Ġinnoc":6213,"arrass":6214,"ials":6215,"nies":6216,"rid":6217,"Ġfac":6218,"ĠMet":6219,"Ġknowledge":6220,"olt":6221,"...?":6222,"ounds":6223,"Ġseeds":6224,"Ġconcl":6225,"iance":6226,"Ġsurely":6227,"Ġseriously":6228,"Ġquietly":6229,"Ġpositive":6230,"Ġadventure":6231,"Ġï¿½ï¿½ï¿½ï¿½":6232,"Ġteen":6233,"Ġsen":6234,"Ġdread":6235,"ĠBre":6236,"ĠHung":6237,"Ġplaced":6238,"Ġboyfriend":6239,"ĠLooks":6240,"Ġgrandfather":6241,"Ġsentence":6242,"Ġtyp":6243,"iverse":6244,"Ġdinosaurs":6245,"ĠBobo":6246,"ĠOliver":6247,"ĠRepublic":6248,"Ġopposite":6249,"itation":6250,"Ġblew":6251,"Ġbored":6252,"Ġtone":6253,"Ġgimme":6254,"Ġpure":6255,"ication":6256,"ĠBoth":6257,"Ġneg":6258,"ola":6259,"Ġtruly":6260,"Ġbrings":6261,"Ġadvert":6262,"Ġappeal":6263,"bbing":6264,"gery":6265,"Ġevents":6266,"ĠBarb":6267,"ĠEmily":6268,"Ġcreate":6269,"Ġdepends":6270,"ĠCharlotte":6271,"vy":6272,"Ġbounc":6273,"Ġdee":6274,"Ġfuss":6275,"Ġpred":6276,"ĠTre":6277,"ĠALL":6278,"ĠBas":6279,"sequ":6280,"ĠMill":6281,"ĠHy":6282,"Ġshelf":6283,"Ġshy":6284,"Ġrise":6285,"ours":6286,"oland":6287,"Ġguilty":6288,"Ġsharing":6289,"Ġleading":6290,"Ġgrate":6291,"Ġfoods":6292,"Ġpurs":6293,"Ġcrackers":6294,"Ġresponsible":6295,"bes":6296,"erk":6297,"amas":6298,"Ġmanager":6299,"Ġ29":6300,"Ġdisease":6301,"ealous":6302,"Ġmatches":6303,"ĠAllen":6304,"Ġrelated":6305,"Ġadvant":6306,"ointment":6307,"Ġauthority":6308,"ĠAccording":6309,"NA":6310,"cing":6311,"with":6312,"Ġcig":6313,"Ġloss":6314,"Ġgolf":6315,"ĠHal":6316,"ĠLie":6317,"ĠDun":6318,"Ġrom":6319,"geant":6320,"ĠJake":6321,"ĠFort":6322,"Ġminister":6323,"Ġprim":6324,"Ġhurting":6325,"Ġselling":6326,"Ġembarrass":6327,"Ġwhistle":6328,"ĠWITH":6329,"RA":6330,"gent":6331,"rant":6332,"Ġtiss":6333,"raft":6334,"Ġarg":6335,"Ġrode":6336,"Ġconcent":6337,"ĠKN":6338,"ocks":6339,"Ġslipp":6340,"Ġattend":6341,"Ġpulls":6342,"Ġmessy":6343,"Ġ2023":6344,"ification":6345,"Ġburning":6346,"Ġspecies":6347,"Ġrecommend":6348,"Ġwished":6349,"Ġoct":6350,"ndry":6351,"Ġcough":6352,"arch":6353,"arian":6354,"irl":6355,"ential":6356,"Ġshel":6357,"ĠJud":6358,"ĠJason":6359,"ĠFro":6360,"Ġlollip":6361,"Ġwriter":6362,"angers":6363,"Ġaccess":6364,"Ġfounded":6365,"Ġgrey":6366,"Ġpainted":6367,"Ġfigured":6368,"Ġclimbing":6369,"Ġsplit":6370,"Ġdeveloped":6371,"Ġinnit":6372,"ĠDuke":6373,"Ġrooster":6374,"15":6375,"iw":6376,"year":6377,"hand":6378,"Ġvroom":6379,"Ġvessel":6380,"Ġteams":6381,"Ġpicks":6382,"Ġrelease":6383,"ĠColonel":6384,"Ġoccup":6385,"Ġsports":6386,"bury":6387,"ga":6388,"pie":6389,"Ġtal":6390,"rels":6391,"Ġtheory":6392,"Ġfired":6393,"anas":6394,"Ġhidden":6395,"atory":6396,"Ġbees":6397,"outs":6398,"Ġstro":6399,"ĠHor":6400,"ĠLong":6401,"Ġletting":6402,"Ġcoal":6403,"Ġburied":6404,"Ġpoet":6405,"ĠMmm":6406,"Ġdefend":6407,"ĠJenn":6408,"ĠNorah":6409,"Ġanxious":6410,"Ġindustry":6411,"Grandma":6412,"Ġtoilet":6413,"ĠMargaret":6414,"ds":6415,"ipping":6416,"ko":6417,"itan":6418,"Ġinqu":6419,"lected":6420,"ĠSand":6421,"Ġforced":6422,"aches":6423,"ĠHappy":6424,"Ġsale":6425,"ste":6426,"ĠJac":6427,"Ġbranches":6428,"Ġpregn":6429,"Ġ()":6430,"--\"":6431,"Ġthoughts":6432,"ĠDebbie":6433,"Ġrolled":6434,"ĠProf":6435,"ĠGraeme":6436,"Just":6437,"aign":6438,"mark":6439,"Ġsite":6440,"Ġthee":6441,"Ġmort":6442,"Ġcourage":6443,"ĠWant":6444,"Ġknights":6445,"Ġrush":6446,"uckles":6447,"Ġhappily":6448,"ĠInternational":6449,"Ġnights":6450,"Ġbadly":6451,"Ġhandsome":6452,"Ġsticking":6453,"Ġsigns":6454,"Ġissues":6455,"Ġresults":6456,"Ġitems":6457,"ba":6458,"vo":6459,"onse":6460,"Ġlic":6461,"Ġhitting":6462,"ushing":6463,"ĠSit":6464,"Ġancient":6465,"ĠCle":6466,"Ġnoisy":6467,"Ġsoda":6468,"ĠDave":6469,"ĠJones":6470,"Ġgrace":6471,"Ġadminist":6472,"Ġacqu":6473,"Ġ2010":6474,"Ġtypes":6475,"ĠMegan":6476,"Ġentirely":6477,"Ġincrease":6478,"itzer":6479,"Ġlord":6480,"esome":6481,"owing":6482,"arn":6483,"ĠAren":6484,"ĠDist":6485,"istan":6486,"istic":6487,"ĠKent":6488,"Ġopens":6489,"Ġ40":6490,"Ġstreets":6491,"Ġmaterial":6492,"12":6493,"IL":6494,"When":6495,"bur":6496,"hun":6497,"rance":6498,"Ġsem":6499,"Ġcitiz":6500,"ĠNOT":6501,"Ġalligator":6502,"Ġcomr":6503,"Ġunion":6504,"ĠAsian":6505,"Ġsqueeze":6506,"Ġdrawer":6507,"Ġlands":6508,"Ġforeign":6509,"ĠKingdom":6510,"Ġstole":6511,"Ġstudied":6512,"Ġcreature":6513,"Ġbench":6514,"Ġestabl":6515,"Ġchased":6516,"ĠFox":6517,"ĠSusan":6518,"Ġfolks":6519,"ĠDemocrat":6520,"Ġintellig":6521,"Ġcrocodile":6522,"hal":6523,"Ġyog":6524,"itz":6525,"erable":6526,"isions":6527,"Ġpra":6528,"Ġliber":6529,"Ġstates":6530,"ĠCons":6531,"cend":6532,"ĠRoland":6533,"ĠBrother":6534,"ĠJudy":6535,"Ġoperation":6536,"Ġincredible":6537,"ĠOxford":6538,"!'":6539,"pir":6540,"Ġmuseum":6541,"Ġgross":6542,"Ġlit":6543,"orter":6544,"icient":6545,"ĠBad":6546,"ĠWinnie":6547,"ĠCO":6548,"Ġsheet":6549,"ĠDON":6550,"Ġrot":6551,"Ġadmit":6552,"Ġrealized":6553,"Ġbeds":6554,"ĠUnion":6555,"Ġfallen":6556,"Ġdeserve":6557,"Ġcomplain":6558,"chair":6559,"Ġraining":6560,"Ġdivor":6561,"Ġcircum":6562,"Ġfurniture":6563,"Ġsausage":6564,"driver":6565,"Ġunusual":6566,"Ġaverage":6567,"Daddy":6568,"Ġdea":6569,"Ġcave":6570,"oma":6571,"ĠToo":6572,"ĠMaj":6573,"Ġjealous":6574,"ĠDown":6575,"ĠDire":6576,"unks":6577,"Ġseek":6578,"ĠJoy":6579,"Ġsometime":6580,"antha":6581,"Ġtrail":6582,"Ġsurround":6583,"ĠChampions":6584,"Ġsisters":6585,"Ġtickets":6586,"Ġrespond":6587,"fortunately":6588,"gency":6589,"mar":6590,"Ġteas":6591,"Ġsch":6592,"Ġsack":6593,"ona":6594,"ĠHad":6595,"ĠPunch":6596,"Ġsomewhat":6597,"Ġspare":6598,"Ġcoin":6599,"thur":6600,"Ġmomma":6601,"bey":6602,"Ġflour":6603,"Ġchain":6604,"Ġphil":6605,"Ġmethod":6606,"Ġbottles":6607,"ĠRussia":6608,"Ġweapons":6609,"._":6610,"reck":6611,"erves":6612,"Ġhee":6613,"ĠSaint":6614,"Ġmere":6615,"ademy":6616,"ĠDou":6617,"Ġbodies":6618,"Ġcommer":6619,"Ġproceed":6620,"this":6621,"ishop":6622,"Ġthrown":6623,"Ġprince":6624,"Ġcooked":6625,"Ġawake":6626,"Ġsilent":6627,"Ġcampaign":6628,"Ġstatement":6629,"Ġresponsibility":6630,"Ġdestroyed":6631,"Ġversion":6632,"Ġneighborhood":6633,"Get":6634,"Rea":6635,"UGH":6636,"Ġaid":6637,"Ġbush":6638,"Ġcensus":6639,"omers":6640,"ĠMass":6641,"ĠHallow":6642,"rol":6643,"ĠOsc":6644,"Ġchin":6645,"Ġactive":6646,"Goodbye":6647,"Ġfireman":6648,"Ġsticky":6649,"ĠArmy":6650,"Ġchickens":6651,"Ġmainly":6652,"Ġproperly":6653,"Ġimprove":6654,"Happy":6655,"cles":6656,"li":6657,"Ġcub":6658,"Ġgaz":6659,"Ġlamp":6660,"Ġlies":6661,"Ġtray":6662,"Ġtroops":6663,"Ġswallow":6664,"ĠVan":6665,"ĠVirgin":6666,"Ġrooms":6667,"anche":6668,"ĠAlthough":6669,"Ġterror":6670,"bsolutely":6671,"ĠEdward":6672,"Ġdisappeared":6673,"Ġbreathe":6674,"ĠAgain":6675,"Ġtradition":6676,"Ġindependent":6677,"Ġoctop":6678,"AG":6679,"SE":6680,"col":6681,"Ġgang":6682,"Ġhid":6683,"Ġthief":6684,"ĠTri":6685,"ĠBost":6686,"ĠMouse":6687,"ĠHot":6688,"ĠRog":6689,"olic":6690,"ĠFil":6691,"Ġgrade":6692,"Ġchem":6693,"Ġreply":6694,"Ġretired":6695,"apping":6696,"ological":6697,"Ġprovince":6698,"ĠBritain":6699,"Ġordinary":6700,"engers":6701,"ĠDaisy":6702,"ĠFlorence":6703,"_,":6704,"ĠIm":6705,"Ġpears":6706,"ĠSE":6707,"aded":6708,"amond":6709,"ĠCath":6710,"ĠEdd":6711,"Ġgray":6712,"Ġsupply":6713,"Ġends":6714,"Ġsounded":6715,"Ġbecoming":6716,"Ġsubs":6717,"ĠSean":6718,"Ġofficial":6719,"IST":6720,"Ġscrewdriver":6721,"ĠLuke":6722,"Ġpunishment":6723,"Ġpenguin":6724,"has":6725,"Ġchip":6726,"Ġgee":6727,"ancial":6728,"Ġbegged":6729,"ĠWay":6730,"ĠHear":6731,"ĠYoung":6732,"Ġpoll":6733,"Ġsched":6734,"Ġtrains":6735,"Ġstays":6736,"ĠIsland":6737,"ĠShow":6738,"Ġburned":6739,"Ġcompetition":6740,"ĠTodd":6741,"Ġrescue":6742,"'.":6743,"Ġwand":6744,"Ġinternational":6745,"icans":6746,"ĠBes":6747,"Ġuna":6748,"Ġsche":6749,"Ġfeeding":6750,"Ġreceive":6751,"Ġfailed":6752,"ĠKatie":6753,"Ġmuffin":6754,"ĠMexico":6755,"ĠHalloween":6756,"fight":6757,"ĠSk":6758,"Ġew":6759,"ĠSoon":6760,"Ġcounting":6761,"Ġticket":6762,"ĠGreg":6763,"Ġremained":6764,"Ġscarf":6765,"ĠBetty":6766,"ĠRoyal":6767,"Ġdolphin":6768,"Ġlollipop":6769,"bles":6770,"hel":6771,"hew":6772,"Ġbead":6773,"Ġthus":6774,"ĠAT":6775,"ĠWind":6776,"Ġanti":6777,"Ġplat":6778,"unior":6779,"Ġwanting":6780,"ĠPan":6781,"ĠRun":6782,"Ġ2012":6783,"Ġlaundry":6784,"ception":6785,"Ġpretending":6786,"ĠYOUR":6787,"Ġfortune":6788,"Ġmountains":6789,"ĠGrover":6790,"Ġmushroom":6791,"Ġsettled":6792,"Ġlobster":6793,"ĠVictor":6794,"meal":6795,"Ġaim":6796,"Ġdata":6797,"Ġcord":6798,"Ġpoo":6799,"Ġpardon":6800,"ĠBa":6801,"ĠHu":6802,"Ġash":6803,"ĠOrd":6804,"Ġruff":6805,"ĠKar":6806,"Ġshaking":6807,"ĠStand":6808,"ints":6809,"Ġgrapes":6810,"Ġkiller":6811,"Ġpassing":6812,"OULD":6813,"Ġincome":6814,"Ġmedal":6815,"ĠTwenty":6816,"Ġsilence":6817,"ĠParliament":6818,"ĠRoad":6819,"Ġbattery":6820,"Ġstructure":6821,"Ġexecut":6822,"ĠBoston":6823,"Bo":6824,"RY":6825,"To":6826,"Ã³":6827,"Ġpity":6828,"ĠBal":6829,"ĠMoon":6830,"pple":6831,"umn":6832,"apt":6833,"Ġshared":6834,"Ġfirstname":6835,"Ġuniversity":6836,"Ġthroughout":6837,"ĠSamantha":6838,"Ġelected":6839,"Ġrip":6840,"Ġsignific":6841,"ĠGerva":6842,"Ġlaws":6843,"Ġseats":6844,"ĠProbably":6845,"ĠMatt":6846,"ĠXavier":6847,"Ġequip":6848,"rrr":6849,"ĠPolice":6850,"Ġfeathers":6851,"Ġuniform":6852,"ĠHistory":6853,"Ġperformance":6854,"ji":6855,"non":6856,"py":6857,"Ġx":6858,"Ġmos":6859,"Ġmaid":6860,"Ġlend":6861,"Ġnarrow":6862,"Ġthy":6863,"eted":6864,"ĠBay":6865,"riff":6866,"ĠMen":6867,"Ġstones":6868,"Ġalarm":6869,"ĠRa":6870,"ĠKate":6871,"Ġchamp":6872,"Ġdrawn":6873,"Ġconditions":6874,"Ġrepeated":6875,"Ġbenefit":6876,"Ġcounter":6877,"Ġdisgusting":6878,"ja":6879,"Ġchips":6880,"Ġlink":6881,"idents":6882,"kee":6883,"ĠHome":6884,"alled":6885,"rael":6886,"ĠEff":6887,"istol":6888,"ĠWere":6889,"Ġmole":6890,"Ġcruel":6891,"ĠChic":6892,"Ġsetting":6893,"Ġbasis":6894,"Ġcowboy":6895,"Ġthousands":6896,"Ġprogramme":6897,"Ġangel":6898,"Ġepisode":6899,"gies":6900,"Ġ{":6901,"Ġnasty":6902,"oos":6903,"ĠServ":6904,"ĠPop":6905,"Ġprecious":6906,"ĠClub":6907,"shine":6908,"itches":6909,"Ġdarkness":6910,"ĠAnything":6911,"Ġburst":6912,"Ġconstit":6913,"Ġhighest":6914,"Ġstepped":6915,"ĠHAVE":6916,"ĠGervaise":6917,"IE":6918,"dge":6919,"fall":6920,"ware":6921,"Ġaward":6922,"Ġoat":6923,"ĠIre":6924,"Ġdoctors":6925,"ĠAward":6926,"Ġbeet":6927,"ĠLat":6928,"ĠFif":6929,"Ġbackground":6930,"onsense":6931,"Ġdrama":6932,"Ġstops":6933,"Ġmath":6934,"Ġstands":6935,"Ġbecomes":6936,"ierce":6937,"Ġpriest":6938,"Ġsales":6939,"Ġnecessarily":6940,"Ġslept":6941,"Ġoblig":6942,"ĠOscar":6943,"'?":6944,"Ġssh":6945,"Ġlack":6946,"Ġreaching":6947,"Ġnotes":6948,"ĠFoot":6949,"venue":6950,"Ġunl":6951,"Ġfond":6952,"Ġzero":6953,"Ġpresence":6954,"Ġattacked":6955,"Ġpacked":6956,"ĠHoly":6957,"Ġdeclared":6958,"ĠGovernment":6959,"Ġbastard":6960,"ĠJennifer":6961,"Ġoctopus":6962,"Your":6963,"Ġtask":6964,"hell":6965,"hamed":6966,"Ġbicycle":6967,"icop":6968,"ĠBang":6969,"ĠSea":6970,"ĠSpe":6971,"ĠMust":6972,"ĠHaw":6973,"Ġjumps":6974,"abel":6975,"ĠRod":6976,"venge":6977,"hia":6978,"Ġchal":6979,"Ġunderstood":6980,"Ġstranger":6981,"ĠMargot":6982,"pected":6983,"Ġexcit":6984,"Ġtouching":6985,"Ġtriangle":6986,"Ġbananas":6987,"Ġreveal":6988,"Ġelder":6989,"Ġwrest":6990,"Ġmice":6991,"Ġfal":6992,"Ġfasc":6993,"Ġger":6994,"anor":6995,"Ġpiss":6996,"Ġintern":6997,"Ġforces":6998,"cel":6999,"ulty":7000,"ĠĠĠ":7001,"Ġadop":7002,"ĠErin":7003,"ĠCanad":7004,"Ġinstance":7005,"ĠAtt":7006,"Ġdepart":7007,"Ġtransport":7008,"Ġtreatment":7009,"Ġgods":7010,"duced":7011,"Ġrequire":7012,"Ġnursery":7013,"ĠWalter":7014,"ĠKalie":7015,"keeper":7016,"itzerland":7017,"car":7018,"Ġbom":7019,"ĠInt":7020,"Ġhoo":7021,"athan":7022,"Ġmechan":7023,"ĠCast":7024,"ĠOffic":7025,"Ġoutfit":7026,"ERS":7027,"Ġrecorded":7028,"Ġplanned":7029,"Ġtaxes":7030,"ĠScotland":7031,"Ġadvantage":7032,"Ġtissue":7033,"Really":7034,"ĠEddie":7035,"Ġbac":7036,"Ġmood":7037,"nda":7038,"ĠTa":7039,"ĠBunny":7040,"see":7041,"Ġaside":7042,"ĠDra":7043,"ĠDiv":7044,"ĠHelen":7045,"ĠRen":7046,"osen":7047,"Ġchop":7048,"Ġsits":7049,"Ġslip":7050,"Ġtravell":7051,"ĠFrances":7052,"Ġhoped":7053,"Ġdisappear":7054,"Ġproduction":7055,"ĠAustralian":7056,"Ġcircumst":7057,"Ġfuzzy":7058,"Ġlaz":7059,"Ġpaj":7060,"Ġpoop":7061,"Ġnail":7062,"ĠAS":7063,"Ġgodd":7064,"igan":7065,"ĠFair":7066,"Ġprogress":7067,"Ġshapes":7068,"Ġcris":7069,"Ġowned":7070,"Ġhats":7071,"Ġlessons":7072,"Ġruin":7073,"ĠSwitzerland":7074,"Ġsmells":7075,"Ġcamping":7076,"Ġlifted":7077,"Ġdirectly":7078,"Ġappearance":7079,"ĠCentral":7080,"ĠJamie":7081,"ĠKNOW":7082,"Ġequipment":7083,"ares":7084,"ran":7085,"tuce":7086,"ĠCAN":7087,"ĠPot":7088,"ĠFre":7089,"Ġ2000":7090,"ĠDolly":7091,"Ġballet":7092,"Ġgrape":7093,"Ġcontr":7094,"Ġstandard":7095,"Ġsymb":7096,"Ġringing":7097,"Ġtreated":7098,"ĠCheer":7099,"Ġfoolish":7100,"Ġvictory":7101,"Ġbarked":7102,"ĠPrime":7103,"Ġselfish":7104,"Ġseventeen":7105,"ĠBesides":7106,"Ġoatmeal":7107,"win":7108,"Ġwinning":7109,"Ġgather":7110,"Ġpeel":7111,"Ġpale":7112,"Ġthumb":7113,"rial":7114,"ĠHan":7115,"ĠCorn":7116,"elled":7117,"Ġdebut":7118,"asses":7119,"Ġscale":7120,"ratulations":7121,"Ġsnakes":7122,"Ġclasses":7123,"Ġdivision":7124,"Ġrubber":7125,"ĠDoesn":7126,"Ġspecific":7127,"ĠAuntie":7128,"Ġbatteries":7129,"Ġdocument":7130,"ĠProfessor":7131,"Ġphilos":7132,"Ġwreck":7133,"Ġbisc":7134,"Ġdu":7135,"ĠARE":7136,"ĠBrett":7137,"ĠHill":7138,"Ġrank":7139,"ĠEmp":7140,"hmm":7141,"Ġneedle":7142,"Ġpretz":7143,"Ġrabb":7144,"Ġresour":7145,"ĠBritt":7146,"Ġhearts":7147,"ĠFloss":7148,"Ġengaged":7149,"Ġannoy":7150,"ĠAustin":7151,"ĠJessica":7152,"looking":7153,"ĠCookie":7154,"music":7155,"Ġcigaret":7156,"Fl":7157,"Ġce":7158,"Ġgat":7159,"Ġ-?":7160,"ĠWhe":7161,"ĠWater":7162,"irts":7163,"Ġlif":7164,"stal":7165,"Ġjunk":7166,"ĠGreek":7167,"ĠFore":7168,"berg":7169,"Ġvot":7170,"Ġvent":7171,"Ġunf":7172,"Ġoldest":7173,"Ġmighty":7174,"Ġcricket":7175,"Ġdrank":7176,"Ġcompared":7177,"Ġtrap":7178,"Ġcleaned":7179,"Ġdelay":7180,"Ġlaughs":7181,"ĠTrans":7182,"Ġaffect":7183,"Ġrecognized":7184,"Ġapproach":7185,"Ġdisappointed":7186,"Ġsewing":7187,"Ġcocoon":7188,"KING":7189,"ias":7190,"low":7191,"uz":7192,"ĠGi":7193,"Ġrhy":7194,"olved":7195,"Ġlettuce":7196,"Ġmob":7197,"Ġconc":7198,"Ġsweat":7199,"ĠIsrael":7200,"Ġelev":7201,"Ġinvite":7202,"Ġregister":7203,"Ġtrem":7204,"ĠArthur":7205,"Ġsignal":7206,"Ġprize":7207,"ONE":7208,"Ġ2007":7209,"Ġ2008":7210,"Ġexpress":7211,"Ġlarger":7212,"Ġcentral":7213,"ĠSomebody":7214,"Ġreported":7215,"Ġhelicop":7216,"Ġhunting":7217,"Ġcandid":7218,"ĠSimon":7219,"Ġreckon":7220,"ĠLabour":7221,"Ġinnocent":7222,"Ġgrateful":7223,"Ġpregnant":7224,"hunh":7225,"ĠIreland":7226,"17":7227,"water":7228,"Ġfreedom":7229,"Ġgym":7230,"Ġni":7231,"east":7232,"Ġinse":7233,"ĠAp":7234,"ĠBook":7235,"ĠNight":7236,"essed":7237,"Ġbabys":7238,"Ġuniverse":7239,"ĠâĢĶ":7240,"Ġbites":7241,"Ġbitter":7242,"Ġslipped":7243,"Ġdism":7244,"Ġbreast":7245,"Ġfinancial":7246,"Ġrelative":7247,"ĠSpeak":7248,"ĠScar":7249,"Ġdrain":7250,"Ġsending":7251,"Ġadvance":7252,"Ġpirates":7253,"ĠLois":7254,"Ġapologize":7255,"bon":7256,"ccer":7257,"gate":7258,"Ġast":7259,"Ġlect":7260,"Ġdozen":7261,"Ġkittens":7262,"ĠWo":7263,"adi":7264,"ĠCamp":7265,"ĠLA":7266,"Ġrang":7267,"Ġclay":7268,"Ġguest":7269,"Ġshoulders":7270,"Ġmonkeys":7271,"Ġsurgery":7272,"Ġzip":7273,"Ġpeep":7274,"Ġchecking":7275,"Ġmarked":7276,"Ġkingdom":7277,"Ġresponse":7278,"Ġavoid":7279,"Ġtorn":7280,"Ġintroduce":7281,"Ġvoices":7282,"Ġchalk":7283,"bu":7284,"boo":7285,"lead":7286,"when":7287,"Ġcities":7288,"Ġgain":7289,"Ġhunt":7290,"ĠMind":7291,"ĠMaid":7292,"cho":7293,"ĠOb":7294,"Ġwhoever":7295,"ĠEv":7296,"...\"":7297,"ĠUN":7298,"Ġcommit":7299,"Ġthrows":7300,"Ġribb":7301,"Ġfixing":7302,"Ġprior":7303,"Ġexperien":7304,"Ġjournal":7305,"ĠCollege":7306,"ĠBecky":7307,"200":7308,"Ġber":7309,"Ġdim":7310,"Ġdies":7311,"enced":7312,"eaks":7313,"ĠAri":7314,"stead":7315,"ĠPoor":7316,"ĠEight":7317,"ĠVer":7318,"Ġpickle":7319,"Ġglo":7320,"Ġcommun":7321,"Ġpreschool":7322,"Ġdesire":7323,"Ġawfully":7324,"Ġladyb":7325,"Ġrefused":7326,"Ġassum":7327,"Ġdiamond":7328,"Ġstores":7329,"EST":7330,"Ġfields":7331,"ĠAnton":7332,"Ġsuggested":7333,"ĠDisney":7334,"ĠAcademy":7335,"Ġemergency":7336,"IA":7337,"Ġok":7338,"Ġmac":7339,"Ġfleet":7340,"ĠSC":7341,"ĠSur":7342,"acle":7343,"inky":7344,"ĠOff":7345,"ĠPak":7346,"Ġplayers":7347,"Ġsplend":7348,"Ġclient":7349,"Ġprem":7350,"Ġbuildings":7351,"ĠDef":7352,"Ġ2009":7353,"Ġevident":7354,"Ġtransl":7355,"Ġdanced":7356,"Ġoriginally":7357,"Ġaccepted":7358,"Ġsmoking":7359,"Ġspilled":7360,"Ġslightly":7361,"ĠEleanor":7362,"stein":7363,"ĠChicago":7364,"EM":7365,"For":7366,"esh":7367,"Ġstew":7368,"ĠHea":7369,"choo":7370,"ĠCut":7371,"elet":7372,"Ġwherever":7373,"Ġagre":7374,"Ġroyal":7375,"Ġbubble":7376,"Ġflies":7377,"Ġswam":7378,"Ġuns":7379,"Ġrais":7380,"Ġglue":7381,"Ġbroom":7382,"Ġsunshine":7383,"Ġfully":7384,"Ġcrap":7385,"ĠSecond":7386,"oopy":7387,"Ġkicked":7388,"Ġspending":7389,"Ġincluded":7390,"Ġtracks":7391,"Ġwagged":7392,"stitute":7393,"ĠSecretary":7394,"LES":7395,"ec":7396,"then":7397,"Ġbib":7398,"Ġdude":7399,"Ġcott":7400,"Ġpant":7401,"icide":7402,"iches":7403,"ĠWestern":7404,"Ġashamed":7405,"ĠCra":7406,"Ġaltern":7407,"Ġcode":7408,"Ġhomework":7409,"Ġchose":7410,"Ġchosen":7411,"Ġresist":7412,"ungle":7413,"rows":7414,"ĠFran":7415,"phy":7416,"Ġwarned":7417,"Ġrelief":7418,"Ġdrinks":7419,"Ġpassengers":7420,"Ġhundreds":7421,"Ġrepair":7422,"ARD":7423,"Ġgovernor":7424,"Ġsuffer":7425,"Ġpropos":7426,"Ġcreep":7427,"uddle":7428,"ĠKevin":7429,"Ġmanagement":7430,"Ġreligious":7431,"Ġroute":7432,"melon":7433,"Bang":7434,"See":7435,"Ġlt":7436,"Ġlou":7437,"Ġpapa":7438,"Ġwhats":7439,"rier":7440,"Ġreward":7441,"ĠLar":7442,"ĠLake":7443,"ĠDuck":7444,"Ġproved":7445,"ĠUrs":7446,"Ġunex":7447,"Ġeaster":7448,"Ġski":7449,"Ġfellows":7450,"ĠArt":7451,"Ġ188":7452,"priate":7453,"Ġcriminal":7454,"Ġscreaming":7455,"Ġsailor":7456,"Ġdetails":7457,"Ġcharacters":7458,"ĠCongress":7459,"ĠBarbara":7460,"Ġsymbol":7461,"Fine":7462,"Wh":7463,"iable":7464,"Ġax":7465,"Ġsi":7466,"Ġnin":7467,"ĠTor":7468,"ĠTam":7469,"ĠAng":7470,"ĠBest":7471,"imi":7472,"ores":7473,"ĠPig":7474,"hib":7475,"ĠAnnie":7476,"icted":7477,"Ġwatermelon":7478,"ĠFraser":7479,"Ġdesper":7480,"Ġawesome":7481,"Ġinstru":7482,"Ġdisturb":7483,"ĠDada":7484,"Ġpurcha":7485,"ĠExactly":7486,"Ġsystems":7487,"ĠĠĠĠĠĠĠĠĠĠĠĠĠĠĠĠĠĠĠĠĠĠĠĠĠĠĠĠĠĠĠĠ":7488,"Ġcompanion":7489,"Ġactivity":7490,"ĠTurk":7491,"Ġpowder":7492,"ĠLieutenant":7493,"UCK":7494,"ois":7495,"ua":7496,"Ġwid":7497,"Ġdull":7498,"Ġfever":7499,"Ġgif":7500,"ĠBull":7501,"ĠMA":7502,"verse":7503,"Ġshining":7504,"ppers":7505,"Ġrum":7506,"Ġracing":7507,"ulate":7508,"Ġloving":7509,"igned":7510,"IND":7511,"ĠGoodbye":7512,"Ġtapes":7513,"ĠAmericans":7514,"Ġprisoners":7515,"Ġescaped":7516,"Ġmatey":7517,"Ġdetermined":7518,"Ġpajamas":7519,"Wow":7520,"xy":7521,"yard":7522,"Ġwinner":7523,"ett":7524,"otch":7525,"ĠTown":7526,"lem":7527,"ĠBUT":7528,"ĠWork":7529,"ĠHol":7530,"ĠJay":7531,"Ġ(;":7532,"ĠInvest":7533,"cience":7534,"Ġgreater":7535,"peror":7536,"ĠBrad":7537,"Ġattitude":7538,"Ġunderstanding":7539,"together":7540,"Ġgenerous":7541,"Ġreports":7542,"Ġphysical":7543,"ĠDerwood":7544,"Ġrapid":7545,"Ġyogurt":7546,"Ġmosqu":7547,"lam":7548,"Ġot":7549,"Ġhen":7550,"Ġhabit":7551,"Ġlip":7552,"alls":7553,"amin":7554,"ĠCON":7555,"Ġsore":7556,"ĠNest":7557,"Ġwilln":7558,"istry":7559,"ĠUnt":7560,"Ġhanded":7561,"Ġpoem":7562,"Ġsweep":7563,"Ġawhile":7564,"Ġconsult":7565,"Ġpasta":7566,"Ġroads":7567,"ĠGeorg":7568,"Ġincludes":7569,"Ġsuffering":7570,"Ġsexual":7571,"Ġfrequ":7572,"ĠEffie":7573,"ĠCanadian":7574,"Ġgathered":7575,"16":7576,"apped":7577,"dog":7578,"hh":7579,"Ġwrap":7580,"ĠAbsolutely":7581,"ĠLand":7582,"ĠJosh":7583,"ĠFer":7584,"Ġbloom":7585,"Ġflav":7586,"Ġfinds":7587,"Ġdrops":7588,"Ġinstr":7589,"Ġbarrel":7590,"Ġwaffles":7591,"Ġwounded":7592,"Ġarrested":7593,"Ġaudience":7594,"ĠStephen":7595,"OP":7596,"bour":7597,"nces":7598,"Ġwishes":7599,"Ġmerc":7600,"Ġnorthern":7601,"ĠBri":7602,"Ġwhoop":7603,"ĠNa":7604,"ulance":7605,"osc":7606,"Ġvalley":7607,"reeze":7608,"aging":7609,"Ġprevious":7610,"Ġswan":7611,"Ġscra":7612,"ups":7613,"anged":7614,"Ġreality":7615,"Ġbeast":7616,"Ġhopefully":7617,"Ġfollows":7618,"ĠAtl":7619,"ĠTrue":7620,"ervation":7621,"Ġtesting":7622,"Ġpackage":7623,"Ġorganized":7624,"Ġslee":7625,"Ġcurrently":7626,"Ġsurface":7627,"Ġfantastic":7628,"ĠMajesty":7629,"Ġrabbits":7630,"Cl":7631,"giving":7632,"Ġwicked":7633,"ĠThing":7634,"Ġliqu":7635,"ĠHug":7636,"ieve":7637,"Ġspit":7638,"aki":7639,"ateg":7640,"Ġpole":7641,"Ġscoot":7642,"Ġunit":7643,"Ġattached":7644,"ĠSweet":7645,"Ġpeach":7646,"Ġlawn":7647,"Ġorganization":7648,"ĠCommittee":7649,"incol":7650,"ĠEarl":7651,"ĠDepartment":7652,"Ġfocus":7653,"Ġexcitement":7654,"Ġcircumstances":7655,"Ġhelicopter":7656,"Bob":7657,"down":7658,"while":7659,"Ġtin":7660,"Ġsouthern":7661,"Ġbul":7662,"ĠTalk":7663,"ĠHim":7664,"Ġsof":7665,"olen":7666,"Ġcomedy":7667,"Ġloyal":7668,"Ġlean":7669,"Ġshovel":7670,"Ġcontent":7671,"Ġsneez":7672,"Ġdrill":7673,"Ġskills":7674,"Ġpersonally":7675,"Ġcomplicated":7676,"Ġexpression":7677,"Ġmedia":7678,"ĠGram":7679,"ĠJulie":7680,"Ġcandle":7681,"Ġnursing":7682,"Ġmurdered":7683,"Ġsource":7684,"Some":7685,"put":7686,"Ġborder":7687,"Ġmile":7688,"Ġmummy":7689,"Ġpunch":7690,"ĠAB":7691,"aming":7692,"Ġplums":7693,"ĠDear":7694,"ĠFed":7695,"owned":7696,"Ġsevere":7697,"Ġbrac":7698,"Ġswings":7699,"Ġremoved":7700,"Ġrecycl":7701,"Ġdelicate":7702,"Ġretire":7703,"Ġkittycat":7704,"ĠGroup":7705,"ĠPrin":7706,"Ġbegins":7707,"ĠBarry":7708,"Ġprofessor":7709,"Ġpolitics":7710,"Ġcrossed":7711,"Ġmiserable":7712,"Ġpinea":7713,"ĠEnjoy":7714,"Ġnetwork":7715,"ĠOlympics":7716,"Ġbeads":7717,"Ġlazy":7718,"IG":7719,"yr":7720,"zil":7721,"Ġbin":7722,"Ġfate":7723,"Ġfuel":7724,"ingly":7725,"owed":7726,"ĠShan":7727,"ĠSister":7728,"ĠSwww":7729,"Ġstress":7730,"Ġstamp":7731,"ĠHang":7732,"Ġwhoo":7733,"unts":7734,"Ġupper":7735,"Ġleague":7736,"Ġpride":7737,"Ġchampions":7738,"Ġskirt":7739,"Ġcolorful":7740,"Ġregret":7741,"Ġpiggie":7742,"Ġassume":7743,"brush":7744,"Ġwooden":7745,"hetic":7746,"Ġtransfer":7747,"Ġleaders":7748,"Ġconnect":7749,"Ġcritic":7750,"Ġwrapped":7751,"ĠVirginia":7752,"**":7753,"14":7754,"Man":7755,"craft":7756,"nge":7757,"town":7758,"rets":7759,"Ġbust":7760,"Ġcops":7761,"Ġpowers":7762,"arant":7763,"ĠSP":7764,"sell":7765,"Ġee":7766,"ĠHell":7767,"ĠHumph":7768,"Ġknight":7769,"ĠLincol":7770,"Ġwheat":7771,"Ġfruits":7772,"Ġloan":7773,"Ġseed":7774,"Ġbrick":7775,"Ġelement":7776,"Ġcontribut":7777,"INE":7778,"Ġsooner":7779,"Ġduckie":7780,"Ġanswers":7781,"Ġ2001":7782,"Ġ2006":7783,"Ġexpecting":7784,"THER":7785,"Ġcreatures":7786,"ĠConf":7787,"ĠPhilip":7788,"Ġsuffered":7789,"Ġdetail":7790,"Ġrattle":7791,"Ġconnection":7792,"Ġreligion":7793,"becca":7794,"ĠDistrict":7795,"Ġsplendid":7796,"Ġunexpected":7797,"?'":7798,"Boo":7799,"rots":7800,"Ġtut":7801,"Ġwestern":7802,"Ġba":7803,"ĠIll":7804,"Ġtoss":7805,"Ġlid":7806,"Ġped":7807,"ĠBon":7808,"ĠBab":7809,"Ġforms":7810,"Ġsoccer":7811,"rain":7812,"ĠOt":7813,"Ġguests":7814,"Ġuncom":7815,"Ġappears":7816,"Ġserving":7817,"ĠBring":7818,"ĠAlan":7819,"Ġfirefight":7820,"Ġbreaks":7821,"ĠDev":7822,"ESS":7823,"ĠTrust":7824,"Ġhurried":7825,"Ġproduce":7826,"ĠFollow":7827,"Ġpitcher":7828,"Ġinfluence":7829,"sembly":7830,"Ġchallenge":7831,"Ġfarther":7832,"As":7833,"Bl":7834,"fect":7835,"gle":7836,"war":7837,"Ġtid":7838,"Ġbent":7839,"Ġcakes":7840,"anes":7841,"Ġpets":7842,"Ġnu":7843,"Ġnah":7844,"Ġhills":7845,"ĠBur":7846,"ĠWalk":7847,"ĠHand":7848,"ĠFR":7849,"Ġspank":7850,"Ġagent":7851,"Ġscri":7852,"cohol":7853,"umpy":7854,"Ġwarning":7855,"OUT":7856,"Ġcollar":7857,"ĠBlood":7858,"Ġstopping":7859,"Ġrainbow":7860,"Ġmaintain":7861,"Ġ1990":7862,"Ġdemon":7863,"ĠKenn":7864,"Ġpalace":7865,"ĠBuddy":7866,"Ġgrocery":7867,"quarters":7868,"Ġpattycake":7869,"Ġcottage":7870,"Look":7871,"lim":7872,"morrow":7873,"rough":7874,"ube":7875,"encer":7876,"ĠTucker":7877,"ĠBir":7878,"ĠHead":7879,"chief":7880,"Ġnoble":7881,"Ġshed":7882,"ĠPardon":7883,"hant":7884,"ĠJUST":7885,"Ġexact":7886,"Ġargu":7887,"Ġscen":7888,"ĠStart":7889,"Ġmothers":7890,"ĠAssoci":7891,"Ġfrost":7892,"Ġdropping":7893,"ĠMatty":7894,"Ġexperiment":7895,"Ġprotection":7896,"Ġproposed":7897,"Ġrobber":7898,"nament":7899,"Ġnewspapers":7900,"ĠSergeant":7901,"Ġachieve":7902,"Ġargument":7903,"ĠCatholic":7904,"ĠHumphrey":7905,"dro":7906,"eon":7907,"ox":7908,"uals":7909,"Ġtag":7910,"Ġsons":7911,"enger":7912,"ĠTon":7913,"Ġbean":7914,"ĠBO":7915,"ĠMu":7916,"Ġlions":7917,"ĠHealth":7918,"Ġcans":7919,"ĠLos":7920,"ĠOUT":7921,"ĠRan":7922,"ulp":7923,"Ġclaws":7924,"Ġproof":7925,"Ġpermission":7926,"ibly":7927,"izzy":7928,"Ġmarks":7929,"Ġhonour":7930,"THING":7931,"Ġequal":7932,"Ġfortun":7933,"Ġincreased":7934,"Ġintroduced":7935,"ĠTravis":7936,"ĠBrazil":7937,"Ġbleeding":7938,"ban":7939,"lers":7940,"pea":7941,"ture":7942,"Ġtables":7943,"Ġpup":7944,"Ġnails":7945,"esame":7946,"Ġthorough":7947,"irls":7948,"Ġaspect":7949,"Ġaltogether":7950,"ĠEach":7951,"Ġroot":7952,"Ġroar":7953,"ichol":7954,"Ġbabe":7955,"Ġeveryday":7956,"Ġholy":7957,"rence":7958,"ĠSammy":7959,"ĠSpider":7960,"ietnam":7961,"Ġclosing":7962,"ĠWithout":7963,"Ġprovided":7964,"Ġrequired":7965,"ĠMonster":7966,"ĠSuch":7967,"ĠBetter":7968,"Ġdegrees":7969,"Ġscrub":7970,"ĠUrsula":7971,"13":7972,"_.":7973,"bee":7974,"gues":7975,"pro":7976,"Ġward":7977,"Ġfaint":7978,"Ġpistol":7979,"Ġhut":7980,"Ġren":7981,"lying":7982,"ĠYet":7983,"ĠCa":7984,"ĠDick":7985,"Ġjustice":7986,"Ġrushed":7987,"Ġframe":7988,"Ġparties":7989,"retty":7990,"ĠZoe":7991,"Ġexplore":7992,"Ġparking":7993,"Ġlaying":7994,"Ġprofit":7995,"Ġquarters":7996,"Ġlanguages":7997,"Ġdevil":7998,"ĠRemi":7999,"ĠAngela":8000,"Ġsteam":8001,"----------------":8002,"ĠEarly":8003,"ĠBernard":8004,"Ġambulance":8005,"Ġcurtain":8006,"Ġlicense":8007,"ĠDirector":8008,"Ġfalse":8009,"Ġmosquito":8010,"san":8011,"Ġyards":8012,"Ġdom":8013,"Ġdiet":8014,"iser":8015,"Ġfierce":8016,"Ġthunder":8017,"leen":8018,"ĠBow":8019,"ĠSub":8020,"imum":8021,"ĠWomen":8022,"ĠHum":8023,"Ġyourselves":8024,"amn":8025,"ĠCL":8026,"ĠNE":8027,"ĠNone":8028,"thy":8029,"Ġcru":8030,"ograp":8031,"Ġsixth":8032,"Ġbeard":8033,"Ġcommission":8034,"Ġexchan":8035,"Ġtrained":8036,"ruct":8037,"Ġdealing":8038,"Ġ186":8039,"Ġ189":8040,"Ġinterf":8041,"Ġtricks":8042,"Ġvariety":8043,"Ġscarce":8044,"Ġlimit":8045,"ĠGovernor":8046,"ĠDemocratic":8047,"Ġlouder":8048,"ĠUntil":8049,"Ġlung":8050,"eau":8051,"Ġsteak":8052,"unting":8053,"ĠPea":8054,"oles":8055,"ĠFriend":8056,"Ġflood":8057,"Ġunha":8058,"Ġsnip":8059,"Ġsniff":8060,"ĠUnless":8061,"ĠForget":8062,"Ġwears":8063,"Ġcollection":8064,"Ġtowns":8065,"ART":8066,"goti":8067,"Ġdrag":8068,"ĠSeven":8069,"ĠProv":8070,"Ġformula":8071,"Ġpuzzles":8072,"Ġbothering":8073,"ĠWilliams":8074,"Ġhonestly":8075,"annah":8076,"Ġcheek":8077,"uous":8078,"Ġbay":8079,"Ġnick":8080,"Ġsteel":8081,"Ġstolen":8082,"ĠLot":8083,"ional":8084,"ĠEst":8085,"ĠVietnam":8086,"Ġskip":8087,"ĠMission":8088,"Ġdistant":8089,"ussy":8090,"ĠJackson":8091,"Ġsecretary":8092,"Ġcandles":8093,"Ġincreas":8094,"Ġsettlement":8095,"ĠSHE":8096,"Ġfrag":8097,"Ġslaves":8098,"Ġinsect":8099,"Ġbracelet":8100,"ev":8101,"iar":8102,"sit":8103,"Ġded":8104,"ishi":8105,"enly":8106,"ompl":8107,"asha":8108,"adu":8109,"gend":8110,"Ġsuitc":8111,"emies":8112,"Ġclip":8113,"Ġsequ":8114,"Ġworkers":8115,"Ġpartners":8116,"Ġunique":8117,"Ġrecent":8118,"Ġdrives":8119,"Ġcommitted":8120,"Ġtennis":8121,"Ġconfidence":8122,"Ġgeneration":8123,"ĠElmo":8124,"Ġcrib":8125,"Ġdancer":8126,"Ġchewing":8127,"Ġencoura":8128,"Ġbenefits":8129,"Ġsacrif":8130,"Gu":8131,"UM":8132,"azz":8133,"uing":8134,"west":8135,"zard":8136,"orious":8137,"ĠTha":8138,"Ġalcohol":8139,"ĠFind":8140,"Ġtwins":8141,"ĠKn":8142,"Ġappointment":8143,"Ġdisplay":8144,"ealand":8145,"Ġcomplex":8146,"Ġmonsters":8147,"ancing":8148,"ĠRebecca":8149,"ĠCheck":8150,"ĠColin":8151,"Ġillness":8152,"Ġeffects":8153,"ĠMadame":8154,"Ġcabin":8155,"Ġmagnets":8156,"Ġceiling":8157,"RUN":8158,"tie":8159,"uries":8160,"otton":8161,"asp":8162,"ĠAw":8163,"ĠSol":8164,"stant":8165,"Ġje":8166,"ĠLew":8167,"iece":8168,"ĠPict":8169,"ĠRad":8170,"ĠRab":8171,"ĠRIGHT":8172,"Ġgoods":8173,"Ġcliff":8174,"Ġproced":8175,"Ġhappiness":8176,"erec":8177,"Ġquid":8178,"Ġkindly":8179,"Ġfunction":8180,"Ġappointed":8181,"ossum":8182,"ĠTHERE":8183,"Ġminds":8184,"Ġclosely":8185,"Ġterrit":8186,"Ġbasic":8187,"Ġobvious":8188,"ĠZealand":8189,"Ġnearby":8190,"Ġincident":8191,"Ġconference":8192,"ouncill":8193,"Ġ2004":8194,"Ġ2005":8195,"Ġsafely":8196,"Ġ60":8197,"Ġcontroll":8198,"Ġconcern":8199,"Ġcartoon":8200,"Ġauthorities":8201,"Ġphoto":8202,"Ġphotograph":8203,"Ġcelebrate":8204,"Ġdistributed":8205,"Ġterrific":8206,"ĠOrder":8207,"Ġfascin":8208,"At":8209,"eenth":8210,"mies":8211,"sing":8212,"ouri":8213,"Ġpoured":8214,"ĠBamb":8215,"ĠWes":8216,"entine":8217,"ura":8218,"ĠDonna":8219,"ĠNurse":8220,"Ġrides":8221,"ĠKill":8222,"Ġbetray":8223,"Ġshade":8224,"Ġflu":8225,"aval":8226,"Ġhugging":8227,"Ġsurre":8228,"Ġawoh":8229,"Ġ31":8230,"ertainly":8231,"Ġpatch":8232,"Ġpatients":8233,"Ġmusical":8234,"Ġcatching":8235,"Ġcraft":8236,"Ġsalami":8237,"atsy":8238,"ĠHaven":8239,"Ġbeneath":8240,"Ġsandwiches":8241,"Ġhousing":8242,"ĠWilson":8243,"Ġcitizens":8244,"Or":8245,"TLE":8246,"pot":8247,"sm":8248,"sis":8249,"Ġtus":8250,"Ġnaked":8251,"ĠAL":8252,"Ġketch":8253,"ĠMinn":8254,"ĠWall":8255,"ador":8256,"Ġnegoti":8257,"Ġabo":8258,"ĠPatsy":8259,"ulated":8260,"Ġcoats":8261,"Ġconqu":8262,"boat":8263,"Ġchoke":8264,"ansas":8265,"Ġyah":8266,"Ġhighly":8267,"Ġpersonality":8268,"Ġemotion":8269,"Ġtaperec":8270,"Ġinstant":8271,"shit":8272,"Ġpenal":8273,"Ġimpress":8274,"Ġprime":8275,"Ġ2002":8276,"ĠHarvey":8277,"ĠRec":8278,"Ġlocation":8279,"Ġsolid":8280,"Ġestate":8281,"Ġmajority":8282,"Ġpossibility":8283,"Ġdescribed":8284,"OOD":8285,"Ġmuffins":8286,"Ġfolk":8287,"Ġsatisfied":8288,"Ġmystery":8289,"ĠLeslie":8290,"Ġvehicle":8291,"Ġberries":8292,"ĠLincoln":8293,"AB":8294,"bish":8295,"case":8296,"des":8297,"dough":8298,"vable":8299,"zo":8300,"etts":8301,"lection":8302,"ications":8303,"ĠBan":8304,"ĠBible":8305,"ĠMs":8306,"Ġsting":8307,"ĠLad":8308,"inkle":8309,"Ġability":8310,"ĠGil":8311,"ĠGET":8312,"ĠFam":8313,"eless":8314,"Ġconsequ":8315,"Ġumm":8316,"Ġguarant":8317,"Ġenorm":8318,"ĠStr":8319,"Ġ190":8320,"Ġbothered":8321,"Ġheaded":8322,"Ġcolored":8323,"ĠAsh":8324,"Ġjolly":8325,"gedy":8326,"Ġdressing":8327,"Ġaffair":8328,"Ġexpert":8329,"ĠReady":8330,"Ġappropriate":8331,"Ġpancakes":8332,"Ġviolent":8333,"Ġrevolution":8334,"Ġdiscover":8335,"Ġfavourite":8336,"Ġtemperature":8337,"ufact":8338,"ĠKorea":8339,"Ġshelter":8340,"Ġestablished":8341,"Ġcommercial":8342,"ĠOfficer":8343,"Ġpineapple":8344,"BER":8345,"Every":8346,"Ġfiction":8347,"onies":8348,"Ġpine":8349,"Ġnonsense":8350,"ĠAah":8351,"ĠMid":8352,"ĠHong":8353,"ĠNichol":8354,"ieur":8355,"Ġroles":8356,"Ġcovers":8357,"Ġprec":8358,"Ġenvelop":8359,"udding":8360,"ava":8361,"Ġache":8362,"ĠAli":8363,"Ġdada":8364,"Ġconscious":8365,"ĠJoan":8366,"ĠIndians":8367,"Ġ187":8368,"Ġlads":8369,"Ġruining":8370,"Ġviolence":8371,"Ġbells":8372,"Ġdesigned":8373,"ĠMusic":8374,"Ġmamma":8375,"Ġjewel":8376,"ĠJacob":8377,"Ġscheme":8378,"GE":8379,"OL":8380,"door":8381,"viet":8382,"Ġbid":8383,"Ġpork":8384,"ĠHoll":8385,"ĠDie":8386,"ĠDingo":8387,"ĠYounge":8388,"ĠPara":8389,"geous":8390,"Ġtwist":8391,"Ġtweet":8392,"Ġages":8393,"uckle":8394,"erella":8395,"Ġpoke":8396,"gger":8397,"Ġminor":8398,"Ġgrabs":8399,"Ġcompos":8400,"Ġshouting":8401,"Ġideal":8402,"Ġhated":8403,"achus":8404,"ĠAlso":8405,"Ġdesert":8406,"Ġsquirt":8407,"Ġjoking":8408,"ĠMissus":8409,"chers":8410,"Ġsymp":8411,"Ġmillions":8412,"Ġdaily":8413,"leton":8414,"Ġsufficient":8415,"ĠPenn":8416,"Ġprepare":8417,"Ġvictims":8418,"Ġmultip":8419,"Ġaerob":8420,"Ġresources":8421,"ĠNesta":8422,"Ġunhappy":8423,"Ġtaperecorder":8424,"ĠYoungeun":8425,",.":8426,"Got":8427,"One":8428,"cr":8429,"lict":8430,"rison":8431,"uable":8432,"Ġsung":8433,"Ġbumble":8434,"Ġpitch":8435,"Ġhits":8436,"ĠAna":8437,"ĠSOME":8438,"ros":8439,"ĠDak":8440,"ĠNep":8441,"umes":8442,"eline":8443,"Ġspect":8444,"ender":8445,"Ġblink":8446,"Ġroast":8447,"Ġcob":8448,"agn":8449,"erer":8450,"Ġmoments":8451,"Ġenemies":8452,"udge":8453,"umpty":8454,"Ġsticker":8455,"Ġcares":8456,"Ġobtain":8457,"ĠJohnson":8458,"Ġparade":8459,"Ġstaring":8460,"osphere":8461,"Ġcorpor":8462,"Ġtaxi":8463,"Ġvanilla":8464,"Ġcheerlead":8465,"Ġconnected":8466,"shas":8467,"ĠHonor":8468,"ĠMarcia":8469,"ĠPrincess":8470,"Ġaboard":8471,"achusetts":8472,"SC":8473,"pass":8474,"iner":8475,"ingu":8476,"ooge":8477,"Ġweigh":8478,"ĠAlf":8479,"ĠMi":8480,"acious":8481,"ĠCop":8482,"Ġaband":8483,"Ġarmed":8484,"ĠKnow":8485,"Ġimage":8486,"rene":8487,"Ġtrapped":8488,"Ġzipper":8489,"OUN":8490,"Ġsunny":8491,"Ġpops":8492,"ĠJackie":8493,"ĠTracy":8494,"Ġservants":8495,"Ġsumm":8496,"Ġfilms":8497,"Ġreplace":8498,"Ġterribly":8499,"Ġmistakes":8500,"Ġdaisy":8501,"Ġmachines":8502,"Ġdifficulty":8503,"Ġilleg":8504,"Ġcircles":8505,"OOK":8506,"ĠAustria":8507,"ophie":8508,"Ġtuna":8509,"Ġlatter":8510,"Ġculture":8511,"Ġnearer":8512,"ĠEmpire":8513,"ĠAssociation":8514,"bird":8515,"cell":8516,"ez":8517,"Ġfetch":8518,"Ġanch":8519,"Ġjungle":8520,"ĠDeath":8521,"acks":8522,"ĠGard":8523,"Ġfrustr":8524,"Ġplaydough":8525,"aks":8526,"Ġvit":8527,"ĠUP":8528,"Ġhousehold":8529,"Ġimpl":8530,"Ġmustn":8531,"clear":8532,"aughters":8533,"Ġskunk":8534,"Ġrif":8535,"ĠShh":8536,"Ġkissing":8537,"bridge":8538,"Ġenjoying":8539,"ika":8540,"Ġprisoner":8541,"ĠMadam":8542,"Ġlabel":8543,"Ġlimited":8544,"Ġbillion":8545,"Ġpenguins":8546,"ĠLIKE":8547,"Ġschedule":8548,"22":8549,"doll":8550,"reys":8551,"Ġmask":8552,"Ġgigg":8553,"oto":8554,"atre":8555,"ĠBell":8556,"Ġkiw":8557,"ĠSandy":8558,"rim":8559,"ĠMir":8560,"ads":8561,"ĠLater":8562,"Ġrhin":8563,"Ġalp":8564,"Ġnowhere":8565,"ivered":8566,"estival":8567,"ĠInc":8568,"Ġkidna":8569,"Ġslave":8570,"Ġdriven":8571,"ĠSpencer":8572,"Ġinterests":8573,"Ġcupcakes":8574,"Ġaccompl":8575,"Ġcharges":8576,"Ġpotty":8577,"ĠScr":8578,"Ġ2003":8579,"ĠGerald":8580,"Ġreasonable":8581,"Ġstudies":8582,"Ġbeating":8583,"Ġbutterflies":8584,"Ġremains":8585,"Ġtender":8586,"Ġbehave":8587,"Ġcheeks":8588,"aughs":8589,"ĠCinderella":8590,"ĠSnoopy":8591,"ĠKenneth":8592,"Ġketchup":8593,"FA":8594,"gal":8595,"pting":8596,"two":8597,"reg":8598,"Ġbars":8599,"eros":8600,"lev":8601,"ĠAM":8602,"ĠShi":8603,"ĠSudd":8604,"ĠMem":8605,"Ġrear":8606,"Ġlied":8607,"ĠHER":8608,"tery":8609,"Ġshots":8610,"ĠEver":8611,"Ġspite":8612,"ques":8613,"obile":8614,"ĠInter":8615,"Ġhired":8616,"onscious":8617,"uced":8618,"Ġyawn":8619,"ĠAsk":8620,"Ġaccomp":8621,"ologist":8622,"ĠRev":8623,"Ġanswering":8624,"Ġmemories":8625,"ĠAngeles":8626,"Ġstealing":8627,"Ġtechnology":8628,"Ġarranged":8629,"Ġbroadcast":8630,"Boys":8631,"ĠInvestigator":8632,"ĠHugo":8633,"',":8634,"gers":8635,"iat":8636,"mate":8637,"inal":8638,"Ġol":8639,"Ġdiss":8640,"Ġdried":8641,"Ġginger":8642,"Ġnative":8643,"ora":8644,"ĠSounds":8645,"imp":8646,"Ġreind":8647,"ĠHard":8648,"ĠHERE":8649,"ĠNik":8650,"Ġmanufact":8651,"Ġblast":8652,"Ġconvin":8653,"ĠKong":8654,"ĠAlways":8655,"Ġchairman":8656,"Ġjoint":8657,"Ġimportance":8658,"Ġconfir":8659,"Ġdawn":8660,"Ġdivided":8661,"ĠRobbie":8662,"Ġbucks":8663,"ĠClaire":8664,"Ġvolume":8665,"ĠIrish":8666,"Ġproducts":8667,"ĠWinter":8668,"Ġromantic":8669,"Ġotter":8670,"UL":8671,"cies":8672,"mont":8673,"sed":8674,"works":8675,"Ġsorrow":8676,"Ġsession":8677,"Ġbills":8678,"Ġmal":8679,"Ġfrench":8680,"ĠAaron":8681,"ĠArab":8682,"utation":8683,"ĠSab":8684,"ĠWr":8685,"Ġforb":8686,"Ġgobble":8687,"ĠGen":8688,"Ġexha":8689,"itect":8690,"erek":8691,"Ġprices":8692,"Ġdecent":8693,"Ġmuscles":8694,"Ġcapable":8695,"Ġextent":8696,"Ġservant":8697,"Ġfiles":8698,"force":8699,"ĠHolly":8700,"omeday":8701,"ĠGabriella":8702,"ĠJonathan":8703,"Ġoccurred":8704,"burgh":8705,"Ġchampion":8706,"ĠLatin":8707,"Ġgloves":8708,"Ġgifts":8709,"Ġaerobics":8710,"Ġkiwi":8711,"Arrr":8712,"tles":8713,"walk":8714,"Ġtan":8715,"Ġwealth":8716,"itched":8717,"Ġfee":8718,"Ġthread":8719,"ĠTerry":8720,"ĠAss":8721,"uties":8722,"sex":8723,"ĠMorning":8724,"ĠMimi":8725,"Ġstab":8726,"ĠYo":8727,"Ġants":8728,"ĠDID":8729,"raine":8730,"ĠOH":8731,"Ġvision":8732,"ĠKr":8733,"Ġremove":8734,"Ġhoc":8735,"Ġunits":8736,"Ġunknown":8737,"Ġheading":8738,"Ġyells":8739,"Ġfactory":8740,"Ġvisited":8741,"Ġimagination":8742,"Ġsolution":8743,"Ġamongst":8744,"Ġcompeted":8745,"Ġencourage":8746,"Ġdescribe":8747,"Ġnegative":8748,"ĠMassachusetts":8749,"ĠWonder":8750,"Ġagreement":8751,"RUNT":8752,"Ġtusks":8753,"Like":8754,"foot":8755,"Ġske":8756,"Ġdum":8757,"Ġcou":8758,"Ġcable":8759,"Ġcooper":8760,"Ġpanda":8761,"Ġ\"'":8762,"Ġkil":8763,"ĠSophie":8764,"ima":8765,"ĠWars":8766,"adium":8767,"Ġanaly":8768,"ĠCross":8769,"ĠRect":8770,"olves":8771,"essa":8772,"Ġcozy":8773,"Ġflip":8774,"Ġunlike":8775,"Ġbeak":8776,"Ġpassion":8777,"Ġfacts":8778,"ĠGrace":8779,"umbling":8780,"Ġprotest":8781,"Ġadvanced":8782,"ĠSwiss":8783,"Ġopposed":8784,"ropol":8785,"Ġvegetable":8786,"Ġactivities":8787,"Ġshells":8788,"Ġdelighted":8789,"vania":8790,"Ġsurvive":8791,"Ġeconomic":8792,"ĠSenate":8793,"Ġinjured":8794,"Ġgorilla":8795,"ĠHeaven":8796,"ILL":8797,"iven":8798,"iries":8799,"some":8800,"Ã¤":8801,"Ġ%":8802,"heast":8803,"Ġdizzy":8804,"Ġmall":8805,"ĠBi":8806,"rily":8807,"eek":8808,"ĠCas":8809,"Ġplug":8810,"ĠPam":8811,"olars":8812,"berries":8813,"Ġconcept":8814,"Ġbaba":8815,"ĠSoviet":8816,"cipl":8817,"ĠVol":8818,"Ġraising":8819,"Ġearned":8820,"Ġcharged":8821,"ĠMissouri":8822,"Ġarticle":8823,"Ġbegun":8824,"Ġpushes":8825,"Ġcalf":8826,"Ġprograms":8827,"Ġsolve":8828,"Ġconstruction":8829,"ĠONE":8830,"Ġnicer":8831,"Ġstruggle":8832,"ĠJersey":8833,"ĠSweden":8834,"Ġsignificant":8835,"Ġreindeer":8836,"Dear":8837,"On":8838,"mosphere":8839,"ingle":8840,"Ġlam":8841,"Ġpadd":8842,"Ġpudding":8843,"Ġhom":8844,"ashes":8845,"lee":8846,"utions":8847,"ĠMam":8848,"ĠWales":8849,"Ġstiff":8850,"ĠHit":8851,"ĠYear":8852,"ĠDE":8853,"ĠPa":8854,"ighed":8855,"ĠFel":8856,"Ġworn":8857,"Ġintended":8858,"ths":8859,"Ġchrist":8860,"iley":8861,"pton":8862,"ĠIslam":8863,"Ġcupboard":8864,"Ġfrozen":8865,"Ġknocking":8866,"Ġmadam":8867,"Ġdining":8868,"ĠNorman":8869,"Ġcomputers":8870,"EAH":8871,"Ġseventh":8872,"ĠJeffreys":8873,"Ġstretch":8874,"Ġelectricity":8875,"ĠNether":8876,"ĠRoger":8877,"Ġsofa":8878,"die":8879,"za":8880,"Ġfab":8881,"Ġgained":8882,"Ġleather":8883,"Ġpension":8884,"iders":8885,"ati":8886,"lement":8887,"ĠAwards":8888,"ĠBus":8889,"ading":8890,"Ġstern":8891,"stone":8892,"ĠCOM":8893,"ĠGal":8894,"ĠGary":8895,"ĠPerson":8896,"inder":8897,"ĠEnd":8898,"Ġplayground":8899,"Ġbackpack":8900,"Ġqueer":8901,"ureau":8902,"Ġguide":8903,"Ġunfortunately":8904,"Ġminus":8905,"tail":8906,"bbled":8907,"Ġsquash":8908,"Ġ32":8909,"Ġpassage":8910,"Ġmessed":8911,"Ġdragged":8912,"Ġinspect":8913,"ĠGray":8914,"Ġ1995":8915,"Ġtemple":8916,"Ġgasped":8917,"Ġstatue":8918,"Ġbullet":8919,"Ġviolin":8920,"ĠBelg":8921,"ĠDesmond":8922,"Ġfederal":8923,"Ġporch":8924,"ĠDetective":8925,"Ġbeetle":8926,"ĠGeorgia":8927,"Ġsympat":8928,"ĠSuddenly":8929,"Ġhockey":8930,"!âĢĻ":8931,"BC":8932,"bor":8933,"rors":8934,"had":8935,"Ġthrill":8936,"ĠAgn":8937,"ĠBeat":8938,"ĠWild":8939,"Ġstable":8940,"acher":8941,"ĠHay":8942,"unched":8943,"ĠNumber":8944,"ĠGames":8945,"ĠPL":8946,"umbo":8947,"ela":8948,"estly":8949,"istics":8950,"hio":8951,"orney":8952,"ĠThough":8953,"Ġens":8954,"ipes":8955,"hens":8956,"Ġcrunch":8957,"Ġheadquarters":8958,"Ġdescend":8959,"Ġcuts":8960,"Ġimpat":8961,"Ġimpressed":8962,"Ġconflict":8963,"ĠLucas":8964,"ĠPercy":8965,"Ġcrimes":8966,"199":8967,"ĠConn":8968,"ĠCommander":8969,"ICE":8970,"Ġvaluable":8971,"Ġsleigh":8972,"Ġmercy":8973,"Ġhippo":8974,"Ġdivorce":8975,"Ġlecture":8976,"bal":8977,"hus":8978,"rm":8979,"vet":8980,"haw":8981,"Ġboop":8982,"Ġbald":8983,"Ġdial":8984,"Ġcmon":8985,"Ġfountain":8986,"oria":8987,"Ġhob":8988,"Ġink":8989,"Ġinch":8990,"ĠBart":8991,"ĠSeth":8992,"Ġstations":8993,"ĠHannah":8994,"Ġjeep":8995,"Ġjunior":8996,"ĠLiber":8997,"urd":8998,"ĠOri":8999,"ceived":9000,"ĠGun":9001,"Ġblond":9002,"ĠMomma":9003,"Ġscat":9004,"Ġhorror":9005,"Ġcharming":9006,"ĠZara":9007,"Ġconsum":9008,"Ġgrows":9009,"fortable":9010,"ĠColumb":9011,"Ġ1980":9012,"Ġmailman":9013,"Ġlabor":9014,"Ġdiscussion":9015,"Ġpersu":9016,"Ġcaptured":9017,"aughing":9018,"Ġhistorical":9019,"Ġsenior":9020,"Ġadministrat":9021,"ĠService":9022,"ĠBambi":9023,"ĠNepal":9024,"ĠNetherlands":9025,"Amer":9026,"ok":9027,"say":9028,"Ġsigh":9029,"itter":9030,"Ġfacing":9031,"orms":9032,"ettle":9033,"Ġkm":9034,"ĠSU":9035,"ĠWent":9036,"Ġknit":9037,"ĠLen":9038,"ĠDerek":9039,"ĠRead":9040,"olk":9041,"Ġspaces":9042,"ĠKang":9043,"ĠKelly":9044,"Ġpref":9045,"boys":9046,"Ġmayor":9047,"Ġstrict":9048,"Ġcompar":9049,"ogue":9050,"Ġbushes":9051,"Ġhopes":9052,"Ġcommander":9053,"Ġyelling":9054,"Ġentrance":9055,"Ġcollea":9056,"umbled":9057,"Ġtests":9058,"ĠThanksgiving":9059,"Ġpressed":9060,"cription":9061,"Ġconcert":9062,"Ġleads":9063,"Ġbreathing":9064,"Ġcheerful":9065,"Ġdebt":9066,"Ġoccasionally":9067,"ĠAldred":9068,"ĠProvince":9069,"ĠDakota":9070,"bar":9071,"Ġ;":9072,"Ġtack":9073,"Ġsin":9074,"itors":9075,"Ġdaughters":9076,"Ġmashed":9077,"ĠId":9078,"eable":9079,"ĠSar":9080,"ĠSher":9081,"ĠWon":9082,"iry":9083,"Ġstool":9084,"Ġcanton":9085,"ĠYEAH":9086,"ĠTheo":9087,"usted":9088,"Ġatmosphere":9089,"Ġshops":9090,"ĠOs":9091,"Ġrack":9092,"Ġalike":9093,"ĠRick":9094,"Ġbold":9095,"istent":9096,"Ġprospect":9097,"Ġpopped":9098,"Ġswiss":9099,"Ġscan":9100,"ĠAlbert":9101,"OUGH":9102,"ĠCliff":9103,"ATH":9104,"Ġsecure":9105,"Ġpresently":9106,"Ġ1992":9107,"ĠGeorgie":9108,"Ġstudying":9109,"Ġhunhunh":9110,"Ġbacon":9111,"Fluffy":9112,"Ġtremend":9113,"Ġdesperate":9114,"ĠThings":9115,"Ġummhm":9116,"uction":9117,"zes":9118,"Ġbury":9119,"ĠTab":9120,"ĠBol":9121,"oodles":9122,"ĠGree":9123,"ulk":9124,"estic":9125,"Ġargue":9126,"ague":9127,"ĠUr":9128,"obal":9129,"ĠStud":9130,"ĠInstead":9131,"Ġbiting":9132,"ivity":9133,"phones":9134,"Ġwarn":9135,"Ġsets":9136,"Ġskill":9137,"Ġfroggie":9138,"Ġrocking":9139,"Ġinches":9140,"Ġconfident":9141,"Ġdiapers":9142,"ĠProt":9143,"Ġdreaming":9144,"Ġsailing":9145,"Ġ1970":9146,"Ġarrive":9147,"ĠEnough":9148,"Ġbarking":9149,"ĠCenter":9150,"ĠAustrian":9151,"Ġpersons":9152,"Ġhorns":9153,"ĠIran":9154,"Ġintelligent":9155,"Ġrapidly":9156,"40":9157,"ACK":9158,"gage":9159,"pers":9160,"Ġsou":9161,"Ġobey":9162,"Ġfry":9163,"Ġfisher":9164,"Ġna":9165,"Ġhint":9166,"ĠMav":9167,"Ġstub":9168,"ĠHind":9169,"ĠDi":9170,"Ġshine":9171,"ĠGord":9172,"ĠRaj":9173,"akers":9174,"emic":9175,"Ġvine":9176,"Ġvoc":9177,"Ġoverall":9178,"Ġintend":9179,"ĠKy":9180,"Ġgreatly":9181,"inned":9182,"ĠGoing":9183,"Ġtremb":9184,"Ġreference":9185,"ĠTHEY":9186,"Ġimpact":9187,"Ġclothing":9188,"Ġcompleted":9189,"Ġexpand":9190,"Ġ1994":9191,"Ġreplaced":9192,"----\"":9193,"ĠChildren":9194,"Ġfailure":9195,"Ġpuppets":9196,"Ġcabinet":9197,"ĠMusab":9198,"Ġholidays":9199,"Ġignor":9200,"ĠCongratulations":9201,"Ġlatest":9202,"Ġinvestigation":9203,"Ġtomatoes":9204,"ĠContin":9205,"ĠGabriel":9206,"Ġtalent":9207,"Ġteasing":9208,"ĠBrittany":9209,"ĠTurkish":9210,"Ġsuitcase":9211,"ĠLewis":9212,"25":9213,"ext":9214,"gment":9215,"iation":9216,"kward":9217,"made":9218,"inity":9219,"ĠIce":9220,"Ġfires":9221,"Ġheav":9222,"Ġinner":9223,"imately":9224,"Ġsav":9225,"ĠCy":9226,"ĠLor":9227,"umbs":9228,"ĠRE":9229,"ĠREA":9230,"ĠFight":9231,"eps":9232,"Ġlover":9233,"Ġintention":9234,"Ġquant":9235,"ĠTomorrow":9236,"auce":9237,"Ġfog":9238,"Ġdisag":9239,"ĠChuck":9240,"Ġglance":9241,"ilda":9242,"ĠMarian":9243,"standing":9244,"Ġangle":9245,"Ġexplos":9246,"oofy":9247,"Ġsupported":9248,"ĠQuick":9249,"ĠQuite":9250,"Ġlevels":9251,"ĠEnter":9252,"Ġobjects":9253,"Ġperformed":9254,"Ġnickel":9255,"ĠCareer":9256,"Ġgraduated":9257,"Ġdreadful":9258,"Ġtypical":9259,"ĠHalf":9260,"Ġslippers":9261,"Ġribbon":9262,"Hi":9263,"bute":9264,"Ġing":9265,"Ġwool":9266,"Ġder":9267,"Ġdomin":9268,"Ġgear":9269,"Ġpussy":9270,"ĠTar":9271,"Ġstroll":9272,"ĠCub":9273,"ĠLIT":9274,"Ġalley":9275,"opl":9276,"!\",":9277,"ĠRom":9278,"ĠRuth":9279,"ĠJord":9280,"uls":9281,"elia":9282,"aka":9283,"Ġvast":9284,"Ġtrunks":9285,"Ġroses":9286,"ĠUk":9287,"Ġchamber":9288,"Ġchildhood":9289,"Ġwarri":9290,"nedy":9291,"Ġvisiting":9292,"Ġ500":9293,"Ġseam":9294,"Ġlegisl":9295,"Ġvisitors":9296,"ĠGuard":9297,"Ġfurry":9298,"Ġbeaten":9299,"Ġdigging":9300,"ĠScottish":9301,"ĠJewish":9302,"Ġtroubles":9303,"ĠCheerios":9304,"ĠPakistan":9305,"Ġrecycling":9306,"bi":9307,"cution":9308,"dad":9309,"lets":9310,"woman":9311,"Ġsomeday":9312,"Ġmount":9313,"Ġitch":9314,"aylor":9315,"Ġthie":9316,"Ġonion":9317,"ĠTIM":9318,"ĠBella":9319,"ĠPubl":9320,"ĠRus":9321,"Ġfridge":9322,"arts":9323,"ĠEX":9324,"Ġsund":9325,"Ġsuicide":9326,"care":9327,"Ġcleared":9328,"Ġvir":9329,"Ġvirt":9330,"aph":9331,"Ġoffering":9332,"Ġprose":9333,"ĠKansas":9334,"ĠUK":9335,"ĠWhoo":9336,"Ġcheaper":9337,"ĠChristians":9338,"Ġassault":9339,"Ġpresented":9340,"char":9341,"Ġ1997":9342,"Those":9343,"Ġtempor":9344,"Ġrubbish":9345,"Ġtoothbrush":9346,"Ġshocked":9347,"Ġeconomy":9348,"Ġstinky":9349,"Ġoption":9350,"ĠTeam":9351,"Ġstroke":9352,"Ġladybug":9353,"ĠAntonio":9354,"Ġenormous":9355,"ĠLITTLE":9356,"fs":9357,"gain":9358,"mpt":9359,"wa":9360,"have":9361,"Ġdock":9362,"ĠBall":9363,"Ġreign":9364,"Ġreaches":9365,"irk":9366,"Ġanger":9367,"stick":9368,"ĠCool":9369,"ĠLi":9370,"ĠLane":9371,"Ġplot":9372,"ĠName":9373,"ĠGent":9374,"ĠPitt":9375,"ĠPretty":9376,"Ġsomeplace":9377,"Ġtrump":9378,"Ġbron":9379,"ĠSocial":9380,"Ġfuneral":9381,"Ġkeen":9382,"ĠDog":9383,"ĠVas":9384,"Ġuseless":9385,"ĠBruce":9386,"ocr":9387,"theless":9388,"Ġstickers":9389,"Ġmeetings":9390,"OUR":9391,"ĠCarrots":9392,"Ġlanding":9393,"Ġsandbox":9394,"Ġfreezing":9395,"ĠShakes":9396,"ĠAnybody":9397,"Ġcovering":9398,"Ġaffection":9399,"ĠGuys":9400,"Ġkicking":9401,"Ġrecognizes":9402,"syl":9403,"Ġneighbors":9404,"Ġproducer":9405,"Ġnaturally":9406,"ĠRepublican":9407,"Ġflashlight":9408,"ĠCompany":9409,"Ġarchitect":9410,"Ġelevator":9411,"Ġuncomfortable":9412,"Ġfirefighter":9413,"peare":9414,"Ġalphab":9415,"Ar":9416,"Ġease":9417,"inate":9418,"Ġyarn":9419,"Ġdent":9420,"Ġcotton":9421,"Ġpuddle":9422,"utiful":9423,"ĠBishop":9424,"Ġugh":9425,"ĠSouthern":9426,"ĠWend":9427,"rose":9428,"ifying":9429,"unte":9430,"Ġshift":9431,"ĠNorthern":9432,"inda":9433,"ĠRal":9434,"ĠRub":9435,"ĠFord":9436,"Ġvain":9437,"Ġbloke":9438,"agon":9439,"issy":9440,"Ġlegend":9441,"ileen":9442,"Ġmarble":9443,"Ġyoungest":9444,"Ġcauses":9445,"ĠClear":9446,"Ġreputation":9447,"Ġdraft":9448,"Ġinsp":9449,"REAM":9450,"Ġcostume":9451,"ĠCommission":9452,"Ġconstant":9453,"Ġpockets":9454,"nette":9455,"Ġviews":9456,"Ġcustomers":9457,"Ġmidnight":9458,"Ġthreatened":9459,"Ġutter":9460,"ĠGolden":9461,"which":9462,"ĠDivision":9463,"ĠParalymp":9464,"ĠScrooge":9465,"sylvania":9466,"21":9467,"BO":9468,"IVE":9469,"LING":9470,"Possum":9471,"eys":9472,"four":9473,"phew":9474,"ront":9475,"upp":9476,"Ġwins":9477,"inem":9478,"Ġmig":9479,"Ġhedge":9480,"ĠTW":9481,"ĠSat":9482,"ĠSleep":9483,"ĠMount":9484,"ĠMild":9485,"ĠMabel":9486,"ĠWoo":9487,"ĠHIM":9488,"Ġcane":9489,"Ġwithd":9490,"ĠLion":9491,"ĠLight":9492,"Ġnephew":9493,"opard":9494,"uled":9495,"Ġprob":9496,"Ġbabydoll":9497,"Ġactions":9498,"odes":9499,"Ġsled":9500,"Ġchances":9501,"Ġcompass":9502,"Ġdifferently":9503,"awa":9504,"ĠMayor":9505,"Ġawkward":9506,"lessly":9507,"Ġmessing":9508,"balls":9509,"Ġstrongly":9510,"ĠArgent":9511,"Ġdresses":9512,"Ġhumans":9513,"Ġspeaker":9514,"ĠExcept":9515,"Ġwallet":9516,"Ġcontinues":9517,"Ġspoil":9518,"Ġillustr":9519,"Ġorganis":9520,"Ġswinging":9521,"Ġamazed":9522,"Ġmeasuring":9523,"Ġdebate":9524,"Ġassistant":9525,"ĠPortug":9526,"ĠSnowman":9527,"Ġbarely":9528,"Ġnominated":9529,"Ġembarrassed":9530,"ĠJoyce":9531,"ĠFilm":9532,"Ġsippy":9533,"Ġterritory":9534,"Ġanchor":9535,"45":9536,"Great":9537,"egr":9538,"gun":9539,"wide":9540,"who":9541,"Ġtac":9542,"Ġdip":9543,"Ġmittens":9544,"Ġgoo":9545,"Ġpace":9546,"Ġpanc":9547,"Ġhaw":9548,"Ġbeets":9549,"Ġult":9550,"ĠMO":9551,"Ġreaction":9552,"Ġrevenge":9553,"Ġmelt":9554,"irpy":9555,"achi":9556,"Ġshri":9557,"ĠNic":9558,"ophy":9559,"Ġrising":9560,"ĠRap":9561,"Ġspeaks":9562,"agger":9563,"inners":9564,"Ġcontest":9565,"Ġgreedy":9566,"Ġskull":9567,"ĠClare":9568,"Ġinstinct":9569,"ĠGermans":9570,"Ġconstantly":9571,"ĠKennedy":9572,"ĠKeith":9573,"Ġcousins":9574,"Ġcells":9575,"ĠEastern":9576,"ĠMexican":9577,"Ġdefeated":9578,"Ġeagerly":9579,"Ġprincipal":9580,"Ġsucceeded":9581,"ĠHawai":9582,"Ġevidently":9583,"Ġraisins":9584,"Ġeastern":9585,"Ġexchange":9586,"ĠPennsylvania":9587,"ĠMavis":9588,"ĠShakespeare":9589,"BE":9590,"DER":9591,"PS":9592,"oise":9593,"ynam":9594,"Ġtide":9595,"Ġtale":9596,"oust":9597,"Ġsan":9598,"Ġostr":9599,"Ġdot":9600,"Ġloo":9601,"ĠTilly":9602,"ĠAy":9603,"ĠBee":9604,"ĠSky":9605,"ĠMain":9606,"ĠMine":9607,"ĠMAR":9608,"Ġecho":9609,"ĠWANT":9610,"Ġsteep":9611,"Ġgoin":9612,"ĠHat":9613,"Ġsam":9614,"ĠCher":9615,"Ġshirts":9616,"ĠNorm":9617,"ĠOhio":9618,"ĠFat":9619,"Ġspan":9620,"Ġclick":9621,"Ġclapped":9622,"Ġselected":9623,"agne":9624,"Ġchir":9625,"Ġwrist":9626,"Ġcheers":9627,"Ġacted":9628,"Ġcrashed":9629,"Ġfriendship":9630,"Ġtopic":9631,"Ġripped":9632,"Ġinstit":9633,"Ġdefense":9634,"Ġsecrets":9635,"Ġparliament":9636,"Ġinterrup":9637,"Ġ1993":9638,"Ġ1999":9639,"ISH":9640,"mination":9641,"Ġmistress":9642,"Ġburnt":9643,"scotch":9644,"Ġdirections":9645,"Ġdescription":9646,"ĠFrancisco":9647,"Ġ{\\":9648,"Ġpretzel":9649,"Ġsurrender":9650,"ĠFamily":9651,"):":9652,"CA":9653,"KS":9654,"WE":9655,"will":9656,"ycle":9657,"Ġtheater":9658,"Ġmental":9659,"ĠIII":9660,"Ġpha":9661,"Ġnoodles":9662,"ĠTele":9663,"leg":9664,"ĠBY":9665,"ĠBour":9666,"ĠSesame":9667,"ams":9668,"stra":9669,"ĠPR":9670,"ĠPower":9671,"ĠRO":9672,"Ġbond":9673,"Ġclue":9674,"Ġvase":9675,"Ġgrumpy":9676,"Ġundert":9677,"ĠHoward":9678,"Ġbearing":9679,"ĠClark":9680,"Ġpennies":9681,"ï¿½ï¿½ï¿½":9682,"Ġdiary":9683,"Ġexplan":9684,"Ġhonk":9685,"Ġinterp":9686,"iki":9687,"Ġbelonged":9688,"coming":9689,"Ġcamel":9690,"Ġtricky":9691,"Ġextraord":9692,"Ġeffective":9693,"Ġremaining":9694,"Ġpinch":9695,"Ġspirits":9696,"Ġloads":9697,"ĠAngel":9698,"Ġcustomer":9699,"Ġobserved":9700,"Ġfaithful":9701,"Ġfeatures":9702,"belie":9703,"Ġentertainment":9704,"Ġiniti":9705,"ĠCindy":9706,"Ġprinciple":9707,"Ġprimary":9708,"helle":9709,"Ġmacaron":9710,"Ġscarcely":9711,"Ġpenalty":9712,"Ġmultiple":9713,"Ġillegal":9714,"ĠMildred":9715,"IV":9716,"Mar":9717,"cock":9718,"even":9719,"nut":9720,"nels":9721,"pher":9722,"ridge":9723,"uj":9724,"wan":9725,"Ġcad":9726,"ĠIF":9727,"onia":9728,"Ġhesit":9729,"etime":9730,"ĠTeddy":9731,"Ġwebs":9732,"alo":9733,"Ġwhip":9734,"entially":9735,"ĠCooper":9736,"ĠGa":9737,"ĠPier":9738,"igger":9739,"essions":9740,"Ġspy":9741,"Ġvice":9742,"Ġtrace":9743,"Ġflow":9744,"Ġremote":9745,"uded":9746,"ĠVen":9747,"Ġdisaster":9748,"Ġending":9749,"ĠSpir":9750,"Ġhaircut":9751,"Ġdeser":9752,"Ġsweeties":9753,"Ġsadly":9754,"Ġcared":9755,"aze":9756,"Ġbasement":9757,"ĠClara":9758,"vention":9759,"Ġreflect":9760,"Ġimpression":9761,"Ġshorts":9762,"Ġofficially":9763,"Ġartists":9764,"Ġcrossing":9765,"Ġcondu":9766,"Ġapproached":9767,"Ġtempt":9768,"Ġ1960":9769,"Ġprepar":9770,"Ġelections":9771,"Ġsnacks":9772,"ĠFinally":9773,"Ġadmitted":9774,"Ġdelightful":9775,"Ġsprang":9776,"Ġassociated":9777,"Ġgorgeous":9778,"Ġdeaf":9779,"Ġunable":9780,"Ġscript":9781,"ographer":9782,"ĠPeace":9783,"ĠNicholas":9784,"ĠHolland":9785,"American":9786,"Ġthieves":9787,"500":9788,"Che":9789,"fire":9790,"gas":9791,"give":9792,"mad":9793,"Ġwal":9794,"Ġwires":9795,"Ġdoodle":9796,"Ġtons":9797,"Ġgal":9798,"iddy":9799,"ĠTaylor":9800,"Ġ\"_":9801,"ĠAv":9802,"ĠMich":9803,"adays":9804,"Ġgoals":9805,"ĠHOW":9806,"rog":9807,"ĠLucky":9808,"ĠDri":9809,"ĠNar":9810,"Ġfrank":9811,"employ":9812,"Ġcoins":9813,"Ġbride":9814,"Ġmule":9815,"Ġscold":9816,"Ġunpack":9817,"Ġsites":9818,"acht":9819,"Ġsurge":9820,"Ġlightning":9821,"Ġmuscle":9822,"Ġfreeze":9823,"Ġfilthy":9824,"ervative":9825,"Ġ1988":9826,"Ġcalcul":9827,"Ġfarmers":9828,"ĠHaving":9829,"Ġarrival":9830,"Ġlabour":9831,"Ġbumped":9832,"Ġmeals":9833,"Ġrepresented":9834,"Ġadmir":9835,"Ġapplesauce":9836,"Ġemployment":9837,"Ġcurtains":9838,"Ġcocoa":9839,"Ġliterally":9840,"writer":9841,"Ġwiped":9842,"Ġcomrade":9843,"Ġcomrades":9844,"ĠChampionship":9845,"Ġmerely":9846,"Ġtraditional":9847,"ĠFootball":9848,"Ġnibbled":9849,"Ġcheerleader":9850,"Ġconvinced":9851,"Ġconfirmed":9852,"cest":9853,"dle":9854,"tit":9855,"uum":9856,"vas":9857,"western":9858,"Ġapr":9859,"Ġmax":9860,"Ġcert":9861,"isdom":9862,"Ġpaw":9863,"Ġhoop":9864,"Ġkitt":9865,"ĠSame":9866,"Ġreject":9867,"acha":9868,"ĠHospital":9869,"uster":9870,"ĠLyn":9871,"Ġsoil":9872,"andra":9873,"umin":9874,"ĠFC":9875,"ĠEN":9876,"quet":9877,"Ġarrow":9878,"ĠKip":9879,"ĠThrough":9880,"Ġglory":9881,"enses":9882,"Ġrecall":9883,"Does":9884,"Ġdepos":9885,"Ġrefuse":9886,"Ġ45":9887,"Ġshortly":9888,"Ġeditor":9889,"Ġ1996":9890,"Ġconduct":9891,"Ġtaller":9892,"Ġ1969":9893,"Ġpeanuts":9894,"Ġstatus":9895,"Ġinvestment":9896,"Ġfloat":9897,"Ġdusting":9898,"Ġremarkable":9899,"Ġsuspic":9900,"Ġscientific":9901,"Ġobliged":9902,"Ġbiscuits":9903,"Ġthoroughly":9904,"Ġrhinoc":9905,"23":9906,"Mr":9907,"SH":9908,"sk":9909,"Ġtroll":9910,"isse":9911,"Ġheight":9912,"aya":9913,"ĠAk":9914,"ĠBaker":9915,"ĠMight":9916,"ĠCass":9917,"ĠCOME":9918,"ĠDead":9919,"Ġabc":9920,"Ġrust":9921,"ĠPick":9922,"Ġworship":9923,"osity":9924,"agers":9925,"Ġconven":9926,"Ġflesh":9927,"ĠStone":9928,"plo":9929,"Ġunivers":9930,"ĠâĢ¢":9931,"ĠVon":9932,"Ġraven":9933,"Ġappla":9934,"onsieur":9935,"Ġstrate":9936,"Ġhears":9937,"ĠMarsha":9938,"ĠBeing":9939,"Ġcalend":9940,"Ġaccent":9941,"ANG":9942,"ATION":9943,"Ġevolution":9944,"Ġstarring":9945,"Ġ70":9946,"Ġbanging":9947,"Ġexplains":9948,"comm":9949,"Ġconsidering":9950,"Ġforests":9951,"Ġpuppies":9952,"Ġprayer":9953,"inois":9954,"ĠMuslim":9955,"ĠFucking":9956,"Ġcrowded":9957,"Ġlemonade":9958,"Ġunconscious":9959,"Ġgoddamn":9960,"Ġmobile":9961,"xygen":9962,"ĠIllinois":9963,"ouncillor":9964,"ĠWendy":9965,"ĠRalph":9966,"!--":9967,"PH":9968,"pan":9969,"una":9970,"Ġaston":9971,"Ġbaked":9972,"eration":9973,"Ġlun":9974,"Ġlaughter":9975,"ĠBry":9976,"ĠBank":9977,"Ġlizard":9978,"Ġsheets":9979,"unted":9980,"ĠNancy":9981,"ĠNEW":9982,"ĠObs":9983,"ilton":9984,"abor":9985,"ĠFeel":9986,"aste":9987,"Ġovert":9988,"Ġblown":9989,"Ġblah":9990,"Ġroared":9991,"ĠKo":9992,"Ġbru":9993,"ĠSociety":9994,"Ġgrat":9995,"Ġscoop":9996,"ĠInstitute":9997,"Ġdiscipl":9998,"Ġperman":9999,"inson":10000,"ĠPlan":10001,"Ġcoloring":10002,"Ġrepro":10003,"ĠArch":10004,"Ġsurprising":10005,"Ġbrains":10006,"ĠComing":10007,"Ġexped":10008,"Ġ1998":10009,"Ġbanks":10010,"Ġspoiled":10011,"AST":10012,"kyo":10013,"ĠWHO":10014,"Ġbullshit":10015,"Ġengineer":10016,"Ġmemor":10017,"ĠGlad":10018,"Ġvolunte":10019,"IGHS":10020,"Ġsensitive":10021,"Ġimproved":10022,"Ġtournament":10023,"Ġsatisfaction":10024,"Ġapplied":10025,"Ġadults":10026,"Ã¨re":10027,"ĠEspecially":10028,"Ġslippery":10029,"colm":10030,"ĠGregory":10031,"ĠSpecial":10032,"Ġsneezed":10033,"Ġscenes":10034,"Ġalphabet":10035,"Ġostrich":10036,"BI":10037,"UD":10038,"bear":10039,"burn":10040,"gro":10041,"point":10042,"rus":10043,"Ġeth":10044,"Ġtires":10045,"Ġoxygen":10046,"Ġbum":10047,"Ġchi":10048,"ĠIan":10049,"Ġgrill":10050,"Ġpad":10051,"orse":10052,"Ġheels":10053,"ĠTower":10054,"ĠSA":10055,"ĠMiddle":10056,"acity":10057,"Ġknot":10058,"ĠLang":10059,"ĠLoc":10060,"ĠNOW":10061,"Ġrates":10062,"ĠPoint":10063,"andal":10064,"ĠRoll":10065,"ĠJessie":10066,"ulse":10067,"ĠEasy":10068,"Ġbackyard":10069,"ements":10070,"Ġloft":10071,"Ġblows":10072,"Ġleak":10073,"ĠWhis":10074,"Ġthankful":10075,"mann":10076,"Ġacid":10077,"ĠCho":10078,"Ġstrangers":10079,"Ġgrabbing":10080,"ports":10081,"These":10082,"Ġdrift":10083,"Ġattended":10084,"Ġhighway":10085,"ĠForce":10086,"Ġregist":10087,"Ġobst":10088,"Ġmessages":10089,"Ġenthus":10090,"Ġdelivered":10091,"Ġcrystal":10092,"Ġpottie":10093,"Ġinsane":10094,"Ġinterrupt":10095,"ĠLeon":10096,"Ġdreamed":10097,"Ġ1991":10098,"Ġbandage":10099,"Ġpeaches":10100,"Ġoopsie":10101,"Ġscreams":10102,"197":10103,"Ġabsolute":10104,"Ġannual":10105,"ĠPhilipp":10106,"Ġpropose":10107,"ĠLouise":10108,"ĠLuna":10109,"Ġsteering":10110,"Ġcrawling":10111,"ĠRonald":10112,"Ġindustrial":10113,"ĠBernice":10114,"Ġapplication":10115,"Ġgrief":10116,"ĠAgnes":10117,"Ġimpatient":10118,"ĠJordan":10119,"ĠGentle":10120,"bil":10121,"pool":10122,"rings":10123,"six":10124,"vard":10125,"hero":10126,"Ġack":10127,"ĠIra":10128,"Ġlimb":10129,"Ġhire":10130,"ĠAdd":10131,"Ġkings":10132,"ĠSad":10133,"ĠMerc":10134,"stan":10135,"Ġassh":10136,"ĠCur":10137,"ĠHel":10138,"ĠRag":10139,"Ġanyhow":10140,"ĠAndre":10141,"Ġcluck":10142,"orted":10143,"Ġintense":10144,"Ġhelpless":10145,"ĠKid":10146,"Ġswift":10147,"Ġunderground":10148,"Ġappet":10149,"Ġbeings":10150,"Ġbedtime":10151,"Ġhopscotch":10152,"Donald":10153,"Ġrestrict":10154,"ĠCarter":10155,"Ġextended":10156,"Ġrolls":10157,"ĠIndeed":10158,"ISS":10159,"Ġcreative":10160,"Ġpanic":10161,"ĠGreater":10162,"Ġspelling":10163,"Ġphotos":10164,"Ġgalley":10165,"ascal":10166,"Ġmassive":10167,"Ġignore":10168,"Ġtube":10169,"Ġcapture":10170,"Ġparticipant":10171,"Ġsurrounded":10172,"Ġexecutive":10173,"ĠABOUT":10174,"ĠRectus":10175,"ĠGordon":10176,"Ġmacaroni":10177,"ĠMichigan":10178,"dale":10179,"ek":10180,"lines":10181,"mony":10182,"mitted":10183,"than":10184,"uge":10185,"whe":10186,"Ġwrench":10187,"Ġdive":10188,"Ġdating":10189,"Ġfears":10190,"Ġtore":10191,"Ġpara":10192,"Ġinha":10193,"ĠAR":10194,"Ġwasted":10195,"ĠWOR":10196,"acles":10197,"ĠLE":10198,"uno":10199,"ilst":10200,"Ġoutta":10201,"ĠPac":10202,"ĠPra":10203,"uma":10204,"ĠRail":10205,"ĠEat":10206,"Ġclaimed":10207,"ĠNoah":10208,"ĠStu":10209,"ĠVin":10210,"Ġsitu":10211,"Ġresolved":10212,"Ġrelie":10213,"ĠAsher":10214,"ĠAssembly":10215,"prise":10216,"Ġdecisions":10217,"Ġinvent":10218,"Ġjokes":10219,"Ġdeli":10220,"Ġdistinct":10221,"Ġmeters":10222,"Ġtasted":10223,"ĠPhill":10224,"ĠMean":10225,"ĠGuess":10226,"Ġattacks":10227,"Ġ1985":10228,"Ġ1972":10229,"Ġannounce":10230,"Ġconsiderable":10231,"ĠRussians":10232,"Ġplanted":10233,"Ġskinny":10234,"Ġvacuum":10235,"Ġfloating":10236,"Ġcherries":10237,"Ġcritical":10238,"Ġefforts":10239,"Ġattractive":10240,"Ġreferred":10241,"Ġmoral":10242,"Ġvehicles":10243,"Ġnearest":10244,"Ġinstrument":10245,"Ġretirement":10246,"Ġdemonstr":10247,"Ġstubborn":10248,"Would":10249,"rated":10250,"ouston":10251,"itals":10252,"Ġmild":10253,"Ġcel":10254,"ĠIng":10255,"llie":10256,"ĠTem":10257,"imal":10258,"ĠMoney":10259,"Ġreact":10260,"Ġey":10261,"ĠCD":10262,"ĠCow":10263,"ĠCard":10264,"Ġnoon":10265,"ĠLau":10266,"ĠLib":10267,"ĠDex":10268,"Ġshield":10269,"ĠNap":10270,"cap":10271,"Ġvig":10272,"Ġagric":10273,"Ġsector":10274,"ĠBenny":10275,"Ġguards":10276,"Ġshamp":10277,"Ġcrane":10278,"ivia":10279,"Ġwoah":10280,"Ġ35":10281,"ĠTogether":10282,"Ġvisits":10283,"ĠShar":10284,"ĠEduc":10285,"ĠCheers":10286,"ĠColor":10287,"comune":10288,"Ġdarlings":10289,"ourable":10290,"ĠRepresent":10291,"Ġpumpkins":10292,"Ġturtles":10293,"Ġlawyers":10294,"Ġdispos":10295,"Ġindividuals":10296,"Ġfeature":10297,"glas":10298,"ĠEllie":10299,"Ġrequested":10300,"ĠWindows":10301,"Ġadopted":10302,"Ġcigarette":10303,"Ġalternative":10304,"Ġliquid":10305,"Ġfragile":10306,"ropolitan":10307,"Ġrhinoceros":10308,"Ġcalendar":10309,",...":10310,".--":10311,"PP":10312,"ROW":10313,"Sh":10314,"Will":10315,"may":10316,"parent":10317,"rase":10318,"uan":10319,"ught":10320,"heim":10321,"Ġsings":10322,"Ġbore":10323,"Ġdick":10324,"Ġduties":10325,"Ġcateg":10326,"erver":10327,"Ġfeast":10328,"Ġton":10329,"Ġgulp":10330,"Ġpub":10331,"otic":10332,"ĠTan":10333,"ĠSong":10334,"Ġwasting":10335,"vering":10336,"outing":10337,"ĠWolf":10338,"adelp":10339,"ĠHans":10340,"Ġanten":10341,"stress":10342,"elling":10343,"ĠPope":10344,"ĠJere":10345,"ĠFound":10346,"Ġclients":10347,"Ġbuff":10348,"Ġthrone":10349,"Ġapply":10350,"tah":10351,"Ġanimated":10352,"Ġcausing":10353,"ĠTokyo":10354,"Ġchart":10355,"ĠZo":10356,"Ġpigeon":10357,"Ġpretended":10358,"Ġ44":10359,"Ġsalary":10360,"Ġfucked":10361,"Ġreturning":10362,"198":10363,"Ġsailed":10364,"ĠMorgie":10365,"nett":10366,"Ġadmire":10367,"ĠMalcolm":10368,"ĠMerle":10369,"Ġcounsel":10370,"Ġdocuments":10371,"Ġclaims":10372,"Ġgranted":10373,"ĠRelax":10374,"Ġtrailer":10375,"Ġtremendous":10376,"Ġagricult":10377,":--":10378,"AIN":10379,"En":10380,"God":10381,"aud":10382,"kind":10383,"lic":10384,"mare":10385,"sighs":10386,"tar":10387,"Ġtad":10388,"Ġtab":10389,"rep":10390,"Ġyield":10391,"Ġbaker":10392,"Ġcreek":10393,"Ġgates":10394,"onge":10395,"ario":10396,"ĠMun":10397,"Ġstead":10398,"ooked":10399,"child":10400,"Ġath":10401,"ĠDong":10402,"ĠDale":10403,"unction":10404,"ĠGw":10405,"ĠGirl":10406,"ĠGOOD":10407,"ĠPin":10408,"ĠPers":10409,"ĠJos":10410,"olar":10411,"Ġspicy":10412,"Ġboil":10413,"Ġcomments":10414,"anta":10415,"Ġhelper":10416,"Ġcarbon":10417,"Ġwrit":10418,"Ġacts":10419,"Ġmustard":10420,"cloth":10421,"Ġdollie":10422,"Ġeagle":10423,"INK":10424,"Ġmarched":10425,"Ġfireplace":10426,"Ġpayment":10427,"Ġ300":10428,"Ġlearnt":10429,"Ġpainter":10430,"Ġdeliber":10431,"Ġretreat":10432,"alem":10433,"Ġcollected":10434,"ĠMichelle":10435,"Ġpossession":10436,"Ġmusician":10437,"ORE":10438,"ĠANY":10439,"Ġsweetiepie":10440,"ĠEmperor":10441,"Ġlaunched":10442,"Ġstrip":10443,"Ġpractical":10444,"Ġjoining":10445,"Ġoughta":10446,"Ġneighbour":10447,"Ġearthqu":10448,"Ġpeaceful":10449,"ĠSyd":10450,"ĠCorpor":10451,"Ġfreak":10452,"Ġbehalf":10453,"Ġexistence":10454,"ictionary":10455,"Ġanxiety":10456,"ĠSecurity":10457,"Ġremarked":10458,"Ġstretched":10459,"Ġdemanded":10460,"Ġbunnies":10461,"orkshire":10462,"ĠFrost":10463,"Ġcrisis":10464,"Ġjournalist":10465,"Ġinstructions":10466,"Ġsleeve":10467,"ĠGrammy":10468,"Ġseamstress":10469,"adelphia":10470,"Any":10471,"Fire":10472,"Very":10473,"belt":10474,"hu":10475,"je":10476,"mouth":10477,"rical":10478,"vor":10479,"vior":10480,"wah":10481,"Ã¦":10482,"Ġfir":10483,"Ġflex":10484,"Ġnom":10485,"esota":10486,"Ġheck":10487,"Ġhosp":10488,"arse":10489,"aria":10490,"ĠSi":10491,"ĠMod":10492,"ĠWoman":10493,"ĠHank":10494,"amus":10495,"ĠCertainly":10496,"ĠDeb":10497,"Ġgotcha":10498,"ĠRicky":10499,"ĠFull":10500,"Ġworms":10501,"Ġanytime":10502,"Ġsup":10503,"Ġmanners":10504,"ĠBenj":10505,"Ġwatches":10506,"Ġmoms":10507,"Ġamuse":10508,"Ġdoggies":10509,"Ġcheating":10510,"Ġrained":10511,"Ġbeloved":10512,"Ġelements":10513,"ĠTHAN":10514,"Ġinfant":10515,"Ġgrowth":10516,"Ġconfusion":10517,"Ġesc":10518,"Ġinsult":10519,"Ġengage":10520,"Ġ90":10521,"ĠAmanda":10522,"Ġ1978":10523,"ĠCalm":10524,"Ġseasons":10525,"Ġruler":10526,"Ġcartoons":10527,"Ġloaded":10528,"ynasty":10529,"Ġsteady":10530,"Ġmysterious":10531,"Ġshrink":10532,"Ġashore":10533,"Ġelderly":10534,"ĠLarry":10535,"Ġenvelope":10536,"Ġextraordinary":10537,"Ġshampoo":10538,"60":10539,"BS":10540,"Our":10541,"lon":10542,"mail":10543,"ni":10544,"Ġwaking":10545,"hall":10546,"Ġduh":10547,"Ġdime":10548,"Ġcush":10549,"Ġfiring":10550,"Ġgy":10551,"Ġloop":10552,"Ġlux":10553,"eam":10554,"ĠTop":10555,"icies":10556,"ĠBund":10557,"Ġkettle":10558,"ĠYorkshire":10559,"Ġnoted":10560,"Ġashes":10561,"ĠCe":10562,"ĠDrop":10563,"ĠDiana":10564,"ĠDumbo":10565,"ĠNaz":10566,"opot":10567,"Ġabroad":10568,"ĠGU":10569,"ĠPass":10570,"ĠRet":10571,"ĠJO":10572,"ĠElla":10573,"Ġspinning":10574,"Ġexit":10575,"agraph":10576,"ĠKa":10577,"Ġengin":10578,"Ġwaist":10579,"auc":10580,"ĠDoc":10581,"iffy":10582,"pshire":10583,"Ġglorious":10584,"Ġsneeze":10585,"Ġbeaver":10586,"ĠSpike":10587,"Ġmarvell":10588,"Ġwinds":10589,"Ġconsent":10590,"Ġconfess":10591,"Ġconfirm":10592,"Ġfuckin":10593,"Ġchecks":10594,"Ġtreats":10595,"cript":10596,"ĠPhiladelphia":10597,"Ġwhiskers":10598,"Ġoperating":10599,"Ġ1950":10600,"ĠAgent":10601,"Ġhydro":10602,"Ġgenius":10603,"Ġswords":10604,"LAUGH":10605,"culiar":10606,"Ġrailway":10607,"Ġenvironmental":10608,"hemat":10609,"Ġwhispering":10610,"Ġtroubled":10611,"Ġbouncy":10612,"ĠDouglas":10613,"anchester":10614,"ĠTonight":10615,"ĠLadies":10616,"Ġheavily":10617,"believable":10618,"eight":10619,"ghan":10620,"iac":10621,"ody":10622,"po":10623,"part":10624,"wear":10625,"Ġwigg":10626,"Ġmart":10627,"inging":10628,"arter":10629,"ooo":10630,"usive":10631,"Ġweb":10632,"ĠBos":10633,"iments":10634,"ĠWake":10635,"Ġstadium":10636,"ĠHouston":10637,"Ġcannon":10638,"Ġancest":10639,"ellow":10640,"Ġplead":10641,"ĠDude":10642,"Ġalert":10643,"Ġseized":10644,"Ġpros":10645,"Ġtrous":10646,"three":10647,"orns":10648,"Ġflame":10649,"Ġscored":10650,"eason":10651,"Ġlongest":10652,"Ġslap":10653,"Ġheadache":10654,"Ġmonarch":10655,"Ġsquish":10656,"Ġfavorites":10657,"ĠHarris":10658,"ĠGeoff":10659,"Ġarticles":10660,"Ġmurm":10661,"Ġfilling":10662,"Ġstripes":10663,"Ġopera":10664,"Ġburden":10665,"Ġcombination":10666,"Ġinvolve":10667,"Ġsuggestion":10668,"Ġelectron":10669,"Ġpouring":10670,"ĠMcC":10671,"ĠPolish":10672,"Ġsubjects":10673,"flower":10674,"Ġmunicipal":10675,"Ġmagazines":10676,"Ġtechnical":10677,"ĠBattle":10678,"Ġidentify":10679,"Ġsearching":10680,"Ġadventures":10681,"Ġsuspicious":10682,"ĠCarolina":10683,"Ġjewels":10684,"ĠJews":10685,"Ġpraise":10686,"ĠWayne":10687,"Ġplatform":10688,"Ġunlock":10689,"Ġrevealed":10690,"Ġcandidate":10691,"Ġtornado":10692,"Ġskiing":10693,"Ġguarantee":10694,"Ġprecise":10695,"Ġstrategy":10696,".]":10697,"Take":10698,"dam":10699,"mal":10700,"okay":10701,"wick":10702,"Ã´":10703,"Ġtales":10704,"Ġtheatre":10705,"hana":10706,"Ġyall":10707,"Ġmike":10708,"ĠImp":10709,"Ġlos":10710,"Ġlump":10711,"Ġhush":10712,"idi":10713,"ĠAlp":10714,"ĠScient":10715,"Ġrein":10716,"ĠWrest":10717,"ĠCab":10718,"ĠCand":10719,"Ġjug":10720,"ĠNan":10721,"Ġallows":10722,"ĠGill":10723,"ĠGail":10724,"ĠRain":10725,"ĠRoom":10726,"ĠJJ":10727,"Ġnowadays":10728,"olve":10729,"Ġsuits":10730,"cape":10731,"Ġloaf":10732,"ags":10733,"Ġpeculiar":10734,"acey":10735,"Ġpron":10736,"udes":10737,"Ġwrites":10738,"ĠDoggy":10739,"Ġunemploy":10740,"Ġcrust":10741,"Ġdisgr":10742,"Ġreduced":10743,"Ġsurvey":10744,"Ġattorney":10745,"Ġhairy":10746,"Ġfathers":10747,"Ġsquad":10748,"Ġdistingu":10749,"ĠNews":10750,"Ġalongside":10751,"rator":10752,"Ġaffairs":10753,"Ġblankets":10754,"Ġequally":10755,"ĠWouldn":10756,"ĠPenny":10757,"Ġconsideration":10758,"USIC":10759,"Ġdevice":10760,"Ġcompanions":10761,"Ġdepending":10762,"ĠLaure":10763,"Ġfunds":10764,"ĠRonnie":10765,"ĠRosie":10766,"Ġgeese":10767,"Ġcommunication":10768,"Ġpoetry":10769,"ĠSandra":10770,"Ġconstitution":10771,"ĠOffice":10772,"Ġflavor":10773,"Ġtidy":10774,"ĠMinnesota":10775,"ĠDiego":10776,"Ġchristmas":10777,"Ġshrimp":10778,"Ġkitties":10779,"life":10780,"pol":10781,"rac":10782,"thm":10783,"zed":10784,"Ã±":10785,"Ġtrop":10786,"inea":10787,"Ġsear":10788,"Ġdwell":10789,"Ġfurious":10790,"Ġpy":10791,"Ġpens":10792,"Ġpause":10793,"Ġhal":10794,"ĠTA":10795,"ĠAD":10796,"ĠAileen":10797,"uto":10798,"ĠSave":10799,"imated":10800,"ĠManchester":10801,"Ġjet":10802,"urbed":10803,"ĠDwww":10804,"Ġmyth":10805,"ĠNavy":10806,"ĠGarth":10807,"ĠGirls":10808,"Ġaloud":10809,"Ġaggress":10810,"Ġmock":10811,"Ġarts":10812,"Ġwaters":10813,"Ġmug":10814,"ĠThus":10815,"ĠThirty":10816,"Ġchuck":10817,"ĠStef":10818,"orders":10819,"ĠTherefore":10820,"Ġrand":10821,"Ġcrumbs":10822,"Ġbuses":10823,"Ġcounted":10824,"ĠâĻªâĻª":10825,"Ġpolicies":10826,"Ġstandards":10827,"Ġemplo":10828,"Ġcharity":10829,"ĠArm":10830,"teenth":10831,"Ġassure":10832,"Ġclassroom":10833,"ĠTrina":10834,"ĠLeg":10835,"Ġaffected":10836,"hammad":10837,"Ġsailors":10838,"Ġorganiz":10839,"Ġscrews":10840,"Ġ1968":10841,"Ġsushi":10842,"Ġceremony":10843,"ĠTyler":10844,"Ġprayers":10845,"ĠWELL":10846,"Ġsprink":10847,"Ġdespite":10848,"Ġadditional":10849,"ĠLynette":10850,"Ġpatterns":10851,"ĠKayode":10852,"Ġastron":10853,"Ġprocedure":10854,"ĠSpirit":10855,")}":10856,"Ph":10857,"SIGHS":10858,"Un":10859,"hins":10860,"nuts":10861,"rich":10862,"vation":10863,"Ġtune":10864,"Ġay":10865,"Ġbail":10866,"Ġbolt":10867,"Ġmop":10868,"isible":10869,"Ġpots":10870,"Ġhood":10871,"asks":10872,"ĠAin":10873,"Ġstem":10874,"ament":10875,"ĠDest":10876,"ĠDNA":10877,"rah":10878,"Ġram":10879,"ĠPull":10880,"emeter":10881,"Ġclimate":10882,"resa":10883,"erences":10884,"Ġamen":10885,"ĠUgh":10886,"ĠTimes":10887,"Ġcareless":10888,"odil":10889,"Ġnightmare":10890,"Ġimpr":10891,"Ġbreed":10892,"ĠChirpy":10893,"Ġgraph":10894,"ĠMariana":10895,"Ġdrivers":10896,"thel":10897,"INGS":10898,"Ġdistract":10899,"ĠArmen":10900,"Ġbaths":10901,"Ġpotential":10902,"Ġaddressed":10903,"ONG":10904,"Ġdiagn":10905,"Ġparagraph":10906,"ĠDavis":10907,"ĠDrink":10908,"Ġproviding":10909,"Ġ80":10910,"Ġreceiving":10911,"Ġ1973":10912,"OMAN":10913,"Ġpractically":10914,"Ġdetective":10915,"Ġpocketbook":10916,"Ġdistricts":10917,"Ġdiscussed":10918,"Ġcontains":10919,"ĠStephan":10920,"stitution":10921,"Ġinjury":10922,"Ġscientists":10923,"Ġsavings":10924,"Ġoptions":10925,"Ġarrangements":10926,"ĠLAUGH":10927,"Ġarguing":10928,"Ġsacrifice":10929,"ĠRadio":10930,"ĠRecords":10931,"Ġabandoned":10932,"ĠPitts":10933,"Ġacknow":10934,"Lea":10935,"gt":10936,"lasses":10937,"rum":10938,"Ġcement":10939,"Ġfaced":10940,"Ġga":10941,"ington":10942,"Ġinher":10943,"ĠTR":10944,"ushes":10945,"ĠAmen":10946,"ĠBurn":10947,"ĠBaa":10948,"ĠSaid":10949,"ĠMaur":10950,"ĠWa":10951,"Ġliar":10952,"ĠHop":10953,"Ġank":10954,"amins":10955,"robe":10956,"ifully":10957,"unning":10958,"ĠOR":10959,"ĠGOT":10960,"ĠGriff":10961,"abled":10962,"ĠPay":10963,"ĠPun":10964,"arten":10965,"Ġagg":10966,"Ġintegr":10967,"Ġhappier":10968,"Ġbrid":10969,"Ġhmm":10970,"Ġwrink":10971,"Ġrage":10972,"Ġrealise":10973,"Ġgrav":10974,"Ġpickles":10975,"Ġrecipe":10976,"Ġsleeps":10977,"Ġwars":10978,"ĠSpring":10979,"ĠAlmost":10980,"Ġlighter":10981,"ĠForgive":10982,"Ġpatience":10983,"Ġpathetic":10984,"ATE":10985,"Ġfreezer":10986,"Ġdeaths":10987,"Ġtested":10988,"ĠJanet":10989,"Ġcreating":10990,"osaurus":10991,"Ġ1987":10992,"Ġharsh":10993,"Ġ1979":10994,"Ġdeeply":10995,"Ġworthy":10996,"Ġtrusted":10997,"Ġsquirrels":10998,"Ġruled":10999,"ĠPrize":11000,"ĠParker":11001,"Ġimmediate":11002,"Ġbehavior":11003,"Ġcustom":11004,"Ġchoices":11005,"Ġbonk":11006,"Ġdolphins":11007,"ĠSilver":11008,"ĠMiller":11009,"ĠBloody":11010,"Ġimpressive":11011,"ĠTIME":11012,"?,":11013,"Gr":11014,"PEN":11015,"Somet":11016,"cour":11017,"Ã§":11018,"hee":11019,"inter":11020,"Ġdign":11021,"isco":11022,"oni":11023,"Ġpuff":11024,"ĠTina":11025,"icia":11026,"uted":11027,"ĠBub":11028,"ĠBoss":11029,"ĠWy":11030,"Ġstared":11031,"ĠLiam":11032,"ĠDream":11033,"ĠNam":11034,"ĠGor":11035,"ĠPu":11036,"ĠReal":11037,"ĠRhod":11038,"ĠJin":11039,"ĠFI":11040,"Ġclin":11041,"Ġagency":11042,"Ġtramp":11043,"Ġcopper":11044,"Ġbund":11045,"Ġsmack":11046,"Ġkindness":11047,"Ġshaped":11048,"Ġgran":11049,"ĠInspect":11050,"psy":11051,"Ġlasted":11052,"Ġadjust":11053,"Ġdrown":11054,"Ġphones":11055,"Ġsorted":11056,"ĠNotting":11057,"ĠJustin":11058,"Ġaircraft":11059,"Ġducklings":11060,"ĠClose":11061,"onym":11062,"Ġbarrels":11063,"Ġsympt":11064,"Ġexpressed":11065,"Ġeyeb":11066,"Ġmistaken":11067,"Ġfootballer":11068,"Ġ1982":11069,"Ġmicrow":11070,"ĠNeither":11071,"ICK":11072,"going":11073,"III":11074,"ĠCromer":11075,"Ġdiscovery":11076,"ĠSupp":11077,"ĠÂ£":11078,"Ġdumped":11079,"Ġclowns":11080,"Ġsensible":11081,"Ġghosts":11082,"Ġharmless":11083,"Ġmaterials":11084,"Ġreviews":11085,"Ġintelligence":11086,"Ġtravelling":11087,"Ġlifetime":11088,"Ġproposal":11089,"lemn":11090,"ĠRabbit":11091,"ĠRevolution":11092,"Ġskeleton":11093,"ĠWentworth":11094,"Ġpancake":11095,"ĠBenjamin":11096,"Ġengines":11097,"27":11098,"Cat":11099,"FE":11100,"Fr":11101,"MAN":11102,"bout":11103,"hog":11104,"lock":11105,"pos":11106,"rad":11107,"Ġdates":11108,"Ġgiddy":11109,"Ġpence":11110,"oting":11111,"arms":11112,"Ġonline":11113,"Ġdod":11114,"ĠAma":11115,"ĠSid":11116,"ĠSel":11117,"ĠMR":11118,"ĠMountain":11119,"ĠMosc":11120,"Ġere":11121,"ĠHun":11122,"Ġcant":11123,"Ġknob":11124,"Ġknives":11125,"ĠNonna":11126,"Ġraces":11127,"ighty":11128,"ĠEither":11129,"oshi":11130,"Ġmane":11131,"Ġroots":11132,"ĠKyle":11133,"Ġamend":11134,"Ġenqu":11135,"Ġfled":11136,"ĠStory":11137,"Ġunw":11138,"Ġcheering":11139,"Ġimper":11140,"Ġglove":11141,"Ġpolish":11142,"Ġnumer":11143,"Ġaccur":11144,"Ġdefence":11145,"Ġtransform":11146,"Ġsmelly":11147,"Ġsharks":11148,"Ġ1984":11149,"Ġabsor":11150,"Ġmiracle":11151,"ĠFranklin":11152,"Ġprojects":11153,"ĠChannel":11154,"Ġmidst":11155,"Ġregarded":11156,"ĠOtherwise":11157,"Ġscientist":11158,"ĠMooshas":11159,"Ġsacred":11160,"ĠKorean":11161,"Ġï¿½ï¿½ï¿½ï¿½ï¿½ï¿½ï¿½ï¿½":11162,"Ġphilosophy":11163,"Ġvotes":11164,"Ġfortunate":11165,"Ġdomestic":11166,"Ġrifle":11167,"ĠHawaii":11168,"Ġdiscipline":11169,"ĠGentlemen":11170,"Ġinhabit":11171,"Ġdelivery":11172,"80":11173,";\"":11174,"AC":11175,"GRUNT":11176,"ded":11177,"iy":11178,"par":11179,"tim":11180,"inent":11181,"Ġyacht":11182,"itha":11183,"Ġbout":11184,"Ġdictionary":11185,"Ġmorn":11186,"Ġcuri":11187,"Ġfulf":11188,"orp":11189,"asions":11190,"Ġonions":11191,"ĠAid":11192,"ĠAud":11193,"icial":11194,"ĠBush":11195,"ĠBuzz":11196,"ĠBugs":11197,"Ġreverse":11198,"adad":11199,"ĠHIS":11200,"ĠCro":11201,"ĠCru":11202,"ĠLow":11203,"ĠLOOK":11204,"ĠNico":11205,"Ġouter":11206,"ĠRef":11207,"Ġspons":11208,"quis":11209,"Ġrod":11210,"ĠKu":11211,"Ġbricks":11212,"ĠUtah":11213,"Ġhandy":11214,"Ġfluffy":11215,"Ġposter":11216,"Ġraft":11217,"Ġslam":11218,"Ġcompete":11219,"Ġrelatives":11220,"Ġbelieves":11221,"Ġ36":11222,"ĠShoot":11223,"Ġentit":11224,"Ġsimpl":11225,"Ġforehead":11226,"Ġmedium":11227,"END":11228,"ĠProm":11229,"Ġgardens":11230,"Ġbandaid":11231,"load":11232,"Ġlaunch":11233,"hole":11234,"ĠMaryland":11235,"Ġvillages":11236,"Ġoperate":11237,"Ġemphas":11238,"Ġengineering":11239,"USE":11240,"Ġbuckle":11241,"Ahoy":11242,"Ġstirring":11243,"AME":11244,"ĠKeisha":11245,"ĠCentre":11246,"Ġhooked":11247,"ĠCathy":11248,"Ġcontainer":11249,"ĠToddy":11250,"ĠSquare":11251,"Ġrailroad":11252,"Ġhippopot":11253,"ĠSwedish":11254,"Ġbouncing":11255,"ĠKarl":11256,"Ġnuclear":11257,"Ġlungs":11258,"ĠPictures":11259,"Ġsunglasses":11260,"Ġdentist":11261,"Ġrelieved":11262,"ĠEducation":11263,"ĠSydney":11264,"Ġtrousers":11265,"Ġrandom":11266,"FT":11267,"SP":11268,"Sp":11269,"Sighs":11270,"VID":11271,"wich":11272,"Ġtha":11273,"Ġtuck":11274,"Ġtherm":11275,"Ġfare":11276,"Ġgig":11277,"Ġpills":11278,"ester":11279,"oty":11280,"asm":11281,"ĠSom":11282,"ĠSav":11283,"ĠYe":11284,"Ġjerk":11285,"Ġjingle":11286,"ĠLET":11287,"ĠDomin":11288,"Ġshill":11289,"ĠNine":11290,"ĠRich":11291,"ĠJr":11292,"ĠJung":11293,"ĠFree":11294,"ĠFreedom":11295,"ĠEVER":11296,"ounded":11297,"Ġwhereas":11298,"ĠWeener":11299,"Ġproport":11300,"Ġintent":11301,"angled":11302,"Ġunfortun":11303,"Ġchef":11304,"Ġactors":11305,"inton":11306,"intend":11307,"Ġcriter":11308,"Ġdram":11309,"Ġcomposed":11310,"Ġsupplies":11311,"Ġreduce":11312,"Ġhates":11313,"Ġbats":11314,"Ġcutie":11315,"Ġaccused":11316,"etera":11317,"Ġlandl":11318,"Ġbowls":11319,"Ġclassic":11320,"Ġstarfish":11321,"ĠAnyone":11322,"ĠPerfect":11323,"Ġ75":11324,"ĠâĢĺ_":11325,"Ġ1986":11326,"Ġinformed":11327,"ĠCommun":11328,"ĠĠĠĠĠĠĠĠĠĠĠĠĠĠĠĠĠĠĠĠĠĠĠĠ":11329,"ĠCHAR":11330,"Ġclubs":11331,"Ġ1930":11332,"Ġaccounts":11333,"ĠFreder":11334,"ĠBeautiful":11335,"ĠBatman":11336,"ĠBatala":11337,"Ġsuspected":11338,"ĠWoody":11339,"Ġstruggling":11340,"Ġporcup":11341,"Ġconvince":11342,"ergus":11343,"Ġdeeper":11344,"Ġrotten":11345,"ĠObviously":11346,"Guess":11347,"Ġcontrolled":11348,"levant":11349,"ĠPLAY":11350,"Ġcolleagues":11351,"ĠInspector":11352,"Ind":11353,"Per":11354,"UE":11355,"bits":11356,"bread":11357,"borough":11358,"sa":11359,"sen":11360,"Ġtatt":11361,"Ġwolves":11362,"Ġsip":11363,"rem":11364,"Ġoak":11365,"Ġbaking":11366,"Ġhip":11367,"asped":11368,"atter":11369,"ĠTisha":11370,"Ġweep":11371,"ĠAmb":11372,"ĠMall":11373,"Ġrehe":11374,"Ġreun":11375,"ĠHood":11376,"Ġwhilst":11377,"Ġabuse":11378,"Ġrushing":11379,"Ġclerk":11380,"Ġ(,":11381,"Ġelim":11382,"Ġelsewhere":11383,"Ġcatal":11384,"Ġballer":11385,"Ġslim":11386,"Ġcontri":11387,"Ġphrase":11388,"ĠPlus":11389,"Ġsquares":11390,"ĠLooking":11391,"ieth":11392,"Ġpassenger":11393,"Ġtrim":11394,"Ġcapacity":11395,"Ġbands":11396,"ificent":11397,"Ġimagined":11398,"ICH":11399,"Ġvalentine":11400,"Ġcrept":11401,"Ġpreparing":11402,"Ġtort":11403,"break":11404,"Ġvolunt":11405,"Ġstepping":11406,"ĠCourse":11407,"ĠTurkey":11408,"Ġmurderer":11409,"ĠBertha":11410,"ĠApparently":11411,"Ġmerrygor":11412,"ĠJudge":11413,"Ġmethods":11414,"Ġpollution":11415,"Ġpissed":11416,"ĠFreud":11417,"Ġcigarettes":11418,"Ġexperiences":11419,"ĠFederal":11420,"ĠClifford":11421,"Ġpermanent":11422,"Ġmarvellous":11423,"ĠWrestling":11424,"Ġaggressive":11425,"emetery":11426,"Ġmerrygoround":11427,"BLE":11428,"DY":11429,"Mom":11430,"cano":11431,"did":11432,"every":11433,"gi":11434,"good":11435,"his":11436,"long":11437,"your":11438,"Ġ/":11439,"Ġq":11440,"Ġtact":11441,"Ġwisdom":11442,"itable":11443,"Ġdah":11444,"Ġpies":11445,"Ġpunk":11446,"Ġhehe":11447,"ĠTot":11448,"ĠTob":11449,"Ġisol":11450,"ĠMP":11451,"Ġretain":11452,"ĠHm":11453,"chuckles":11454,"ĠCry":11455,"Ġsolemn":11456,"ĠDot":11457,"ĠDaff":11458,"Ġshiver":11459,"ĠNiger":11460,"ĠPur":11461,"ĠPost":11462,"Ġfrown":11463,"ulu":11464,"oline":11465,"ĠFergus":11466,"Ġdowntown":11467,"ĠKer":11468,"ĠUse":11469,"Ġswept":11470,"Ġpartly":11471,"Ġhopped":11472,"Ġleopard":11473,"ĠInside":11474,"ĠIntern":11475,"pson":11476,"Ġgrain":11477,"Ġresident":11478,"Ġeater":11479,"ivated":11480,"maid":11481,"ERING":11482,"Ġmissile":11483,"Ġpays":11484,"Ġcleaner":11485,"Ġripe":11486,"ĠZe":11487,"Ġrefres":11488,"Ġadding":11489,"Ġowls":11490,"Ġroller":11491,"ORT":11492,"Ġ185":11493,"ĠHarvard":11494,"Ġtowers":11495,"THE":11496,"196":11497,"guard":11498,"Ġ1976":11499,"Ġblankie":11500,"ĠNorway":11501,"Ġdeveloping":11502,"ippi":11503,"Ġissued":11504,"Ġexcitedly":11505,"ĠPoland":11506,"Exactly":11507,"Ġautumn":11508,"Ġcasual":11509,"Ġregional":11510,"ĠSeriously":11511,"ĠChant":11512,"IRL":11513,"Ġidentity":11514,"Ġidentified":11515,"Ġmurders":11516,"ĠBerlin":11517,"Ġassistance":11518,"Ġconcentrate":11519,"Ġoccupied":11520,"Ġliberty":11521,"Ġmushrooms":11522,"ĠCastle":11523,"Ġchampionship":11524,"ĠRanworth":11525,"Ġbronze":11526,"ocracy":11527,"Ġexplanation":11528,"pherd":11529,"ĠIraq":11530,"Car":11531,"IP":11532,"aired":11533,"cellent":11534,"hill":11535,"Ġeter":11536,"Ġwitches":11537,"Ġbah":11538,"Ġdat":11539,"Ġdared":11540,"Ġment":11541,"Ġmast":11542,"ĠTs":11543,"ĠAle":11544,"ĠAuthor":11545,"icians":11546,"ĠSend":11547,"ĠWat":11548,"Ġgoats":11549,"state":11550,"ĠCAR":11551,"Ġjer":11552,"ifically":11553,"cks":11554,"ĠPH":11555,"igers":11556,"Ġtheme":11557,"ainted":11558,"ĠJilly":11559,"ĠFarm":11560,"Ġerase":11561,"Ġcoord":11562,"Ġcones":11563,"Ġneedn":11564,"ĠKhan":11565,"Ġreads":11566,"Ġkinderg":11567,"Ġgram":11568,"Ġprick":11569,"iper":11570,"izard":11571,"Ġleaning":11572,"ĠVill":11573,"yees":11574,"Ġraw":11575,"Ġdrums":11576,"ĠErica":11577,"Ġresign":11578,"Ġresolution":11579,"ĠIsa":11580,"Ġgloom":11581,"Ġguessed":11582,"awk":11583,"Ġgreet":11584,"Ġwarrant":11585,"ĠAsia":11586,"Ġblueberry":11587,"Ġsqueez":11588,"Ġfella":11589,"Ġresting":11590,"anya":11591,"Ġfactor":11592,"Ġtrips":11593,"Ġdefin":11594,"Ġplanets":11595,"Ġhumble":11596,"Ġswims":11597,"LLY":11598,"Ġsatell":11599,"ĠGrant":11600,"ĠGrange":11601,"ĠMeg":11602,"Ã©e":11603,"Ġpeasants":11604,"Ġ1989":11605,"Ġapproaching":11606,"ambled":11607,"Ġexception":11608,"Ġmeantime":11609,"Ġscrewed":11610,"Ġseesaw":11611,"Ġjudges":11612,"Ġvideos":11613,"Ġroughly":11614,"Ġnurses":11615,"Ġweakness":11616,"Ġforgiven":11617,"Ġtexture":11618,"Ġassociation":11619,"ĠRegion":11620,"Ġconclusion":11621,"ĠWhether":11622,"Ġtutor":11623,"leenex":11624,"Ġincreasing":11625,"Ġfascinating":11626,"Ġvitamins":11627,"Ġexpedition":11628,"Ġemployees":11629,"ĠStephanie":11630,"Ġinhabitants":11631,".)":11632,"WH":11633,"YS":11634,"top":11635,"Ã¢":11636,"Ġâ":11637,"Ġtee":11638,"Ġwret":11639,"Ġwages":11640,"Ġwives":11641,"hara":11642,"Ġbage":11643,"Ġbreeze":11644,"Ġfans":11645,"Ġfeared":11646,"Ġtoler":11647,"Ġgrie":11648,"ankee":11649,"Ġlugg":11650,"Ġpans":11651,"esar":11652,"ĠAC":11653,"iche":11654,"ĠMans":11655,"Ġrect":11656,"ĠWOULD":11657,"iro":11658,"Ġliver":11659,"Ġstair":11660,"ĠHomer":11661,"chi":11662,"ĠChat":11663,"ĠCad":11664,"ĠCivil":11665,"eller":11666,"ĠLO":11667,"ĠLead":11668,"Ġplum":11669,"ĠNeed":11670,"ĠRand":11671,"ĠRemy":11672,"olph":11673,"ĠForm":11674,"ĠEthel":11675,"akh":11676,"Ġmakeup":11677,"hies":11678,"Ġconver":11679,"issippi":11680,"ixon":11681,"Ġunderwater":11682,"ĠValley":11683,"Ġmini":11684,"Ġcolon":11685,"Ġmathemat":11686,"Ġguessing":11687,"Ġbathing":11688,"ĠAlas":11689,"ĠJustice":11690,"Ġeighth":11691,"Ġinvasion":11692,"Ġinvitation":11693,"Ġaccomm":11694,"shot":11695,"Ġfights":11696,"Ġbargain":11697,"ĠHarold":11698,"Ġinsist":11699,"duction":11700,"Ġpeasant":11701,"Ġrecovered":11702,"ĠBarney":11703,"iversary":11704,"Ġformal":11705,"Ġprovision":11706,"Ġloudly":11707,"Ġprotected":11708,"Ġapproved":11709,"Ġ1977":11710,"ĠNeil":11711,"Ġburger":11712,"ĠCole":11713,"Ġlieutenant":11714,"Ġvanished":11715,"Ġpunished":11716,"Ġscratched":11717,"Ġexisting":11718,"Ġsurvived":11719,"Ġattempted":11720,"Ġangels":11721,"Ġdespair":11722,"quarium":11723,"Ġadvertising":11724,"Ġswallowed":11725,"Ã³n":11726,"Ġaxe":11727,"OUND":11728,"ĠTabitha":11729,"Ġexplosion":11730,"Ġinspired":11731,"ĠParalympics":11732,"ĠPierre":11733,"ĠLaurie":11734,"ĠColorado":11735,"ĠJeremy":11736,"Ġhospitals":11737,"ĠMoscow":11738,"Ġunfortunate":11739,"Ġaccommod":11740,"26":11741,"AK":11742,"TO":11743,"TY":11744,"cca":11745,"jan":11746,"sl":11747,"uki":11748,"Åį":11749,"Ġtro":11750,"Ġsighed":11751,"Ġbol":11752,"Ġcurs":11753,"Ġfert":11754,"Ġpaws":11755,"orpor":11756,"enn":11757,"arc":11758,"ĠAG":11759,"ĠBuck":11760,"ĠBax":11761,"ĠBrand":11762,"ĠSever":11763,"ĠMort":11764,"verty":11765,"adle":11766,"Ġstall":11767,"ĠNort":11768,"ĠGas":11769,"Ġrats":11770,"ĠRi":11771,"ulting":11772,"resp":11773,"Ġvirgin":11774,"Ġselect":11775,"ouses":11776,"ĠOhh":11777,"Ġflap":11778,"Ġflats":11779,"uddy":11780,"eases":11781,"ressing":11782,"ĠVeg":11783,"Ġdischar":11784,"Ġacad":11785,"Ġgravy":11786,"Ġowns":11787,"Ġglow":11788,"Ġrelation":11789,"Ġmarbles":11790,"arson":11791,"Ġjuicy":11792,"ĠGoodnight":11793,"Ġtaping":11794,"Ġregiment":11795,"ĠClass":11796,"Ġdrawers":11797,"Ġentry":11798,"Ġconscience":11799,"izzie":11800,"Ġsuburb":11801,"Ġbusinesses":11802,"Ġbusinessman":11803,"zech":11804,"Ġinsisted":11805,"ĠSeems":11806,"Ġinclined":11807,"Ġcurls":11808,"Ġsuperior":11809,"Ġcopies":11810,"ĠBoys":11811,"ĠQuiet":11812,"Ġdetect":11813,"ĠWarren":11814,"hearted":11815,"Ġpillows":11816,"ĠMcK":11817,"Ġhunter":11818,"Ġvolcano":11819,"Ġtraveling":11820,"Ġportion":11821,"Ġseparated":11822,"Stop":11823,"Ġurged":11824,"Ġprinted":11825,"Ġattracted":11826,"Ġfantasy":11827,"Ġgroceries":11828,"Ġracco":11829,"Ġvessels":11830,"Ġscholars":11831,"Ġawarded":11832,"Ġannoying":11833,"Ġninth":11834,"ĠBrig":11835,"Ġaccompan":11836,"Ġkilomet":11837,"Ġtrembling":11838,"ĠRussell":11839,"Ġtemporary":11840,"Ġtrumpet":11841,"Ġlookee":11842,"Ġapron":11843,"Ġporcupine":11844,"from":11845,"kets":11846,"tan":11847,"itated":11848,"Ġceased":11849,"ĠID":11850,"Ġgem":11851,"only":11852,"Ġlumber":11853,"Ġheh":11854,"ayed":11855,"atically":11856,"ĠBand":11857,"ĠMinnie":11858,"Ġreb":11859,"ali":11860,"Ġstim":11861,"ĠHob":11862,"ĠHope":11863,"Ġknitting":11864,"ĠCOULD":11865,"illed":11866,"ĠLex":11867,"Ġsoci":11868,"rav":11869,"oples":11870,"Ġalien":11871,"ĠEva":11872,"istinct":11873,"Ġera":11874,"Ġcoinc":11875,"Ġtheirs":11876,"Ġworker":11877,"ĠThird":11878,"Ġthrust":11879,"Ġhanding":11880,"Ġswitched":11881,"Ġgracious":11882,"---":11883,"ĠStat":11884,"ubby":11885,"pture":11886,"Ġacce":11887,"Ġmatt":11888,"ĠIsab":11889,"âĻ«":11890,"Ġsnort":11891,"ERY":11892,"ĠPlano":11893,"Ġsidewalk":11894,"Ġinvisible":11895,"Ġrivers":11896,"Ġpaints":11897,"ANS":11898,"swer":11899,"shirt":11900,"Ġcoward":11901,"Ġdisturbed":11902,"Ġassured":11903,"Ġconfession":11904,"Ġ43":11905,"ARS":11906,"ĠBlake":11907,"ĠExp":11908,"Ġvisitor":11909,"Ġpositions":11910,"Ġattacking":11911,"Ġ1981":11912,"Ġ1983":11913,"Ġsuperhero":11914,"ĠBoard":11915,"Ġburp":11916,"Ġsexy":11917,"Ġfortnight":11918,"Ġ1940":11919,"ĠCouldn":11920,"Ġblessed":11921,"ĠTyre":11922,"Ġbehavi":11923,"ĠKathy":11924,"Ġtenth":11925,"castle":11926,"Ġshadows":11927,"ĠRocky":11928,"Ġdetermine":11929,"ĠFarmer":11930,"Ġautomobile":11931,"ĠHungry":11932,"ĠFifty":11933,"Ġinternal":11934,"Ġdismiss":11935,"ĠFROM":11936,"Ġfrosting":11937,"Ġjeans":11938,"ĠHollywood":11939,"Ġblonde":11940,"Ġignorant":11941,"Ġtacos":11942,"Ġinterrupted":11943,"ĠRaggedy":11944,"ĠDexter":11945,"Ġsearched":11946,"ĠBaaee":11947,"Ġmicrowave":11948,"Ġcuriosity":11949,"?âĢĻ":11950,"ACE":11951,"gic":11952,"lah":11953,"Ãª":11954,"Ġaquarium":11955,"Ġoy":11956,"ĠIvan":11957,"Ġtoot":11958,"onn":11959,"Ġpac":11960,"orable":11961,"atched":11962,"ĠAff":11963,"ĠHur":11964,"ĠHumpty":11965,"amps":11966,"ĠCzech":11967,"ĠLiz":11968,"urches":11969,"ĠDark":11970,"ĠGri":11971,"about":11972,"ige":11973,"ĠJunior":11974,"Ġclo":11975,"Ġvest":11976,"Ġovernight":11977,"Ġpeppers":11978,"Ġcaring":11979,"Ġshares":11980,"ĠSta":11981,"Ġwax":11982,"cover":11983,"ĠVien":11984,"Ġrains":11985,"Ġslipper":11986,"Ġcrush":11987,"Ġstrings":11988,"Ġhopeless":11989,"Ġpasses":11990,"ebook":11991,"Ġreporter":11992,"sels":11993,"Ġinfection":11994,"Ġassign":11995,"ruit":11996,"Ġexplod":11997,"Ġpromotion":11998,"Ġquestioned":11999,"Ġoffices":12000,"ĠSharon":12001,"ĠLeices":12002,"Ġtails":12003,"Ġcracked":12004,"lett":12005,"Ġapproval":12006,"Ġdivide":12007,"Ġdestruction":12008,"ĠWHEN":12009,"ĠSyl":12010,"Ġencoun":12011,"Ġrepresenting":12012,"Ġactivist":12013,"ĠDora":12014,"vereign":12015,"Ġsucks":12016,"ĠHampshire":12017,"Ġcolours":12018,"Ġheavens":12019,"ĠSlow":12020,"ĠCambridge":12021,"Ġfocused":12022,"Ġdenied":12023,"Ġsneakers":12024,"Ġgraduate":12025,"ĠBasil":12026,"Ġliberal":12027,"Ġdivorced":12028,"Ġgazed":12029,"ĠVanessa":12030,"Ġgerms":12031,"Ġadopt":12032,"ĠPotter":12033,"Ġfrequently":12034,"ĠMuhammad":12035,"ĠFriends":12036,"Ġinsects":12037,"Ġbumblebee":12038,"Ġasshole":12039,"Ġearthquake":12040,"Leave":12041,"ĠDaffodil":12042,"Ġkindergarten":12043,"Ġluggage":12044,"De":12045,"First":12046,"RAT":12047,"URE":12048,"jack":12049,"mers":12050,"mates":12051,"master":12052,"wind":12053,"Â¶":12054,"Ġsed":12055,"real":12056,"Ġtherap":12057,"Ġfries":12058,"Ġtops":12059,"anie":12060,"anne":12061,"Ġlane":12062,"Ġnavy":12063,"Ġnerve":12064,"eness":12065,"Ġinject":12066,"ido":12067,"ĠTree":12068,"ĠAEW":12069,"icit":12070,"ĠBav":12071,"ldom":12072,"ĠScience":12073,"ĠMuch":12074,"ĠMiffy":12075,"Ġstake":12076,"eered":12077,"Ġnotebook":12078,"chio":12079,"ĠCous":12080,"Ġjazz":12081,"ustomed":12082,"unty":12083,"ĠOllie":12084,"ĠGRE":12085,"Ġramp":12086,"Ġcomed":12087,"Ġcomic":12088,"eman":12089,"resents":12090,"Ġvital":12091,"Ġagents":12092,"Ġlogs":12093,"erent":12094,"ĠKaz":12095,"Ġsmashed":12096,"iah":12097,"ĠWhit":12098,"Ġmustache":12099,"Ġmonitor":12100,"ĠBridge":12101,"Ġcontext":12102,"ĠMarion":12103,"Ġpresum":12104,"Ġmouths":12105,"Ġhalfway":12106,"Ġinvented":12107,"OUS":12108,"Ġpainful":12109,"ĠMississippi":12110,"Ġrepresents":12111,"Ġmagical":12112,"Ġplanes":12113,"Ġclimbs":12114,"Ġcurly":12115,"Ġpracticing":12116,"Ġ1961":12117,"Ġ1966":12118,"Ġdisappointment":12119,"ĠCoff":12120,"Ġlifting":12121,"ĠMarty":12122,"ĠGotta":12123,"ĠMcG":12124,"Ġchases":12125,"Ġphotographer":12126,"Ġrepresentative":12127,"ĠOlivia":12128,"Ġversus":12129,"Ġurban":12130,"ĠWalt":12131,"Ġimmense":12132,"Ġregarding":12133,"Ġchapter":12134,"ĠRamsey":12135,"Ġmulti":12136,"ĠLawrence":12137,"Ġbiscuit":12138,"Ġrhythm":12139,"Ġexperienced":12140,"ĠCraig":12141,"ĠHuman":12142,"ĠEsther":12143,"Ġjewelry":12144,"Ġexhausted":12145,"Ġcrunchy":12146,"Ġadministrative":12147,"ĠGreece":12148,"Ġstroller":12149,"24":12150,"FL":12151,"France":12152,"IES":12153,"equ":12154,"nest":12155,"vous":12156,"why":12157,"wife":12158,"Ġtil":12159,"Ġtum":12160,"Ġwig":12161,"Ġdug":12162,"Ġcass":12163,"Ġniece":12164,"omy":12165,"owa":12166,"Ġofthe":12167,"ases":12168,"ĠTak":12169,"icip":12170,"uther":12171,"ĠMick":12172,"ĠWOMAN":12173,"Ġseeking":12174,"Ġupd":12175,"Ġshone":12176,"ĠNations":12177,"ĠNative":12178,"ĠNope":12179,"ĠOre":12180,"ĠOper":12181,"ĠGene":12182,"Ġspear":12183,"ardo":12184,"ometer":12185,"Ġexists":12186,"Ġexhib":12187,"Ġeraser":12188,"Ġcarries":12189,"ĠThought":12190,"Ġelbow":12191,"Ġswung":12192,"ĠStri":12193,"Ġunpl":12194,"Ġcheat":12195,"Ġbadge":12196,"ĠTHINK":12197,"Ġmovements":12198,"ampa":12199,"Ġaccord":12200,"headed":12201,"Ġentering":12202,"Ġtribe":12203,"ĠGetting":12204,"Ġprizes":12205,"Ġsubstant":12206,"Ġvisible":12207,"Ġbowling":12208,"ĠTrump":12209,"Ġstarving":12210,"ĠGranny":12211,"Ġprotecting":12212,"Ġconcerns":12213,"Ġanniversary":12214,"ĠCommon":12215,"Ġoperated":12216,"Ġcreation":12217,"Ġjudgment":12218,"Ġbullets":12219,"Ġreminded":12220,"Ġborrowed":12221,"Ġmerrily":12222,"ĠFreddy":12223,"Ġopportun":12224,"OSE":12225,"Ġbikes":12226,"Ġfunding":12227,"Ġtearing":12228,"Ġfirmly":12229,"Ġepisodes":12230,"ĠGOING":12231,"Ġadvertis":12232,"Ġmortgage":12233,"Ġwrestling":12234,"Ġcontrary":12235,"ĠCorny":12236,"ĠJoshua":12237,"Ġfisherman":12238,"Ġapplause":12239,"Ġhippopotamus":12240,"AH":12241,"Me":12242,"bot":12243,"cu":12244,"called":12245,"nat":12246,"nold":12247,"Ġ:":12248,"Ġvel":12249,"Ġsought":12250,"Ġsank":12251,"iti":12252,"Ġdashed":12253,"Ġcudd":12254,"Ġfer":12255,"Ġgut":12256,"Ġnuh":12257,"encing":12258,"encies":12259,"arro":12260,"ĠTour":12261,"Ġ\"\"":12262,"ĠMoom":12263,"Ġrend":12264,"Ġstare":12265,"ĠHorn":12266,"steps":12267,"ĠLine":12268,"ĠDee":12269,"ĠNon":12270,"ĠOp":12271,"Ġric":12272,"ĠFBI":12273,"...!":12274,"Ġbacks":12275,"icken":12276,"Ġvoy":12277,"Ġselection":12278,"aga":12279,"Ġprey":12280,"Ġguid":12281,"Ġleash":12282,"eye":12283,"Ġcatches":12284,"Ġunderwear":12285,"ĠInf":12286,"avin":12287,"Ġadapt":12288,"Ġcradle":12289,"ĠSamuel":12290,"Ġowners":12291,"Ġendea":12292,"ĠBrid":12293,"ĠMarvel":12294,"Ġsurve":12295,"Ġskipped":12296,"Ġembr":12297,"Ġindign":12298,"Ġsincere":12299,"Ġreflected":12300,"Ġchicks":12301,"Ġdipl":12302,"Ġdealt":12303,"Ġclassical":12304,"Ġedition":12305,"Ġseated":12306,"ĠJennie":12307,"olley":12308,"minals":12309,"Ġadvis":12310,"Ġoccasions":12311,"Ġcontrols":12312,"Ġharvest":12313,"Ġ1971":12314,"ĠBroad":12315,"Ġoperations":12316,"Ġprivile":12317,"cutive":12318,"Ġtends":12319,"Ġpresidential":12320,"Ġblessing":12321,"Ġhyp":12322,"ĠGraham":12323,"Ġislands":12324,"OST":12325,"Ġimmig":12326,"Ġremembers":12327,"ĠDenise":12328,"ĠPalest":12329,"ĠMurray":12330,"Ġaeropl":12331,"Ġmuttered":12332,"Ġfacility":12333,"Ġteeny":12334,"ĠSEE":12335,"Ġpretzels":12336,"Ġpurchase":12337,"Ġwidow":12338,"Ġscooter":12339,"Ġbulb":12340,"Ġspaceship":12341,"Ġsurgeon":12342,"ĠScientists":12343,"Ġmattress":12344,"ĠTyrese":12345,"ĠMoomoo":12346,"70":12347,"Bill":12348,"CO":12349,"Tilda":12350,"bies":12351,"ikes":12352,"nan":12353,"rine":12354,"rating":12355,"shire":12356,"via":12357,"Äĩ":12358,"Ġven":12359,"Ġwink":12360,"Ġbass":12361,"Ġdash":12362,"Ġgap":12363,"Ġnerves":12364,"Ġheap":12365,"Ġdove":12366,"ĠTal":12367,"ĠToy":12368,"leans":12369,"ĠBeen":12370,"ĠBurt":12371,"ĠMUSIC":12372,"ĠWee":12373,"ĠWERE":12374,"Ġliking":12375,"Ġsty":12376,"ĠCri":12377,"ĠCir":12378,"ĠLock":12379,"Ġsole":12380,"unes":12381,"Ġshif":12382,"ĠGus":12383,"ĠGall":12384,"?\",":12385,"ĠFa":12386,"ĠFall":12387,"ĠEllen":12388,"ĠAnderson":12389,"Ġvoted":12390,"Ġerror":12391,"Ġovercome":12392,"Ġlod":12393,"Ġsections":12394,"ĠKam":12395,"Ġpeoples":12396,"Ġbrushing":12397,"Ġcarp":12398,"Ġbully":12399,"Ġhandker":12400,"Ġflames":12401,"Ġscul":12402,"Ġunp":12403,"Ġcheered":12404,"ggs":12405,"Ġcolumn":12406,"Ġhath":12407,"ĠMars":12408,"Ġ38":12409,"ĠShin":12410,"ĠArts":12411,"ĠDean":12412,"Ġsoftware":12413,"Ġvisual":12414,"ORY":12415,"ĠIndepend":12416,"Ġcloses":12417,"Ġtowels":12418,"iami":12419,"ĠXV":12420,"Ġabsence":12421,"ĠAmong":12422,"Ġapprox":12423,"OWN":12424,"Ġrubbing":12425,"Ġfooling":12426,"ĠMcDonald":12427,"Ġregularly":12428,"ĠCorps":12429,"ĠPariset":12430,"Ġemployed":12431,"ĠMiles":12432,"Ġcontained":12433,"Ġseals":12434,"Ġinvestigate":12435,"ĠEllis":12436,"Ġintellect":12437,"Ġbleed":12438,"Ġessential":12439,"Ġautomatic":12440,"ĠEgyptian":12441,"Ġembarrassing":12442,"piece":12443,"ĠCOVID":12444,"Ġchemical":12445,"ĠCONT":12446,"Ġinterfere":12447,"Ġbetrayed":12448,"ĠPersonal":12449,"ĠPublic":12450,"Ġvirus":12451,"ĠStuart":12452,"ĠVincent":12453,"ĠMeanwhile":12454,"Ġcelery":12455,"Ġantenna":12456,"VD":12457,"ht":12458,"know":12459,"lan":12460,"lar":12461,"rin":12462,"ĠâĻ«":12463,"Ġae":12464,"Ġaha":12465,"rell":12466,"Ġtox":12467,"Ġls":12468,"Ġlined":12469,"Ġnort":12470,"Ġthro":12471,"Ġhack":12472,"armed":12473,"ĠTanya":12474,"usalem":12475,"ĠAbby":12476,"ĠAvenue":12477,"ĠSlo":12478,"ĠMos":12479,"ĠMeet":12480,"Ġrejo":12481,"Ġreception":12482,"ĠHills":12483,"Ġwhore":12484,"star":12485,"cht":12486,"ĠCR":12487,"ĠCrow":12488,"ĠLilly":12489,"Ġsolo":12490,"ĠDian":12491,"ĠGhost":12492,"ĠPad":12493,"Ġalter":12494,"Ġtrot":12495,"oused":12496,"Ġcoke":12497,"Ġquote":12498,"oolaid":12499,"assy":12500,"Ġcattle":12501,"actory":12502,"ĠAnswer":12503,"Ġcheated":12504,"ciples":12505,"Ġimages":12506,"Ġraz":12507,"Ġdifferences":12508,"Ġbeam":12509,"Ġhotdog":12510,"ouncer":12511,"Ġunderstands":12512,"Ġblueberries":12513,"prints":12514,"rete":12515,"Ġ33":12516,"Ġobed":12517,"Ġdrawings":12518,"ĠEngine":12519,"ĠAfghan":12520,"Ġcooler":12521,"Ġagenda":12522,"Ġgrounds":12523,"REE":12524,"Ġnapkins":12525,"Ġrecognition":12526,"Ġmailbox":12527,"Ġrubbed":12528,"Ġmembership":12529,"Ġ1947":12530,"Ġcommonly":12531,"Ġbossy":12532,"Ġpiles":12533,"Ġpurposes":12534,"Ġcollecting":12535,"ĠApple":12536,"Ġhamburg":12537,"ĠDennis":12538,"ĠDeputy":12539,"ĠShouldn":12540,"ĠMetropolitan":12541,"Ġinquired":12542,"ĠCleve":12543,"Ġsemi":12544,"Ġcitizen":12545,"ĠHotel":12546,"Ġconstitu":12547,"ĠForest":12548,"Ġcommitment":12549,"ĠNaomi":12550,"Ġsympathy":12551,"Ġphase":12552,"titles":12553,"ĠObserver":12554,"Ġdisgrace":12555,"Ġballerina":12556,"Ġhandkerchief":12557,"99":12558,"Child":12559,"DO":12560,"New":12561,"cia":12562,"cont":12563,"mighty":12564,"pat":12565,"uke":12566,"zie":12567,"Ã£":12568,"Ã¸":12569,"Ġawards":12570,"Ġwob":12571,"Ġwider":12572,"inch":12573,"Ġsust":12574,"Ġcure":12575,"Ġlas":12576,"orld":12577,"orous":12578,"Ġhic":12579,"usions":12580,"Ġbegg":12581,"ĠBurg":12582,"ĠBann":12583,"ĠMuseum":12584,"Ġrebu":12585,"Ġec":12586,"outheast":12587,"alp":12588,"ĠHart":12589,"Ġcanvas":12590,"Ġsauc":12591,"ĠYa":12592,"ĠCart":12593,"ĠCouncillor":12594,"ĠLam":12595,"ĠGame":12596,"abama":12597,"Ġvet":12598,"Ġexcess":12599,"Ġovers":12600,"hman":12601,"Ġdaylight":12602,"Ġflute":12603,"Ġpoverty":12604,"Ġswamp":12605,"Ġscrap":12606,"ĠStation":12607,"ĠStella":12608,"Ġwah":12609,"Ġprote":12610,"uding":12611,"Ġchess":12612,"Ġadorable":12613,"Ġpermit":12614,"class":12615,"Ġglanced":12616,"Ġglobal":12617,"Ġhatch":12618,"Ġskating":12619,"Ġkills":12620,"eeds":12621,"Ġworrying":12622,"lington":12623,"Ġawa":12624,"ĠChap":12625,"Ġinstantly":12626,"Ġtriumph":12627,"Ġtrend":12628,"Ġmetres":12629,"Ġassess":12630,"ĠWillie":12631,"ĠAhh":12632,"Ġgenerations":12633,"Ġpromises":12634,"ĠChef":12635,"ĠWasn":12636,"ĠJuan":12637,"Ġcampus":12638,"Ġbeats":12639,"Ġmixing":12640,"Ġsplashed":12641,"Ġcope":12642,"ĠPaula":12643,"Ġ1963":12644,"ĠCoast":12645,"EAD":12646,"Ġ1951":12647,"ĠReport":12648,"Ġ1931":12649,"ĠKenny":12650,"Ġgallant":12651,"ĠBravo":12652,"Ġplainly":12653,"ĠBelieve":12654,"ĠHamilton":12655,"Ġprints":12656,"Choo":12657,"ĠCamer":12658,"Ġbriefly":12659,"Ġincredibly":12660,"Ġdeny":12661,"Ġliterature":12662,"ĠPeters":12663,"ĠBreak":12664,"ĠDunno":12665,"Ġacquaint":12666,"ĠHeart":12667,"ĠVictoria":12668,"Ġgathering":12669,"Ġrelatively":12670,"Ġresistance":12671,"Ġwhoosh":12672,"Ġrenew":12673,"ĠSOMETHING":12674,"Ġscattered":12675,"ĠUkraine":12676,"Ġwithdraw":12677,"ĠArgentina":12678,"Ġinterpret":12679,"Ġmaximum":12680,"Ġorganizations":12681,"ĠNicole":12682,"ĠChantilly":12683,"Ġaccompanied":12684,"ĠVienna":12685,"ĠCousin":12686,",,":12687,"Deal":12688,"NE":12689,"Never":12690,"bat":12691,"ju":12692,"loy":12693,"rane":12694,"somet":12695,"would":12696,"Ġties":12697,"inse":12698,"inals":12699,"inated":12700,"hai":12701,"Ġdart":12702,"Ġdots":12703,"Ġmash":12704,"Ġmoose":12705,"isp":12706,"Ġpail":12707,"Ġpeak":12708,"Ġponies":12709,"Ġnations":12710,"esy":12711,"Ġheel":12712,"Ġweeds":12713,"Ġkoolaid":12714,"ĠSign":12715,"ĠSik":12716,"riot":12717,"sem":12718,"ĠMerry":12719,"ĠMiami":12720,"ĠWha":12721,"ĠWally":12722,"adise":12723,"ĠHoo":12724,"Ġkneel":12725,"roit":12726,"Ġnoses":12727,"ĠLin":12728,"ĠDig":12729,"Ġneut":12730,"ĠGIRL":12731,"ĠPE":12732,"ĠPy":12733,"ĠPap":12734,"ourn":12735,"ĠRoc":12736,"ĠRangers":12737,"ĠEp":12738,"Ġtwin":12739,"Ġtwig":12740,"Ġclapping":12741,"Ġpreviously":12742,"Ġbuggy":12743,"Ġshakes":12744,"Ġflea":12745,"Ġlotion":12746,"easant":12747,"Ġunb":12748,"Ġcrooked":12749,"Ġteapot":12750,"Ġfinishing":12751,"Ġcolony":12752,"tainment":12753,"Ġeleg":12754,"Ġdoorway":12755,"Ġbattles":12756,"Ġmarching":12757,"Ġemperor":12758,"Ġpiggies":12759,"Ġreform":12760,"ĠAdm":12761,"Ġ184":12762,"Ġ##":12763,"ĠHarrison":12764,"ĠGran":12765,"ĠLeft":12766,"ĠPrice":12767,"umbers":12768,"Ġvend":12769,"Ġpressing":12770,"ĠPeggy":12771,"Ġhaste":12772,"Ġsolved":12773,"Ġtightly":12774,"Ġpanel":12775,"Ġcombat":12776,"AYS":12777,"Ġmisunder":12778,"Ġspecifically":12779,"ĠSurely":12780,"Ġmarketing":12781,"Ġbumpy":12782,"Ġwhack":12783,"Ġfemales":12784,"Ġemployer":12785,"ĠHighness":12786,"ĠLovely":12787,"Ġroutine":12788,"Ġopposition":12789,"ĠMarcus":12790,"Ġmagnificent":12791,"Ġmelon":12792,"Ġmelted":12793,"ĠMurphy":12794,"ĠJerusalem":12795,"Ġgravely":12796,"Ġinitially":12797,"Ġfacilities":12798,"Ġprimarily":12799,"Ġadministration":12800,"ĠChampionships":12801,"Ġtransferred":12802,"Ġnickname":12803,"ĠBelgium":12804,"ĠColumbia":12805,"Ġprefers":12806,"Ġcompassion":12807,"Ġconvenient":12808,"ĠWhiskers":12809,"Ġregistered":12810,"parents":12811,"Ġsteadily":12812,"ĠGwen":12813,"Ġprosper":12814,"Ġsymptoms":12815,"Ġeyebrows":12816,"Ġnumerous":12817,"Ġentitled":12818,"Ġcriteria":12819,"lahoma":12820,"\").":12821,"IX":12822,"Ne":12823,"Pro":12824,"chen":12825,"nine":12826,"scream":12827,"thi":12828,"wing":12829,"wait":12830,"whel":12831,"held":12832,"Ġware":12833,"Ġdict":12834,"Ġmales":12835,"Ġcinem":12836,"isk":12837,"isure":12838,"Ġfe":12839,"Ġfishi":12840,"inge":12841,"onent":12842,"Ġporn":12843,"ĠBR":12844,"ĠBless":12845,"ĠSin":12846,"ĠSex":12847,"irs":12848,"Ġstor":12849,"ĠLass":12850,"unton":12851,"Ġups":12852,"raham":12853,"ĠGay":12854,"ĠGulf":12855,"ĠPoo":12856,"ĠRh":12857,"ĠRound":12858,"ĠRud":12859,"ĠJoo":12860,"olo":12861,"ĠFestival":12862,"elope":12863,"Ġboards":12864,"Ġclam":12865,"Ġseldom":12866,"Ġbloss":12867,"Ġumhum":12868,"eren":12869,"ĠKi":12870,"Ġhopping":12871,"active":12872,"Ġnevertheless":12873,"people":12874,"Ġrake":12875,"Ġrape":12876,"Ġslides":12877,"henomen":12878,"Ġkeeper":12879,"Ġcrank":12880,"Ġdrowned":12881,"Ġdisgu":12882,"ĠIslands":12883,"Ġcourts":12884,"Ġfarms":12885,"Ġdripped":12886,"Ġreliable":12887,"ĠAlabama":12888,"onto":12889,"Ġfiremen":12890,"Ġlighted":12891,"Ġwinding":12892,"Ġ34":12893,"Ġhorrid":12894,"tenance":12895,"Ġrefuge":12896,"Ġgrowled":12897,"Ġsyrup":12898,"Ġsentences":12899,"Ġexpense":12900,"elson":12901,"ĠOrleans":12902,"Ġsupposedly":12903,"ĠShawn":12904,"Ġcoverage":12905,"Ġsilk":12906,"Ġpacking":12907,"Ġ1975":12908,"Ġhastily":12909,"Ġ1965":12910,"Ġdifficulties":12911,"Ġ1958":12912,"Ġ1959":12913,"Ġeducated":12914,"IDS":12915,"Ġdiscussing":12916,"Ġfloors":12917,"ĠSpani":12918,"Ġdemands":12919,"Ġrarely":12920,"ĠLastname":12921,"ĠCaroline":12922,"ALLY":12923,"ĠOlympic":12924,"ĠHungary":12925,"ĠTrevor":12926,"Ġexecuted":12927,"Ġconceal":12928,"Ġrobbery":12929,"Ġemotional":12930,"Ġolives":12931,"ĠBusiness":12932,"Ġensure":12933,"Ġsouls":12934,"Ġcategory":12935,"Ġimprison":12936,"ĠPittsburgh":12937,"ĠNottingham":12938,"ĠToby":12939,"Ġraccoon":12940,"Ġhamburgers":12941,"35":12942,"Aw":12943,"Com":12944,"EO":12945,"Gas":12946,"With":12947,"dr":12948,"jac":12949,"oa":12950,"poon":12951,"rous":12952,"rise":12953,"tin":12954,"Ġiv":12955,"Ġbuh":12956,"Ġborders":12957,"Ġdynam":12958,"Ġdynasty":12959,"Ġcuc":12960,"erving":12961,"ĠIrene":12962,"Ġfestival":12963,"Ġlin":12964,"Ġpins":12965,"Ġpairs":12966,"otes":12967,"ĠTro":12968,"ĠBor":12969,"ĠBac":12970,"ĠBACK":12971,"Ġkit":12972,"ĠSunny":12973,"rik":12974,"ĠMade":12975,"Ġreass":12976,"Ġmend":12977,"also":12978,"acco":12979,"Ġsafer":12980,"ĠYES":12981,"ĠCob":12982,"ĠNear":12983,"ĠNah":12984,"ĠPack":12985,"ĠRow":12986,"ĠJun":12987,"ĠFE":12988,"ĠEun":12989,"Ġspiders":12990,"Ġboing":12991,"Ġtwisted":12992,"Ġvolley":12993,"Ġoffers":12994,"ante":12995,"Ġrobe":12996,"agu":12997,"ĠKit":12998,"Ġpeg":12999,"Ġpeck":13000,"Ġdeed":13001,"Ġpoly":13002,"Ġchill":13003,"Ġchurches":13004,"actus":13005,"ĠYesterday":13006,"Ġsliding":13007,"ĠAlt":13008,"Ġmars":13009,"Ġzone":13010,"aza":13011,"Ġaccustomed":13012,"Ġregions":13013,"Ġfollowers":13014,"Ġbeautifully":13015,"Ġsunset":13016,"Ġtribes":13017,"Ġbehold":13018,"ĠDevelop":13019,"Ġassass":13020,"Ġconfusing":13021,"Ġexposed":13022,"Ġexpenses":13023,"Ġpromoted":13024,"Ġrecover":13025,"Ġfairies":13026,"ĠAbd":13027,"Ġorganize":13028,"Ġsolic":13029,"Ġcombined":13030,"Ġspotted":13031,"Ġfearful":13032,"Ġprivacy":13033,"Ġspells":13034,"Ġ1956":13035,"Ġ1942":13036,"ĠCarlos":13037,"Ġweary":13038,"Ġeducational":13039,"ĠDaven":13040,"Ġstirred":13041,"Ġscaring":13042,"Ġsouthwestern":13043,"Ġpunish":13044,"Ġpitter":13045,"Ġheroes":13046,"Ġtitles":13047,"ĠJillian":13048,"ĠOklahoma":13049,"ĠWILL":13050,"Grandpa":13051,"Ġrestaurants":13052,"washer":13053,"donald":13054,"ĠStanley":13055,"Ġachieved":13056,"Ġwiping":13057,"Ġpriority":13058,"Ġconsultation":13059,"Ġinstruments":13060,"Ġpupils":13061,"Ġfabric":13062,"ĠTWO":13063,"ĠPortugal":13064,"Ġdeposit":13065,"ĠPacific":13066,"Ġagricultural":13067,"timore":13068,"ĠEVERY":13069,"Ġrehears":13070,"Ġbehaviour":13071,"Ġopportunities":13072,"Ġrazor":13073,"90":13074,"From":13075,"La":13076,"din":13077,"fashion":13078,"lad":13079,"maker":13080,"oes":13081,"rants":13082,"Ġou":13083,"Ġshan":13084,"Ġbureau":13085,"Ġmi":13086,"eries":13087,"ĠIV":13088,"Ġgroom":13089,"anim":13090,"orters":13091,"Ġthump":13092,"ashi":13093,"ĠTill":13094,"icals":13095,"uter":13096,"ĠBirth":13097,"ĠSax":13098,"Ġrevers":13099,"Ġmeets":13100,"ĠWilly":13101,"Ġstated":13102,"Ġgover":13103,"amation":13104,"stance":13105,"ĠLas":13106,"ĠLil":13107,"ĠLizzie":13108,"ĠDur":13109,"ĠDeep":13110,"ĠDouble":13111,"ĠPress":13112,"ĠPRO":13113,"igi":13114,"ulating":13115,"ĠFinn":13116,"ĠExt":13117,"Ġsponge":13118,"osure":13119,"icking":13120,"Ġboiled":13121,"Ġtwinkle":13122,"ortion":13123,"Ġtroop":13124,"ucks":13125,"Ġbrut":13126,"assador":13127,"Ġunbelievable":13128,"coat":13129,"Ġremembering":13130,"oster":13131,"Ġfinest":13132,"Ġcompare":13133,"axy":13134,"Ġsergeant":13135,"ogne":13136,"Ġattic":13137,"eaking":13138,"Ġsingles":13139,"Ġsmallest":13140,"Ġbelief":13141,"ĠPlace":13142,"Ġrestored":13143,"Ġindic":13144,"Ġranks":13145,"ĠShort":13146,"Ġcharm":13147,"ĠZach":13148,"Ġfactors":13149,"Ġcowboys":13150,"Ġ2024":13151,"Ġconspir":13152,"Ġassets":13153,"toe":13154,"Ġ48":13155,"ONNA":13156,"Ġcenturies":13157,"Ġparlor":13158,"atural":13159,"Ġmaintenance":13160,"ĠPerri":13161,"Ġpeacock":13162,"ASE":13163,"Ġmixer":13164,"Ġsupporting":13165,"Ġ1964":13166,"Ġbrig":13167,"Ġtricked":13168,"Ġavo":13169,"Ġ1957":13170,"Ġdevoted":13171,"Ġ1933":13172,"CHUCK":13173,"Ġmeasured":13174,"Ġcellar":13175,"Ġpaintings":13176,"Ġetcetera":13177,"adesh":13178,"ĠBeach":13179,"Ġopinions":13180,"Ġscratchy":13181,"Ġconvicted":13182,"Ġdelivering":13183,"Ġuncertain":13184,"Ġpaused":13185,"Ġqualified":13186,"Ġconcentration":13187,"Ġcoughing":13188,"Ġlandscape":13189,"Ġbombs":13190,"ĠDefinitely":13191,"Ġcreepy":13192,"Ġspanking":13193,"Ġencouraged":13194,"ĠAlfred":13195,"Ġfrustrated":13196,"Ġkidnapped":13197,"Ġanalysis":13198,"Ġtackle":13199,"Ġdisagree":13200,"Ġwarrior":13201,"Ġsituations":13202,"ĠTemple":13203,"ĠFrosty":13204,"Ġmunicipalities":13205,"ĠPromise":13206,"Ġsatellite":13207,"ĠStaunton":13208,"ĠCleveland":13209,"Ġfishies":13210,"Was":13211,"hind":13212,"jab":13213,"laughs":13214,"power":13215,"uv":13216,"uine":13217,"Äģ":13218,"Ġti":13219,"Ġtigers":13220,"inations":13221,"Ġsib":13222,"Ġoath":13223,"Ġlime":13224,"Ġpand":13225,"Ġpoodle":13226,"Ġpipes":13227,"ooke":13228,"icon":13229,"Ġbegging":13230,"ĠBul":13231,"ĠSort":13232,"Ġrebell":13233,"ĠWan":13234,"ader":13235,"Ġstoop":13236,"ĠLance":13237,"Ġsoaked":13238,"ĠOak":13239,"ĠGy":13240,"ĠGem":13241,"abet":13242,"ĠPear":13243,"ĠJump":13244,"ulars":13245,"ĠFur":13246,"ĠFitz":13247,"astics":13248,"Ġvic":13249,"Ġoverwhel":13250,"agi":13251,"eyed":13252,"izer":13253,"Ġnewly":13254,"Ġunions":13255,"ĠVice":13256,"oho":13257,"ubs":13258,"Ġdispl":13259,"Ġtraitor":13260,"Ġcourses":13261,"Ġmotherf":13262,"ulture":13263,"Ġuntie":13264,"Ġsweets":13265,"Ġhighchair":13266,"Ġgreenbelt":13267,"Ġgrandson":13268,"Ġtrials":13269,"Ġcape":13270,"Ġfighter":13271,"Ġdiving":13272,"Ġhonourable":13273,"ologna":13274,"Ġsatur":13275,"Ġsickness":13276,"Ġstrain":13277,"Ġsummon":13278,"Ġsends":13279,"Ġprovides":13280,"195":13281,"Ġkicks":13282,"Ġpuzzled":13283,"Ġcardboard":13284,"Ġtwelf":13285,"Ġ1952":13286,"Ġ1946":13287,"Ġsharply":13288,"Ġrevol":13289,"ĠGloria":13290,"Ġgroan":13291,"Ġmuddy":13292,"Ġemployee":13293,"Ġsurviv":13294,"Ġlicked":13295,"Ġfolded":13296,"Ġscrambled":13297,"Ġparticipate":13298,"ĠPrem":13299,"Ġliterary":13300,"Ġsqueaky":13301,"Ġchatter":13302,"Ġintroduction":13303,"market":13304,"ĠConservative":13305,"Ġresponded":13306,"Ġproceeded":13307,"Ġgaze":13308,"ĠBaltimore":13309,"Ġdeparture":13310,"Ġpoopie":13311,"Ġgoddess":13312,"Ġassumed":13313,"ĠPiggy":13314,"ĠAtlantic":13315,"ĠCaesar":13316,"SCREAM":13317,"Only":13318,"ĠRomans":13319,"Ġwebsite":13320,"Ġvolunteer":13321,"children":13322,"Ġamusement":13323,"ĠRhodes":13324,"By":13325,"Dog":13326,"Her":13327,"Miss":13328,"away":13329,"di":13330,"grand":13331,"ugged":13332,"vak":13333,"weed":13334,"Ġarose":13335,"Ġyer":13336,"Ġoats":13337,"Ġbak":13338,"Ġbunk":13339,"Ġmand":13340,"isle":13341,"ĠIron":13342,"ĠIllustr":13343,"oning":13344,"Ġpulse":13345,"Ġphenomen":13346,"Ġnan":13347,"atures":13348,"Ġdoin":13349,"ĠTu":13350,"ichi":13351,"ĠSet":13352,"ĠMAY":13353,"Ġego":13354,"iral":13355,"ĠHulk":13356,"allel":13357,"amon":13358,"Ġwhir":13359,"ĠLim":13360,"Ġshorter":13361,"ĠNy":13362,"ĠGosh":13363,"Ġraced":13364,"ĠPoll":13365,"Ġorphan":13366,"ĠRey":13367,"estion":13368,"asting":13369,"Ġclar":13370,"Ġveter":13371,"ĠSheriff":13372,"hibit":13373,"Ġconvent":13374,"Ġneedles":13375,"ĠKath":13376,"easel":13377,"Ġflung":13378,"udi":13379,"Ġchains":13380,"Ġunsc":13381,"Ġleisure":13382,"Ġcheep":13383,"ĠVERY":13384,"uffs":13385,"Ġfounder":13386,"Ġlisted":13387,"Ġrecon":13388,"Ġrecycle":13389,"ĠMargie":13390,"ĠUnfortunately":13391,"Ġreluct":13392,"Ġattach":13393,"Ġphoned":13394,"Ġskate":13395,"Ġ37":13396,"Ġducky":13397,"Ġtaped":13398,"ĠChristine":13399,"ĠClay":13400,"ANCE":13401,"ĠHermit":13402,"Ġarmour":13403,"Ġrecovery":13404,"Ġsmelled":13405,"Ġcriminals":13406,"Ġwhoopsie":13407,"Ġsails":13408,"anguage":13409,"Ġcamer":13410,"Ġquarrel":13411,"Ġvalues":13412,"ĠWHY":13413,"Ġ1948":13414,"Ġ1939":13415,"Ġcompetitive":13416,"Ġaccidentally":13417,"Ġscratching":13418,"Ġanticip":13419,"Ġlimits":13420,"Ġgradually":13421,"Ġsenses":13422,"Ġexisted":13423,"ĠQueens":13424,"Ġcommanded":13425,"Ġexercises":13426,"ĠGabe":13427,"Ġutmost":13428,"Ġauntie":13429,"Ġwonders":13430,"Ġrented":13431,"Ġpreferred":13432,"Ã¡n":13433,"ĠNicky":13434,"Ġbonus":13435,"Ġinjuries":13436,"Ġrescued":13437,"Ġexecution":13438,"ĠKentucky":13439,"Ġvoting":13440,"Ġmerchant":13441,"ĠWalker":13442,"cellor":13443,"ĠIslamic":13444,"ĠEntertainment":13445,"ĠCommissioner":13446,"Ġappetite":13447,"Ġtropical":13448,"ĠLeicester":13449,"ĠBavaria":13450,"Ġaeroplane":13451,"Children":13452,"ĠBannister":13453,"semble":13454,"fashioned":13455,"TV":13456,"Tr":13457,"TON":13458,"daughter":13459,"graph":13460,"hot":13461,"iens":13462,"lest":13463,"mind":13464,"oly":13465,"vals":13466,"zip":13467,"Ãĸ":13468,"ĶĢ":13469,"Ġtink":13470,"Ġapt":13471,"Ġsire":13472,"itus":13473,"Ġbung":13474,"Ġmeter":13475,"Ġcube":13476,"Ġfres":13477,"Ġfitting":13478,"Ġfishes":13479,"antern":13480,"Ġpier":13481,"Ġhamm":13482,"aro":13483,"usk":13484,"ĠAst":13485,"ĠAge":13486,"ĠAisl":13487,"ĠBast":13488,"ĠBren":13489,"ĠSum":13490,"ĠMas":13491,"ĠMoses":13492,"ĠWard":13493,"ĠHAD":13494,"Ġcanal":13495,"Ġwhining":13496,"ells":13497,"ĠLore":13498,"ĠLanc":13499,"ĠDumpty":13500,"Ġshoo":13501,"Ġshrie":13502,"ĠNad":13503,"ĠNelson":13504,"ĠOi":13505,"ĠOVER":13506,"iege":13507,"ĠGonna":13508,"ĠPil":13509,"ctic":13510,"iga":13511,"ulum":13512,"ĠFri":13513,"ĠFab":13514,"ĠEnt":13515,"osis":13516,"Ġbacked":13517,"Ġexceed":13518,"apore":13519,"Ġarrows":13520,"Ġblade":13521,"agan":13522,"thod":13523,"Ġsmash":13524,"Ġsmugg":13525,"ĠStra":13526,"Ġprett":13527,"Ġcran":13528,"Ġrealistic":13529,"Ġcolonel":13530,"ĠAllison":13531,"ĠMario":13532,"Ġdripping":13533,"Ġindicate":13534,"Ġpassport":13535,"Ġspecially":13536,"Ġpenis":13537,"Ġdistress":13538,"necess":13539,"Ġperfume":13540,"Ġsentenced":13541,"Ġcomplained":13542,"Ġtelephones":13543,"ARY":13544,"Ġsnail":13545,"ORN":13546,"Ġdarker":13547,"ĠSeuss":13548,"ĠElaine":13549,"ĠColomb":13550,"ASS":13551,"Ġabsurd":13552,"Ġmixture":13553,"ĠAbraham":13554,"Ġcondem":13555,"Ġ1974":13556,"ĠOFF":13557,"chester":13558,"ĠMartha":13559,"ĠCHE":13560,"Ġ1943":13561,"ĠSmall":13562,"Ġ1935":13563,"Ġearliest":13564,"Isn":13565,"ĠOlive":13566,"Ġtechnique":13567,"Ġflags":13568,"Ġspinach":13569,"Ġverse":13570,"Ġparticipated":13571,"ĠTechn":13572,"Ġirrit":13573,"Ġslapped":13574,"ĠDarwin":13575,"Ġnomination":13576,"ĠTreas":13577,"Ġannoyed":13578,"Ġventure":13579,"Ġunfair":13580,"Which":13581,"Ġscrape":13582,"Ġpopsicle":13583,"ĠOrigin":13584,"Ġutterly":13585,"Ġdeserted":13586,"ĠPhilippines":13587,"ĠFrederick":13588,"ĠVegas":13589,"Ġvoyage":13590,"ĠAislinn":13591,"\"),":13592,"eur":13593,"fare":13594,"mat":13595,"nity":13596,"vate":13597,"zona":13598,"Ãº":13599,"Ġbumps":13600,"Ġmr":13601,"Ġmead":13602,"Ġfain":13603,"Ġfoss":13604,"Ġlitt":13605,"oral":13606,"Ġhaul":13607,"Ġwelf":13608,"ĠBureau":13609,"Ġkar":13610,"Ġrelevant":13611,"Ġstalk":13612,"ĠCoke":13613,"ĠLive":13614,"ĠLog":13615,"ĠLiver":13616,"rained":13617,"ĠNinet":13618,"rying":13619,"ceive":13620,"Ġrinse":13621,"ĠJar":13622,"ĠFra":13623,"ĠFish":13624,"ĠEls":13625,"Ġspout":13626,"Ġcomet":13627,"âĢľ":13628,"Ġtiming":13629,"berly":13630,"Ġvow":13631,"Ġprocl":13632,"ĠKnight":13633,"ĠKids":13634,"hedral":13635,"Ġshallow":13636,"ĠUE":13637,"Ġflowing":13638,"--_":13639,"plain":13640,"aug":13641,"soever":13642,"Ġminimum":13643,"Ġchannels":13644,"Ġcomprom":13645,"Ġfoundation":13646,"ilding":13647,"ĠBruno":13648,"Ġbatt":13649,"Ġbathe":13650,"ockey":13651,"pective":13652,"ĠGodd":13653,"Ġsqueal":13654,"Ġterr":13655,"Ġhunger":13656,"Ġrival":13657,"Ġbaskets":13658,"ĠShir":13659,"Ġblocked":13660,"Ġsunflower":13661,"Ġtripped":13662,"Ġdeputy":13663,"mple":13664,"ĠMicro":13665,"Ġdivers":13666,"Ġhumili":13667,"Ġpossess":13668,"Ġpossessed":13669,"Ġextend":13670,"Ġparked":13671,"Ġformat":13672,"Ġadvoc":13673,"Ġallowance":13674,"Ġcontinuing":13675,"ricane":13676,"ĠXX":13677,"Ġcorrupt":13678,"Ġcontrovers":13679,"Ġreceip":13680,"loe":13681,"Ġdestro":13682,"Ġempire":13683,"ĠJesse":13684,"Ġ150":13685,"ITY":13686,"Ġ1938":13687,"IDE":13688,"Ġtorture":13689,"Ġhunm":13690,"Ġpercentage":13691,"ĠBetween":13692,"Ġcheerfully":13693,"Ġgenuine":13694,"flakes":13695,"Ġcrawled":13696,"Ġcustody":13697,"Ġdeclare":13698,"after":13699,"Ġobserve":13700,"Ġdishwasher":13701,"ĠSenator":13702,"Ġodds":13703,"ocratic":13704,"ĠResearch":13705,"Ġsprayed":13706,"Ġfraud":13707,"Ġwitnesses":13708,"ĠMoosh":13709,"Ġessay":13710,"Ġdistribution":13711,"ĠDetroit":13712,"ĠHungarian":13713,"Ġfussing":13714,"Ġpursue":13715,"Ġromance":13716,"Ġcomplaints":13717,"._--":13718,"Ġchemistry":13719,"ĠBangl":13720,"ĠFlossie":13721,"Ġmanufacture":13722,"Ġwealthy":13723,"Ġpreparation":13724,"Ġsuspicion":13725,"ĠMarshall":13726,"ĠRepresentatives":13727,"Ġdeliberately":13728,"Ġflexible":13729,"ĠMaurice":13730,"ĠâĶĢ":13731,"Ġwelfare":13732,"AA":13733,"MM":13734,"OCK":13735,"VEN":13736,"bag":13737,"hist":13738,"mill":13739,"mie":13740,"pow":13741,"sst":13742,"ui":13743,"xed":13744,"Ġtents":13745,"Ġau":13746,"Ġwander":13747,"Ġsins":13748,"itate":13749,"Ġbind":13750,"Ġdia":13751,"Ġcactus":13752,"Ġguts":13753,"Ġlaser":13754,"ĠAz":13755,"ĠAut":13756,"Ġwhatsoever":13757,"ĠBed":13758,"ĠBald":13759,"ĠBudd":13760,"ĠSna":13761,"ĠSaw":13762,"ĠSAY":13763,"ĠMason":13764,"Ġrely":13765,"Ġforks":13766,"Ġsample":13767,"elli":13768,"illars":13769,"nand":13770,"ĠPir":13771,"umi":13772,"ĠJa":13773,"ĠJae":13774,"elcome":13775,"Ġvague":13776,"apse":13777,"Ġerr":13778,"ĠNobbles":13779,"ĠKir":13780,"Ġbrack":13781,"Ġbrass":13782,"Ġambit":13783,"Ġsmarter":13784,"Ġchops":13785,"Ġgrind":13786,"Ġhollow":13787,"Ġunhunh":13788,"ifferent":13789,"ĠVar":13790,"inthe":13791,"Ġstrateg":13792,"ailed":13793,"Ġhardest":13794,"Ġtragedy":13795,"Ġsuppl":13796,"Ġsecondary":13797,"Ġhoriz":13798,"Ġrig":13799,"Ġregards":13800,"ĠCarle":13801,"Ġimplement":13802,"Ġdeadly":13803,"Ġcollabor":13804,"Ġ42":13805,"ĠExcellent":13806,"Ġpetrol":13807,"ĠCountry":13808,"Ġhumanity":13809,"Ġsolar":13810,"Ġelectrical":13811,"Ġspilling":13812,"Ġmeasures":13813,"Thanks":13814,"Ġvacc":13815,"Ġmodest":13816,"ĠGrab":13817,"Ġgenet":13818,"Ġ1929":13819,"Ġwounds":13820,"ĠSusie":13821,"Chuckles":13822,"Ġfolder":13823,"ĠPreviously":13824,"Ġessentially":13825,"ĠFrog":13826,"AGE":13827,"ĠRogers":13828,"Ġmaiden":13829,"Ġdepartments":13830,"Ġmechanic":13831,"Ġphilosopher":13832,"Ġcontribution":13833,"Ġphotographs":13834,"Ġconsequences":13835,"Ġcomparison":13836,"wheel":13837,"Ġwriters":13838,"Ġcushion":13839,"Ġacademic":13840,"Ġnuhhuh":13841,"Ġacquaintance":13842,"Found":13843,"SO":13844,"beat":13845,"bian":13846,"eh":13847,"iques":13848,"lay":13849,"liness":13850,"oen":13851,"okes":13852,"sur":13853,"uana":13854,"yan":13855,"Ġll":13856,"Ġï¿½ï¿½ï¿½":13857,"Ġshat":13858,"Ġsizes":13859,"Ġox":13860,"Ġoooo":13861,"Ġbapt":13862,"Ġdated":13863,"ndisse":13864,"Ġcul":13865,"Ġcemetery":13866,"Ġfet":13867,"Ġgest":13868,"Ġgoofy":13869,"onne":13870,"Ġpi":13871,"Ġple":13872,"Ġnun":13873,"esc":13874,"ĠTELL":13875,"ĠAhm":13876,"ĠAmber":13877,"ĠBBC":13878,"lder":13879,"ĠSoo":13880,"ĠSeat":13881,"ĠMand":13882,"ĠMonsieur":13883,"ĠMISS":13884,"ĠWAY":13885,"ĠWanna":13886,"Ġstout":13887,"Ġnotable":13888,"ĠCater":13889,"ĠLear":13890,"ĠLia":13891,"Ġplung":13892,"ĠDal":13893,"ĠOcean":13894,"acker":13895,"ĠGR":13896,"ĠGoofy":13897,"ablish":13898,"Ġfranch":13899,"ĠFanny":13900,"Ġanyways":13901,"emois":13902,"Ġtwent":13903,"Ġmanual":13904,"ĠKind":13905,"arks":13906,"Ġenjo":13907,"Ġgrasp":13908,"angles":13909,"Ġthoughtful":13910,"ĠVel":13911,"Ġslid":13912,"Ġperse":13913,"airy":13914,"pering":13915,"Ġcooks":13916,"ĠIsabel":13917,"ĠMarine":13918,"Ġpolar":13919,"Ġrelate":13920,"Ġlighting":13921,"Ġbelieving":13922,"Ġsquared":13923,"ĠWhoever":13924,"Ġgrandparents":13925,"Ġcharts":13926,"venth":13927,"Ġdefending":13928,"ĠAround":13929,"Ġdepression":13930,"Ġreflection":13931,"Ġbarber":13932,"opsy":13933,"Ġ400":13934,"Ġsubsequ":13935,"ĠComtes":13936,"Ġparticles":13937,"ĠGeography":13938,"Ġofficials":13939,"Ġlayer":13940,"Ġmotive":13941,"Ġtreating":13942,"weg":13943,"ĠCape":13944,"Ġbravely":13945,"Ġconcerning":13946,"Ġdamaged":13947,"Ġequals":13948,"Ġsuggesting":13949,"Ġestimate":13950,"Ġ1941":13951,"Ġ1949":13952,"Ġ1936":13953,"ĠCrown":13954,"ĠPolit":13955,"Ġtreasures":13956,"Ġmodels":13957,"Ġ1926":13958,"ĠSupreme":13959,"ĠHonestly":13960,"Ġstockings":13961,"ivalent":13962,"ĠMedia":13963,"Nothing":13964,"Ġrecommended":13965,"apsed":13966,"Ġindependence":13967,"Ġeldest":13968,"ĠUsually":13969,"ĠAirport":13970,"Ġbending":13971,"ĠSingapore":13972,"Ġsurrounding":13973,"Ġwandering":13974,"Ġlinked":13975,"ĠDragon":13976,"Ġranked":13977,"Ġcandidates":13978,"ĠSpeaking":13979,"ĠArizona":13980,"Ġcommunities":13981,"Ġassuming":13982,"ĠHolmes":13983,"Ġlipstick":13984,"OPLE":13985,"Ġtossed":13986,"Ġaspects":13987,"Ġsequence":13988,"Ġhobby":13989,"Ġsavage":13990,"Ġlegislation":13991,"Ġprosecut":13992,"Ġorganisation":13993,"Ġechoed":13994,"Ġsquishy":13995,"Ġmurmured":13996,"Ġunemployment":13997,"ĠStefan":13998,"Phone":13999,"ĠPLAYING":14000,"Ġrectangle":14001,"ĠSeveral":14002,"ĠCoffee":14003,"Ġendeav":14004,"ĠDiane":14005,"Ġhiccup":14006,"emoiselle":14007,".!":14008,"29":14009,"Care":14010,"IO":14011,"ZZ":14012,"bach":14013,"bling":14014,"ii":14015,"ollow":14016,"pite":14017,"wall":14018,"wig":14019,"yo":14020,"Ġtease":14021,"Ġsessions":14022,"hams":14023,"Ġmitten":14024,"Ġcease":14025,"Ġgown":14026,"Ġlakes":14027,"Ġloses":14028,"Ġnil":14029,"orf":14030,"Ġhallow":14031,"otions":14032,"ĠAway":14033,"ĠSound":14034,"ĠSang":14035,"seven":14036,"Ġeel":14037,"ĠYun":14038,"Ġaspir":14039,"ĠCou":14040,"ĠLena":14041,"Ġsod":14042,"Ġsobbed":14043,"Ġsovereign":14044,"ifier":14045,"ĠDOWN":14046,"ĠOUR":14047,"cker":14048,"ĠGONNA":14049,"ĠPush":14050,"igo":14051,"igen":14052,"ĠJi":14053,"ĠElect":14054,"Ġbackward":14055,"Ġcomin":14056,"Ġvul":14057,"ĠWeb":14058,"Ġmode":14059,"agen":14060,"agine":14061,"ĠKings":14062,"ĠUH":14063,"pling":14064,"Ġchaps":14065,"Ġunited":14066,"Ġunnecess":14067,"ĠInn":14068,"Ġperceived":14069,"Ġcompens":14070,"Ġresear":14071,"zzy":14072,"iva":14073,"ĠBron":14074,"ĠBrooke":14075,"Ġcontem":14076,"Ġmilit":14077,"ĠBecca":14078,"Ġsorta":14079,"Ġsketch":14080,"Ġmarvel":14081,"ĠChile":14082,"ĠMaya":14083,"Ġdesired":14084,"Ġlively":14085,"Ġworldwide":14086,"Ġrestless":14087,"Ġduckies":14088,"INGING":14089,"Ġtomb":14090,"Ġaccidents":14091,"Ġheartily":14092,"Ġstrongest":14093,"Ġsignature":14094,"ATTER":14095,"Ġbarbec":14096,"Ġpriests":14097,"Ġcountryside":14098,"Ġsalty":14099,"Ġsubway":14100,"Ġsentiment":14101,"Ġhumor":14102,"ĠCompl":14103,"Ġdealer":14104,"Ġ55":14105,"Ġsnapped":14106,"Ġevac":14107,"Ġlunchtime":14108,"ENCE":14109,"ĠOKAY":14110,"ĠTwel":14111,"ĠBaron":14112,"Ġ65":14113,"RET":14114,"Ġadvise":14115,"Ġcorre":14116,"ĠChester":14117,"Ġgarlic":14118,"Ġgoldfish":14119,"ĠConway":14120,"ĠConstant":14121,"Ġproperties":14122,"ĠRico":14123,"ĠMinistry":14124,"Ġtravels":14125,"ishman":14126,"ĠCatal":14127,"Ġrelationships":14128,"Ġanxiously":14129,"Ġslightest":14130,"Ġignored":14131,"Ġlicking":14132,"Ġsources":14133,"Ġmamm":14134,"Ġreferring":14135,"sembled":14136,"Ġearnest":14137,"ĠBooboo":14138,"ĠUnderstand":14139,"Ġprevented":14140,"Ġpredict":14141,"ĠHorse":14142,"Ġcomplaining":14143,"Ġsteward":14144,"ĠBrazilian":14145,"Ġencouraging":14146,"smith":14147,"ĠCopy":14148,"Ġtanks":14149,"ĠMamma":14150,"ĠCOMP":14151,"ATHER":14152,"ĠContinues":14153,"Ġvirtually":14154,"Ġconducted":14155,"Ġcertific":14156,"Ġgravity":14157,"Ġdignity":14158,"Ġclinic":14159,"ĠInternet":14160,"Ġdefinition":14161,"Ġunpleasant":14162,"ĠLiverpool":14163,"ĠUEFA":14164,"ĠComtesse":14165,"BA":14166,"Qu":14167,"Two":14168,"crow":14169,"fr":14170,"folk":14171,"lene":14172,"run":14173,"tree":14174,"Ġwakes":14175,"Ġbait":14176,"Ġdice":14177,"Ġdwar":14178,"Ġmous":14179,"Ġcycl":14180,"ĠIowa":14181,"Ġfest":14182,"Ġtock":14183,"Ġles":14184,"Ġlent":14185,"Ġnav":14186,"oration":14187,"ĠTigger":14188,"ĠAbb":14189,"ĠBL":14190,"ĠBam":14191,"Ġko":14192,"ĠMig":14193,"ĠWWE":14194,"acting":14195,"acement":14196,"Ġcancel":14197,"Ġassembly":14198,"ĠCurt":14199,"ĠLots":14200,"urai":14201,"ĠDucky":14202,"term":14203,"inks":14204,"ĠNed":14205,"ĠPed":14206,"uman":14207,"ules":14208,"ĠFL":14209,"ĠFe":14210,"ĠEag":14211,"ĠEconom":14212,"ested":14213,"Ġvamp":14214,"Ġerrand":14215,"Ġoverboard":14216,"Ġcarrier":14217,"Ġhandful":14218,"Ġflows":14219,"ĠStew":14220,"anging":14221,"resses":14222,"avan":14223,"ĠVI":14224,"ĠĠĠĠĠ":14225,"Ġfinance":14226,"Ġcompre":14227,"Ġmates":14228,"innamon":14229,"Ġdeserves":14230,"Ġrestore":14231,"Ġindul":14232,"Ġindian":14233,"Ġindicated":14234,"Ġsaddle":14235,"ĠClar":14236,"ĠNewman":14237,"ĠEngl":14238,"ternal":14239,"Ġcrabs":14240,"Ġextract":14241,"Ġspeakers":14242,"Ġcorners":14243,"Ġswimmer":14244,"Ġdragging":14245,"atively":14246,"Ġedges":14247,"duct":14248,"ĠEdin":14249,"Ã©s":14250,"Thou":14251,"ĠManhat":14252,"Ġprovin":14253,"Ġcorresp":14254,"Ġlocker":14255,"Ġcaterpillars":14256,"ĠCommand":14257,"Ġdarn":14258,"ĠCoco":14259,"Ġdemocracy":14260,"Ġproudly":14261,"Ġjackinthe":14262,"iences":14263,"Ġarriving":14264,"achelor":14265,"Ġeffectively":14266,"Ġ1945":14267,"Ġmatching":14268,"ĠMonique":14269,"Ġproducing":14270,"Ġgallop":14271,"Ġgenus":14272,"ĠDOOR":14273,"Ġtrading":14274,"Ġperspective":14275,"Ġphysically":14276,"Ġimmort":14277,"ĠRosa":14278,"Ġcultural":14279,"Ġmelting":14280,"Ġpsychiat":14281,"ĠScotch":14282,"Ġsausages":14283,"Ġcongrat":14284,"Ġinitial":14285,"ĠSingh":14286,"Ġterrified":14287,"Ġarguments":14288,"marine":14289,"iasm":14290,"Ġraisin":14291,"Ġdisturbing":14292,"ĠAtlanta":14293,"Ġloyalty":14294,"ĠShane":14295,"ĠConference":14296,"Ġdetailed":14297,"Blue":14298,"--------------------------------":14299,"Ġsequel":14300,"Ġconsequence":14301,"Ġgingerbread":14302,"ĠWarsaw":14303,"ĠCuba":14304,"CAUSE":14305,"ĠLynn":14306,"Ġgratitude":14307,"ĠCorporation":14308,"Ġdiagnosed":14309,"Ġproportion":14310,"Ġdatab":14311,"ichever":14312,"Ġvendor":14313,"ĠDavenport":14314,"ĠBirthday":14315,"Ġcorrespond":14316,"Ġjackinthebox":14317,"\"...":14318,"Bet":14319,"Even":14320,"ILD":14321,"Le":14322,"Pe":14323,"bad":14324,"based":14325,"cH":14326,"dow":14327,"dict":14328,"fy":14329,"fly":14330,"fia":14331,"gins":14332,"jud":14333,"tÃ©":14334,"Ġaired":14335,"Ġwi":14336,"Ġlest":14337,"Ġlyr":14338,"Ġhabits":14339,"ĠTiny":14340,"Ġweed":14341,"ĠAII":14342,"ĠBase":14343,"Ġkleenex":14344,"ĠMess":14345,"ĠMak":14346,"Ġrej":14347,"alie":14348,"rock":14349,"usty":14350,"ĠLeb":14351,"Ġpled":14352,"ĠDoo":14353,"Ġallerg":14354,"Ġabilities":14355,"ĠGam":14356,"ĠPont":14357,"umsy":14358,"ĠRidge":14359,"ĠFace":14360,"ĠField":14361,"Ġworries":14362,"Ġcomma":14363,"ĠAndr":14364,"Ġmanaging":14365,"anting":14366,"Ġblaz":14367,"Ġrosy":14368,"reath":14369,"Ġreader":14370,"Ġbuys":14371,"ĠThunder":14372,"ĠUt":14373,"Ġcheque":14374,"avi":14375,"oda":14376,"ĠVic":14377,"Ġnighttime":14378,"Ġwont":14379,"Ġmines":14380,"Ġdisabled":14381,"Ġresidents":14382,"ansom":14383,"âĻªâĻª":14384,"Ġdeserved":14385,"Ġfellas":14386,"ĠChamp":14387,"Ġwindy":14388,"Ġmenu":14389,"Ġinval":14390,"Ġfishie":14391,"Ġpatting":14392,
[...]
